#include "policy_param.h"

uint32_t hidden_layers_size[3] = {48,32,24};

uint32_t weight_array[4080] = {0x3edb0824,0x3ee36079,0x3f5494a2,0x3eed154f,0xbea6547c,
0x3e408c4b,0xbf085d30,0xbea6d54b,0xbf052958,0x3ed2becb,
0x3d078634,0x3e2a69a2,0x3f01283d,0xbc476b4b,0xbe51898f,
0x3f029258,0x3f261db4,0xbf687929,0xbed38e7f,0xbf85fd7c,
0xbf170f32,0x3cdf764a,0xbf268094,0x3c6f8a7c,0xbea82a2f,
0xbd405e2f,0xbf0ad645,0xbe348b73,0x3d39c1d7,0x3f060812,
0xbe7b8400,0xbe7afb80,0x3db95dca,0x3e57e242,0x3e4014df,
0x3c8b4fa3,0x3f05eb40,0xbe9dbb2d,0x3e931b9e,0x3e906e3e,
0x3f0dbc36,0xbec679ed,0xbed9a2c5,0x3e43e7dd,0x3d2d7ccb,
0x3f2bade5,0xbd50b5b3,0x3d1a8831,0xbef05c40,0xbe82e7d6,
0x3f11e23e,0x3e810263,0xbeb2e94c,0x3e810608,0xbe2f0556,
0xbf069027,0xbefc2964,0x3ec7a9b1,0xbe7eef86,0xbe5d6277,
0x3d914dab,0xbe1c814e,0xbdca75ae,0xbe34cd51,0x3f09025a,
0x3e14ec2b,0xbeb325e8,0xbd100a96,0xbe2b65c9,0x3eb6a771,
0xbf044057,0xbe036add,0x3dee7590,0x3ecba100,0xbeecc182,
0x3dc463af,0x3e4e9fe2,0x3e731e5e,0x3e45e41b,0xbecac491,
0x3e615d3e,0xbee53765,0x3d45409b,0x3e26d1aa,0xbd9e0c47,
0xbeff8983,0xbe98f741,0x3b42d975,0xbe71c5f7,0xbd46abb8,
0x3e93c484,0xbea6985b,0xbe8d9684,0x3e11121e,0xbd945a93,
0xbe20bd0f,0x3e5c216f,0xbe199b88,0x3e76362b,0x3eaff1de,
0xbf2c5465,0x3e9ca282,0x3e453bd0,0xbed1e0a2,0xbe0c043a,
0x3c8a81cf,0xbb847f6d,0x3da4bd50,0xbe185d8b,0x3e3f270b,
0xbde011b3,0x3e737410,0x3e8bde91,0xbe377bfc,0xbd9061c1,
0xbe910373,0xbe905255,0xbc909d43,0x3e837ebc,0xbd6566ee,
0x3ce7a3af,0xbe0e26fb,0xbdb71727,0x3e9bf4ba,0xbde2cf49,
0x3e55df7d,0xbdc1e622,0x3f26e322,0x3e33fcd8,0xbe131f89,
0xbd4f03e0,0x3e8218a3,0xbdae52c8,0xbd80104e,0x3e048334,
0x3d8910ac,0x3eaa42a8,0xbdc827e1,0x3e81d4e0,0xbe1229c2,
0x3c6ca9ed,0x3e740069,0x3ec9c6c9,0x3d5756d7,0xbec0666e,
0xbd810064,0xbeaa73de,0x3d8e3c77,0x3e2316ee,0xbebe5069,
0xbee2ec57,0xbeca0f9a,0xbe206253,0x3f20837f,0x3d2ac99a,
0xbe2ad5e9,0xbe92b429,0xbdda25e7,0x3b215534,0x3b26496f,
0x3e243eee,0xbdb6fa81,0x3d6adea6,0xbe33adb1,0x3d9c95a6,
0x3eaa5728,0xbe59e080,0x3e050d72,0xbd7172ad,0xbc560f6a,
0x3e9b0462,0xbee10748,0xbe63d439,0xbcb5d68c,0xbf1192ca,
0x3dc98a54,0xbe60fe8c,0x3bcac873,0xbe04c986,0x3f0cdf56,
0xbba83c94,0xbe6d58c5,0x3e0a6391,0xbecafa79,0x3ea1838b,
0x3e89766b,0xbd8f6e64,0x3e4bfd48,0xbeca805f,0xbe4001ea,
0x3e47d0d7,0x3eacc109,0x3e37b2dd,0x3e76e63d,0x3d33bb44,
0x3d4f4b00,0xbe0aea01,0xbf1d26ef,0xbe933b7a,0x3e563c9b,
0xbe2c1b9d,0x3e9082c1,0xbd86e80d,0x3e75daa7,0x3d7d6a0b,
0xbe5ab72f,0x3e4e5bfd,0x3ee08446,0x3e85da51,0xbee38361,
0xbd5882f9,0xbdfd58c0,0xbea05870,0xbea5bdeb,0x3ee196bf,
0xbe9b027d,0xbe6f6271,0xbe425a41,0xbe39dbdb,0x3eb4e142,
0xbe90e764,0xbf12b41c,0xbe86f960,0xbecc70de,0x3d1d204c,
0x3e0c7561,0x3e268ef2,0xbed83e78,0x3e194897,0x3dc6f9c4,
0xbe6455ec,0xbde7cfe6,0x3e440b23,0x3e8c37ce,0x3e906c4a,
0x3d9de230,0xbe970885,0xbd41a509,0xbd589bc2,0xbdf5ee29,
0xbe6143cb,0x3ec38aaa,0xbde7bf54,0xbee7192e,0x3e1b84a7,
0xbeb0a5d2,0xbe290e3f,0xbd8ef241,0x3de71ab6,0x3c204c9c,
0xbc6f583c,0xbe08099e,0x3eb261e7,0xbe845ad7,0xbe013407,
0xbeccbd13,0xbe347e27,0xbd141ca3,0x3dd1546e,0x3c63f860,
0x3e0adda9,0xbe4c10bf,0xbdfa360e,0x3e168b7b,0xbd527eff,
0xbdce05cf,0x3f09be2a,0xbefc1fd4,0xbea71f0f,0xbe1ea1dd,
0xbc7c263b,0x3e6b6fe3,0x3e248422,0xbdc2780f,0x3d5a41dd,
0xbe84d167,0xbe4b2863,0xbc575626,0xbe573a97,0xbeb3ec38,
0xbd8c1923,0xbd47743d,0xbdc6b059,0x3e831265,0x3d139d6f,
0xbe479b55,0xbe4174f9,0x3db3b824,0xbe157934,0x3f1d90a6,
0x3e59e086,0xbe2c4ba0,0x3e27c118,0x3cd2a4ff,0xbe6a621a,
0x3e3f8f12,0x3eb620eb,0xbe17789e,0xbe9570bd,0x3dd0cbbe,
0xbe39ac1c,0x3e38f4ef,0xbcb08041,0xbec11ebb,0xbf0a9bb4,
0x3bd2573b,0x3e537782,0x3d2c0de8,0x3e42938c,0x3e8251ef,
0xbdb02670,0xbef05c51,0xbe055ab0,0xbd9de8bc,0x3e6774c2,
0xbf3eaaca,0xbde3ff0c,0xbe9d96bb,0xbe5ed686,0xbd3b831c,
0x3c008e0d,0x3d817ed9,0xbabe53f0,0xbd839db2,0x3e2d9f24,
0x3eb75d56,0x3e9d6854,0xbe716221,0xbe0ff8dc,0xbcee5255,
0x3ea75fe3,0xbdd6962a,0x3ed7d004,0xbe5cadfe,0x3e93d0a2,
0x3c8cf3ee,0x3e010667,0x3e8b982f,0xbed47d23,0xbeaed0e9,
0x3e2bbbf8,0xbe337f89,0x3ebc3864,0xbe24902f,0x3e9fb86f,
0xbd184a68,0xbc069eec,0x3ebe991c,0x3ebe789a,0x3e5d029c,
0x3e38400b,0xbe66379e,0xbe91a322,0xbdedf732,0x3e5bf2df,
0x3c39d475,0xbd5c8a90,0x3e600e41,0xbe22a682,0xbe923180,
0xbcb10fe1,0x3e62a3f3,0xbd803d15,0x3dc6e290,0xbea84cef,
0xbdca9dc1,0x3d590208,0x3ea0000b,0xbe97e406,0xbe5ef457,
0x3ddea271,0xbefb5180,0xb91bd749,0xbc695945,0x3d32d1b0,
0xbeea1155,0x3d48d9db,0x3e9ab30f,0xbe21e7c0,0xbe882e1b,
0x3e1b5efb,0xbe698cf0,0xbd51590b,0x3dc61d3d,0x3d65d426,
0x3e1a22d9,0xbdf2e12a,0xbd93fb52,0x3ef8166b,0x3de1cb97,
0x3f1ac312,0x3e789adb,0x3f2d1f44,0xbe573c79,0xbe2fe820,
0x3dc1c69f,0xbe656eab,0x3e3eb492,0x3e32ad45,0xbecfa479,
0xbb66ce6f,0x3f565781,0x3ecc3785,0x3f11c73d,0x3e95d21e,
0xbe0273b9,0x3e253384,0x3e04c189,0xbcd59e0f,0x3da6ce8a,
0xbe24080a,0xbe8dacd7,0xbf0b6c4e,0x3eb0b7d9,0x3eceb416,
0xbe32f227,0xbcf0514b,0x3d6a5805,0xbdc4a3f1,0x3e7d721c,
0xbdbb023a,0x3e2ffc05,0xbcfd64d3,0xbe1acba2,0xbea88699,
0x3e52c424,0x3dd0ac55,0x3ec46f2c,0xbcf75385,0xbe67cd13,
0xbdde9c10,0x3df7665f,0x3d26be05,0xbd09115b,0xbf343195,
0x3d67c5f6,0x3dea80cb,0x3eb3a9c6,0x3e569fd6,0x3e0df238,
0x3eb3626a,0x3ead339c,0xbecf1878,0x3aa800a3,0x3cf0968a,
0xbe1f3680,0xbdd57158,0xbec90a52,0xbf6b92a7,0x3d87833c,
0xbd8102d8,0x3f138edd,0x3e59940a,0xbdb078c0,0x3f3d7b6f,
0x3e940286,0x3f1222bb,0x3e8d1365,0x3e9d1e9e,0xbda0bd7d,
0xbf50cdf3,0xbe905c17,0x3ea3e76b,0xbe031bfe,0xbe703b7f,
0x3d45d70c,0xbe55850e,0xbe9ef8d5,0xbebd3025,0x3ce2a80a,
0xbd5cdff5,0xbf07c19d,0xbedf6438,0xbd5efb1d,0xbe6197b3,
0xbea7e2a1,0x3e0a21e9,0xbcf80df8,0xbead4fb0,0x3e4a8382,
0x3f345dbc,0xbfebb990,0x3e49d652,0xbf1230e6,0xbe3bb706,
0xbcb327a2,0x3d58b541,0x3f4aada6,0xbead5c73,0xbe163a8e,
0xbe53b200,0xbf167706,0xbf1dd435,0xbcf5973e,0xbe7d052c,
0x3d87fcef,0xbda3b853,0x3f25c8e7,0x3d35ccca,0x3f902c43,
0x3eb6f969,0x3dbc933e,0xbd345447,0xbe364d23,0x3ed4b3af,
0x3e82bbaf,0x3ea53dfa,0xbe44152d,0x3e818b36,0xbe2bea84,
0x3f05c2f9,0x3dbea4f8,0x3d25dc38,0xbdedce35,0xbdfc563e,
0xbe063204,0xb9811404,0x3dda76d9,0xbe0c579b,0x3d3df617,
0xbef09a83,0x3f33f769,0xbdacc97f,0x3de2e86b,0x3f0cca22,
0xbd5a905f,0x3dfc855c,0xbe8b7862,0x3f603051,0xbf35399c,
0x3f8a0067,0x400003fb,0xbfabb563,0x3d1f9262,0xbf09a00a,
0xbfa9f5cc,0xbfc8bb84,0xbe5c0205,0x40089055,0x3e6fdc1b,
0xbf8bb11a,0xbf2d108f,0xc0117b9a,0x3f0fbed5,0x3f83a003,
0xbf84eee9,0x3f9048fb,0x3d8a55aa,0xbff96a77,0x3f051d68,
0xbfd648a9,0x3f024e14,0x3edf99f4,0x3fac56d5,0xc005240a,
0xbfbd7722,0x3dec26c3,0x401ba750,0xbfe2e2bd,0xc00454c4,
0x3fb20a3a,0xbffb428d,0x407966c6,0x4000dc00,0x3fa77f89,
0xbea10c83,0x40008400,0xbd088980,0x4018ba16,0xbf0bab9e,
0xbf34f24b,0xbe9a5e71,0xbf8796f7,0x401e7e32,0xbfeff8b4,
0xbf26888a,0x3ea9e848,0x40113b6c,0x3e66c3f9,0xbf88b3d3,
0x3fcfc518,0xc05c3bf8,0x4040801b,0xbec988ba,0xbf879169,
0xbf67c431,0xbfef61a3,0x3f0fddbb,0xbef6a04e,0x407a0561,
0xbf9f320f,0xbccec74a,0xc0454944,0xbf3abf94,0xbfde063c,
0xbf9f3400,0xbf281693,0xbfdf0350,0x4024a6e2,0x3fa196ca,
0xbf96665f,0x3fcf716f,0x4021196b,0x3f6c6823,0x3f81820c,
0x401ceb39,0xbf1ee58b,0xc07a67f9,0xbf2ced85,0xbf4dc46e,
0x3fc956a2,0xc05fc1d4,0x402baf22,0x3ee42c5a,0xbf8f6a2b,
0x3fb76082,0x3e2f9980,0xbf376c07,0x3e9d318e,0x40a2c0b6,
0xc0016ef8,0x3fe82ef4,0x3eee4dcb,0xbe6d67af,0xbf184bbf,
0x3f185a6c,0x3e601246,0xbd3019ad,0x3e191d3b,0x3ef74cad,
0x3f244580,0xbe661bd2,0x3aeab7c7,0x3e6bcb9e,0x3ed15388,
0xbf038076,0x3f4a7e35,0xbe82aa6b,0x3d4e8782,0xbf9e4dae,
0xbeb8dff6,0xbed06035,0x3da3d1bc,0x3eda73e4,0x3ea891ce,
0xbea2c0c2,0x3e879e0f,0xbeec9179,0x3ed7ca17,0xbf5100ea,
0xbdf21442,0xbee3b800,0x3e8f0c83,0x3d93ca0a,0x3e095b19,
0x3e03a2fa,0xbc88ff72,0xbf3076ed,0x3ee1e76d,0x3ea2077f,
0x3deb94ae,0x3ee23b18,0xbed8392a,0x3e853639,0x3d9049bd,
0x3f429b12,0x3e06b90b,0xbe9399c7,0x3b1aad9c,0xbee76479,
0x3efac642,0x3f3d5320,0xbd3b6afb,0xbf30b8c1,0xbeb48afb,
0x3f0f8bac,0xbecdc41d,0x3f1d5b8b,0xb81e0039,0x3f8675d9,
0xbf089c11,0x3e9a829e,0x3d1e0892,0x3e04c365,0x3d4f17d3,
0xbf66a296,0xbeedbbe5,0x3f06c28f,0xbe9ead6c,0x3e00483c,
0x3f363bd3,0x3e980aba,0xbece1e42,0xbf015730,0xbd9330e6,
0xba2dfb8d,0xbde470c1,0xbf2aec70,0xbf10ec7e,0xbeeece78,
0x3d12e470,0xbe8eadb7,0x3df2eca9,0x3ec2062a,0x3e5600fd,
0x3ed724c3,0xbd7c3bd9,0x3f65cad9,0xbe2455a0,0xbc015e96,
0xbf265fc0,0x3f2d5f15,0xbe8ba982,0xbfa1c0ac,0xbf09ff46,
0xbf28eae3,0xbea18ac1,0xbc9818ba,0x3f0c9720,0x3e803a2e,
0xbb90b4cc,0x3ca09c67,0x3f125ae6,0x3ed2792e,0xbedb1165,
0x3e3cea7a,0xbf2156a9,0xbda17900,0x3e46cc31,0x3d0304b4,
0x3ec00564,0x3ea58a90,0xbf8e4769,0x3dee2572,0xbf2c8500,
0x3e82db9b,0x3e796389,0xbee93eef,0x3dd76086,0x3f2094fb,
0xbf136d14,0x3efdc67b,0xbef05c9f,0x3f34f14c,0xbe832fe2,
0x3d587440,0x3d29841f,0xbf2cb201,0x3f2192e5,0x3f81516c,
0x3f4dcc72,0x3dec756d,0x3f089db2,0xbf6f1bf3,0x3f6ae0fd,
0xbd34a1a8,0x3f41d663,0xbdcc2c57,0xbf025cad,0x3eb0180e,
0x3edf732f,0x3ee32de3,0xbda56691,0xbec8db50,0xbf188631,
0x3ec1f80d,0xbf253b51,0xbe25ef0a,0x3b9c1715,0xbec4bb6e,
0x3f47ee1d,0x3eb46b90,0xbe4572a3,0x3e061bb0,0x3e0afcb3,
0xbe6ce855,0x3c13fdbe,0xbe1125d4,0x3dd1df76,0x3f8cd23b,
0xbe85cafe,0x3dfbb306,0xbd099768,0x3d322aac,0x3d8307b0,
0x3d99f8cc,0xbe19d85e,0x3dfb797c,0xbe93dbcf,0xbf053eff,
0x3e6b0a46,0x3f545d69,0xbeab97ad,0x3efff19a,0x3cc705cd,
0xbeb80db7,0xbdcc53dc,0x3dbba1f8,0xbd99cb9a,0x3b85f109,
0x3cc9ed09,0x3f145195,0xbdbdc16c,0x3d6be54b,0x3e9a82dc,
0xbdc312d5,0x3e8a7541,0xbe5c436e,0xbe2bf56e,0x3e77e83c,
0x3ea45ac9,0xbe8423c6,0x3f7d7775,0xbed2670f,0x3e2cd419,
0xbf1e98e2,0xbfc22b4d,0xbeaa6d87,0x3f6399d5,0x3d3ea1e2,
0xbf3ef410,0xbf2893ff,0xbf683966,0xbf4ed556,0xbeca432c,
0x3e545e93,0xbe87ad0f,0x3ed1a0c1,0x3f1470f3,0x3fc67645,
0xbee5f292,0xbf9e3d96,0xbe71edfb,0x3e5328ae,0xbf937040,
0x3e95a91d,0xbd90b1f4,0x3e6817e4,0x3e49d1d7,0xbfa42247,
0x400359ac,0x3f85cffc,0xbfa57cf9,0x3ec95085,0xbeb4292e,
0x3f662963,0x3cc233ec,0xbea297c8,0x3eb78d7e,0x3e473450,
0xbe72caaf,0xbde6cab8,0xc0022ab0,0xc00b6e28,0xbf23f478,
0xbe0c6a8a,0xbe8498c9,0xbe99d4c4,0xbeaa076d,0x3f5ed185,
0xbf0c5329,0xbf56059a,0x3f71ba82,0x3fb9660b,0x400ff401,
0xbf8b9869,0x3d9fd24d,0x3f76e8d5,0xbf456d7b,0xbda6f444,
0xbdc3f260,0xbf0c2da4,0xbdeb762f,0x3f12c936,0xbff5a73e,
0x3eeda7a4,0x3f0b9404,0x3f8039f6,0xbe8f2a17,0xbfb6e10b,
0x3e874149,0x3e8e2e79,0xbbe48aef,0x3f75a509,0x3eb943b2,
0x3dfd7d44,0xbf46ff1d,0x3ecd333f,0xbea31780,0x3ea4f073,
0x3e1bcd15,0xbf5eb15d,0xbf186675,0xbf8f6420,0xbefef278,
0xbe57b9bd,0x3f8dcc59,0xbe2356da,0xbfb0f435,0xbf456512,
0x3f9b4e24,0x3ea04357,0xbfbb946a,0x3f8e3552,0x3fbd0a3f,
0xbf58efb5,0xbd8934dc,0xbf21a945,0x3f533819,0x3fe49915,
0x3ec9744c,0xbea2f020,0x3eacd9eb,0xbe235f28,0x3d246379,
0x3c9103cc,0x3e8136bb,0x3d1ca3b5,0x3dc2abad,0x3da30da5,
0xbec2bebb,0xbed6c0f1,0xbde09467,0x3d6120e2,0xbe1cc658,
0x3d65da6c,0xbdd3fd13,0xbe3c69ff,0x3de83f54,0xbe733b9d,
0xbdd42337,0x3d46b2d9,0xbd44e9aa,0xbf5a07c6,0xbe1cf0fd,
0x3ec2e623,0x3e00061f,0x3dc5b392,0xbdc5b109,0x3ea3a0c8,
0x3e08cdff,0x3dff77dd,0x3caf734b,0xbc0a89df,0x3dcc4ed6,
0xbe195e3f,0x3bfe7716,0x3d02eaf2,0xbe03345b,0xbe225641,
0xbe1d81b6,0xbe00dde4,0x3c41e6cf,0x3ef5c365,0xbdaccb6c,
0x3e0958bc,0xbbe52a20,0xbd75a0ec,0xbd3e0e30,0xbd39c6df,
0x3e4a7579,0xbe0749e7,0xbd98021d,0x3de53375,0xbea3b9c8,
0xbd394f27,0xbc224f7d,0xbe892c40,0x3daa48b0,0xbe999be3,
0xbd8e0d65,0x3e3d8cbc,0x3e9eb498,0x3de75db8,0x3d2dba79,
0xbcb2d47a,0x3debf16c,0x3dc4db29,0x3d0a091d,0xbd13d058,
0xbc3ef8fd,0xbe6bedc9,0xbdd94fe8,0xbe9eca69,0x3e8e8a9d,
0xbdb18386,0xbd472a37,0xbe1d7957,0x3e02d6ad,0xbe27701a,
0xbd686f26,0xbc2b1c10,0x3d9d189c,0x3d98265d,0xbd245cba,
0xbdd58105,0x3d9e3f1f,0xbd5b46f5,0x3dc2b607,0x3e90bd7e,
0x3e17d63b,0x3dfe6439,0xbe398334,0xbda089eb,0xbda391b3,
0x3d858010,0x3dca5ba0,0x3d3855b4,0xbe959346,0xbe7f7f72,
0x3ca376c6,0xbf2514f3,0x3e8dc25a,0x40080a07,0x3f831813,
0x3f34234f,0x3f7b27d8,0xbf822134,0xbe49f136,0xbf30ffab,
0x3f370b05,0xbf7b764f,0xbdd68cc6,0xbfc2d12e,0x3f607042,
0xbf162d18,0xbf9b9154,0x3cd97307,0x3fa58d2f,0xbf04303d,
0xbcd1630b,0xbf8666fe,0x3ee3cbb1,0xbf47b0a7,0x3f3b5f34,
0x3f94ac36,0xbe7e792d,0x3f15298c,0xbd7e803e,0x3fbd3bc9,
0xbf79d6cc,0xbf0ff8d1,0x3f394c3b,0xbef10cc7,0x3f7ac8e9,
0x3edb8c3a,0xbf5a5afd,0x3dc5dfc2,0x3c84fa28,0xbef5c8e8,
0x3fb8ba81,0xbdf1aff4,0x3e7dbbe7,0xbef99882,0x40066e23,
0xbf1c8cf5,0xbeab483e,0x3d936162,0xbe1382c9,0xbf6c6e56,
0x3f34863c,0x3fc22ef2,0x3f16de35,0x3ec41d0f,0x3d66b6eb,
0xbefdc599,0xbe2ec8fd,0xbe8e5dc7,0x3e98f7aa,0xbf11c671,
0x3c3a9fc0,0xbf935b09,0x3f4e6c97,0xbf1a5556,0xbf5f09c9,
0xbe0befc7,0x3f589434,0xbf32bbb6,0x3e9fd40c,0xbecd8599,
0x3f15a672,0xbeaf3001,0x3f0b606b,0x3f5ed7d4,0x3e5e3490,
0x3f16487a,0x3f23999c,0x3f9f55b3,0xbf904271,0xbf2cbc73,
0x3f8185b5,0xbf7f3807,0x3f0a907f,0x3e7b8c89,0xbf751a9f,
0x3e33dacf,0xbe176e67,0xbeafa12d,0x3f473ace,0x3f58ba7a,
0x3e1d5f3e,0x3d888900,0x4019fb0f,0xbec3751c,0xbea5a55f,
0xbf4b908c,0xbf31890c,0xbf420db3,0x3ef83f3a,0x3f231a3c,
0x3e3230d9,0xbf464d1b,0x3e64e349,0xbf4f6e83,0xbf22aca5,
0x3ea5cd46,0x3da2fefa,0x3e19bde9,0x3c03851a,0x3e686127,
0x3f71cb51,0xbe961654,0xbdde1121,0xbf1b70f2,0x3f24c282,
0xbefc365f,0x3d9536d1,0xbe032505,0x3ebc164b,0xbf427e1c,
0xbead4a45,0x3d79e9c4,0xbdfca7ef,0x3ec72613,0x3f4c4d70,
0xbe3b73fb,0x3d761b73,0x3e5118ef,0x3c882664,0xbe71599b,
0x3f07deac,0x3d15f7f8,0x3f3bd47a,0xbee26db1,0xbe508ffa,
0xbf1de148,0x3e1b56ed,0x3d622c12,0xbcb81a67,0x3d3ff3f0,
0x3e185a93,0xbf28565e,0xbeb45709,0xbeb96e6e,0x3e0f323d,
0x3cde5b81,0x3f8a11ea,0x3eec3707,0x3f8b3eb7,0xbfd4c970,
0xbe85da41,0xbec6bae1,0xbeeffe19,0x3ef83f55,0x3f4d4c88,
0xbe0e142a,0xbf39dd35,0xbec6063f,0x3f27a02b,0x3f591d70,
0xbe0bad32,0xbfebb344,0x3e88f742,0xbe6829e8,0xbda21f1d,
0xbf669fdb,0x3f88a296,0x3eb13d2b,0xbc950185,0xbe82ec49,
0x3f3d90c1,0x3e09d13d,0x3ed5463f,0xbc000506,0x3eed2a33,
0x3f3ad686,0x3e829320,0xbf47f9a8,0xbf2f5706,0x3f30088d,
0x3f725a9f,0xbdb6f2b9,0x3d7c6012,0x3f31e9a6,0x3eb92df9,
0x3ef468fa,0xbe78a22a,0x3d864562,0x3cc43448,0xbf270ace,
0x3ed6122b,0xbf50e8df,0xbeb8e567,0xbd2e35fe,0xbf066f38,
0x3de0c1d9,0x3f104824,0x3f4bba41,0xbdcebd0c,0xbf0eb8e0,
0x3f14bd85,0xbe923146,0xbeb952de,0x3de4964a,0x3e70f56e,
0x3f35e927,0x3d7efcf0,0x3e3d98b9,0xbc92d616,0x3edc0ff2,
0x3eaced44,0xbb1de852,0x3c4c8ea7,0x3f0afaec,0x3e7030ab,
0x3cea33ad,0xbdaf8b02,0xbea380c9,0x4013ae5a,0x3e150ac2,
0x3e83855e,0x3ce5501d,0x3db61004,0x3ec3e0ce,0x3c4b8810,
0x3ecd98e1,0xbd8f2e7c,0x3ee84b07,0x3c494e4c,0xbe05eb80,
0xbdbe78e4,0x3e2a242b,0xbe2850eb,0xbe5e1977,0x3d14d92b,
0x3dc6f97a,0xbca7bb5c,0x3e2a8914,0xbec22860,0x3e9255ea,
0xbececcff,0xbe5c7a53,0x3eeb2016,0xbbe0ebc8,0xbe2a548a,
0x3e7c728c,0x3db3c322,0xbf0c0903,0xbec4383f,0xbf874215,
0x3eeca627,0xbdc679f8,0x3d437be5,0x3d533347,0xbe0b6173,
0xbdef9f8f,0x3dcb904b,0xbeaab88a,0x3e897399,0x3ebdda7c,
0xbe773d15,0xbf463774,0x3ea717be,0xbe229c7d,0xbd8587a5,
0x3e205f29,0x3def30ae,0xbcf36d6c,0x3f5791c5,0xbc3fab38,
0xbcce2e7b,0xbf138ca5,0x3d5300f5,0xbdede098,0xbe488e20,
0xbc75af28,0xbd8d8fed,0x3dfcedf3,0x3dcdd061,0xbf1f23d8,
0xbe798747,0x3d355ca8,0xbf8f0cd5,0x3ea3359a,0xbe0c8bb9,
0x3cd7b185,0xbec2f6ca,0xbff90e96,0x3e76768a,0x3f48b56d,
0xbf09737e,0xbf4daf4b,0xbf9b906e,0x3f1dbacb,0xbf1d7d1b,
0x3ec5626c,0xbe2921a2,0xbe11d036,0xbf91e0aa,0x3f5823cb,
0x3f771a6d,0x3ec4595e,0xbf815637,0x3edc0ec4,0x3fcd935f,
0x3ea554c4,0xbfdb53cb,0x3fa1ab97,0xbefbec9b,0x3ecc490d,
0x3eb6abbe,0x3f0b7b74,0x3e972cbe,0xbee3663a,0xbdc305fb,
0x3eba4c48,0x3d56088e,0xbfb20b99,0x3f8edf20,0x3d58dd07,
0xbf1fc881,0x3fd0618c,0xbf7f11d2,0x3f72c3b4,0xbf12b1d4,
0x3eaedc5c,0xbdac0c27,0x3e899527,0xc01dcdeb,0xbdf7bc5b,
0xbd95472d,0xbea6098b,0xbfe825e7,0xbf58516c,0x3e1db45b,
0x3d030b5c,0x3d8a030b,0x3d32074c,0xbdf09681,0x3d6618a0,
0x3c1fb15d,0x3dc74123,0x3da3b86a,0x3ca6ae0c,0xbbaa02c7,
0x3d40b2de,0x3d5b4b7b,0x3ca806b1,0xbc922768,0xbd1fd675,
0x3bf6a476,0xbd89e37c,0x3b9a3974,0xbd7289d7,0xbd149f7c,
0xbeb48189,0xbcd37d7b,0xbd2a40bb,0xbd67d6cd,0xbc0d0939,
0x3a9747c9,0x3ce33ee1,0x3ceeece5,0xbce6799a,0xbdd96ea3,
0x3d0a62a8,0xbc4a8d98,0xbda36eec,0x3caff940,0x3d5e2247,
0xbcc95bc7,0xbc6afdb3,0xbd861b0c,0x3e896d0c,0xb91ac5ec,
0xbee370f6,0xbd99ccc1,0x3c91c291,0xbc9962d1,0xbc1d1035,
0xbd1a8582,0x3bcd25b7,0x3e671c6c,0xbc11be60,0x3e02d72c,
0x3d8572c1,0xbe8bac68,0x3d2ecfdb,0xbc6dac89,0x3e425a3b,
0x3d5ea8c7,0xbe849398,0xbc3195ca,0x3d93792c,0xbdd99a3b,
0x3cdd017b,0x3c9f2e62,0x3cbcf18f,0x3c905cea,0x3cc73890,
0xbced9623,0xbbc78c15,0xbc7dda41,0x3e7e5a0d,0xbc63f855,
0xbe473bed,0xbcb0db5d,0x3bbcc513,0xbd0843a1,0xbe362bab,
0xbc6d8335,0xbd75e5a1,0x3d036e6d,0x3c14dedd,0xbc955904,
0x3d167d0d,0xbc0ce03c,0xbbbe23bf,0x3d16aa0a,0xbbe2be1e,
0xbda9bee4,0x3d9fdbcd,0xbd089c73,0x3f1907a6,0x3ba66256,
0x3c4dd7a9,0xbce5fc96,0x3bdd7fea,0xbcded584,0x3c2ddace,
0xbe010c88,0x3bc65a15,0xbc42ebdc,0x3ce1a0bb,0xbdd742d3,
0x3ca0041f,0x3baf3c32,0x3cefae60,0x3d8609ec,0xbe29948b,
0x3c7728c9,0x3c26d7d7,0xbe02277e,0x3ce24932,0xbcd8ec8b,
0x3d3ce117,0x3d502211,0x3c4dc445,0x3bcef5eb,0x3cabb4aa,
0x3ad0aa0c,0x3f073e4d,0x3ca5fa73,0xbcbe6dad,0x3e18309b,
0x3c4ed010,0xbc331277,0xbb1e45a9,0x3b5548ab,0x3c4506e3,
0x3a0a70c9,0xbcdcb38e,0x3c88ed9d,0x3cf5d27f,0x3ca2f810,
0xbd97bd14,0x3c05ea96,0x3cd9e1e7,0x3d943ab3,0xbd9f706b,
0xbc4f45fe,0x3f49ad97,0xbaa96541,0xbb5cc447,0x3a5224dc,
0xbcf60864,0x3c0ac4be,0xbbbed465,0xbcf88650,0x3d08f25b,
0xbd9af498,0xbc84337b,0xbe54deff,0x3cecc8ea,0xbcff72ce,
0x3d94cfb5,0x3d91cb22,0xbdb0dca8,0x3bae4448,0xbc2f1c4e,
0x3d0ec6ea,0x3b0ea8ad,0x3be00a8e,0x3d198896,0x3c53e9a9,
0x3d3e2935,0xbcfe27a4,0xbd1df4e5,0xbc120446,0x3df72f32,
0x3c36255f,0x3c8b53a4,0x3c82f12b,0x3ba5e4e8,0x3c940fd2,
0xbe4f74ae,0x3949ddc1,0x3b8bf8ec,0xbce16a4a,0xbccc164b,
0x3cbb90be,0xbd08c1c7,0x3c31cedf,0x3b67c858,0xbbf756d5,
0x3c7ea2eb,0xbd780dbd,0x3b9b329f,0xbc00b6d2,0x3de98674,
0x3d5d65b0,0x3c917f72,0xbc18330a,0x3d15897f,0x3bc817b7,
0x3a85975f,0xbeb40e1d,0x3d91da06,0x3d5af092,0x3bd8d4e7,
0xbd68bdce,0xbab339eb,0xbd2732a1,0x3da13053,0xbd28d4c9,
0x3d01f0ad,0x3c9b9278,0x3ba4a2f4,0xbe3b6683,0x3d275299,
0x3c90fcc2,0x3c82536f,0xbd17c3eb,0xbd220d33,0x3d20ee1b,
0xbc127103,0xbca6ff6d,0x3efe415d,0xbd77bf98,0x3d705ed9,
0x3d89ca95,0x3bbbc37b,0x3c6a58d9,0x3c95075b,0xbb1912c3,
0x3d26efd6,0x3d07a335,0xbcc1856e,0xbca3f181,0x3bec8178,
0xbc74796a,0xbd588432,0x3cc14a15,0x3cc77e72,0xbd74544b,
0xbcbb12cf,0x3bccc7cf,0x3f6c45ba,0x3db09e72,0x3c842ce0,
0xbc44ef3b,0xbbdd8c17,0x3c4a68b7,0x3bc1a370,0x3df96810,
0xbbd1744e,0xbd030f4b,0x3bdb9f9e,0xbe2a375a,0xbc31b85e,
0xbd52d7c7,0xbb7592a3,0x3d6a1861,0xbe3b73d0,0xbcae30d0,
0x3ac0dba7,0x3c95d708,0x3c3b7a20,0x3d296f1e,0x3d1a5c15,
0xbb17ebcf,0x3d65312f,0x3c110596,0xbc879142,0xbb620916,
0x3da14d6a,0x3bc3f8c3,0xbb987288,0xbd99575d,0xbc6dade2,
0xbc92003c,0x3deff766,0xbb8b2980,0xbc70f1d4,0xbcc6c414,
0x3c0cfa40,0x3d1f983b,0xbd7535bc,0x3bc2c442,0x3d9ab6c2,
0x3a85ca27,0xbbc8cc87,0xbd38d739,0x3ec53fb2,0xbc113010,
0x3e0caccd,0xbcb9d413,0xbc98a8f2,0x3c03fc9a,0xbc4106f9,
0xbc3965ce,0xb9d94e30,0x3c517305,0xbd878013,0x3e436c6d,
0x3e2c22c6,0xbd876bbd,0xbdc661e6,0xbc26e99b,0x3e4502ed,
0xbe011151,0x3e57134c,0x3cec1703,0xbce185de,0x3d875fc0,
0xbe6b69e5,0xbea4d4c2,0x3cfdfe4d,0xbda2fb0c,0xbd9501ba,
0x3b8c89b1,0xbe6f8de4,0xbd17087c,0x3f3a65b2,0x3e84e5e9,
0x3da27958,0x3d9c39f5,0xbe941e15,0xbec5e3c7,0x3d60696e,
0x3e964ef0,0xbe365e67,0x3e0766ab,0x3cfbe5dd,0x3eb417db,
0x3ee65788,0xbe5074fb,0xbea23509,0x3f14804c,0x3e7a2db8,
0x3e4d6c42,0xbe8b8012,0x3ed7744f,0xbea1a426,0xbdafc3d1,
0xbe360284,0xbea38dfa,0x3cad9fec,0x3e10c070,0x3eb8a2eb,
0xbeda79a2,0x3d4bb9d8,0x3e9899f4,0xbe9f3e2f,0xbde84ee0,
0xbe23d263,0xbd54df83,0xbf3fc466,0xbdd4d694,0xbe8119ca,
0xbf0edf98,0x3e258491,0x3ef161ce,0xbda4527c,0x3e89a850,
0x3efce332,0xbe2283f7,0xba605353,0x3d684408,0xbe8f2989,
0x3cc3d11a,0x3dc96b8f,0x3e678da8,0xbe151612,0xbec3a75b,
0xbe801bdd,0x3ecaf528,0xbcf2d9e2,0x3e082fda,0x3eff04d5,
0xbf27198d,0x3e608673,0x3e173142,0x3d80798b,0x3db616e6,
0xbe51a8f2,0x3dcbbf83,0x3dc6ccbb,0x3e6fc741,0xbeb94cba,
0xbdcd1e29,0xbe2f6710,0xbcf572bb,0xbe70115c,0xbd376ffa,
0x3d4543e7,0xbd38fd20,0x3d5bc08c,0x3f029184,0x3d9c95c1,
0xbe19080a,0xbccb3d83,0xbedd8c06,0x3f25df5f,0xbe109033,
0xbf295f31,0x3d2c9603,0x3e7ff0e3,0x3ea3fba2,0xbe2da22f,
0x3e76a6b6,0x3d9baf13,0x3d033ab2,0x3e88793d,0xbd4c3561,
0x3e972969,0x3e67b4ec,0xbedc5ca0,0xbde98f81,0xbd2a8baa,
0xbe446288,0xbe267716,0xbce96b1c,0x3eb61e18,0x3d87a3be,
0xbf008aff,0xbe2a3c3a,0x3e031ecc,0x3ea6bc03,0xbe18a3b9,
0x3db54e46,0x3d97f898,0xbc33a589,0x3dcedcdc,0x3ee7b087,
0xbe14dd43,0x3e1721b4,0x3d7c3173,0x3e356a47,0xbe17d021,
0xbdfe2161,0x3b43ba4a,0x3c068597,0x3e936207,0x3e281737,
0x3d239edc,0xbe7e721e,0xbe00644b,0x3d883b44,0xbd418034,
0x3eea159a,0x3c58368a,0x3d78dc44,0x3d87c855,0xbd21989c,
0xbd069bc0,0x3ddfbddc,0xbdd1083f,0xbc391bc7,0xbe1407b9,
0x3d72fe15,0x3e0d1418,0x3eec1254,0xbddda937,0x3d1aceee,
0x3f12d2df,0x3ec49258,0x3e07f18f,0x3f2f30d2,0x3f518d98,
0xbe1ee614,0xbe22d440,0xbf270a76,0x3ca361b2,0x3e571d89,
0xbe45ad45,0x3d3f2da9,0xbec0f6b9,0x3ead123d,0x3e0b54f1,
0xbec2f554,0xbaaadce2,0x3e3762ff,0xbf85ef19,0x3dd60d3b,
0x3e00e17c,0x3cfa61e0,0xbf17c1f0,0xbe186c6f,0xbdde541b,
0x3d9f0510,0x3ef3c19e,0xbe1b6dfd,0x3f3a1b5b,0xbe4f7c21,
0xbe26348e,0x3d8fa061,0x3e4b903c,0x3eec6b2c,0xbea8c385,
0xbe615287,0xbf6dba01,0xbe939010,0xbe124fb9,0x3e46a75b,
0xbeebff70,0xbec4ecf6,0xbe3c92d2,0xbf1e5cb0,0xbeb2a9b4,
0x3d30d54b,0xbe307c88,0x3de0716a,0xbf15d2ac,0x3f16e095,
0xbeef57ec,0xbd2692d9,0x3e3ced3f,0x3e1ff841,0xbe8c0209,
0xbe6bc6fa,0xbd74ff6c,0xbf15cbec,0xbe3ac8f0,0x3e621244,
0x3eb9523d,0xbe133fe9,0xbe84dd7c,0x3deac6c5,0xbc0e7ad6,
0xbd71dcb6,0xbe1ef76f,0x3e6b79dd,0x3ece656d,0xbe08ea40,
0xbde45b97,0x3e8a04c4,0x3d90d694,0x3e84e8e1,0xbeb90651,
0xbe894120,0x3d5f27e7,0x3e7661cc,0x3daa8aef,0x3c4ed30a,
0xbe1d7d61,0xbe12b3bc,0x3f028937,0x3e3ac635,0xbe804294,
0x3e056671,0x3d88da48,0xbd43caad,0xbb82af04,0x3e6c915b,
0x3e090b3b,0xbe4ca218,0xbe095224,0xbdaf4e7d,0x3c9dd640,
0x3de351b4,0x3e57a8d0,0x3e290c8e,0xbeaca004,0xbe956c93,
0x3c1ee4af,0x3f051574,0x3e3e27ab,0xbecf3d64,0x3d420130,
0xbd8ffdf7,0xbe9f5af3,0x3eae0f2e,0x3ebb0aaf,0x3e22471e,
0xbd9efb32,0xbe6ea760,0x3edceb05,0x3e55a4e3,0x3d316d68,
0x3ec8aa7b,0x3eedfe30,0x3e3da27c,0x3dbc92be,0x3e495007,
0xbe8800d9,0x3e8f00ba,0xbd29453c,0x3c75fb1d,0x3e6c21b4,
0x3d19fd6f,0xbe6b72f8,0x3e01dac7,0xbe25825d,0xbc33a6b5,
0x3c6177a9,0x3f1ed736,0xbe9c9456,0x3f06a675,0xbe08824b,
0xbea51ddd,0xbe08e4f0,0xbd8f8d5a,0xbee6d293,0x3dd3bcef,
0xbe7adc0b,0xbed95b5c,0x3dc86faf,0x3b973473,0xbd7afaf7,
0x3d4b238e,0xbe8ce957,0x3ed8f25e,0xbe425bd4,0xbd186417,
0xbde380e8,0x3deaf444,0x3e3d2e61,0x3ca77c60,0x3da76003,
0xbdb61d28,0xbc3d2afa,0x3ea08a48,0xbd407f74,0x3e5cd159,
0xbe89dae1,0x3d4e7eae,0xbb98d866,0xbe95a02c,0xbda24a59,
0xbce857de,0xbea31e9d,0xbde3f1c1,0xbe544214,0x3cbe8a38,
0x3efc4a5d,0x3ddceabf,0x3e1c5aad,0x3eaf1ea4,0x3e5aaf3e,
0xbd960b22,0x3dee7aa0,0x3e56a243,0xbe3b8872,0x3e41d8bd,
0x3dac440a,0xbd8c2de3,0x3d356797,0xbd4391e8,0x3dcbf825,
0x3e005ffc,0x3eba4a44,0xbea1869d,0xbdecfb1b,0xbf6922cf,
0xbca48f0d,0x3dbfcbde,0x3d39a0a2,0x3ea296be,0x3d7552b9,
0xbf008b4e,0xbcfad379,0xbdf2bd59,0x3e7f4cd0,0x3e3e9469,
0xbf98ab09,0xbd368e2a,0xbe207d66,0x3e55ac85,0x3e16773c,
0xbf08fe61,0x3e1ef71f,0x3e93854c,0xbe25025a,0xbe0fb631,
0x3ec549c0,0xbdd8fd6f,0xbe247b60,0x3d869df0,0xbd21bf2e,
0x3e666f25,0x3e1a391a,0xbd9049ca,0x3e8e0d77,0x3eb662ed,
0xbecc9636,0x3e247935,0x3e3cfa2f,0xbe86a6b8,0xbdbaa44d,
0xbe2faadf,0x3e78c1c8,0x3e6cf14e,0x3f398d0a,0xbeb9796e,
0xbee438d2,0x3ea5252c,0x3e0a653e,0xbd52dde7,0xbdb56fdb,
0xbe96b765,0xbe480949,0x3ed3af14,0x3e6c646e,0xbda7e051,
0xbee2e04a,0xbe873c95,0x3e5dfe3e,0xbeae030f,0xbdddaa40,
0x3e0ed4a8,0x3ea01970,0xbe2b77cb,0xbceeeef3,0x3e8350f4,
0x3e92c094,0xbdad6b0d,0x3e19a08a,0xbe849275,0x3e705f3f,
0xbe83eb89,0xbe9ff88f,0x3de05a65,0xbc1c7d2b,0x3ec55a2c,
0xbefda0bf,0xbda201ac,0x3f1cd1d5,0x3e63639e,0xbe98de94,
0x3e32da59,0xbed4dc8f,0x3e919ec6,0x3f84d8b4,0x3f09d479,
0xbe5f77ab,0xbdfb9b8f,0xbf04ea4c,0xbf049a52,0xbe859096,
0xbe9dbae7,0xbe2b954c,0xbe7e06ec,0xbd5f8f6c,0xbe4b07c4,
0xbd92803c,0xbe90b41f,0xbf2b7741,0xbe87dd45,0xbe36cf9d,
0xbeb40680,0x3e8bbf77,0xbf76df70,0xbe5731d2,0x3dbdd652,
0xbdf30473,0x3f403d9b,0x3edf2755,0x3e4b2b88,0xbf078693,
0xbe9c339e,0x3dd7b73b,0x3d590ca7,0x3e32f920,0xbe9261f3,
0x3f5d31cf,0xbf081220,0xbed9add6,0x3ed3d16a,0x3db3c320,
0xbe348e93,0xbda2593b,0xbf13d39e,0x3dcd0b21,0xbeb72bcb,
0x3ecffd48,0xbea1783d,0xbec3a2ea,0x3e4be077,0xbe026a17,
0x3d9471c6,0x3dbe9119,0xbf2b1bdf,0x3d80531e,0x3d6488ba,
0x3ef2a673,0xbe7da70b,0x3edc2760,0x3f53d5e6,0x3e93dd08,
0x3f06075b,0x3f6778bd,0x3e3a7704,0xbea00354,0xbecdfb51,
0x3ead4868,0xbf3210af,0x3ccc384a,0xbeb9fb8f,0xbe71de93,
0xbd09121d,0x3dd997b8,0x3eb1818e,0x3f42849b,0xbe9310ab,
0x3e0af02f,0xbe90571a,0xbebaa938,0xbec929bd,0xbe8c7254,
0x3f4aec68,0xbebcb192,0x3f8e31c5,0xbe380997,0x3d7bb270,
0x3ebbdd45,0x3f30df06,0x3e056714,0xbf1b4cb0,0xbf0f0702,
0xbf50f353,0x3d0598a1,0x3e18f609,0xbebc0136,0xbef02583,
0xbcc31723,0x3f15b707,0x3f211241,0xbebe84e1,0x3dcaac3a,
0x3c8e3422,0x3e29296d,0x3f454248,0x3dae3469,0x3e9888c9,
0x3ec64902,0xbca2f91f,0xbd3a157f,0xbbb609c1,0x3e1b9a9a,
0x3dd62112,0x3dcfb4cc,0x384e6c5c,0x3eb18c94,0x3ee4cd74,
0x3e892e94,0xbdc80d18,0xbd2e8d2c,0xbe8b7e83,0x3ef9b473,
0x3e96e728,0x3efd9421,0x3ee7e89e,0x3dd22dd9,0x3ea1a4a9,
0x3f0b66d7,0x3ebd994c,0xbc843e51,0x3dd3304f,0xbd518e7d,
0xbe481853,0xbe6389ec,0x3d4b7b1d,0xbd9a45f2,0x3a4a3275,
0x3e26b92d,0xbe4d3864,0x3edb6512,0xbeacced0,0xbe40d035,
0xbe82ca3b,0xbe0fe537,0x3e1d614f,0x3e89f3d6,0xbf08487b,
0x3e7986b2,0xbdc34d8a,0xbe4b48b1,0x3e942026,0xbe9353bb,
0x3e9bac7f,0x3e054342,0x3f06d5e8,0x3e48ff38,0xbe83cec9,
0x3e011dd7,0x3e7ae1df,0x3d4b0121,0xbdd7c106,0x3eca14dc,
0xbf154055,0xbe537425,0xbf818833,0x3e81dfe5,0xbed0b158,
0x3d9db6f0,0xbef4e3b0,0xbd74dcc3,0x3e41db06,0x3d61a8c7,
0x3e8625fe,0x3d862a98,0xbecc86af,0x3ecd7249,0x3e1b41de,
0xbd2713b4,0x3e39c1db,0xbd86225f,0xbf08bedc,0xbf93cdf6,
0x3f0669c1,0x3e7a8618,0xbe738b68,0xbe8e0e21,0x3e65f293,
0xbeffa82c,0x3ca4b385,0xbe05e004,0xbdb0e8d0,0x3d99653f,
0xbe92ac4e,0xbc93adb8,0xbee58741,0x3e8975ad,0x3e35ef6f,
0xbd152b9d,0x3e9e8e7e,0xbd6f1429,0xbdb79b65,0x3d329ba2,
0xbe2a00c6,0x3e60a4e5,0xbed4bbc3,0x3e9f25a0,0x3daa249a,
0x3e67064e,0x3d04b14b,0xbdf7f4cb,0xbbbd1e3e,0xbb7b68a9,
0xbdc605d0,0x3cdb628f,0x3ec1b54c,0xbd95f16b,0xbe1d69c8,
0x3e76a05d,0x3e956c72,0xbe436840,0xbe963992,0x3ec7babf,
0x3f2faeca,0xbe870215,0xbebc4f9b,0x3f6846a4,0xbd18ca2f,
0xbf114fb8,0x3eb14518,0xbe3a3458,0x3e5d15e9,0xbee57fb2,
0xbe0f0f7c,0x3ebef31f,0x3e93a969,0xbf0e5ea2,0xbcafdfd8,
0xbf51a9f6,0x3f07bfa6,0xbe8df8f7,0xbf5bc0f4,0x3e05e64b,
0xbf4b1c4a,0x3f1f2a6d,0xbe562e22,0x3ee1e8d9,0x3ddb8194,
0x3ccadccb,0xbd237936,0x3ecf38ad,0x3de4ac50,0x3f03122c,
0xbe72a497,0x3ec08bee,0xbe9bc1e7,0xbe3060f6,0xbe067ab0,
0x3dd0eb28,0xbe0ab614,0x3e1991b8,0x3d799afb,0x3c81c97e,
0x3c496127,0xbcd52648,0xbd1cce96,0x3c785c7a,0x3ec88c42,
0x3dd69316,0xbe8bc6fd,0x3da28038,0xbdd7b00c,0x3d04c37b,
0x3da79327,0x3ec647bc,0xbee4726b,0xbc106e44,0xbd8196f2,
0x3e8c1778,0xbf3b218e,0xbf082495,0x3ce34d22,0x3ee5a991,
0x3dc38478,0xbec064a8,0x3e500467,0xbca6015f,0xbf0d34e4,
0xbe28e5f8,0xbeb419d5,0xbde21b04,0xbf42f135,0xbf2c72c0,
0x3e749dba,0x3c8bf3da,0xbddd3db1,0xbe161416,0xbd33f946,
0x3de5021c,0xbce00e9c,0xbef0938f,0x3da44bdb,0x3d0cf404,
0x3d77828b,0x3e49756a,0xbdec9e3a,0xbf2816ac,0xbcdbd603,
0x3db70997,0xbf06b1b2,0xbe258c6d,0xbe78484d,0xbcdffff7,
0xbe1da90c,0x3e5746c1,0x3e0bad73,0xbe45f465,0xbe44d02e,
0x3d3b40d5,0xbbd9a515,0x3e83047c,0x3d6783c1,0xbe910f5f,
0x3d45cca2,0xbbc7027d,0xbd953923,0x3e0849db,0x3d914c85,
0xbdd71efd,0x3ddab783,0x3e63b278,0xbe0589e6,0x3a5aba26,
0xbd24118e,0x3bffa604,0xbbb09c41,0xbe8d6a9f,0xbc4fa0ae,
0x3e521b70,0x3db01dae,0xbd9a816c,0x3e9084b9,0xbe0315d6,
0x3e98a266,0xbdf9c943,0xbd90dcf3,0x3ca702b3,0xbb790840,
0x3e961dc5,0x3f07d9cf,0xbd14b375,0xbe37b805,0xbe3f6dbb,
0xbe288810,0x3e68da2a,0x3e584d1d,0x3b8bc4e7,0xbd98852c,
0xbda962e7,0xbc41ac6e,0x3d9992b4,0xbd5f7a17,0x3eced073,
0x3d341ddb,0xbe0aa093,0xbe973e29,0x3da69354,0xbe077234,
0xbcfd02b4,0xbe28b4eb,0x3a0c42de,0xbdd02035,0xbdc7d882,
0xbf072b6f,0x3e6fc92d,0xbe9e6a2a,0x3d984ef3,0xbe20e7e2,
0x3e49f8e3,0x3e924df9,0x3f3f8dea,0x3f40bd46,0xbeb92721,
0x3e9ee7a6,0x3e9a4ab0,0x3e715252,0xbe9daefc,0xbee56c67,
0x3da55b99,0x3d11d1a6,0xbe6c615d,0xbe48325e,0x3e746939,
0xbd249e14,0xbe35d9d5,0xbe2d765f,0xbe9945f5,0xbe998180,
0x3d2f5c39,0x3ea15bc1,0xbd4e3d4b,0x3e36ff21,0xbdf0f4ff,
0xbe997e2e,0xbd01581b,0xbf1f3a53,0x3e2f9763,0x3d0fbcc4,
0xbf2d391b,0xbed78091,0x3d927c66,0xbe0bab12,0x3ea9191d,
0x3d8f2d3f,0x3f3a0b79,0x3ed98e5f,0x3dc59552,0x3b74762d,
0xbe94c6e3,0x3e00ba14,0xbee00231,0xbf396ef3,0xbe5f2f82,
0x3e262b37,0xbed50e30,0x3cd17f80,0xbea66556,0xbf7fa5c2,
0x3e08dc5e,0xbeb81dca,0x3e4222a2,0x3ef57020,0x3d69fe0a,
0x3e7d1641,0xbea4d56e,0xbe81fc88,0xbec726a4,0xbf01056a,
0xbc9e9941,0xbeb0fe12,0x3d8f4997,0x3db03311,0xbe22d7e3,
0xbe7c4683,0xbc748a6f,0xbdaaeb9f,0x3e98d8b6,0xbe9831d7,
0x3ddcda54,0x3e8c29b3,0x3e2c7057,0xbe14d03d,0x3cda4797,
0xbf077029,0x3e81709b,0xbe0cb2ad,0xbc7ef3c1,0xbe071324,
0xbd9a9313,0x3d569d67,0xbdc66f7e,0x3e04178c,0x3c4d0125,
0x3df1b5f0,0x3d7dcaac,0xbdf4f908,0xbe3f597c,0x3dbedfc0,
0xbcf46897,0xbe25f1ce,0x3d80e37b,0x3c4c511d,0xbf68f2f1,
0xbc23f63a,0x3f81734f,0x3eed5d21,0xbe84a4d0,0x3e6cdb38,
0x3e2e160e,0x3e982f57,0x3e43c7eb,0x3d89e428,0x3ef0495b,
0xbe895a86,0x3e4a7403,0xbe4e5bbd,0xbeb429c1,0xbf098317,
0xbf5bd79a,0xbe97445f,0x3d5743dc,0x3f2fd7c1,0x3eb13ccb,
0x3cf5fe8e,0x3e1fb052,0x3e88ecd3,0xbe22db89,0xbde79a59,
0xbf4a69dd,0x3e7668b1,0x3db2cfec,0xbebc35a1,0xbdd0dc89,
0xbf436eb0,0x3e15c359,0xbe8e0aad,0xbe8daa3f,0xbf46d462,
0x3a76534c,0x3bc8f6a6,0xbe855576,0xbf6fec46,0x3ec85049,
0xbead15d1,0xbde4cd66,0x3dfcfdae,0x3ea4a188,0x3f1afa1b,
0x3f0b6b39,0xbecac2a5,0x3e1f5c72,0xbe8ce58c,0xbf4abb69,
0x3e8cb24c,0x3e2e93ba,0xbeb51f8c,0xbe86e884,0xbd61d432,
0xbe4e7c61,0x3e60c14b,0xbf3d1c33,0x3f022d29,0xbd814c45,
0xbe65832d,0x3e8e5fa4,0x3e926350,0xbdffcaae,0x3e0cd80b,
0xbe97064f,0xbe27dc6e,0xbc600675,0xbd0f8d44,0x3ed00391,
0xbe44eb86,0x3e21eb34,0xbf03a16c,0x3f0dca22,0xbe904a64,
0x39050e87,0x3e1a9364,0x3e05c032,0x3ed39a7a,0x3d5ea219,
0xbd613f48,0xbe8448a3,0x3cc990a2,0xbec1e2d9,0xbdead9a1,
0x3e40784b,0x3da40f4a,0xbe9923c5,0x3be26e43,0x3e536afc,
0xbe053306,0x3aca1a6d,0xbe83bde0,0xbf0bf81a,0x3da3a8ed,
0xbecea7b9,0x3eba259f,0x3ebfa6e3,0x3e53cbbf,0xbe296e8f,
0xbca6a053,0x3f899fcd,0xbe1c5ee4,0xbe55fdee,0xbe3977a9,
0x3e9d6ab3,0xbe03b656,0x3e221312,0x3f5ff86e,0x3dca908c,
0xbe4ecc9e,0xbf1af13c,0x3e2075d3,0x3e9bb908,0xbed5821c,
0xbec4c23f,0x3dde2908,0xbd152ddd,0x3e2fb4cc,0x3cc44b8f,
0xbf3c235c,0x3f4e5eba,0xbf12ab5e,0x3eeb9acd,0x3e03e2de,
0x3f8414cb,0x3f327669,0xbe8221d4,0xbdb7c132,0xbf36a74f,
0x3e84c71a,0x3e9ef6c7,0x3ef27a05,0xbd2500de,0x3c8e77fe,
0x3eebce4b,0xbf20e1f2,0xbf203883,0xbf0d2708,0x3e874027,
0xbf540009,0x3ee508f6,0x3e268d4e,0x3eb437ab,0x3f28d08a,
0xbdf5d426,0xbed0b537,0xbd46a612,0x3f13bbe6,0x3ea4d8e7,
0xbf4df289,0x3efeb87f,0x3e9083cb,0x3da70a08,0x3dcf102b,
0x3ec404a4,0x3f0fdfe8,0x3c47e8d0,0xbe893d8f,0x3c9ad070,
0x3e24cea5,0xbdaf9a5c,0xbe7e13bf,0x3d8c8047,0xbe007d79,
0x3e67ffdb,0x3ea88782,0x3e28c8b1,0xbd74ce6b,0xbe993d1f,
0xbf4fe3d9,0xbe611868,0xbeb813b4,0x3f06d4dd,0xbe2bc657,
0xbe981c45,0xbd86145c,0x3ddb4e6b,0xbacc8380,0x3d82a08a,
0x3c253b01,0xbca514f5,0x3db3aeb9,0xbd8ffbb4,0x3e98028a,
0x3ee5ecb9,0x3f26508e,0xbd9158fb,0x3e9c94c5,0x3e7b4918,
0xbf807404,0xbf5d50e0,0x3edacd82,0x3f2f8228,0xbf9a6c3a,
0xbe7e6fe4,0xbf5a79ef,0x3eabe9fd,0xbf412d9b,0x3ea752a7,
0xbe94f8d6,0x3f1bc64a,0x3e6601c9,0x3f92917a,0x3dace6de,
0xbdf27cad,0xbf536202,0x3ec3acd8,0xbe2877b6,0xbef33882,
0x3f512426,0x3e9a3776,0xbf9e1ab7,0x3d68e471,0x3f1a9020,
0xbf8ff1e7,0x3f0f3a2e,0xbf24de32,0xbe90d103,0x3f27703b,
0x3e166791,0x3ed1afb8,0x3ccd3dfa,0xbe928a38,0x3d632abe,
0x3e239548,0xbe90b29a,0x3e6e9454,0x3dcb85b2,0xbe330c55,
0xbd6b84ee,0xbe9d744a,0x3d03f61d,0xbe176e97,0x3d8c5291,
0x3e6197db,0xbdca6c16,0xbdd2f611,0x3e6d1da2,0x3e1f7e3c,
0x3da6e311,0x3ead5106,0x3df5e762,0xbe62d0dc,0x3dcc46e4,
0x3d7a0670,0xbe3208f9,0xbd25853b,0x3d042025,0xbdc68f5f,
0xbdb82bee,0xbe774aeb,0xbec1eff9,0xbde24cc4,0x3f35071b,
0xbb8dd4f8,0x3f514445,0xbdd5f989,0xbecaec71,0x3f085988,
0xbd8de129,0x3e9c3c57,0xbe3d04df,0xbe659145,0x3e72f36b,
0xbf1b7fe0,0x3f47a3b5,0xbf89c8e4,0xbed12772,0xbf21c436,
0xbf535e6a,0xbe0b649b,0x3f4216ba,0x3e5c76c5,0xbd4fd7d2,
0x3ed19880,0xbf3bc6fc,0x3f0f06f8,0x3f4699bf,0x3eb58eab,
0xbf03445a,0xbeda2d81,0xbe5f3144,0xbdd85d9c,0x3ea86cab,
0xbea317cf,0x3de82acc,0xbf5b82aa,0xbe08c6d6,0x3f0d8b8e,
0x3d95e185,0x3f098d2f,0x3f80e23f,0xbe29985d,0x3ce61ae6,
0x3e9473a8,0xbe1fb621,0x3d989cea,0x3efbe9e2,0xbc9497cd,
0xbfae8c41,0x39d5f418,0xbf0e9df3,0xbec4aeae,0x3f04a4f3,
0xbeaf87f1,0xbeed2c57,0xbe91905c,0xbe905143,0x3e6ccb97,
0x3d48d9f4,0x3f2f5861,0x3dfa9d75,0xbf390361,0x3c98f5ff,
0xbf00006b,0xbdc68cb5,0xbf12b9d0,0xbedbe1b8,0xbd444ec0,
0x3e815de1,0x3e20c733,0x3e860796,0xbe48e27d,0xbe8372b4,
0x3eac9fa1,0x3dbce80d,0xbd6f3d74,0x3efd6a32,0xbd03cc9d,
0xbd349a38,0xbe185e9f,0x3e9a1015,0xbe919a98,0xbe869301,
0x3e3c4edc,0x3cb8fde7,0xbe8549ab,0x3c8ec4fe,0x3e7b9245,
0x3e2f9ab8,0x3cef4b75,0x3e3bb2cb,0xbdd3f7df,0x3dc86b7c,
0xbd10040b,0x3e88e50c,0x3da9d239,0x3ecd6347,0xbf06df92,
0x3d519c05,0xbdac5ed9,0xbd2c952a,0xbe83d03e,0xbe0ab003,
0xbea6668b,0xbe40c5c0,0x3d8527d2,0x3daccbc9,0xbeb7b2ec,
0x3e6d5be2,0x3d4142e3,0x3cc8c53a,0xbd3ca50a,0x3dc87f83,
0x3dcf5847,0xbd959c81,0x3e1c461b,0xbde8ac3e,0xbdca7d7b,
0x3d02b363,0xba3a8bf3,0x3d49028b,0x3d2037e2,0x3e16b283,
0xbd2fc225,0xbe68faec,0xbe17ed2b,0xbd1327e3,0xbe3f168a,
0x3b8d5aec,0xbe711ccd,0x3f32e61b,0x3f35a213,0x3f4613b1,
0xbf6c78e5,0x3e7c3dde,0x3e9d7b02,0x3e5778cf,0xbe91280b,
0x3d039067,0x3d98cfbd,0xbdb5efc4,0x3e05b340,0x3ec3182d,
0xbe390f13,0xbcd600fa,0x3ef78f84,0x3e237bb4,0x3f57248e,
0x3f071c54,0xbe0d72f4,0x3eb23046,0xbea97fbc,0xbcb18d17,
0x3eb4908b,0xbcf6c231,0xbe5c40cb,0x3ddbe54a,0x3d8dec45,
0xbe913dcc,0x3def9bac,0x3edd5b3b,0xbd9f42af,0xbe130e33,
0x3df6a91a,0xbd06a384,0xbdcba012,0xbc0bf19f,0x3c19a6ee,
0xbefef343,0xbe579d42,0x3d4726f5,0xbe170b95,0xbe41c187,
0x3d74b748,0xbe49d008,0x3ea0d784,0x3e305e70,0x3f15f260,
0xbd9974fc,0xbd1b702c,0xbebcc8eb,0x3d85cffc,0xbe8e2da0,
0xbea1d7be,0x3ed417dd,0x3d9fb0b2,0x3e6c2ca4,0x3e3e0fd9,
0xbd292d40,0xbd991269,0x3e3f9209,0x3db5d4ce,0x3f0de041,
0x3d3f604f,0x3cc2e9ff,0xbe2c2389,0x3f232b10,0x3e7b80aa,
0x3dae25a1,0xbe4f25f3,0xbcbe1318,0xbe929236,0xbe63bcf4,
0xbec2fa5a,0x3f080f4c,0xbc8dd190,0x3dc9d877,0x3ec052a9,
0x3f05336a,0x3e34711c,0x3e7386a5,0xbeb511c0,0xbe68ef27,
0xbeee5d19,0xbeb0bb96,0xbf65d2c2,0x3d953f8b,0x3ea6ace2,
0xbdea6744,0x3acf4ff0,0xbcddd614,0x3e0b57cd,0xbe93b496,
0x3e219115,0x3f1f6652,0x3dfc8677,0xbf65c5cf,0x3f1167c2,
0xbe1e0165,0x3ecd51f7,0x3ea0981b,0xbbc24523,0x3e0071a0,
0x3d553704,0xbf82d694,0x3e786ab3,0x3e8f9ced,0x3e43c0df,
0xbde68761,0x3ead9f43,0x3e621b89,0x3d2a4c87,0xbdde2f0a,
0xbcba568a,0xbe6469cb,0xbf88c845,0xbdf64742,0xbe18874b,
0xbe3e893e,0xbe5e38af,0x3f0b18c3,0xbe814de8,0x3ef73bf6,
0xbd2143a2,0xbd90424c,0xbead26c5,0xbce1d72f,0x3d769189,
0xbf4f4a24,0xbe490ac6,0x3cbb3caf,0x3df4a42f,0xbe5e5893,
0x3f026293,0x3e28dcc1,0xbe1f798d,0x3e477a97,0x3c6b7554,
0xbf53d2e4,0xbf9b473d,0xbe4bbcd2,0x3d74692c,0xbefc014e,
0x3efa4718,0xbe75fac5,0xbe73ff1b,0xbefe5c58,0xbf4c36b3,
0x3ec26096,0x3f18a449,0xbe297f9d,0xbde655c1,0x3c51fd63,
0xbddc053e,0xbf23d718,0x3e611a6e,0xbea8e1e6,0x3edd16a3,
0xbdcdbdec,0xbedb31a6,0x3ebc8ebd,0xbcdb1b9b,0x3e738678,
0xbeaa38e6,0x3f0c5996,0x3f0ce5b3,0x3dfd2afc,0x3db00a2b,
0x3da068c6,0x3f638205,0xbf3338f9,0x3e4a0b99,0x3e631c4d,
0xbf1534b8,0x3e9aaec3,0xbf87d203,0xbf35e3fc,0x3f11f7f6,
0x3f9feb69,0x3e8a30f4,0x3ec86da0,0x3da14932,0xbd525b13,
0x3e8df9c1,0x3f0178a0,0x3ba4d758,0xbd8f53f9,0x3e63b1b8,
0xbd1ac3b6,0xbe78d036,0x3f8fa812,0xbe319de2,0x3e1d6bb8,
0x3ddfce1d,0x3e01b44a,0x3d1d920c,0xbd49ad75,0xbefbc2ee,
0x3c364716,0x3ead2ddc,0xbe2059e4,0xbf1f16f3,0xbf5f246d,
0xbebe12b9,0x3ee30847,0x3d865475,0x3ec55e3b,0x3eb57bd8,
0x3e96a405,0x3d5b2333,0x3ea4d5a0,0xbf4fa2e0,0xbf36a380,
0x3e98cc79,0xbd3a5711,0xbf0fb265,0x3f0d1f8b,0xbf028fb6,
0xbeea897b,0x3dbc4796,0xbf7a8da0,0x3e7764d2,0xbe886121,
0x3f5e7783,0xbe167d15,0x3e92e93f,0x3c507b04,0xbea4a6e8,
0x3e800c7d,0x3f33aa7d,0x3ef1519c,0xbec2d4a1,0xbee58e73,
0xbddc1fcd,0xbc702ba7,0x3e6848e2,0x3eb2fc7f,0xbe883c39,
0x3db4eb9e,0xbec76189,0x3ead2c61,0xbb3e574b,0xbe5221b3,
0xbe1fb084,0xbe1fe97f,0xbe0d4343,0xbe583dae,0xbdea40fa,
0x3e986db7,0xbf1810a8,0x3e69adc4,0xbeb48974,0x3e3c7ead,
0x3c642ceb,0x3dd1f429,0xbed15b9a,0x3e11df2e,0xbeabc8a1,
0x3e924ea9,0x3e885047,0x3ef32c3b,0x3ee5e649,0x3e86bfca,
0x3e50f005,0xbcd42d0d,0x3f122f65,0xbb4945d3,0xbe40ee4d,
0xbe2c8169,0x3a19f1c6,0xbebb6ccb,0x3f1ed052,0x3e093c9e,
0x3f2f4901,0x3b37b654,0xbdd5263a,0xbe0a804d,0xbf280f89,
0x3dc03edc,0x3c303f88,0x3e6f55a6,0xbe923ada,0x3d8de45d,
0x3f130e8f,0x3ccd5cc2,0xbe2771ea,0xbdff760f,0x3f01232f,
0x3eccd507,0xbd6a4699,0xbf3b54c3,0xbebc3a85,0xbe8699b9,
0xbef7ceb1,0xbdb5e08e,0x3ee89b2b,0x3f3dc2f9,0xbe1a57b6,
0x3f18a430,0xbded5a16,0x3e8ce478,0xbddb16f3,0xbe3f631e,
0x3e9219ea,0x3ec25e73,0xbe1be9a6,0xbf13fd81,0x3e7a3cd6,
0x3f1e727a,0x3e3b522d,0xbe945ea1,0xbe1a5df8,0xbda1c321,
0x3e7fc8aa,0xbe932cc1,0x3e52be7a,0xbf0b3ab7,0xbe2aaefb,
0xbe6ebf6f,0xbf16695a,0x3e99ca00,0x3ea2e934,0x3e244687,
0x3d1ff093,0x3ecb4c92,0xbcd8d6a7,0xbe79bf2c,0x3e32fea1,
0xbd5b0be8,0xbd61cbfa,0xbceb25ee,0xbd858d72,0x3de63600,
0x3e6446e3,0x3df86761,0xbee9af1b,0x3da1e04f,0x3d9b0845,
0x3dd25128,0x3e3ad04e,0xbf416d0a,0x3ebb0b43,0x3e2ceaec,
0xbe3945e5,0x3ecb0890,0x3f228d70,0xbe189d13,0x3f357e5d,
0xbe252a09,0x3f42d239,0xbea6bbca,0x3c2adc07,0x3d68431d,
0x3ed8c8df,0xbec1855f,0x3f083497,0xbe16ce84,0x3dd2b0b4,
0x3cbb6a6e,0xbeecf1a7,0xbdcf7426,0xbe2b6659,0x3eabd0b8,
0xbe1bddd4,0x3f1e139a,0xbf1f9d88,0xbe18d63d,0x3e91470c,
0xbe1ff2fe,0x3f17ced3,0x3e347027,0xbef95179,0xbda0bfd0,
0x3e0df063,0xbdcf04b1,0x3e979e3b,0xbd2af1a0,0x3d28f439,
0x3e5bcd77,0x3eb83367,0xbe6dcc08,0x3e83aac1,0x3e88d750,
0xbdcdd243,0x3d15cc31,0x3ec30ac1,0xbe8735d7,0x3dccea5c,
0xbe11a224,0x3e97a9f5,0xbe9cb6f5,0x3dd092a4,0xbe71a656,
0x3da4eb40,0x3e9b5c2e,0x3e35e3ec,0x3e9e4129,0x3dbfacac,
0xbb5a48c7,0xbecc04cb,0xbee8f3bc,0x3eb5ef41,0xbef1f50e,
0xbe992f72,0x3e1c28b8,0xbd919061,0xbd40f114,0x3ebb360f,
0x3eca92f6,0x3d885183,0x3e477bef,0x3dd42d6b,0x3e7a2986,
0x3ca5abb3,0xbe274fb1,0x3e0e51de,0xbe2534cc,0xbdaf18be,
0xbe54a451,0xbd69d227,0x3eb81653,0x3e3ea3b4,0xbda4676b,
0x3c77175a,0x3ef0dcb5,0xbe58257e,0x3e648b38,0xbed48584,
0x3e203b16,0x3d699837,0xbc8e244b,0xbe046f8a,0xbf065189,
0x3dc4547b,0x3d5cfa49,0x3d0243f9,0x3d95eba0,0xbc5dd497,
0x3e0e7713,0xbf0cb0fe,0x3f14653e,0xbe985ec4,0xbe612edf,
0xbf1b0fcf,0xbb9ee3eb,0xbe5d40eb,0xbe154030,0x3c51846c,
0x3e58e564,0x3e733c18,0xbe91fbc6,0xbe61eddb,0x3ba160c3,
0x3dc19508,0x3ee009d7,0x3c47b2ae,0xbf218e63,0x3ecf03f0,
0x3effde04,0x3e54d85a,0x3d867c6c,0xbe9ec9a1,0x3d4345bc,
0xbedb9876,0x3ebec99a,0xbda1d37e,0xbdce2d3b,0xbea332c8,
0x3e8d0600,0xbe4ee341,0xbe569e05,0x3d961bd7,0x3e11658e,
0xbf04194a,0x3e351741,0x3ea504e1,0x3d696ccd,0xbf121f8e,
0xbf0d11a7,0x3ddd7aeb,0xbf113bc8,0xbdf5b533,0xbee2d22b,
0x3f37a245,0xbe0bfb1b,0xbed2c86b,0xbef94a73,0x3e856e92,
0xbe1c3c18,0x3e437099,0x3f37b714,0x3e87d6ad,0x3c2a22cb,
0x3e979064,0x3f723f72,0xbf4d9d12,0x3de9108b,0x3e169d82,
0x3d02933c,0x3ea10ff7,0xbd96d766,0x3e80cc6a,0x3cac7718,
0x3e527cad,0x3ea9aee9,0xbe633c19,0xbd7d4d26,0x3ebf141a,
0xbeb5cb33,0xbeea1b3b,0x3d8242ae,0x3f0950bd,0x3c9dab47,
0xbe82ac3b,0x3e132fae,0xbde0c64b,0x3e3f9d44,0x3e5b0e74,
0xbe4d55d5,0xbecf8bc4,0xbdada23e,0xbe832bb1,0xbf124c94,
0x3da4fc69,0xbf0e9c9b,0xbeab1f1c,0xbea4402d,0xbf620535,
0xbf95a275,0xbd62f0eb,0xbea2828a,0xbe5b2521,0x3d9c05ab,
0xbea81e24,0x3f9f3d2f,0x3eee131c,0xbea31be8,0x3d3d0e7f,
0x39548105,0xbf21deb7,0x3e5a2619,0x3f40fa3e,0x3e85fa41,
0xbf5bb0a0,0xbd929e15,0xbddf9e9c,0xbdb2b9ca,0xbda10cc4,
0x3cb67246,0xbeb1d8f6,0x3e17dd0a,0xbe8fe52c,0x3d29ef8b,
0x3ec552dd,0xbf1e52b8,0xbe4ca98f,0x3a3b7175,0x3e90b5ab,
0xbdee7ff7,0x3d73d37c,0x3db1a478,0xbce8da9b,0xbeca4675,
0x3e1794cd,0x3e37b8bd,0x3e50965d,0x3e281d4f,0x3da8f8df,
0xbe3c10f6,0x3ecb9d9d,0xbec59bb9,0x3eb0b855,0x3e68b663,
0xbe6724bb,0x3db1a301,0xbe955f1c,0x3db746b6,0xbd8f48d1,
0x3e35c7f1,0xbe191636,0x3de94d4f,0x3e517959,0xbe952c6b,
0xbdecea8e,0x3e57d357,0xbe8c5ca4,0xbee06165,0x3ea3cea8,
0xbecc02e0,0x3cdfdd94,0xbe00123d,0xbdb8fb36,0x3efbfe6c,
0x3e330ae1,0x3e5a2c59,0x3bce5d89,0x3d8d4886,0xbe580183,
0x3dd17591,0xbdedcc9d,0xbc6d2d6c,0xbea55a10,0xb9ed9c67,
0xbdac0259,0xbdf9b9a3,0xbeb74023,0x3e0de747,0xbe713eec,
0xbee55174,0xbdda1f45,0xbda2e658,0x3f2b8f75,0xbe64b86f,
0x3dfba0c3,0xbc050dfb,0xbea5e664,0xbea52fc6,0xbd8999b9,
0x3f25ab46,0xbdcce25b,0x3ef731ad,0xbe979bdc,0x3f05265a,
0xbe8de01a,0xbd6ed836,0x3d20e6c1,0x3e967f4b,0xbdc12559,
0x3e3fb3e4,0xbd95ace4,0x3e60cb0a,0xbea064b7,0x3c9832e1,
0xbea8fc9a,0xbd94d258,0xbecfe115,0x3e349a1d,0xbdb7484d,
0x3e04d203,0x3f15b318,0x3d219933,0xbe0943ee,0x3dca5417,
0x3bc36ccb,0xbd9a5b12,0x3d7fd647,0xbdc8615b,0xbe5b3954,
0x3cc2d1fa,0xbd9a0343,0x3dfdab5e,0xbe2d9bbb,0xbe0b5cbe,
0x3df0b803,0x3e964632,0x3de62a1a,0xbef55df3,0xbe99a19a,
0x3e0fbd8b,0xbf0c2a3d,0xbf35a4d1,0xbe0de254,0x3f01c1d8,
0x3eee46d2,0xbed1fb2b,0xbd78ada5,0xbe891e34,0x3f0acdf8,
0x3da26b27,0xbef14ef8,0xbeb60eac,0xbe45a472,0xbe782787,
0xbd5dedfe,0x3e8341c7,0x3e81001e,0xbec882bd,0xbf323bde,
0xbd7186ae,0xbee5ef8f,0xbeeaadae,0x3df40831,0x3d310c93,
0x3ef259e5,0x3e8ead6e,0xbf12678f,0x3f3f2b44,0xbe947283,
0x3df8b9ad,0xbe2b474d,0xbf36e3be,0x3e5d18e2,0xbd2d957f,
0xbe3a2044,0xbeb3ccc0,0xbebe25c0,0xbeaba704,0xbd34261a,
0x3ea70c40,0x3f0abe32,0x3ee345eb,0xbe7ff81c,0x3ef2e4fe,
0xbcd4a5e0,0xbd97323e,0x3dd2454a,0x3d53d533,0x3e5209a0,
0x3e6fa805,0xbeae08a5,0xbe8762db,0x3e8f99dc,0x3de3fbb8,
0xbdd57247,0x3e295bc5,0x3e7afd16,0xbd23f731,0x3f07a9f4,
0xbe186548,0x3e15301d,0xbed23eb5,0x3d90d9bc,0x3e64038e,
0x3e249f53,0xbed19dd8,0xbd901037,0xbd6996d1,0xbf02dc55,
0x3e0b6e91,0xbeb02826,0xbe51f0e5,0xbe13b35b,0x3df2efd5,
0x3e5fbebc,0xbe25b54a,0xbdc11d73,0xbcc75794,0x3e515d80,
0x3c1f1d66,0xbec0b6ad,0x3e412800,0x3e5b6f71,0x3d697566,
0xbd33181e,0x3d7d4cab,0x3d52ec22,0x3d834fdd,0x3ee43870,
0xbe72d4a0,0xbed9b30d,0xbe3cc6e3,0xbbcb5ef1,0x3e070ce8,
0xbeb3cf87,0x3cbbe3fd,0x3df2a79c,0xbe66262f,0xbeb22946,
0xbb9831c2,0xbf202f16,0xbd41fd17,0xbf01aa6b,0xbdfe7f69,
0x3e247e8c,0x3f055f98,0x3b8ee5b2,0xbe018579,0x3a4ba0a2,
0xbe2b2abf,0x3e1f4317,0xbd8a281d,0xbbbe6900,0xbee2c2d1,
0x3ce1b3aa,0x3dfb868f,0x3e76026f,0xbf11fa4d,0xbe8ffe97,
0xbd5f6923,0xbea58e12,0xbe81f770,0xbe8f563e,0xbebe01d0,
0xbf2189e2,0xbe025799,0xbd9539fc,0xbd6a27b8,0x3e588d98,
0xbe7f8a76,0xbe918ce1,0x3e130807,0xbf07bb9f,0x3da8c2cc,
0xbe1cf8f2,0x3e83a5ff,0xbed5ef94,0x3cfc58af,0xbeeac10a,
0x3e8fc6da,0x3ebc4a28,0x3f4590ce,0xbe855e74,0xbdf4c61c,
0x3dfe6c36,0xbe04a93f,0xbf00b02f,0xbddf435f,0xbf28c2b8,
0xbe8cdd93,0xbf0ad4ee,0xbdb0d74d,0xbea2695d,0xbdbd5f87,
0xbe589cc4,0x3eb614e7,0xbe586e83,0xbc96ad0a,0x3e3be9e9,
0x3d9f4c99,0x3e2e80ab,0x3ed7c3f9,0xbeba49aa,0xbe58f87a,
0xbe08e6ba,0xbb7d595d,0x3e857dde,0xbe8c5cf2,0x3e475ba6,
0x3f1bc3af,0x3b4ac4b2,0x3d8d2544,0xbec3f9ac,0x3eed0d7b,
0x3ec4584d,0xbf66742b,0xbe80dfc8,0x3eff9a23,0x3e13b780,
0x3e99a10f,0xbe685dd6,0xbe16caaf,0xbed66aed,0xbf05bf8f,
0xbd353329,0x3f0a6999,0x3d90d15b,0xbe601ad6,0x3e914155,
0xbed3a42b,0x3f84e99a,0x3e7f38da,0xbdc64990,0x3e99ece7,
0x3f10972c,0xbf2e4f2f,0x3f0edf76,0xbdd68d11,0xbe93e263,
0xbdd8b088,0x3e97830f,0x3b68e7cc,0x3d881204,0x3e7bdf95,
0xbd1c43b1,0x3bef0a08,0x3e4e77d5,0x3de1f58a,0x3ec78d97,
0x3f1f05e1,0xbe6fe61b,0xbd92cd0c,0xbe9b1382,0x3ea9b4da,
0xbec2c6e9,0xbe8dc3c1,0xbeb0a201,0xbe3b4d94,0xbef05d9e,
0x3ef4ca0d,0x3d66947a,0xbee54443,0x3e3cb662,0xbedc4114,
0x3e3c5b34,0xbea36cd2,0xbe6bcb91,0x3e5ef6b5,0x3e2ec0b9,
0xbe5d9400,0xbefc20a5,0xbf10df9d,0x3f3f590d,0x3e5ab84a,
0x3ef4c7ba,0x3e486959,0xbd673ca2,0xbe60adb4,0xbd125c96,
0x3e878e67,0xbe972391,0x3dbe900d,0xbcd78c9e,0x3d2bcdab,
0xbe4f9eeb,0xbdb5e492,0xbf235bea,0xbe502e2f,0xbc61a801,
0xbe48042b,0x3ecf0ae8,0x3e29ada7,0xbe9d5043,0xbdc06ceb,
0xbeaa212c,0x3d2d00e2,0xbe297d21,0xbe504d5c,0xbf153538,
0x3e2b0964,0x3e2d9245,0x3ec5abec,0xbeb9d798,0xbe6a177d,
0xbec8c99f,0xbea0c7ee,0xbe0cd77a,0xbedecce1,0x3f1fde37,
0xbec3139a,0xbddb87a2,0x3e8e6ab9,0xbf0878a9,0x3d81eab0,
0xbd5ee04f,0xbdbb51f7,0x3f1d6365,0x3e22bd32,0x3dad6cd9,
0xbe99d729,0x3f077eae,0x3f36a358,0x3dfae123,0xbd0e3857,
0xbe4754c0,0x3f1f74ef,0xbea7770e,0xbcc2f3e2,0x3e1db2c9,
0xbf2e2fd4,0x3ea97580,0xbca61405,0xbec2d0dd,0x3f035ea0,
0xbde40bcd,0x3f3c9150,0xbceccd25,0x3ea029e8,0x3dde5c41,
0xbf2f6f8a,0xbf2e6cd7,0xbefd8e61,0x3ee38728,0xbe88c2ee,
0xbe9d5c59,0x3e463eed,0x3e6870ac,0xbdd0586f,0xbdc1a31b,
0x3ee1795f,0xbd5d7829,0xbe50b017,0x3d8473fb,0xbec0d3f9,
0x3e1a2d66,0xbe16c665,0x3f0e2917,0xbc8209c4,0xbe83b3ac,
0xbe097bdb,0xbddb82f3,0xbddcd9cf,0x3df32a4b,0x3e6a509c,
0xbe0c0c5c,0xbec38e27,0x3e1434da,0xbb56beed,0x3e894af1,
0xbe10f313,0xbe323dfc,0x3e00b811,0xbe21de22,0xbd1bb0d1,
0x3d47e24f,0x3e68bc2e,0x3ed4cadf,0x3f1423f7,0x3e80c2f2,
0x3f0109db,0xbe322ff4,0xbc5553a4,0x3e93759b,0xbeb60d8b,
0xbe91f8fb,0x3e8ca91f,0xbf02e1b6,0xbe42ffd8,0xbf43b816,
0xbe199096,0xbd166041,0x3b9005e4,0xbeada010,0xbf2fdbfd,
0xbd9c4189,0x3db0d7ea,0xbd1d142f,0xbda67a84,0xbd8a7592,
0x3e4ae9a5,0xbf1b1043,0x3eafc596,0x3b7aabdb,0x3da8f1fa,
0xbe199d85,0xbeb4085e,0x3d73abd6,0xbf06771d,0xbf94177e,
0xbfe17be9,0xbf719a5b,0xbb697851,0xbf496950,0x3e269b69,
0xbecf4e2d,0x3f1d307d,0xbfa3e67b,0x3e394640,0xbefe6700,
0x3e4eec83,0xbf46f8ec,0xbdf76cf0,0x3f8d8bc7,0x3ea47a3e,
0x3f2fa91c,0xbf959e51,0xbf77d822,0x3ee51894,0x3e8d76db,
0x3f01eb0c,0x3efa0a55,0x3fd77755,0xbfa179a6,0xbf9485b7,
0xbf5aa64d,0xbfa9bf86,0xbec1a28d,0x3d11b44b,0xbfbc661a,
0xbf4b220a,0xbe3c6cb6,0xbef8133e,0xbd806294,0x3f4b577d,
0xbe87c5b4,0x3ffac56b,0x3d1cd509,0xbcad91dc,0xbce1e4c5,
0x3e584a24,0xbf986827,0x3fbe668a,0x3ea9721d,0x3e3cf083,
0xbe6e1a0d,0xbe529389,0xbf877e83,0x3f8107dc,0xbf1fcc66,
0xbebb8a3e,0x3f461a25,0x3f698699,0x3f53e2bf,0xbf236f61,
0x3fcef5ea,0xbe80cb59,0xbd68a555,0xbf9088c7,0xbf6aa1f3,
0xbf820b42,0x3f8ee10b,0xbf23fa00,0x3e5ab4bc,0x3fea6874,
0x3fd99f2c,0x3fb36e06,0x3f957b51,0xbf15d91f,0x3c3948ef,
0x3c51189a,0x3e861596,0x3f6707e1,0x3f045f1b,0x3de442ca,
0xbf33a4ca,0x3f97dbb6,0x3f869aa6,0x3e60f01f,0x3dcc130c,
0xbe6ff30e,0xbeb2fec3,0xc001c4e2,0x3f981ca5,0xbf272de7,
0x3ed837c7,0xbe253ee1,0x3c82d038,0xbfb14635,0x3d13dc77,
0x3e73f6ef,0xbf7068c9,0xbedd5fb3,0xbe2961d4,0x3f13bb84,
0xbf4990a5,0xbeb86094,0x3ec09437,0xbef8a9fb,0x3d793520,
0x3e29c4da,0x3f0d24dd,0xbea47e00,0xbfafdc7e,0x3f478ad9,
0x3f066b64,0xbef6cc14,0xbf92f776,0x3f5c6edd,0xbfe3c167,
0x3ef723fb,0x3e5dad0b,0x3f8682af,0x3f0a52ef,0xbec450ff,
0xbe8a0f53,0xbea298ba,0x3f58c135,0xbe91c268,0x3f6e99af,
0x3f758b31,0xbf2c8b72,0xbe048ed3,0xbee4834c,0x3e479b93,
0x3fd73a9f,0x3f143ad8,0xbf6ca832,0x3f3f38e5,0x3f4cd61b,
0x3de739fd,0x3f84874f,0x3f2e36b0,0x3f31da59,0xbec5f958,
0x3eee7653,0xbeb8843a,0xbfc15dae,0xbe03c6bf,0xbf9399cc};

uint32_t bias_array[110] = {0x3f7a7aed,0xbbf3c05d,0xbe16c454,0xbd72cdf2,0x3e896522,
0x3d7ac9ac,0xbe917266,0x3eb09e71,0x3eb28058,0x3ee50715,
0xbe7d66ae,0x3d82d325,0xbf450d9d,0xbe9d1888,0x3deeba74,
0x3ee4d878,0xbc0127f9,0x3e7586dc,0x3e70368d,0xbec7c53a,
0x3ce366d0,0x3e3c83dc,0xbe962cca,0x3e45b2e8,0xbe2b6575,
0x3f3451a2,0xbe5d7275,0x3efe34fe,0x3e1dd8a2,0xbde388d2,
0xbdfc29ae,0xbd26b19a,0x3a16d241,0x3e77b33a,0xbd9e32a4,
0x3dd4dedd,0xbeac081b,0xbec18edf,0x3ecf75d2,0xbeab4d80,
0x3e212b20,0xbf143164,0xbf0e1ce9,0x3e7dacb1,0xbdb21833,
0x3e6a5ee9,0xbe5e6e25,0xbf0c3308,0xbe19e6ca,0x3eef6ac6,
0x3ecf8983,0x3e99b9ca,0x3e9b5e93,0xbda5963a,0x3edd1c19,
0x3d1bfab4,0x3ee36fcd,0x3e482e1f,0xbef6274d,0x3e1da2be,
0xbcc9440d,0x3eb2e93a,0x3ddf965a,0x3b62a792,0x3e83816c,
0x3ea958d4,0x3da88469,0x3ee01045,0xbe34fa33,0x3e595337,
0x3e6bac95,0xbd4c2c6f,0xbc94ba60,0xbe0e7dfd,0x3d81a709,
0xbda904d3,0x3eea1d5e,0x3d9a2f6d,0x3d441bee,0xbdd40484,
0x3ea67cda,0x3f0488ad,0x3ead4758,0x3e5b844d,0xbe6486dd,
0x3e524478,0x3c8f7345,0x3edb4cc6,0x3e847d11,0xbd47e836,
0x3eb6ad4c,0xbf04a2f3,0xbcf408fa,0xbc97992a,0x3e2a72bd,
0x3df6d2e5,0xbdae47a0,0xbeb0cc05,0xbdb15250,0xbe8629b2,
0x3e0920fb,0x3db4366f,0xbee797da,0x3ed9b0b1,0x3e1349e5,
0xbd492e4d,0xbf0676f2,0xbf326412,0xbe4efaaa,0xbed311d5};extern uint32_t bias_array[110];extern uint32_t weight_array[4080];