uint32_t weight_array[3328] = {0xbc6f94c3, 0xbe453e84, 0x3d387930, 0xbe25dc5c, 0xbed12fa4,
                               0x3e77aabf, 0xbec99d35, 0x3e442717, 0x3f1701e3, 0xbb78fca1,
                               0x3e819de4, 0xbea2fea8, 0xbe70ea1b, 0xbe9bade6, 0x3f0c3df8,
                               0xbc6a5903, 0x3d62ebe6, 0xbf06a27d, 0x3f1d6853, 0xbe9e15eb,
                               0x3eb4c3f3, 0x3ef465e3, 0x3e40c020, 0x3e5da333, 0xbe37a386,
                               0xbe1325f9, 0xbad8a578, 0xbe47c870, 0x3d90f281, 0x3ea3921c,
                               0x3e2a87a4, 0xbe12ab58, 0x3e369d98, 0x3ea196ca, 0xbd78ef54,
                               0x3e576772, 0xbc09770d, 0xbea234c7, 0x3dbfc621, 0xbe51727a,
                               0xbc554c97, 0x3da54da5, 0x3dbbe053, 0x3f0b5498, 0x3e6396fe,
                               0xbe60030f, 0x3da5799b, 0xbdb47b01, 0x3c9a7e23, 0x3de6953f,
                               0xbd46e40a, 0x3e8b10da, 0xbe195b79, 0xbe93e723, 0xbe115670,
                               0xbe2ada0f, 0xbae0269d, 0x3dc58319, 0xbe9b1315, 0x3d0243fe,
                               0xbbf7dae9, 0xbe1e5a89, 0xbe2f6a00, 0xbee45ac2, 0x3e07197d,
                               0x3e5fcf9e, 0x3dab148f, 0xbdc563ce, 0x3e178a29, 0xbcc8667c,
                               0xbe449e30, 0xbd94da53, 0xbe329360, 0xbda2799b, 0xbcc58cad,
                               0xbe4ed47c, 0x3e017847, 0xbde6b736, 0x3a6cb7b0, 0x3d403f61,
                               0x3c6f2324, 0x3ec1b37b, 0xbea8e9d3, 0x3c3a6edc, 0xbe3420a1,
                               0xbd3887d9, 0xbd3d67d8, 0x3e7fd679, 0xbe9304f5, 0xb8fc38a3,
                               0x3da9ce50, 0xbe3c8404, 0xbd2f4b84, 0xbddd231f, 0x3ecb431e,
                               0xbebf194d, 0xbd70462e, 0xbd792c97, 0x3e24d3e8, 0x3e98131e,
                               0xbe36ca17, 0x3de95268, 0x3e356b3b, 0x3d67863e, 0xbd7d74ed,
                               0x3e64bc95, 0x3da0dcdf, 0x3e135f9b, 0xbed0c688, 0xbeeaa7df,
                               0x3a6979ba, 0xbe712fb1, 0x3e146c2d, 0x3ca8a0b6, 0xbcd86e6d,
                               0xbe15e818, 0xbf03c1b1, 0xbe10fa97, 0xbdcfd22d, 0xbe340a1b,
                               0xbb99b79b, 0xbdea3b16, 0xbd1b2763, 0x3c868b32, 0xbdf444e8,
                               0xbdcf1fa0, 0x3dc7ce71, 0x3dcd2e08, 0xbe011c7b, 0x3d841544,
                               0xbc8ec794, 0x3de567ac, 0x3ef64592, 0xbd068795, 0x3d92b753,
                               0xbd91d915, 0x3dcb1533, 0x3d082b76, 0x3de01c6f, 0xbd2753f7,
                               0xbd9e675e, 0x3d45c9b0, 0xbe339e6f, 0x3eb8790c, 0xbe7c54a8,
                               0x3ea66756, 0x3e2ec0da, 0x3dccc30e, 0xbe0d0b6b, 0x3eacee4a,
                               0x3d51a8e4, 0xbea0b176, 0xbd177779, 0x3d57002f, 0x3e72df31,
                               0xbd03fc1a, 0xbe8d9cdf, 0x3d3082b3, 0x3e456cbc, 0x3e21707c,
                               0xbde2074c, 0xbd7c4d39, 0x3f46c9c8, 0xbbce0aa1, 0xbb983370,
                               0xbdac4d14, 0x3bebef4f, 0xbe4d32cd, 0x3e064744, 0xbeea7c4f,
                               0xbd0d8002, 0x3e2349ea, 0x3f0b1b70, 0x3d34ad69, 0xbd89b9df,
                               0xbbc23ce2, 0xbc660a4f, 0xbe4930ff, 0xbe7746a0, 0xbe787265,
                               0xbd3b0938, 0x3dd590f6, 0xbd1997c6, 0x3d3e7857, 0x3e89e032,
                               0x3db07149, 0xbec56cec, 0x3dde5549, 0xbdfd975d, 0xbdf92ea9,
                               0xbe154141, 0x3ea50c65, 0xbe573b88, 0xbe57607c, 0x3dec30df,
                               0xbeb1bb0a, 0x3e98c008, 0xbdbbc8c1, 0x3e859a28, 0xbd388402,
                               0xbd626da7, 0xbe77ce6d, 0x3ddd9b89, 0xbd6bfe02, 0xbd51fe5b,
                               0xbde07fb9, 0x3d41b694, 0xbcafbfff, 0xbe26c87b, 0x3d79bae2,
                               0xbc53205a, 0x3db5870b, 0x3e4339bf, 0xbc4a8a24, 0x3d4fce5b,
                               0xbe306139, 0xbd982192, 0xbe9bd2f1, 0x3e03a823, 0xbe41acdf,
                               0x3ec51e94, 0x3d9abd73, 0xbd5c9d45, 0xbe074ca8, 0xbdf72b6e,
                               0xbea1de76, 0xbeb6ecd3, 0x3e8b2516, 0x3e49a0ff, 0x3c84d8ea,
                               0xbe371169, 0x3d80864f, 0xbc8523c2, 0x3e117bf3, 0x3cbdba6f,
                               0xbe6e1a2b, 0xbdd94802, 0x3e30ed37, 0xbea992a1, 0xbe08b2b4,
                               0x3d968384, 0x3d51dc1d, 0xbe1e9802, 0xbe9918b9, 0x3eb59e32,
                               0xbe20b872, 0x3dd86aa3, 0xbd71238c, 0x3dd92180, 0x3da25089,
                               0x3e01800b, 0x3e22ef87, 0x3e261da9, 0xbddc8621, 0x3e9e4544,
                               0x3cec26c1, 0x3e0b8a7b, 0xbd915f74, 0x3e578946, 0x3ec784c7,
                               0xbcf4a6c6, 0x3e959269, 0x3ee30520, 0xbe43f9ec, 0xbe660fcf,
                               0xbe40eb3c, 0x3e1e01cb, 0x3d8265fc, 0xbebcbbb1, 0x3e1a333f,
                               0xbe001b47, 0xbda29162, 0xbde55f2c, 0x3dfb28e2, 0xbd6a0f98,
                               0x3d1dd9bc, 0x3e86f706, 0xbe33b7fa, 0xbd9849dd, 0x3e15634a,
                               0xbc550239, 0xbc645604, 0xbdcb267f, 0x3d7b8c09, 0xbedff7e3,
                               0x3e369793, 0x3b240ec0, 0x3d861a66, 0xbd7c8d3e, 0xbe8e1b77,
                               0xbe7b939f, 0xbdd150e2, 0xbd6cde50, 0xbd1f59ac, 0x3e1653e2,
                               0xbde2106c, 0xbdb9039b, 0x3e3ff720, 0xbe3a662e, 0xbe31b4da,
                               0x3dc21a5e, 0x3e4b3aeb, 0xbe71c99e, 0x3da8e202, 0x3d073395,
                               0xbe6e68f0, 0xbe138ab7, 0xbea530c0, 0xbe8ec8ed, 0xbdb47f9f,
                               0x3d988294, 0x3c0a57cd, 0x3e6610aa, 0x3e999746, 0x3e15a84e,
                               0x3e52cd58, 0x3d433bd7, 0xbd590f18, 0xbcef73d6, 0x3d944e10,
                               0x3c922a6d, 0x3e8bc93d, 0x3d67e68f, 0x3cd9315b, 0x3db74d4c,
                               0xbde6c448, 0x3d8f4cf1, 0x3f328cc1, 0xbd675ef4, 0xbe88acc3,
                               0xbf2dcde5, 0xbe884b89, 0xbe17547b, 0xbe96b711, 0x3d0b05db,
                               0x3dae8f69, 0x3e7d446c, 0x3e2fd834, 0xbe10e7da, 0xbe276d46,
                               0x3c20b37a, 0xbf9f87f2, 0xbd3c01a5, 0x3e1518d8, 0x3d6fc33a,
                               0xbd8b703c, 0xbebb3a85, 0x3c15f052, 0xbe83c2a3, 0x3cdc98b0,
                               0xbf05efb9, 0x3db3e528, 0x3fa51712, 0x406922ae, 0xbf9cc53a,
                               0xbe4acc29, 0x3f862cd6, 0xc03425cf, 0xbf9d057c, 0xc0641fb4,
                               0xc00963ea, 0x3ec02b3b, 0xbe49b012, 0xbf3426b6, 0xbfaeaa3f,
                               0xc03d4086, 0x4068b2a9, 0xbfe605ff, 0xc07e8ba1, 0x3fce3871,
                               0xbfe04ca1, 0xbc75a844, 0x4010444d, 0x3e8a0bfe, 0xbf57bb23,
                               0xbfb6f77b, 0x3ffad200, 0x3f4273c2, 0xbfd99b9a, 0x406ff94c,
                               0x3e2b7db0, 0xc0845e44, 0x3ed98c5b, 0x3af226d6, 0xbf78ed30,
                               0xc098e50b, 0xbea29391, 0x3e961c24, 0xc05b78c4, 0x3fdc318f,
                               0xbfcae5ac, 0xbf8b946f, 0xbfb5d1ad, 0xbf7630fd, 0xc04543ba,
                               0x3f7fb812, 0x401a5e9d, 0xbf8a8b44, 0x4014f031, 0xbf5a2e93,
                               0x3ef385ac, 0x3fb6330f, 0xbf9222a6, 0xbeb3381d, 0x3df43112,
                               0xbee26b5f, 0x3f3624fa, 0xbf61b5b4, 0xc09db2c8, 0xbf00cc3e,
                               0x4006ea49, 0x4015b20e, 0xc00d0276, 0x3f9dfdad, 0x3f1e4ed4,
                               0x3f8b258e, 0x3e7eb225, 0xbe1dbed0, 0xbf3ea0e2, 0xbed021c3,
                               0xbf044590, 0x3e506f30, 0xbed3bdac, 0x3e84fd61, 0xbeeae5ae,
                               0xbf22001f, 0xbbc51d4c, 0x3e65ac33, 0xbf055c3c, 0xbdcff073,
                               0xbe0f0eca, 0x3e23b99b, 0xbe6d19a0, 0xbd99def9, 0xbe05b572,
                               0xbeb94261, 0xbe826e8c, 0x3e86da77, 0xbead2d85, 0xbe413c00,
                               0x3ed5d560, 0xbd33b065, 0xbf05d4a7, 0xbe07c4e7, 0x3e891363,
                               0x3e973fe5, 0xbe93f8d6, 0xbd528b09, 0xbe5b3c65, 0x3e90a09c,
                               0x3defc50a, 0xbef9ba4c, 0x3d93fc15, 0xbf28f79a, 0x3dbc805a,
                               0xbe875659, 0xbdbf6ee3, 0xbf1eceac, 0x3f08fa6e, 0xbe4daa5a,
                               0x3de56033, 0x3eb5f7e4, 0xbeadf8ff, 0xbd471a1c, 0xbdd433bc,
                               0xbe9ce501, 0x3e9c9e12, 0xbc6deaa8, 0x3d73ecd0, 0x3ea8d2a3,
                               0xbe29048c, 0x3ee7e07e, 0x3ebc0994, 0xba8a7bb3, 0x3ec1ad7d,
                               0xbe6edf52, 0xbd944c0b, 0xbee79044, 0x3eea12bf, 0x3ed5bb15,
                               0x3e02d84a, 0x3efe4591, 0x3e9df1ff, 0x3e0e7cd9, 0x3ec65823,
                               0xbe87cd0e, 0xbeb911aa, 0xbf405a45, 0xbf4751ef, 0x3ed7963f,
                               0xbec1c46f, 0xbe1f71b0, 0xbec89390, 0xbeb70cfd, 0x3f47f77c,
                               0xbeaadb3f, 0xbf377b18, 0x3ec323b7, 0x3e822ec4, 0x3ec1fc35,
                               0x3eccf8d1, 0xbe02380a, 0xbf31a7e4, 0xbf05c73c, 0x3dccf680,
                               0x3ebc6902, 0xbe809e44, 0x3f0921e5, 0x3e27256f, 0xbf7d07f1,
                               0xbf572773, 0x3d82f054, 0xbee5e3e3, 0xbd8bbaba, 0x3d963cdd,
                               0xbeedeabf, 0xbf121d6a, 0x3ee8337f, 0xbe053ac9, 0xbe8ad752,
                               0xbe884488, 0x3e9b07cf, 0x3e20ce44, 0x3da9a7ab, 0xbe38f231,
                               0x3e67d95f, 0xbdc0bede, 0xbe81cf19, 0x3e19b357, 0x3ed66ca2,
                               0x3e8d4b50, 0x3e6b2b65, 0x3ecd6015, 0x3e0bd46e, 0xbcb85ce9,
                               0xbe37d0e6, 0x3e8336b5, 0xbc2f3ce6, 0xbf053b7c, 0x3d9c4359,
                               0xbf0715f7, 0xbd89f13a, 0xbe14ac49, 0xbe134baa, 0x3f85baac,
                               0xbe2727bf, 0x3ed4c219, 0x3ea31844, 0xbe4bbb81, 0xbc597c20,
                               0x3ec2bba3, 0x3eda1712, 0xbd9d5fc1, 0xbf50eee4, 0x3fa1d6cd,
                               0xbfcd4a71, 0x3e365eb4, 0x3f344724, 0xbf13a638, 0xbe0faac3,
                               0xbf3e5901, 0xbfa67dff, 0xbe6b7540, 0xbf3ef51c, 0xbecab5e0,
                               0xbf99ad53, 0x3e3a49b4, 0xbfe38fa9, 0xbf4ec7a2, 0xbe020365,
                               0xbec1f193, 0x3f1356c5, 0xbf424c03, 0xbe80e7a9, 0x3e04a96c,
                               0xbdd87f79, 0x3f06ea49, 0xbfc4a750, 0x3e3083ae, 0xbed698a3,
                               0xbe67f9d8, 0xbf0f8f73, 0xbe5d5e00, 0xbee2a8fa, 0x3f40385f,
                               0x3f32f2bb, 0xbe92941d, 0xbdb430d6, 0xbee38fb0, 0xbfb69f7e,
                               0xbef0eef2, 0x3f396981, 0xbf02638a, 0x3f745a7b, 0x3f3a04ea,
                               0x3ae024a7, 0xbd963eab, 0xbf5e5b95, 0x3fdbb074, 0x3ec44caa,
                               0x3f65dfa9, 0xbf1a078a, 0xbd8a83ac, 0x3e9d3052, 0xbea9d7c8,
                               0xbf26deac, 0xbf1bcef1, 0xbef26f41, 0xbd349423, 0x3ae174c8,
                               0x3d6e4ed2, 0xbe3f9306, 0xbdbca91d, 0xbe11bed3, 0xbdb03770,
                               0xbe00deb1, 0xbe52b086, 0xbe6a6ad9, 0x3e863c87, 0xbe35a45f,
                               0xbd233cd6, 0x3e31aa94, 0xbe110c39, 0xbd62ae90, 0xbd175a79,
                               0xbe0629f7, 0xbe64a3b8, 0x3e0b84d9, 0xbea3e02b, 0xbdddf15e,
                               0xbccf9017, 0xbe3f2f12, 0xbc6f84cc, 0x3d314985, 0x3e69288e,
                               0x3de969ee, 0xbd8bf383, 0xbd935fa7, 0x3e6a90b5, 0x3d0a6dec,
                               0x3a517b21, 0xbdef9773, 0x3caaca2d, 0x3e32014a, 0x3d200b62,
                               0x3e72e041, 0x3e282569, 0xbdad78eb, 0xbd5f12ac, 0x3e2a90cd,
                               0xbb7fb6a5, 0xbcdca588, 0x3d590cad, 0xbcab667b, 0xbda3219d,
                               0x3da7aab4, 0xbe0dcfb4, 0x3eb425c2, 0x3e3eabd9, 0x3d6092d4,
                               0x3e417597, 0xbeb2f9b9, 0x3d3f0162, 0x3dc6474e, 0x3d4c96fd,
                               0x3e20e74d, 0xbe9780c6, 0x3d580a26, 0x3df3bd53, 0xbe0fdbfa,
                               0xbdcf0e61, 0xbd876945, 0xbeb1f909, 0x3e32d0ce, 0x3e78d4c2,
                               0x3f47e598, 0xbec3b0f3, 0xbf2d216e, 0xbfcb076f, 0xbe1bfbb6,
                               0x3d4b33a8, 0xbf83f846, 0xbf6eecbe, 0x3f1d6905, 0xbf882b9a,
                               0xba7b50b3, 0xbfbe8d77, 0x3f8cc367, 0xbf580d0f, 0xbef9ff3a,
                               0x3f985355, 0xbe80c796, 0xbf8560b4, 0x3f115076, 0xbfc07b6d,
                               0x3e421793, 0x3f833264, 0xbf74fd8b, 0x3edff11c, 0x3f45cf23,
                               0x3fa4acb7, 0xbf8dc654, 0x3bd7b147, 0xbfba3f43, 0xbf53d8b9,
                               0xbf417b44, 0x3ef16f20, 0x3f0140aa, 0xbf99b868, 0xbf4cc5b8,
                               0xbfdda4ba, 0xbde6ecfd, 0xbf0a404a, 0xbf2884f7, 0xbfc0756c,
                               0x3ec4b746, 0xbef0b524, 0xbeacb9df, 0xbf511a4c, 0x3fb7f44e,
                               0xbef052a6, 0xbe1da302, 0x3fa00c1f, 0xbe604c35, 0xbfa21e5f,
                               0x3f84dfa6, 0xc003e912, 0xbd395a78, 0x3f0902c8, 0xbfdfd024,
                               0x3f2c9d5b, 0x3f93a8a7, 0xbed15681, 0xbee9e89f, 0x3eb7253b,
                               0xbfa0b7cb, 0x3e588d9f, 0x3d270ba0, 0xbe80fa20, 0x3e51bbe8,
                               0x3f90997f, 0x3ea9ec87, 0xbdcb4a19, 0x3f0d939c, 0x3ec158ac,
                               0xbf13b64e, 0xbd132f43, 0x3ee77e43, 0xbebc485e, 0xbe4c3384,
                               0xbeb16837, 0x3ba92a16, 0x3eb9db99, 0x3e774539, 0x3cf09b54,
                               0x3cd41d8f, 0x3f3f4fcf, 0x3e644edb, 0xbce4b042, 0x3d0437b1,
                               0x3f6f98a9, 0xbde797db, 0x3f4ed8d7, 0x3edce9e7, 0x3f167639,
                               0x3e1fbf6b, 0xbe09ad04, 0xbf294baf, 0xbee9f6ee, 0xbe87b03c,
                               0x3c038993, 0x3e03ee65, 0xbdb008f8, 0xbeb22fa3, 0x3ea6b203,
                               0x3ec3083d, 0xbec2a60d, 0xbe7c74ee, 0xbd5253a4, 0x3ea651fe,
                               0x3e1ef3e1, 0x3e872c40, 0x3c98ba45, 0x3e78d3fb, 0xbc264ac4,
                               0xbe262c19, 0xbd4a5da0, 0xbd68fe6c, 0xbd998a4a, 0xbf51c254,
                               0xbdd7c84a, 0x3e55fff1, 0xbd9a5311, 0xbe955446, 0x3f595d63,
                               0x3f24ce61, 0xbe04845b, 0x3d5220ae, 0x3f1ed0ba, 0xbe67ff84,
                               0x3d6a5d04, 0x3e8702be, 0xbeb397cd, 0xbf20eed4, 0xbe6bc338,
                               0x3d97c8f8, 0xbec29fc2, 0x3e3ad035, 0x3e71ef45, 0x3e692e3e,
                               0xbea30d5c, 0x3e58ee27, 0xbd87e1c3, 0x3f492481, 0x3e1ff6fb,
                               0x3d6b3045, 0x3dce39db, 0xbe56485a, 0x3d70a4eb, 0x3f5ec176,
                               0xbca22362, 0x3e6e0098, 0xbdc1fdbc, 0x3e498dbf, 0xbd71a4c1,
                               0x3ca23dff, 0xbdbeb094, 0x3ca516e6, 0x3ed4f563, 0xbbacd30e,
                               0xbf2b3114, 0x3eae3bcf, 0x3e92b433, 0x3e800c65, 0x3e9b5441,
                               0x3eb8bb58, 0x3e7572e5, 0xbeb3d3a6, 0x3eb6b619, 0x3e58941e,
                               0xbbbca3ed, 0xbe34ddfd, 0xbe2cd383, 0x3c0d626b, 0xbea5b1eb,
                               0xbe286584, 0xbc1b34a6, 0x3e2a6b68, 0xbe2789a3, 0xbe6f22cd,
                               0xbdc70f4b, 0xbea8e0d2, 0xbe944edc, 0xbe3753d5, 0x3d2ed723,
                               0x3e5087e7, 0xbeae9165, 0x3accbbb3, 0xbcdd6643, 0xbcc04922,
                               0x3f241ad2, 0x3df400b0, 0x3dbf9d63, 0x3e0de927, 0x3f976cb9,
                               0x3f4b6fec, 0xbed58340, 0xbf929a42, 0x3f164f21, 0x3e5c9299,
                               0x3dbc7219, 0x3f0b0276, 0x3ff84ea5, 0xbf9f710d, 0x3e947526,
                               0xbf6078c7, 0x3f439bf1, 0x3d0777dc, 0x3fa989a6, 0xbffca868,
                               0x3e28064f, 0x3f72c3f9, 0x3cbbe584, 0xbf1b1dcc, 0x3f0ef1de,
                               0xbe9d4768, 0x3fac0d68, 0xbf2a5981, 0x3dd87df9, 0x3ffc314d,
                               0xbce36fa6, 0xbfb3cd4a, 0xbec4ee49, 0x3eef79b6, 0xbee6865b,
                               0x3fed7126, 0x3b58761e, 0xbc8e053a, 0xbcba69cb, 0xbcc313a4,
                               0x3c56211f, 0xbcadc331, 0x3d3523d2, 0xbd6669e4, 0xbdb35192,
                               0xbc63bbc1, 0x3c6c61cd, 0x3ca3b768, 0xba11fae8, 0x3c1cb611,
                               0x3b3b9e9e, 0xbc88d67c, 0x3c869798, 0x3c33910c, 0xbd9c1b8f,
                               0x3b10cfe9, 0x3b862c3d, 0xbde1ab93, 0xbd168a2e, 0x3d6dedb8,
                               0x3c4118af, 0x3d0e9fc4, 0x3cd9ad4f, 0x3c8f2f3d, 0x3d12be41,
                               0x3bb6ad49, 0xbc70802f, 0xbc7b39af, 0x3ad3eb95, 0xbc1d4780,
                               0x3de01a90, 0xbd221c1d, 0x3d247515, 0x3bfbee4c, 0x3daf7cc1,
                               0xbd3fb791, 0xbdd08198, 0x3d84c71c, 0x3d186f5c, 0x3bed5225,
                               0xbb6550f4, 0x3d993a07, 0xbb9537ab, 0x3cdbee8b, 0x3d504aeb,
                               0x3dcec144, 0xbd8fd446, 0xbdb80423, 0x3d5b99a2, 0x3db6f677,
                               0xbdb09463, 0xba277bfd, 0x3c5596d3, 0x3dbbb942, 0xbcfaac50,
                               0x3d04082a, 0x3d13fccb, 0xbcac42ce, 0xbdeee502, 0xbcd8655a,
                               0xbd1f9db7, 0xbd0fe600, 0x3e0189da, 0xbd8c9e81, 0xbdbe1746,
                               0x3cba1b39, 0xbd16b439, 0x3c68fc6f, 0xbc9cc383, 0xbde81af7,
                               0x3dec7951, 0x3cb00b96, 0xbc611399, 0xbc426d72, 0x3cc7ceef,
                               0xbd0a655c, 0xbcb17bf1, 0xbd95622b, 0x3cd1a532, 0x3d60a3ab,
                               0x3cd69080, 0x3a497dbe, 0xbbf3dc3a, 0x3dbcdad8, 0x3ba826ac,
                               0xbb8f0add, 0x3c3d4e6b, 0xbc23c57b, 0x3c1a8e3c, 0x3dd55f24,
                               0x3e1c9614, 0x3d108781, 0xbd940c65, 0xbcb6b409, 0x3d4fa566,
                               0x3da1d975, 0xbda38f60, 0x3e01a03f, 0xb996bacd, 0x3d333df5,
                               0x3db054d1, 0xbb76aba1, 0x3d8f408e, 0xbb3eea58, 0x3d00e630,
                               0x3c8dc514, 0xbc8661c9, 0xbc3b7626, 0x3c660bc3, 0x3d18e0b5,
                               0x3d6769d7, 0xbd70eb42, 0x3d773cf0, 0xbebb928a, 0xbcbe2904,
                               0x3cb23e0b, 0x3c82d821, 0xbb3c63a4, 0xbc803234, 0xbc852659,
                               0x3ced418f, 0x3c29b724, 0x3d844010, 0x3d953639, 0xbbece465,
                               0xbc0517c9, 0x3dd227f4, 0xbd1c6ecd, 0x3c8c37c8, 0xbcaaee29,
                               0xbcb0e469, 0xbc9ef80b, 0xbd550dd5, 0x3a517276, 0x3c214e8f,
                               0x3c4df12e, 0xbc66325d, 0x3bfad129, 0xbc09214f, 0xbca8b5f8,
                               0xbcadee74, 0x3cecd4fc, 0xbc5a4652, 0x3c565e37, 0x3c469167,
                               0x3c8ffd60, 0x3c600336, 0xbc7925d1, 0x3ac03466, 0xbcbbef32,
                               0x3cafe769, 0xbbf0c4b4, 0x3c7ddafc, 0x3cb3bc9b, 0x3cdddb45,
                               0x3d0d4d6f, 0xbc114ce9, 0xbbf474cc, 0x3d15c069, 0xbca60c9e,
                               0xbc698c2e, 0xbd11c83d, 0xbcf33ab7, 0xbce7194a, 0xbd40ec4e,
                               0xba215b45, 0x3cef0c39, 0xbc968dbc, 0x3d00a935, 0xbbe976ab,
                               0x3ca912ca, 0xbc88ac62, 0xbc0af421, 0x3c64586c, 0x3c3703c8,
                               0x3c6a9dab, 0xbd4a547b, 0x3dc34321, 0xbcbced3f, 0xbbe01040,
                               0x3c47cacd, 0x3c25a046, 0xbcb22564, 0xbcda6a57, 0x3d0a0baa,
                               0xbb05990f, 0xbb970c6e, 0x3cd996bf, 0x3dd59214, 0xbdc7c4b4,
                               0xbebcce3c, 0x3efd1199, 0xbf1142d5, 0xbeb3550a, 0xbf47d080,
                               0x3e8ad97f, 0x3eb19791, 0x3ec34278, 0x3f0319c2, 0x3ed9d87e,
                               0x3cc20777, 0x3f410137, 0x3e103cab, 0xbeaf4636, 0x3e66fd73,
                               0x3e09dda2, 0xbebd16ba, 0xbda2e39f, 0x3c1b068d, 0x3e8032ec,
                               0xbeb443cb, 0xbe814392, 0x3d90188a, 0xbf188240, 0x3e18f279,
                               0xbec0be0e, 0x3dd822e6, 0xbce99261, 0xbd358503, 0xba8baf34,
                               0x3ede079d, 0x3f398598, 0xbef0e728, 0x3e8acc5b, 0xbcef3148,
                               0x3f03ef39, 0xbe396fae, 0x3e10b021, 0x3f20b590, 0xbe82606a,
                               0xbf22a5ae, 0xbc9ff41f, 0xbe217ea4, 0xbe350c4f, 0xbea49bfa,
                               0x3da2affb, 0xbe880656, 0x3efb9e9d, 0xbeb791b5, 0xbda56c39,
                               0xbe2d5bda, 0xbdb1a992, 0xbec68e09, 0x3c806994, 0xbf1f786a,
                               0xbd66029c, 0xbe8fc6da, 0xbe2edb20, 0xbe91bf9d, 0x3f739b66,
                               0x3eede5ff, 0xbe2a0255, 0x3e6a780e, 0xbef29971, 0x3e8dbbc7,
                               0xbd8ba1aa, 0xbead5332, 0x3dfcf006, 0xbe44519c, 0xbe829e0e,
                               0xbeb4af41, 0xbe44493a, 0x3e7b452d, 0xbe9476d1, 0xbdb5e954,
                               0x3a6b82ac, 0xbe528c8c, 0xbe0e12c6, 0xbe937bb1, 0xbd20020f,
                               0xbe0f16fb, 0x3dfe786d, 0xbe450caf, 0x3dafb519, 0x3c0f5dc8,
                               0x392f164a, 0x3d76015a, 0xbe7f11ed, 0x3e266984, 0xbd956bb9,
                               0xbe9fb791, 0xbd230ab3, 0xbdb2eeb7, 0x3e31cae7, 0xbad817d9,
                               0xbc85fe05, 0xbe3b2ea9, 0xbcc7885f, 0x3e46a7aa, 0x3ea497ad,
                               0xbc00f52f, 0x3e5def1a, 0x3db1343c, 0x3e58c3ac, 0xbed69713,
                               0xbf240810, 0x3d3d3926, 0xbe8b713a, 0xbda4d51f, 0xbe70bedd,
                               0x3d7a3157, 0xbf1beb6c, 0xbeb634c6, 0xbe5e7235, 0xbeb1f8d2,
                               0x3e2a40d3, 0x3d32f4e9, 0x3c23cb7c, 0x3d4cfba3, 0xbeeadd9e,
                               0x3d12777b, 0xbd5e00ae, 0x3e5d2c6c, 0xbe1ca094, 0x3e0c86a4,
                               0x3e88c513, 0xbe8ab697, 0x3eeba309, 0x3ea91115, 0x3eea94af,
                               0xbd6d8f1e, 0x3ee31035, 0xbe26f54f, 0xbaf3db1f, 0xbe1ba291,
                               0xbda35128, 0xbf314798, 0xbeb956a2, 0xbe7b4d1a, 0xbdca123c,
                               0x3ec9e62f, 0xbd88635a, 0xbf168210, 0x3eb18b23, 0xbeb39cac,
                               0x3da6e845, 0xbe7ee605, 0x3db2b2c2, 0xbdd5e92c, 0x3f2fa5ea,
                               0xbdc9e4d1, 0x3c01b48d, 0x3da73f48, 0x3e7b9b47, 0x3e7a50d4,
                               0xbd6b6c7b, 0x3e094d87, 0xbe317819, 0xbe8db63c, 0xbe55d8d6,
                               0xbdc61d3e, 0x3dbeca16, 0x3ece027e, 0xbda6727b, 0xbe745cb1,
                               0x39b97ade, 0xbe0d150e, 0xbcc1c9a7, 0x3f8281bd, 0x3e58d50f,
                               0xbe912898, 0xbdbc13fa, 0x3e7b7e7f, 0x3f0634a3, 0xbe7bca64,
                               0xbe2d915b, 0x3f376339, 0x3e9ecd0c, 0x3e0bf152, 0x3d3b4285,
                               0x3e398d52, 0x3e71d3be, 0xbe8a3084, 0x3ef18d31, 0xbec365cf,
                               0x3e1dfc5e, 0xbe8c6de5, 0x3e90b10b, 0x3d8c2c41, 0x3ccd78aa,
                               0xbd64d2df, 0x3eb0a702, 0xbeaafdfb, 0xbd76981c, 0x3e3117f5,
                               0x3f45fb68, 0x3edd4a27, 0x3d74d38f, 0xbea13683, 0x3e79c50c,
                               0xbf13f851, 0xbda0e91b, 0xbd5653c4, 0x3da86d91, 0x3e4dd7d1,
                               0x3db7deb0, 0x3ebf3c18, 0x3ef8fa0b, 0xbf31fe81, 0x3c24e7ca,
                               0xbea2c832, 0x3d092c31, 0x3f28b1fc, 0x3f2aeed8, 0x3e986dd1,
                               0xbe95b651, 0x3e63217d, 0xbed07eae, 0xbea86edc, 0x3e99888a,
                               0xbe894d8d, 0x3eb95487, 0x3eec0ce7, 0xbd6bc14b, 0xbdc315a3,
                               0xbd9ee4a1, 0xbec634f6, 0xbe4e46cf, 0xbc0f803e, 0xbca336aa,
                               0x3e4527c8, 0x3e90058b, 0x3ee131fa, 0x3e891bb5, 0x3de1c4d1,
                               0xbc54a55d, 0xbeb1f26d, 0x3da103e1, 0xbe19e131, 0x3ecc240a,
                               0xbf0f47ff, 0xbe3f514d, 0x3f8ee50a, 0x3dd2b3cc, 0x3e635fc0,
                               0x3f2e2075, 0x3e446f23, 0xbd4712de, 0x3e3d5cb5, 0xbdc06d7c,
                               0x3de9597e, 0x3e046718, 0xbe8cd789, 0xbd62ef91, 0xbce2a11c,
                               0x3e80d029, 0x3edd0cc1, 0x3c729c90, 0xbe4d0b6f, 0x3eb10a83,
                               0xbe31f481, 0xbc9bc161, 0xbf1d2b9a, 0xbe53cd8a, 0x3de6e8d8,
                               0x3e0491df, 0x3e874e34, 0x3efb2c83, 0xbd85c0f2, 0x3e202d58,
                               0xbe984f7f, 0x3e4825c5, 0xbe933c1c, 0x3e039299, 0xbd02eb58,
                               0xbe7b8c36, 0x3d30aee7, 0x3de962d5, 0x3e18b13a, 0xbb0084eb,
                               0x3e0eb70c, 0xbe6a32c7, 0x3c261d19, 0x3ec808f4, 0x3d1c651a,
                               0x3d19f4ec, 0x3f3559e7, 0xbdea5db1, 0xbcca5d48, 0xbe3cf787,
                               0xbe79b9de, 0x3f04a75d, 0x3e8cef21, 0xbe6c29bc, 0x3d9f4afc,
                               0x3c8c84a2, 0xbee8e683, 0xbf0e13bb, 0xbd965f60, 0x3d307bf8,
                               0x3dc446a7, 0xbd9319c9, 0xbf043195, 0xbe75bcdf, 0xbdcfeb32,
                               0x3ee58661, 0x3b3a68aa, 0xbd4ecb09, 0x3de22960, 0x3e9b7e74,
                               0x3ec86da7, 0xbce19f43, 0x3e51db8f, 0x3d86612a, 0x3e28ca4d,
                               0x3ef0b5f1, 0xbebefcf1, 0x3df29fd7, 0x3f09e3fb, 0x3edcee6e,
                               0xbc1922da, 0x3e382b41, 0xbf28ec40, 0xbe6a395b, 0x3d421772,
                               0xbe1f982c, 0x3f05a942, 0xbe74a98e, 0x3cb23a1c, 0xbe8ce3dc,
                               0x3dccadca, 0x3f3a3d33, 0x3ecc62a5, 0x3e0a2555, 0x3ee55bf5,
                               0xbdca84db, 0xbd1274fa, 0x3dd2aad1, 0xbeace36f, 0x3ee9bc9d,
                               0x3eb0c981, 0x3e85fe43, 0x3da53942, 0xbdb8309a, 0x3dad4ac5,
                               0x3e80f7a4, 0x3d9a03b8, 0x3e309f7f, 0x3f0491da, 0x3d9e1460,
                               0xbf14a6f4, 0xbef2c853, 0xbe993bc8, 0xbe7e345d, 0xbe755b74,
                               0x3e8113aa, 0xbce9de03, 0xbf0b12c2, 0x3e1a651e, 0x3dacd365,
                               0xbf1d9a65, 0x3d705226, 0xbda26ac8, 0x3b894d4c, 0x3eb8d34f,
                               0x3e88d474, 0x3e824da9, 0x3e0eb28e, 0xbed7b869, 0x3ee9ea5c,
                               0x3ebe1973, 0xbec0c00b, 0x3e2146d4, 0xbe08da48, 0xbf10482d,
                               0x3ebad43f, 0x3d8e5116, 0xbddd604d, 0x3f1657fd, 0xbe27eb75,
                               0xbed08351, 0xbe55aa5c, 0xbea384ac, 0xbe9b1bc9, 0xbe12eb1e,
                               0xbef63cc9, 0x3df90e7e, 0x3e216d94, 0xbdb0b194, 0x3e13d28d,
                               0x3e8842a0, 0x3d01e382, 0x3d20bf1f, 0xbe57bf4d, 0x3d3c2bf2,
                               0xbdd49747, 0xbd678a97, 0xbc80d171, 0x3f32475b, 0x3eda326a,
                               0x3df3053a, 0x3eb8c768, 0x3e013d07, 0x3cc67a02, 0x3eec280b,
                               0xbeba969d, 0xbcc2bed4, 0xbd8c876d, 0x3f181a84, 0x3ec766a5,
                               0x3da26a09, 0x3e4fcb8a, 0x3dcf34ce, 0xbe9aae32, 0x3e9cf166,
                               0x3e18edd1, 0x3ed92368, 0x3d0d5e19, 0xbdc7f317, 0x3e7aa910,
                               0xbe92af7d, 0x3f1a033c, 0xbe9496b8, 0x3e57b4c5, 0xbe9b385a,
                               0xbddacb65, 0x3e675c17, 0xbf52e1c1, 0xbf51ae7c, 0x3ea9ece8,
                               0xbd42b38b, 0x3d45ce20, 0xbd6fb817, 0x3eace09d, 0x3f83c020,
                               0x3e7597a5, 0x3e1dedde, 0x3ed8fa69, 0xbe9dc8c5, 0x3efba541,
                               0x3eb01030, 0xbe2e9639, 0x3e743bc9, 0xbdb2dc3e, 0x3f08ef4d,
                               0xbeac904d, 0xbcb22ddd, 0x3f286257, 0x3f4d2bdf, 0x3e67f27b,
                               0x3f05f049, 0xbe0893c1, 0x3ef91c8e, 0x3d667c90, 0xbe9b91d6,
                               0x3f66e33a, 0x3db42fb6, 0xbf4c5b0b, 0xbee6ad83, 0xbe4cb28c,
                               0xbea94de8, 0xbef1ec86, 0xbdb795f8, 0x3ea66deb, 0x3f059628,
                               0x3f296434, 0x3e835c8a, 0xbef53e15, 0xbe91e968, 0xbe0aa330,
                               0x3e9b2323, 0xbdf09e9e, 0x3ecf492d, 0x3e35bcd8, 0xbeb785c9,
                               0xbc9f6c5e, 0x3f1e6528, 0x3f0aa2d9, 0xbf136f4b, 0xbe9a6268,
                               0x3e64b25b, 0xbf19c583, 0x3f4aa9ba, 0xbe65c74e, 0x3ebadd2e,
                               0xbf8ba689, 0x3f2202e1, 0xbf1437d9, 0x3d47e352, 0x3e83fecc,
                               0xbdc85a9a, 0x3dec368e, 0xbf179ac9, 0x3f131f7a, 0xbebe2071,
                               0xbf807c9d, 0xbf1c86db, 0xbea5bf16, 0x3e51846c, 0x3f148ebe,
                               0x3eaba516, 0x3d766d54, 0xbdf54261, 0x3da3ee95, 0xbef42462,
                               0xbd4f875a, 0x3f2ffe77, 0xbf1e8fc6, 0xbf1b6145, 0x3ece45b7,
                               0x3e5ac5d9, 0x3d903e9a, 0x3f132022, 0xbecdd078, 0xbe3422c3,
                               0x3ed9cdd7, 0xbee1ade5, 0xbd895ed3, 0xbe41268f, 0x3e338613,
                               0xbea30e9c, 0xbe202995, 0x3efecc10, 0xbf1f5330, 0x3de639a5,
                               0x3f5fdaeb, 0xbd895454, 0x3ef7c8f2, 0x3f85d0c4, 0xbca99cb4,
                               0x3f3a3fda, 0xbe69c14f, 0x3f4c562c, 0x3e35a9d3, 0xbe60fd50,
                               0xbcea0643, 0x3ec89f87, 0xbe9c076f, 0x3e3e7710, 0xbeb5c41e,
                               0x3e9a499d, 0xbef9eae8, 0x3d96e1f2, 0x3e64e66f, 0xbe43d50a,
                               0x3e84ac0d, 0x3f04d300, 0xbcf9d3fd, 0x3adfbcfb, 0xbcfd212c,
                               0xbe2aa25e, 0x3f019655, 0xba49ba19, 0x3e5db2d1, 0x3e113f92,
                               0x3f0e31b4, 0x3d348dac, 0x3e10be61, 0x3ece40e2, 0x3de03517,
                               0x3f2b1834, 0x3da5b00d, 0xbe498416, 0xbe61635f, 0xbe7ae760,
                               0xbe9df992, 0x3e8ae1dc, 0x3e3c1af7, 0x3f229295, 0x3d706414,
                               0xbeb2da26, 0xbec2638e, 0xbf2af358, 0xbe8abde3, 0x3e8f6317,
                               0xbea8fb6e, 0x3ec611c5, 0x3d98d696, 0xbd0828b4, 0x3efee5fa,
                               0xbe2f0d20, 0x3d985116, 0xbe21708a, 0xbe425227, 0xbea2e1f3,
                               0x3d10579d, 0x3eaeaba4, 0xbd25ab4a, 0x3dcda9c8, 0xbb95a12b,
                               0xbd70e543, 0xbe244fff, 0x3e195065, 0x3de59ed4, 0x3e81b525,
                               0xbe07844e, 0xbd39ae20, 0xbedfc44d, 0x3e785ff9, 0x3e855895,
                               0x3e31b8cc, 0xbe92fc3e, 0x3eed9e8c, 0xbe1554f6, 0x3d6d10e6,
                               0x3f2fa187, 0x3e662de1, 0xbd6aacdb, 0x3e46335b, 0xbd84a0a5,
                               0x3eba27df, 0xbdecea48, 0x3e20dd0e, 0xbe7c0315, 0x3def81f0,
                               0x3dded017, 0xbf03af2c, 0xbf103197, 0xbeb9f600, 0x3e7533d6,
                               0xbeb93715, 0x3e2b8e70, 0xbeaf0e53, 0x3e01f6f4, 0x3f4f2ccb,
                               0xbe14d86f, 0x3f8101da, 0xbded7a1e, 0x3de29f32, 0x3efdda1f,
                               0x3e7a9421, 0xbce55586, 0x3eb5732e, 0x3d863ae8, 0xbedf3940,
                               0x3e792036, 0xbd42b1ce, 0x3ebdc9a4, 0x3cc63de7, 0x3e8cb564,
                               0xbd7f2ed5, 0x3e1d4455, 0xbbd28e6f, 0xbc48ab79, 0xbe354610,
                               0xbe00e69b, 0x3eb5a560, 0x3e167c34, 0xbd727ae8, 0xbe9b1537,
                               0x3d83a7dd, 0xbddf89ab, 0xbe7a137b, 0xbe9aede2, 0x3eb0c4b6,
                               0xbe313502, 0x3ec4c4e3, 0x3e8ab96d, 0x3d7ae89e, 0xbddc00dd,
                               0xbe570937, 0xbe3ac24e, 0xbe5ab117, 0x3cd2744c, 0x3e816f17,
                               0x3e1fa1ec, 0xbda31eb0, 0xbe8d7d2b, 0xbe6b1738, 0x3ddc5f20,
                               0x3e1eb95d, 0x3e2c71e5, 0xbeca7112, 0xbcb6954e, 0xbd533904,
                               0xbccc64d8, 0xbe9ac6ee, 0x3edf5d69, 0xbee3af7c, 0x3d7f78d4,
                               0xbe09de4c, 0xbe5bf14b, 0xbd863994, 0x3e151312, 0xbeb8797f,
                               0x3e8ec378, 0x3edf592c, 0xbea99a75, 0x3e150fce, 0x3e39d92d,
                               0xbe142fe3, 0x3e59fb50, 0xbe8317a2, 0x3dfe6bae, 0x3e35c511,
                               0x3e34859b, 0x3e8b468e, 0x3e38200b, 0x3e989733, 0x3e169f5b,
                               0xbe3ba71f, 0x3e909b8b, 0x3eb23a1a, 0x3eca41a9, 0xbdd5a5b5,
                               0x3f817542, 0x3f00a2b8, 0x3f0b38e7, 0xbece0e81, 0x3e415c5a,
                               0x3e03a09a, 0x3f2bde34, 0x3ea5c090, 0x3ea030fa, 0x3e4dc16c,
                               0x3ecdae23, 0x3f398df2, 0x3f199fa8, 0xbe05d53a, 0x3f6fcfa9,
                               0x3ec2c5cf, 0x3dec2208, 0xbe2b22b1, 0xbf7edca3, 0x3f2e8532,
                               0x3e1c8b40, 0x3eea8710, 0xbeee6d7f, 0x3f82d7e2, 0x3f90ee8c,
                               0xbf272450, 0x3e5eec31, 0x3eacaf15, 0x3f478929, 0xbed7904c,
                               0xbeb08992, 0xbdf688e0, 0x3e803d70, 0x3e943557, 0x3ec699e7,
                               0x3edd8da3, 0xbe075021, 0xbea9a1ab, 0xbf024810, 0xbf61e9e8,
                               0x3e33db9b, 0x3e6ff5af, 0x3e79813b, 0xbf2270f9, 0x3e792e52,
                               0xbe7a4ff7, 0xbde84c73, 0xbeece0d6, 0x3e2f82be, 0x3eba02f5,
                               0xbe842e2a, 0x3ddbba21, 0x3db064ab, 0x3eebeac1, 0xbe291ac8,
                               0xbe0f87c2, 0xbe03d16f, 0x3f48fc19, 0xbe883b1d, 0xbef30112,
                               0x3f382856, 0x3e20f2ec, 0x3ea9cf1e, 0xbe07053b, 0x3ef3ac63,
                               0x3eb29c5d, 0xbe10ed6f, 0xbde6c3d4, 0xbf4110c9, 0x3f079fa5,
                               0xbee5d7c7, 0xbe97545c, 0x3eeec654, 0xbe26cf08, 0x3e3d272d,
                               0x3edb7da1, 0xbe9ac12c, 0x3e5f197d, 0x3d77c982, 0x3f489129,
                               0x3e603224, 0xbe8abc05, 0xbe99abce, 0xbf1a21c9, 0x3f1ef6cf,
                               0x3e309695, 0x3f4476f6, 0xbea32ff6, 0xbf001a69, 0x3ee8fe91,
                               0xbec086b6, 0xbd22da26, 0x3e597682, 0x3ee354c2, 0xbd96f41b,
                               0x3eba731f, 0x3eac7892, 0xbd964d5a, 0x3d828c32, 0xbe211ad9,
                               0x3f485718, 0xbe331c1f, 0x3f1e2609, 0x3f18ef69, 0x3e9c44ce,
                               0xbe1b2813, 0x3f725172, 0x3eb4410c, 0x3dfde8b7, 0x3ec3c8ae,
                               0x3f01b3ce, 0xbefe8c72, 0x3ea77de6, 0xbdef0422, 0xbf32d9ed,
                               0xbb3397c2, 0x3e9884eb, 0x3f46047e, 0xbda4b1f1, 0x3f588877,
                               0x3bcd8134, 0xbf1da4b7, 0xbeaf6733, 0x3f9126b5, 0xbe6eefcd,
                               0xbd477019, 0xbe8e5e69, 0x3e8a6853, 0x3ca9e56d, 0x3b5ced6f,
                               0x3d4a0c59, 0xbdd8b342, 0xbe09c1ca, 0xbd275b42, 0xbc5b6f7f,
                               0xbdd8b2a5, 0xbccaec17, 0xbe5b8f6a, 0xbec751ea, 0xbc8bc10b,
                               0x3d59ccab, 0x3ee70501, 0xbead85fa, 0xbe025dad, 0x3d73cf80,
                               0xbcd2f6ac, 0xbeb768dc, 0xbc7e43f0, 0x3df98249, 0xbe87471f,
                               0xbddf3015, 0xbc9fc562, 0xbe0d3233, 0xbf25282e, 0xbf452a79,
                               0xbe8db6cd, 0x3d77095b, 0x3e0b7ea3, 0x3e9889b9, 0x3d4215c3,
                               0xbf03b6f1, 0xbd8fbca1, 0xbf76511c, 0x3f1d4d85, 0xbf52fca3,
                               0xbede8d42, 0xbe9b64d2, 0x3ea40ee0, 0xbf001cc9, 0xbf53d96f,
                               0xbd7e2975, 0xbf07aee4, 0x3c907b4d, 0xbeaf8769, 0xbee159a5,
                               0x3dd80e2d, 0x3df2994b, 0x3f15ddca, 0x3e978492, 0xbdd254d8,
                               0xbf22c38d, 0xbf76df32, 0xbf392f5a, 0xbe13696c, 0x3f371232,
                               0x3ef04b8a, 0x3eb0524f, 0xbeae7a99, 0x3f3d4afb, 0xbe829205,
                               0xbc02f1ae, 0xbe5bbc24, 0x3ea84e5d, 0x3edc0cca, 0xbea5745d,
                               0x3e05f943, 0xbe84f3e7, 0xbe0e4bba, 0xbe30cc45, 0xbe56517f,
                               0x3edba6c0, 0xbca731ba, 0x3e821782, 0x3dadee4e, 0x3df081df,
                               0x3f1d2e9f, 0xbefe3730, 0xbfa9b73d, 0xbe5a8e75, 0x3f275781,
                               0x3e15e52e, 0xbd2882ab, 0xbe5f7e35, 0x3d24487d, 0xbd237a4f,
                               0xbe7f1f26, 0xbe65ec8d, 0xbe8c3dbe, 0x3e4feb40, 0x3e643cfc,
                               0xbd64a3e9, 0xbf0b0e19, 0x3dfb74a2, 0x3e63a6ff, 0xbf1a7bd2,
                               0x3e01d8cc, 0xbf098528, 0xbf954fd9, 0x3e48d65a, 0x3e09d6ce,
                               0x3eb5f758, 0x3f2bd1dd, 0xbef9459f, 0x3f08770f, 0x3e2db160,
                               0xbd9947f3, 0x3f0c079e, 0xbeeea9a7, 0xbd3adc5e, 0xbe1196ba,
                               0xbf77eae5, 0x3e3a5291, 0xbedc9fe9, 0x3e8eee51, 0xbe954636,
                               0x3e84041f, 0x3d330f24, 0x3e0ad93d, 0xbb51cd2e, 0x3e421a18,
                               0xbd5c95a4, 0x3da19f8c, 0xbf6a358a, 0x3e3f023e, 0xbe0cc06e,
                               0x3eb05125, 0x3dcc842a, 0x3d7ee2a9, 0xbdb5d92a, 0x3da6efb6,
                               0x3e5379c4, 0x3e9b601f, 0xbe1e5fc0, 0xbdbd5efe, 0xbe1f197b,
                               0xbf17c59c, 0xbeea8cc6, 0xbc15ffbd, 0x3e7767a0, 0x3ef6c9e7,
                               0xbebfa7e4, 0xbe09b36a, 0x3ebbbb0c, 0xbf1a2bf4, 0x3e93b81b,
                               0xbc2c59e7, 0x3e9373dd, 0xbe08de77, 0x3dfe3821, 0x3e8e1a4f,
                               0xbd07abd5, 0xbe3551d8, 0x3e916478, 0xbddcfff3, 0xbebb0494,
                               0xbdb02184, 0x3ec2f65f, 0xbe890f13, 0x3e7e7f86, 0xbebaf020,
                               0x3ed09d72, 0x3e31c9c2, 0x3e87d883, 0x3eadf1ee, 0x3ef7416e,
                               0x3e62af1e, 0x3e8cb8a8, 0x3ea334aa, 0x3d766f53, 0xbe9f44de,
                               0xbe88f302, 0xbe5e543f, 0x3c47132d, 0xbe1652c4, 0x3e34b6b5,
                               0x3f655468, 0xbf11fe40, 0x3e136133, 0xbc1201aa, 0x3dfe1a2d,
                               0xbdf2ba06, 0xbd8c2c3e, 0xbd058e42, 0xbf28b891, 0x3eebf49b,
                               0x3db0ee78, 0xbeddc101, 0x3e027ddf, 0xbe8a455c, 0xbea185c9,
                               0xbe9678c1, 0x3ec4b5fb, 0xbe76f743, 0x3f042a5b, 0xbe2f4c48,
                               0xbe63636d, 0x3bab5cb2, 0x3dea828b, 0x3e40d7ac, 0xbd39037a,
                               0x3f7010c3, 0x3ac949f0, 0xbf023013, 0xbcd97788, 0x3dab1aaf,
                               0xbe0efac5, 0xbdc82f79, 0x3eb84f78, 0xbef34404, 0xbef04759,
                               0xbe8919ac, 0x3eb024af, 0x3ed7d45b, 0x3f8c8b78, 0x3e39997d,
                               0x3c4fd2cc, 0x3e02700f, 0x3ec557e9, 0x3f44b7fd, 0xbe52ddaa,
                               0xbe4327cb, 0xbe22196e, 0xbe457e5c, 0x3eb859cb, 0x3ea152f3,
                               0x3ea8ad5b, 0xbe5b03e4, 0xbf04233e, 0x3eeb156b, 0x3ec74746,
                               0xbbb328da, 0xbe38fe41, 0xbecb6872, 0xbe8f165c, 0x3e6b018c,
                               0xbd85c890, 0x3d4c7307, 0x3e0ac704, 0xbf0f2362, 0xbe0af8c8,
                               0xbef0a607, 0xbec48c8c, 0xbe866c8e, 0x3ea682e3, 0x3e1bb6c5,
                               0x3f21509a, 0x3eb009a4, 0xbf2314da, 0xbd57f989, 0x3c825ac9,
                               0xbedc3a2a, 0xbd0ab4fe, 0x3d841805, 0x3d18dcb3, 0xbf245fde,
                               0xbdfef480, 0x3e423d96, 0xbcbad32d, 0xbe19a3e4, 0x3e60c560,
                               0x3ce73b6c, 0x3e41a32b, 0x3c3a2054, 0x3e48f641, 0x3e311fc1,
                               0xbf0e8b85, 0xbe29eba2, 0xbdebda23, 0xbd22c7c4, 0xbd5d622f,
                               0x3ee69d4e, 0xbebec1d7, 0xbdd189dd, 0xbf1e6f86, 0xbce236c7,
                               0xbf2b2471, 0xbdf9b784, 0xbcfd6a9d, 0x3e6e340d, 0x3f0197af,
                               0x3c54904b, 0xbe45033c, 0xbdb33f76, 0xbe26fdb7, 0xbecead62,
                               0xbf41be3f, 0x3f2f84a1, 0xbe50ff92, 0x3f0b856f, 0x3ea58a5a,
                               0x3e7e6bf0, 0xbf1c38b1, 0x3e46b461, 0x3e0e9ede, 0x3f0f5248,
                               0x3e90d1bb, 0xbe56b900, 0x3ebb354d, 0xbf15568c, 0xbb6b460f,
                               0x3eadfe96, 0xbe4520c4, 0xbf3ab232, 0xbe304c29, 0x3f297663,
                               0xbe63758b, 0xbedd7080, 0xbf47f0c4, 0x3eacbf55, 0xbf1dafe8,
                               0xbeaf2e33, 0xbecba565, 0x3e568a74, 0xbe0bb440, 0x3ea3a3f4,
                               0x3cd41802, 0xbf40b958, 0x3f2d620a, 0xbe8ce931, 0x3ec2af90,
                               0x3ec72b7f, 0xbe4dcace, 0x3e343057, 0x3cd04a0c, 0xbe3de5a0,
                               0x3ed76bab, 0x3e6b17de, 0x3f1f18a4, 0xbee8eb1f, 0x3d5f8b79,
                               0x3ed71ecb, 0xbc447ca3, 0xbebf803d, 0xbe65d7fd, 0x3e8c8b4e,
                               0x3de4accd, 0x3db5079f, 0xbe8a7e7f, 0x3f27a7a6, 0x3d2a7285,
                               0xbebdc6b3, 0xbf30661c, 0xbd278ccb, 0xbd3baa54, 0xbda4ba45,
                               0xbea3f10f, 0x3e160a9a, 0xbe9d79ea, 0xbf55317b, 0x3ddc3c30,
                               0x3e8a7cbb, 0x3ecaac11, 0xbea88187, 0x3eb0fa6f, 0xbd497f4e,
                               0xbeba0fe1, 0x3e9eedf1, 0xbe7ae8bb, 0xbef3cbda, 0xbe0ff1ef,
                               0xbd87f51f, 0xbe2644b3, 0xbeb8a272, 0x3ef1af69, 0xbe145c11,
                               0xbe1116f2, 0xbdc837df, 0xbe931829, 0x3ea3ba70, 0x3e4f56c2,
                               0x3ca62b2b, 0xbe33f3f6, 0xbe619520, 0xbf1272ba, 0xbf374d15,
                               0xbac24d71, 0x3e9bd749, 0x3f2554d0, 0x3f54d5fe, 0xbf2bde1a,
                               0x3d087cc9, 0x3b997461, 0xbe8040ae, 0xbe4c56f9, 0x3bd09938,
                               0x3dc07da2, 0xbde1ede5, 0xbece434f, 0xbec2d4ca, 0xbe110354,
                               0x3e33a52b, 0x3f93d7e6, 0x3d3f88a2, 0x3ea02342, 0x3f282a62,
                               0x3d7388e8, 0xbf081e74, 0x3e00428d, 0x3ecfb5a2, 0x3e49989c,
                               0xbf04474b, 0xbd8eb760, 0x3e6423bc, 0xbe676e7a, 0xbe801d3e,
                               0xbe35f585, 0xbeb07d07, 0xbe1c479e, 0x3edbf20d, 0xbf66ab2f,
                               0x3f4107b9, 0xbd395538, 0x3e9fd79e, 0x3eecdb80, 0xbef6486e,
                               0x3ce5e27c, 0xbf0f3598, 0xbe4ceb1a, 0x3e91d622, 0x3e006e0f,
                               0x3e8e0307, 0xbe9575a6, 0xbdc2f60d, 0x3cbcab20, 0xbf3db99a,
                               0xbec61838, 0xbe550e24, 0xbd6ed880, 0xbc5bd5d2, 0x3d8cba72,
                               0xbf38aec4, 0x3d3bd4da, 0x3ec2b679, 0x3e029320, 0xbd363e7d,
                               0xbd6c27df, 0x3e9abba3, 0xbeb6988f, 0x3ea8fcca, 0xbe9bd5f2,
                               0x3f0ef51f, 0xbe0adcdf, 0x3ec78617, 0x3ef9e9e1, 0xbd973b8c,
                               0xbea17c7b, 0x3f0bcf72, 0x3d26eb82, 0x3eb1ec9a, 0xbb76d846,
                               0xbe47e50e, 0x3cf44732, 0x3edfcf5c, 0x3e77e610, 0xbde8045c,
                               0x3eb73878, 0xbe5c8c78, 0x3f2a9d18, 0xbea0a9fd, 0xbd9824a8,
                               0x3e7d18dc, 0xbdca1b73, 0xbdbb0127, 0x3eb11549, 0xbecec30a,
                               0xbe963270, 0xbd8e11bb, 0x3e2ebc1b, 0x3ec67c4f, 0xbd86238c,
                               0x3d96db3f, 0xba59b410, 0x3eed18f7, 0x3ea2f934, 0x3f0a0403,
                               0xbde0fb43, 0x3e8927ae, 0x3f32cdcd, 0x3ed32b2b, 0xbef65f0f,
                               0xbf2a818f, 0x3ccba4c3, 0x3e5f1213, 0x3e820cd8, 0x3e3736e1,
                               0x3f6c843c, 0xbe33908d, 0xbea784df, 0xbe4079f8, 0xbea668ef,
                               0x3e463da3, 0x3dabd3c9, 0xbeb98412, 0xbe9e8b13, 0xbd0818c6,
                               0xbead2987, 0x3e7f7dc1, 0x3e9fa017, 0xbe54ad38, 0xbdf78f01,
                               0xbd039d64, 0xbe734467, 0xbd5822cd, 0xbe5f6f85, 0x3eb1fb39,
                               0x3e09a553, 0xbf734a61, 0x3e95d82e, 0x3e6eccfe, 0xbe4c1144,
                               0x3daad6b0, 0xbec4061d, 0x3db68257, 0x3dc827e2, 0xbd58f06d,
                               0x3ee29d85, 0xbd8f433d, 0xbf0f1f61, 0x3eb1393d, 0xbed75668,
                               0xbe37b342, 0xbf30ff1d, 0x3cc6fdb7, 0xbf3412b0, 0xbf131e21,
                               0xbef97ce0, 0x3cff5e35, 0x3f55facf, 0x3d0e69d8, 0x3e10f195,
                               0xbe69d3f7, 0xbe359361, 0x3e3ef5ac, 0xbe933280, 0x3eb9e250,
                               0xbdf59569, 0x3dbf4529, 0xbea44159, 0xbfb64e5d, 0x3e05983d,
                               0xbe81d741, 0xbe4f1a5c, 0x3f75292e, 0x3e8a911d, 0xbe78fe92,
                               0xbe3d0f67, 0xbeeda4b9, 0x3e7fdd12, 0x3e6e3e8c, 0xbf2d62ee,
                               0x3f30dfc3, 0xbd06633d, 0x3d92a2f9, 0x3ea13b3d, 0xbedbf7d1,
                               0x3d475735, 0xbedd6eaa, 0xbf2445d0, 0x3df05981, 0x3e9dd148,
                               0xbf0764b6, 0x3e7c229b, 0xbe2513ae, 0x3e980700, 0xbe48fbd8,
                               0x3e67be4a, 0xbedc7b46, 0xbd8d1e1c, 0x3f0d189b, 0xbf817fee,
                               0xbee661f7, 0x3dee7072, 0xbeb322d7, 0x3e1ed894, 0xbebf89a0,
                               0xbd84ff65, 0x3cfc4030, 0xbe4f6d6e, 0x3e43a885, 0x3f6fa985,
                               0x3f477cc5, 0xbf479f31, 0x3e07ef0a, 0xbee885ff, 0x3e9f9c14,
                               0xbde8637e, 0xbed2419e, 0x3e0f9215, 0x3e70b7cb, 0xbdfd8b56,
                               0x3d8bbaee, 0x3ee42aae, 0xbdf5758d, 0x3f1592cd, 0xbe45e80f,
                               0xbf10d4db, 0x3ecec69c, 0xbeddab07, 0xbd8025d2, 0x3dfac8d2,
                               0xbe7ac340, 0x3e2c272b, 0xbf1b7b64, 0xbe661078, 0xbe98ef18,
                               0xbde2fa61, 0x3f0000b0, 0xbf1915c9, 0xbb500170, 0x3e4abaa4,
                               0x3f2250cf, 0x3eafedc1, 0x3c8afa82, 0xbe9ecebc, 0x3f22b02d,
                               0x3ebb7a29, 0xbf30317c, 0x3e915d3e, 0xbee4ce29, 0x3e6ab4d3,
                               0x3ca5607b, 0xbeb023c1, 0xbe890cca, 0xbe8acfb4, 0x3e68d8b6,
                               0xbe88d756, 0xbe819e24, 0xbddcc3ce, 0x3f03d2f0, 0x3e3bedc6,
                               0xbf02a84c, 0xbeb8bb6e, 0xbe5ec2eb, 0xbe418cee, 0x3c7c543a,
                               0x3e9cdc74, 0x3e382589, 0xbebeeb8e, 0xbeab436c, 0xbe8d2e58,
                               0x3d85daf3, 0xbe865ce8, 0x3e8d3706, 0x3e1cc9fe, 0x3dd3d52d,
                               0x3cccd9f4, 0x3ec8b8a9, 0xbf7159de, 0x3e55fe4d, 0x3e4b4b63,
                               0xbe4612b8, 0x3dac15b4, 0xbebed769, 0xbe2e6b81, 0xbe9b57d1,
                               0x3ec24577, 0xbe82e04f, 0xbdf24bc3, 0xbc62c304, 0xbf596a2f,
                               0xbe0be96c, 0xbebfafb4, 0x3d58d597, 0xbe9647b7, 0xbee6198c,
                               0xbdce3ccc, 0xbf3e8ee4, 0x3e45b274, 0x3a89838a, 0x3e7cc0fb,
                               0xbeb06b6f, 0x3dc8989d, 0x3e61cbe0, 0x3da3abc3, 0xbf2a5442,
                               0x3ee6518f, 0x3e807b56, 0xbdda8653, 0xbe9f34a9, 0xbdb9ac9f,
                               0x3db43e5d, 0xbdf10690, 0x3df28dae, 0xbe205454, 0x3df6484e,
                               0xbeb5a86c, 0xbe8c63d7, 0x3f41433f, 0x3e831b00, 0xbdb3b427,
                               0xbf111405, 0xbd93c663, 0xbe1423b7, 0xbdf9b5ca, 0xbedb5bf9,
                               0xbc860672, 0xbd3fa773, 0xbe82b727, 0x3eb3b3e2, 0x3eac2ba8,
                               0xbe52a051, 0x3d93bc46, 0xbe24374e, 0xbe9c6d05, 0x3e11e0ab,
                               0xbe3abf2b, 0xbea24e1a, 0xbe85387d, 0xbe5c8893, 0xbe6d9634,
                               0x3e35ff10, 0xbf038e88, 0x3d59c85f, 0xbe19fb9f, 0x3def9c77,
                               0x3e9b9177, 0xbeba320e, 0xbe8be9a2, 0x3d3c4ee9, 0x3e96f4d4,
                               0x3e17ab05, 0xbd9422b8, 0xbebba271, 0xbedae506, 0xbcae884f,
                               0x3e84ad11, 0x3ec8beba, 0x3d21a093, 0x3d16467c, 0xbce6fc1b,
                               0xbe0e8f17, 0xbf4e7359, 0x3ea57e32, 0x3e7ad75e, 0x3e05a333,
                               0xbebb71b3, 0xbdefc5ab, 0xbe2b2783, 0x3f11236d, 0xbe870324,
                               0x3eddf988, 0xbe0ba821, 0xbe24f996, 0x3f0501f5, 0xbe9b8177,
                               0xbd5776a1, 0xbea3dfc5, 0x3d561721, 0x3cad7d78, 0xbf0514c2,
                               0xbf284206, 0xbebc31a5, 0xbdca5711, 0x3e62476f, 0xbeac29ae,
                               0xbc839395, 0x3e819ee2, 0x3ee7359e, 0x3e9bd2c6, 0xbddb5e44,
                               0x3e74d961, 0xbdde2d5e, 0x3f11be8d, 0xbe6489f8, 0x3ef24df1,
                               0x3e27e09d, 0xbdf5916d, 0xbba82ae4, 0xbec7fa15, 0xbedcec9f,
                               0xbd4ea067, 0x3e910a43, 0x3f0bf865, 0xbed46613, 0x3dc97ea2,
                               0x3df86747, 0x3f9d4b51, 0x3e8276d1, 0xbca88d54, 0x3f258530,
                               0xbcd5d099, 0xbe23a29a, 0xbebe307e, 0x3d5cf4f6, 0x3dd185dc,
                               0xbe1f72de, 0x3e9da3e8, 0x3f3279fd, 0x3ebe70e8, 0x3e257ade,
                               0xbe89c264, 0x3e2cf32b, 0xbf4d499c, 0xbee18a7f, 0xbeb95471,
                               0xbec47cda, 0x3eb670e4, 0x3d185bef, 0xbd44bcfc, 0xbdc6d97b,
                               0xbe9b3fcc, 0x3ed1ef8c, 0x3ece6527, 0xbed92e90, 0x3d18b67e,
                               0x3ec9d79e, 0x3e48840b, 0x3e039fc8, 0x3e5455b3, 0xbdcda177,
                               0x3bdf2d52, 0x3f0b9a0b, 0xbdd83c7a, 0xbe9ca6ec, 0xbefd41ba,
                               0x3efbf95e, 0x3c914b2e, 0xbd7304c8, 0x3ea995fa, 0x3b482e5b,
                               0xbed35bd0, 0x3e0f4d24, 0xbe1490a1, 0xbf181b0b, 0x3eac441a,
                               0xbe0e36dd, 0xbe481ddf, 0x3ed8c944, 0xbd39f6d1, 0x3e4c73a9,
                               0x3f90aab5, 0x3e936caf, 0x3e313a38, 0x3fc314a1, 0x3eb350df,
                               0x3e904132, 0x3e1e7a42, 0x3d7e4d6d, 0xbea265b6, 0x3f648085,
                               0x3df2803a, 0x3d967f50, 0xbea49122, 0x3e83be48, 0x3f0b74d8,
                               0x3f070300, 0xbeb42700, 0xbe2d96ae, 0x3eaf1a36, 0x3f2f5f6c,
                               0x3f24780b, 0xbf07fe99, 0xbeb0f18e, 0xbef2c287, 0x3ecdacc7,
                               0x3e81cae1, 0x3e226b76, 0x3cddea36, 0x3f93bffa, 0x3f408666,
                               0x3e814c28, 0xbebfc5c1, 0x3f4d326c, 0xbe0515c9, 0xbe87a5b2,
                               0xbe866b3c, 0xbde532ea, 0xbf027f19, 0xbd18f667, 0xbef40938,
                               0xbecc4472, 0xbee2e987, 0x3e8dc05d, 0x3f0b64d1, 0x3f31dd16,
                               0xbe3d54a9, 0x3edc6c65, 0x3deb77df, 0x3f191f76, 0x3e41003a,
                               0xbdc255a4, 0xbe9b6e3f, 0xbc481581, 0x3e21d33e, 0x3e9808bc,
                               0x3f0e77b2, 0x3f00b96a, 0xbe7c8514, 0x3e434e56, 0x3d438631,
                               0x3ea51fd4, 0x3e47a0e9, 0xbeaf41ff, 0xbf3aedd4, 0xbea86b8d,
                               0xbe5543da, 0x3db8cfae, 0xbf0bf444, 0xbf905395, 0x3f12aa71,
                               0x3d06178e, 0xbf18e8fa, 0xbe2eb23c, 0x3f0e6e93, 0x3dab99d0,
                               0xbe69f19a, 0xbe374ad6, 0xbe0aa62a, 0xbf45315a, 0xbeef2b8b,
                               0xbe911361, 0x3e137b50, 0xbf7054ff, 0x3ef99107, 0xbdb71f3e,
                               0x3e2f6903, 0xbf2ec3fb, 0xbe832233, 0x3cc37866, 0x3cefb9d7,
                               0xbf01c959, 0x3ecee782, 0x3e32d434, 0x3d9e7dc2, 0xbed02480,
                               0xbea21ce3, 0x3f335d0c, 0x3ec45b26, 0x3f0aba72, 0xbd87f047,
                               0x3ed3345d, 0xbed35949, 0x3f29f720, 0x3d57cfa5, 0xbe863bb1,
                               0x3f6fd99f, 0x3eb45362, 0x3bf0d647, 0xbe8b3d3f, 0x3dd84244,
                               0xbe845553, 0xbe8311e5, 0xbec3f019, 0xbd9f95b7, 0xbe2dabcb,
                               0x3e89c5d6, 0xbf10e81e, 0x3e6300ac, 0x3d965966, 0x3ecddcd1,
                               0x3d949457, 0x3edb38fa, 0x3ea273a5, 0xbe103a4c, 0xbe051141,
                               0x3e4d1114, 0xbe3b5aac, 0x3e125aa5, 0xbf7a055c, 0x3de3f5b5,
                               0xbe61d6d4, 0x3f174a3b, 0x3c2f8caf, 0x3da202d7, 0xbe5e4d58,
                               0x3de38970, 0x3f1281e1, 0xbd110b24, 0xbe61a8fd, 0x3e8ddc8b,
                               0xbeb9579e, 0x3e5c2996, 0xbd8e8c10, 0xbebd6a3e, 0x3c543f97,
                               0x3d833dc5, 0x3f1180ce, 0x3ea60582, 0xbe8b5d45, 0xbea3ded2,
                               0x3eacc186, 0x3dd66b15, 0xbc216584, 0xbed59b37, 0x3e153797,
                               0xbea80121, 0x3e492d0a, 0xbeeb271b, 0x3dd902c6, 0x3e560ccd,
                               0xbce24954, 0x3f0e00ed, 0xbd719c8d, 0x3e35f717, 0x3e235629,
                               0xbee4abe6, 0x3ef1a09e, 0xbe92dbf8, 0xbddf1fde, 0xbe3dad0f,
                               0x3eb4b890, 0x3d808bec, 0x3e8dd82d, 0xbeadaf71, 0x3ef16b0d,
                               0xbec59364, 0x3ece3d93, 0x3ce35cd9, 0xbe60385c, 0x3e042d98,
                               0xbd679624, 0xbe855354, 0x3f0c3666, 0x3ef15a65, 0xbdc88665,
                               0x3e683752, 0xbeff0e29, 0xbe937787, 0x3e6da9fc, 0x3f14629a,
                               0xbe97af6f, 0xbf00b1f4, 0xbe9ccbd3, 0xbe8a9b93, 0xbe3662b8,
                               0xbebb65ad, 0x3dce8e77, 0x3da0ac5b, 0xbe5063ac, 0x3e148a17,
                               0x3ea1c4d7, 0x3f2097ae, 0xbf07e548, 0xbe9e622c, 0x3f43eba5,
                               0xbed91f11, 0xbe1df3ae, 0xbe96b025, 0xbe169ebc, 0x3f002f6a,
                               0xbea3c764, 0x3f31fa61, 0xbefb93c1, 0x3dfc48e5, 0x3de16f72,
                               0xbe8151f2, 0xbe76a9c9, 0x3e676246, 0xbe87d420, 0x3ec298f4,
                               0x3f1d421d, 0xbeb099aa, 0x3d4710ac, 0x3d28d9a8, 0x3f5996af,
                               0xbf1d21e0, 0xbf2363ed, 0xbec1c39b, 0xbe6808bd, 0x3da68177,
                               0xbeece006, 0x3f667b56, 0xbd54a871, 0xbc5734b2, 0x3d6fc6cf,
                               0xbea4d080, 0xbc92cb7b, 0x3ecc3246, 0xbed94b33, 0xbe69d83d,
                               0xbd2534c0, 0x3edca10d, 0xbef979b5, 0x3eb2a694, 0x3ec33bb2,
                               0x3eb6d799, 0xbeea9d4d, 0xbe8e3c01, 0xbcb84192, 0xbed353d9,
                               0x3e2375aa, 0x3dbffced, 0xbf1640f3, 0x3ed9ae00, 0xbf1286f6,
                               0xbdd967fa, 0x3e382198, 0x3f382763, 0x3e2e1ca7, 0x3e527fee,
                               0xbef517e9, 0xbda71a0e, 0xbcc9aa0d, 0x3b17d3f1, 0x3e6f8e1b,
                               0xbf34eb02, 0xbe89f9be, 0x3f0db901, 0x3ef262cb, 0x3ea8ecca,
                               0x3e56cf2b, 0xbe8592fa, 0x3e86f0cc, 0x3e87b1b8, 0x3e1a1f30,
                               0xbe4261ed, 0xbe7889fb, 0x3ef01fcf, 0xbd1611d7, 0x3d70fa6f,
                               0xbd472111, 0x3ea2138d, 0x3e13a2cc, 0x3e99c7a9, 0xbf2fa1df,
                               0xbe472d77, 0x3efd657b, 0x3ea519aa, 0x3daed7a4, 0xbd2f2310,
                               0x3ef7eff2, 0xbd670b38, 0x3ec8f55d, 0xbea7a5f5, 0xbe8c333b,
                               0x3e83465f, 0xbcd52972, 0x3ecd836c, 0xbe95005c, 0xbe1d08af,
                               0xbe51dd85, 0xbe3f9602, 0xbe3c4a9d, 0xbdbae22e, 0xbd24ee83,
                               0xbe9aafdd, 0xbed9084f, 0xbe7733ae, 0xbe86daf3, 0xbe7be241,
                               0x3e118adc, 0xbec63f27, 0x3e3a09d3, 0x3e9d8aa8, 0x3e91cf76,
                               0x3e5e71c3, 0x3e9e45ee, 0x3db3bd07, 0x3d5fbef8, 0xbe7d1e7a,
                               0xbfa4ab26, 0x3cc49021, 0xbc7eb2e4, 0xbe791f2f, 0x3dddec5f,
                               0xbe9e3efb, 0x3ef2567d, 0xbe660f77, 0xbea5b82f, 0x3f6e71bd,
                               0x3e0b8f6a, 0xbec795af, 0x3e87a2a4, 0xbe0b2ad2, 0xbd8789ab,
                               0x3cee3199, 0xbebcd423, 0xbe8b8a83, 0xbedc8177, 0x3d3809ea,
                               0x3e4e1122, 0xbed4608e, 0x3f25b063, 0x3e2ab50f, 0xbddd8f4f,
                               0xbf040920, 0xbe1e0768, 0xbf0b1365, 0x3f8e4fdc, 0x3e986640,
                               0x3d031dcb, 0xbe5e6bb3, 0xbf289634, 0x3ec521f7, 0x3ea686a3,
                               0xbe0a53d9, 0x3c927031, 0x3ea175f2, 0xbef1b9e9, 0x3da7fe86,
                               0x3e0339d4, 0x3e6a7fa0, 0x3db9db8c, 0x3e9da6f1, 0x3f0d2f54,
                               0x3e23c360, 0xbf28f1b9, 0xbd6b547a, 0x3d797aa8, 0x3d4f3438,
                               0xbeff339b, 0xbf274c78, 0xbe8fdedf, 0x3e8e999d, 0x3d9e22e5,
                               0x3ebe886f, 0xbdebdbe9, 0x3e69bc64, 0x3f001d6b, 0x3e7ed6c4,
                               0x3f3f1c1b, 0xbe8420cf, 0xbe3b6bec, 0x3ef82fb1, 0xbd4caa41,
                               0xbf39c883, 0xbe8828ad, 0x3f4025cb, 0xbe1e67ca, 0xbe1a01dc,
                               0xbea4ed1d, 0x3eea32a8, 0x3d01638b, 0xbeec7094, 0xbed3b11f,
                               0xbf126607, 0x3c46586a, 0x3f631900, 0xbe01bea3, 0x3ecdd4bd,
                               0x3f36f71c, 0x3db70548, 0x3db74d25, 0x3e8ad2a3, 0x3e98624c,
                               0xbf02ef7a, 0xbed5e2c1, 0xbe85814c, 0x3c771aee, 0xbf9299e9,
                               0xbed126ed, 0xbeae80c5, 0x3ddd9212, 0x3d6ab865, 0xbeabb95e,
                               0xbf8f4983, 0x3ecfce37, 0xbeaaaa75, 0xbda8755f, 0xbe953550,
                               0xbe9d190a, 0x3e22b7f2, 0x3eee6f9a, 0x3ceef974, 0x3ebb6bde,
                               0xbed05961, 0xbee567e7, 0x3d6a40c2, 0x3f12426d, 0xbea3a74a,
                               0xbb014537, 0x3f1639ff, 0x3dbcbd88, 0xbec041fd, 0xbf5ea112,
                               0xbd6f0632, 0xbf77cffc, 0xbe9d6002, 0x3f032aa7, 0xbe543a85,
                               0x3f4d2379, 0xbe3dc6c6, 0x3ec26062, 0xbe94095f, 0xbf06a2bc,
                               0x3f8c7e8b, 0x3e5f5bc5, 0x3ec3a824, 0x3f8c5105, 0xbe2d6c87,
                               0x3ee77f10, 0x3d706e39, 0x3dea02ec, 0x3f1baa84, 0x3efa8253,
                               0x3e1e4442, 0x3cfc06e1, 0x3e719850, 0x3e95bc61, 0x3eaa0ef3,
                               0xbef14419, 0xbf3fea6e, 0x3ee211d4, 0x3e665979, 0xbed493fd,
                               0xbde68665, 0x3e6df50b, 0xbeadc2fe, 0xbd5ec20a, 0xbf43791d,
                               0xbcdb52e2, 0x3eb9ce19, 0x3ed73a2d, 0x3d33f114, 0xbf1213b5,
                               0x3c8161b9, 0xbf472daa, 0xbeb6dd72, 0x3d9dd582, 0xbf5ba162,
                               0x3e539d82, 0x3f227676, 0xbda82c91, 0xbeb9afe7, 0xbf12e289,
                               0xbc6abad3, 0xbeafa341, 0xbef9afa7, 0x3e9fee7e, 0xbda54498,
                               0xbea35a06, 0xbdcae154, 0xbf24526a, 0xbd58b097, 0xbda43ff7,
                               0xbd0bf795, 0x3d179be8, 0x3eb35552, 0xbda08f97, 0xbf4941d6,
                               0xbf41f82b, 0x3d5558b7, 0x3d9f1154, 0x3e9887af, 0x3ee47978,
                               0xbeb8fb53, 0xbf66492c, 0xbefab338, 0xbdda4d9d, 0xbe6b8575,
                               0x3cb5abd4, 0x3eb5742a, 0x3f242c70, 0xbf3c0f3a, 0xbee7adf2,
                               0x3f141c53, 0xbdb60bdb, 0x3fa5afab, 0xbea7f76f, 0xbe0975eb,
                               0xbcea1c58, 0xbf181899, 0xbe107d43, 0x3f3d3b36, 0xbf6806ad,
                               0x3f2250c8, 0x3ddc5243, 0xbe8b46ab, 0x3dd924cf, 0x3e20b917,
                               0xbf601b3d, 0x3e95f223, 0xbe2c7150, 0x3e3796b9, 0xbd868375,
                               0xbeaef75e, 0x3fa24102, 0x3f431b98, 0xbe621521, 0xbe62a045,
                               0x3e66e6ed, 0xbedfbc19, 0x3e2d332e, 0x3ef6c9a7, 0xbee5ce84,
                               0x3e0d2fe1, 0xbeb1c93d, 0x3b7ada29, 0xbd1a9a8a, 0xbef90c45,
                               0xbf148bc9, 0xbdf0d278, 0x3e74f918, 0xbf03774f, 0xbeffee79,
                               0x3ea9ab30, 0x3e0b3a73, 0x3dfa594d, 0xbec2e695, 0xbee059f5,
                               0x3f087b62, 0xbf082bdd, 0xbf0df7f8, 0x3e07a3aa, 0x3c4dd10e,
                               0x3edbcedf, 0x3ed2ff4b, 0x3ecc14c8, 0x3f122250, 0x3e6abccc,
                               0x3e94a114, 0x3ed70417, 0x3f066cf0};

uint32_t bias_array[102] = {0xbe7273cc, 0x3ec1b62a, 0xbdcd7ce8, 0x3dd59068, 0x3e62f77b,
                            0xbda49beb, 0x3e59d7de, 0x3e838a90, 0x3d882a4e, 0x3ee418e4,
                            0x3e5aba63, 0x3c0d1300, 0x3f0594d3, 0xbe2ea7f2, 0x3ea7b0f0,
                            0xbe3cb85a, 0x3b9df7ea, 0x3debc305, 0xbdcf8cbc, 0x3e181edd,
                            0xbe4f6f47, 0x3de539cd, 0x3ece00bd, 0xbe204099, 0xbd903f3f,
                            0x3e999e7d, 0x3d835063, 0x3a57d927, 0x3d463dec, 0xbdf1daa6,
                            0x3e2286f3, 0x3dbc74cb, 0x3f0eb84b, 0x3eb16a43, 0x3e328411,
                            0x3dc3fb2e, 0xbc6aab67, 0xbe35c161, 0x3cb79fa3, 0xbe4906a3,
                            0xbc4b36e7, 0x3df52446, 0xbe56492d, 0xbeb5c38e, 0xbec7363a,
                            0xbedd2ae7, 0xbe005cde, 0xbdff080c, 0xbe09db1a, 0x3e1be7c7,
                            0xb8ea083d, 0xbe64ee86, 0x3de743fd, 0x3e671c1b, 0x3e99d3fd,
                            0x3d562428, 0x3cd2bc50, 0xbe2b13e8, 0x3e822f06, 0xbe977953,
                            0x3e04a5a1, 0xbe764b7a, 0x3e08707d, 0x3e657463, 0x3e301445,
                            0xbde29511, 0xbeb587f7, 0xbea96011, 0x3e3fa060, 0xbe056df2,
                            0x3e8d48ed, 0xbf19ef03, 0xbe3369cd, 0x3d1666f7, 0xbe1572fd,
                            0xbe2f7d9f, 0x3ce47830, 0xbdf75771, 0x3d079158, 0x3e7407d3,
                            0xbe7c0db2, 0xbe5b7e0a, 0xbe223aa5, 0x3ea00a13, 0x3e8f191c,
                            0x3e0d4a1b, 0xbea35ab8, 0xbe462eac, 0xbdacd365, 0x3d3a8284,
                            0x3df51dcf, 0x3d9866f5, 0xbdaa8563, 0xbeaca54a, 0xbdf787b3,
                            0x3e94d10c, 0xbe3a71b6, 0xbd6271b5, 0x3de7775b, 0x3dd22429,
                            0xbed508e2, 0xbe9aac7a};
extern uint32_t bias_array[102];
extern uint32_t weight_array[3328];