uint32_t weight_array[3328] = {0x3dd085ca, 0x3eb8eb54, 0xbe6577c4, 0xbe2e540d, 0xbea1b83b,
                               0x3eca28d4, 0xbec686bc, 0x3e95199f, 0x3eab1614, 0x3dad8a52,
                               0x3d0be818, 0xbe3bbe10, 0xbd49a777, 0xbedf2067, 0x3f0f75d6,
                               0xbeb5745e, 0x3e87aa74, 0xbeec0402, 0xbd3d4faf, 0xbede63f4,
                               0x3f230b73, 0x3eafe15f, 0x3e95b4bb, 0x3e28e01a, 0xbed757b3,
                               0x3e4926a0, 0xbea68038, 0xbe2e9aa9, 0xbed0711a, 0x3e9eaa6c,
                               0xbeb57e98, 0x3e20a7f1, 0xbc6635f6, 0x3bec6f7d, 0xbe79c868,
                               0x3ebfbde5, 0x3e63e921, 0xbeb29ef9, 0xbd1122ca, 0xbda26139,
                               0xbd3e107e, 0x3e06a6d7, 0xbd9f8f66, 0x3ec981d0, 0x3e780d15,
                               0xbe1ce593, 0x3e856b46, 0xbd2195f8, 0xbe461ecd, 0xbeb2243f,
                               0x3e298769, 0xbe264bcc, 0x3e14df5d, 0xbf0b2498, 0xbd6dfc75,
                               0xbe5fd387, 0xbe56651e, 0xbc8d8562, 0xbeca4285, 0xbe5643c8,
                               0x3d8a66b9, 0xbe71e3ed, 0xbea71036, 0xbd8e3afb, 0x3d1c3d27,
                               0x3ee79ef8, 0x3ea4e4b2, 0x3e569784, 0x3e1094f2, 0xbd7ac836,
                               0x3c987b64, 0xbef933bb, 0x3d61958a, 0xbdc99ad6, 0x3c1e8ab5,
                               0x3d44d192, 0x3e1a6c03, 0xbe7418d8, 0xbd1330e2, 0x3ebb05af,
                               0x3cf95367, 0x3db1cba7, 0xbe5d320c, 0xbdb90587, 0x3bcd9718,
                               0xbe05e284, 0xbda461af, 0x3ea6e022, 0xbeafa1ca, 0xbbb200ea,
                               0x3dde09df, 0xbea1cbf3, 0x3e226ab1, 0xbdc7b0d9, 0x3f10fb53,
                               0xbe9da1a9, 0xbecbce1a, 0xbe263886, 0x3e5c7537, 0x3ef281e3,
                               0xbdcf6c7c, 0x3d7142c1, 0x3c89cd9f, 0xbe0d7a17, 0x3dd6c852,
                               0x3e35377d, 0xbbcbe0f6, 0x3ead11f2, 0xbe323a54, 0xbe846759,
                               0x3e8c4cb1, 0xbe7b3a4c, 0xbde44f9a, 0x3ddad1f8, 0xbdc02774,
                               0xbe4b3cc2, 0xbd86b1bc, 0x3e405833, 0xbc9cab93, 0xbe3512c8,
                               0x3ca70c2c, 0xbe1be84d, 0x3d87681b, 0xbec8a51b, 0x3e5e9bf3,
                               0x3dffafdc, 0x3c47e72a, 0xbca8cc9a, 0x3d124402, 0xbcea42f6,
                               0x3e895d5b, 0xbe6deb43, 0x3e92cfb7, 0x3c9997f9, 0xbdea0ba7,
                               0x3e6eda74, 0x3c0d842a, 0x3e0e73c5, 0x3d72846b, 0xbcb9a142,
                               0xbe202a59, 0xbd18b89b, 0xbee61d2b, 0x3ea7f1fc, 0xbd9bfbbd,
                               0x3f185124, 0x3e8ab26b, 0x3e50b7dc, 0x3ea92c7b, 0x3ea2fa4d,
                               0xbbb521f2, 0xbebf1555, 0x3d772315, 0xbd60519a, 0x3dafced8,
                               0x3df2a8a5, 0xbcb2cbf5, 0x3b4c9be7, 0x3e079568, 0x3f07e607,
                               0xbe8490e3, 0xbea9e918, 0x3f065a61, 0xbdb17932, 0xbe47c8b0,
                               0x3bca1d0f, 0x3cc61fd7, 0xbde56069, 0x3d52f560, 0xbf0d554f,
                               0x3cba60dc, 0x3e8a50e4, 0x3e8ec6c5, 0x3dfd8c14, 0xbddde6d2,
                               0xbde73370, 0x3d90114e, 0x3c373de0, 0xbe456ea8, 0xbe06c6eb,
                               0x3e427531, 0xbdafb690, 0xbcb9c58d, 0x3e1877cd, 0x3f3128ad,
                               0xbd806b0f, 0x3c58324d, 0x3e045211, 0x3e0e3a33, 0xbe83811d,
                               0xbe1914b3, 0x3e4dd82a, 0xbc7ab18c, 0xbe592ad9, 0x3e228a31,
                               0xbeb600fb, 0x3eb735ca, 0xbdae1858, 0x3e2f743b, 0x3d7cdd30,
                               0xbe6da757, 0xbe7cee15, 0xbda4f670, 0xbec12abb, 0xbd41d947,
                               0xbd04d93e, 0x3e45d4da, 0x3d8228ba, 0xbd24d869, 0xbe21d281,
                               0xbcc881e8, 0x3e048542, 0xbbdfb781, 0x3e534a83, 0xbd8910b0,
                               0xbdf23b59, 0xbe8b6603, 0xbce8f917, 0x3b3963df, 0xbe3ff4ea,
                               0x3ea39a78, 0x3e4af2e4, 0xbdb31304, 0xbe9fff45, 0xbce3f855,
                               0xbe7d8142, 0xbeca04ba, 0x3e7dfa62, 0xbc9523e8, 0xbc32006a,
                               0xbe0a12cc, 0x3e6bdf9c, 0xbe079c8b, 0x3e31005b, 0x3d12d0ef,
                               0xbe7827e4, 0xbdccafd8, 0x3e65dd14, 0xbe8a773b, 0x3e0708f6,
                               0x3c94698b, 0xbd41c511, 0x3cbc65be, 0xbdc79276, 0x3e55d04c,
                               0xbe2a70c7, 0x3d8ac396, 0x3c8c612c, 0x3e21dd34, 0x3e502e86,
                               0x3bf12a51, 0x3dc1cffc, 0x3c6ad58f, 0xbe382c31, 0x3e525f8f,
                               0x3d9a18b8, 0x3dede0d7, 0xbda73e6c, 0xbc9e0d25, 0x3e434b00,
                               0xbe400c49, 0xbe2116f1, 0x3e97da5f, 0xbe4a7187, 0xbb451ce7,
                               0xbe41cd77, 0x3dd0085a, 0xbe393934, 0xbee6d8ff, 0x3e85bdb4,
                               0xbe9f76fe, 0xbe3d21c2, 0xbded6b1d, 0xbd130695, 0xbe0fa41f,
                               0x3e097ee7, 0x3d8820b1, 0x3d98981a, 0xbd155245, 0x3e72372f,
                               0x3daef9b4, 0xbefcd433, 0xbdc85bab, 0xbc9ae02f, 0xbeb3048e,
                               0x3d54738d, 0xbe6232f7, 0xbde6ab0e, 0xbeb5f9b0, 0xbdb106eb,
                               0xbded95d2, 0xbd64c244, 0xbdc7c4c8, 0x3da29e12, 0x3df43e42,
                               0xbe7bfb41, 0xbe60e3b5, 0xbd22692f, 0xbc8129c7, 0xbe2c48e2,
                               0xbda1d799, 0x3e0f2ccb, 0xbd453ea3, 0x3ea1d028, 0xbc8b7ff8,
                               0xbdaca71a, 0xbd70b623, 0xbe329e12, 0xbe7d1050, 0xbd92ab37,
                               0x3de0727d, 0x3db9ca44, 0x3dce43dc, 0x3efd04c6, 0x3d6453d0,
                               0xbe3c9f80, 0x3b1c9f1b, 0xbdc868a0, 0x3b13a024, 0x3dee5577,
                               0x3e07333f, 0x3e1e1438, 0xbe41a8b8, 0xbf4d5e9b, 0xbe1269d2,
                               0xbd4ed6a3, 0x3e110424, 0x3f49e4ae, 0xbdbe5c0e, 0xbe85ef8c,
                               0xbdb93b1b, 0x3da57106, 0x3d9cb7cb, 0xbe9a6946, 0x3dbf2ce8,
                               0xbe294f29, 0x3a00cdc1, 0x3f2938bd, 0x3ecea9c6, 0xbdf6faca,
                               0xbba8b19d, 0xbf34b195, 0xbd84d23a, 0xbe277d20, 0x3e84e5d9,
                               0xbe9f660f, 0x3d66af3e, 0x3ecf039c, 0xbeb032cc, 0x3dbf9e0f,
                               0x3eb500f8, 0x3c042010, 0x3f8af50c, 0x3fdca382, 0x4031a255,
                               0xbfcbf098, 0x4015f320, 0xbfd8bdd6, 0xc05afed2, 0xc08ca2ca,
                               0xbfc3f70c, 0xbe8a4802, 0x3e23acd9, 0x3f4c3d87, 0xbf951471,
                               0xbfff11fd, 0x3f1eae33, 0xbf89f408, 0xc0b703a8, 0xbf3ddc1e,
                               0xc02096d8, 0xbedda394, 0xbe8d44c2, 0x3f15d25b, 0x3f153cfc,
                               0xbfd371b0, 0xbe5904c6, 0xbf7229e2, 0x40360e03, 0xbf9d9482,
                               0x3fd4c738, 0xc0928cd9, 0xc0155b7f, 0xbf761492, 0xc03b35ba,
                               0xc00ef31e, 0xbf40d6dc, 0x3f24b109, 0xbfcde561, 0xbfc23c82,
                               0xbfdb3abe, 0xbeea8aa9, 0xc08598b4, 0x3d5afe4a, 0xbf53e94d,
                               0x403d9152, 0x409d8ad3, 0xbf960e16, 0xbcf3e371, 0x3fd80b55,
                               0xbf2f79e8, 0x3f66fa44, 0xbeb601d2, 0x3f41d096, 0x4011e92a,
                               0xbf0384e8, 0x3f4d8566, 0xc073a3c6, 0xc040f56b, 0xbe52b9fb,
                               0x40406bca, 0x3fd467ce, 0xc08e2edb, 0x40777959, 0x3fb9ba17,
                               0xc001fe8c, 0x3e65bd5d, 0x3ca8f1d9, 0xbf92a07e, 0xbf0473e9,
                               0xbf0fbdb1, 0x3e712cdf, 0xbed0db5f, 0x3d8649c2, 0xbcb64f66,
                               0xbea51da9, 0xbea817c9, 0xbdbbf7b1, 0xbe648774, 0xbeb30047,
                               0x3dd38924, 0x3db0e475, 0xbe5cd1de, 0x3e8e3c67, 0x3ec1b6eb,
                               0xbec3c960, 0xbdc3cd06, 0x3f0ad379, 0xbe468236, 0xbcf3ce33,
                               0x3f3792c4, 0xbdc0b251, 0xbeef61f9, 0x3db643bb, 0x3e420771,
                               0x3ea2b238, 0x3e1b5c15, 0xbece27de, 0x3e9fc696, 0x3f80d3f8,
                               0x3f1ea804, 0x3f942de8, 0x3e8857c2, 0xbe6ab57b, 0xbe8223dd,
                               0xbf0b0fae, 0x3f29690a, 0xbe3ea81b, 0x3ddd9858, 0x3f3d6655,
                               0xbee9e4a5, 0x3ef3ba66, 0xbefd7105, 0xbf3a7be7, 0xbe3b6fe6,
                               0xbf873cf2, 0x3e8b4ab4, 0x3f4270cf, 0xbeb7eb50, 0xbe0b47f1,
                               0xbe5891c7, 0x3ed9e66b, 0x3e6dbc22, 0xba88b0d0, 0xbd9a7e2c,
                               0xbf0fb01d, 0x3f4f2735, 0xbf538f59, 0xbf46a5c6, 0x3f5dd356,
                               0x3f1212c6, 0x3f18c95b, 0x3ec416e9, 0xbe996d80, 0x3f462869,
                               0x3e661977, 0xbf158262, 0xbf5622fd, 0xbe792854, 0xbed62f3e,
                               0xbd12a12f, 0xbcce8ea5, 0xbed5f359, 0xbf1dccf2, 0x3edc2718,
                               0xbec1269d, 0xbf87d006, 0xbe4cfefa, 0xbea97f55, 0xbe14515f,
                               0xbec51074, 0x3db824d1, 0xbebc2e6a, 0xbf2b274d, 0xbecc584a,
                               0x3f06cbb9, 0x3f7ede39, 0xbe17adf6, 0x3ecc0495, 0xbf9627e6,
                               0xbf9cc9e3, 0xbed97822, 0xbef518e1, 0xbe887af8, 0xbe8cf514,
                               0x3d1cb838, 0xbdc43ee4, 0xbf554a91, 0xbe3aab24, 0xbe281c26,
                               0x3e614590, 0x3e73c797, 0xbbd6b77a, 0xbea9e1e8, 0xbe0f8e60,
                               0xbf7d10fb, 0xbf5794a8, 0xbeae745a, 0x3dcd5e68, 0x3eb36368,
                               0xbe358621, 0x3e5b61e3, 0x3d92fefb, 0x3d1741ec, 0xbe121b7c,
                               0xbf4e4391, 0x3e950230, 0x3d308654, 0x3e529583, 0xbdbc272b,
                               0xbcbf831b, 0x3e669231, 0x3f49e944, 0xbfbfa9a1, 0x3ef7c006,
                               0xbf0a2be8, 0x3f894660, 0xbf6f9a16, 0xbf7f7b0a, 0x3ea8f665,
                               0xbe951654, 0x3e2f7165, 0xbea1d28d, 0x3ee397ba, 0x401c87cb,
                               0xbf4dcd78, 0xbefc8562, 0x3f4f14fa, 0xbea81790, 0xbcc5da35,
                               0xbf090b83, 0xbf79ddfb, 0x3e5e8ce8, 0xbee1374d, 0xbf4e3425,
                               0xbd96242b, 0x3ebafc4d, 0xbf66780e, 0xbf89de0d, 0xbf1a8589,
                               0x3e231996, 0xbde65de4, 0x3f288226, 0xbef48712, 0x3eb339c4,
                               0xbe1bd154, 0xbea0d9ef, 0xbf8ccc38, 0x3e935fa7, 0x3ef58105,
                               0xc003a300, 0xbff2376d, 0xbf365b18, 0xbe9370e5, 0x3f498c16,
                               0xbf1c7a9c, 0xbea29e4f, 0xbf84d3a0, 0xbf1a76ed, 0xbf34bbf5,
                               0xbf2fd39e, 0x3f9ba568, 0xbe9bb4a9, 0x3e8e5aac, 0x3e1ee49b,
                               0x3f4d354b, 0x3e0a405f, 0xbf4dcf0f, 0x400d6488, 0x3f0fe35f,
                               0xbcd800f3, 0xbf1725d7, 0x3e0dc41e, 0x3e0a3e61, 0x3f717346,
                               0xbe9783e7, 0x3dffc3fe, 0xbf210a5c, 0xbdf1f5a2, 0x3eca90e4,
                               0x3ebfe2ac, 0x3dda4503, 0xba2cc83b, 0xbf28053a, 0x3b9ef79c,
                               0xbf13e7f8, 0x3c5a1d3f, 0x3df946c4, 0x3e17a87c, 0xbdcbf31c,
                               0x3def98a5, 0x3ed3cfb4, 0x3e388c20, 0x3cefff51, 0xbe927b08,
                               0xbe8ccb6d, 0x3ca4cf81, 0xbee401a7, 0xbd6c2924, 0xbe4a02a9,
                               0xbe02d484, 0x3d7ec9c9, 0xbe6b67f8, 0x3daca257, 0x3e2a67a0,
                               0xbe17ce1d, 0x3dc143e0, 0x3d8a0854, 0x3e97b022, 0x3e564685,
                               0xbe2b9ce7, 0xbe515001, 0x3c900a26, 0x3ea15bb7, 0xbdb09f00,
                               0x3eb8ba05, 0x3d00e692, 0xbd849839, 0x3d22c348, 0x3ecf8bce,
                               0xbdcb4b67, 0xbdc4e06c, 0xbe4d0e65, 0xbe027467, 0xbd88b6c2,
                               0x3eaa3d55, 0xbd9685f0, 0x3dc1e66d, 0xbdeafb18, 0x3e0c1309,
                               0xbd1ef057, 0xbe39140f, 0x3e8cac47, 0x3e6ea8c8, 0x3e0e35e2,
                               0xbe51a949, 0xbe355925, 0x3d950949, 0x3e3ad1c1, 0xbea37ebe,
                               0xbbc83494, 0xbefd5bc0, 0xbe8949d4, 0x3e81576c, 0xbefb509b,
                               0x3f97a26b, 0xbede70ec, 0xbf414dc9, 0xbfc8c985, 0xbeb0ce9a,
                               0xbead90dd, 0xbf9f5015, 0xbf1eb9bd, 0x3e9b9700, 0xbf84490e,
                               0x3f5b048b, 0xbf29862d, 0x3f1ff253, 0xbf1623de, 0xbeaf3746,
                               0x3fac8bfa, 0xbd87d34c, 0xbf178396, 0x3e625d6e, 0xbf7a7434,
                               0xbdfb672d, 0xbd4b4abd, 0xbf8c51f0, 0x3f3f6430, 0x3f7008ac,
                               0x3ef02017, 0xbf0bf72f, 0xbf279bfe, 0xbefb52d1, 0xbf7ffbf3,
                               0xbf2db5d5, 0x3e26f400, 0x3f6d542f, 0xbf9e11ff, 0xbfae2059,
                               0xbfe0875f, 0xbf1d0534, 0xbfb3ac6a, 0xbf497590, 0xbf639f60,
                               0x3ed9189b, 0xbefc9f44, 0x3ec07733, 0xbe3e5a36, 0x3fc3e986,
                               0xbf22ef4a, 0xbd1d766e, 0x3fbb32dc, 0xbe4fbf81, 0xbed4bcea,
                               0x3eac8e8e, 0xbfa5f095, 0xbf71f2de, 0xbec3d2d7, 0xbfd94c31,
                               0x3f859d10, 0x3f4f3e3b, 0xbf8684e5, 0x3de0f86c, 0xbee37886,
                               0xbf35644f, 0xbf91f545, 0x3fcf6b09, 0x3e4a9418, 0x3ec32121,
                               0x3ef83b7a, 0x3d66edfc, 0xbef45a8b, 0xbf087128, 0xbf26e9cf,
                               0xbf26ef41, 0xbe865252, 0x3ed6087e, 0xbe8488a5, 0xbdbc0604,
                               0xbf40366b, 0x3eeecde9, 0xbece4e22, 0xbf801b4e, 0x3dd469ab,
                               0xbe292661, 0x3ee81293, 0x3f1fd402, 0xbe8b2c28, 0xbee30ca7,
                               0x3f01040f, 0xbf7752cf, 0xbe2ca1ef, 0x3eb80f5f, 0x3f0378c9,
                               0xbec1f227, 0xbf4b0628, 0xbf7592e5, 0xbfbb4bb4, 0xbe966518,
                               0x3ba37176, 0xbfcd2c80, 0x3da6a2c9, 0xbe9a006f, 0xbf7ef2c8,
                               0xbdacfdba, 0xbfb6b39c, 0x3f083318, 0x3d95cb9e, 0x3e5ee374,
                               0x3f420f71, 0xbf1e308a, 0x3e66710d, 0xbe0fbc72, 0x3e5e8976,
                               0x3efd01fe, 0xbf26ad21, 0xbed35ac2, 0xbcad5b4d, 0x3e807e02,
                               0x3ebce28b, 0x3de08ade, 0xbaecc94a, 0x3ede30d8, 0x3eab40a0,
                               0xbf2ee31c, 0xbdab92bb, 0x3e25fee7, 0x3ec8e5ea, 0xbf267f1f,
                               0x3eb4604c, 0x3e6bb0d0, 0xbe2eda1e, 0xbef85372, 0x3d430014,
                               0xbc452b1f, 0x3b9cc947, 0x3de805e8, 0x3d8ef75e, 0x3cfb39b1,
                               0xbc63eb07, 0x3e6f2f44, 0x3e914d7f, 0x3ec50962, 0x3e055f4f,
                               0xbdf4d447, 0x3e40dd06, 0xbe35435d, 0x3d8b00d9, 0x3f2bc6f9,
                               0xbf9faf10, 0xbd849a3d, 0xbe12a68f, 0xbdd9d099, 0x3dd01472,
                               0x3e05477b, 0x3f04cedc, 0x3f860526, 0xbe76ef4e, 0x3e0ec04b,
                               0xbcc8d54d, 0xbd4a783d, 0xbcd4ec68, 0xbce79e65, 0x3dc00b4f,
                               0x3e465825, 0x3cbec490, 0x3ddb9fe3, 0xbc6c7e46, 0x3bb47ebc,
                               0xbb55d7af, 0xbdabb28f, 0xbc9b6723, 0x3cc53ab2, 0xbd5d4be4,
                               0xbd07c0d0, 0x3d928039, 0xbca94ff7, 0xbbe8b3c2, 0x3d448243,
                               0x3c20f2fc, 0x3dcd46e0, 0x3b8d13c6, 0x3c80566c, 0x3bd53e96,
                               0xbdbe1e52, 0xbcb26971, 0xbc8b65ea, 0x3ce712cc, 0x3cca605c,
                               0x3d48a2f4, 0x3ce5abdd, 0x3cbc3681, 0x3fc6e612, 0x3f5150f6,
                               0x3f0ba679, 0x3f5db359, 0x3f0545fc, 0x3f0f82e2, 0xbee2a266,
                               0x3fc12608, 0x3f45ad92, 0x3ff4f745, 0xbf39dffb, 0x40086de9,
                               0xbfcd1cd4, 0x3f8d8eac, 0x3d93d391, 0x3ef94eff, 0xbfa8e6e1,
                               0xbdfdb2e2, 0x3f0d2a28, 0x3daec1a9, 0xbf5bf32d, 0xbcb15f20,
                               0xbfabcfb3, 0x3f18848d, 0x3f0e4467, 0x3f46034b, 0x40057c9d,
                               0xbf8c22fc, 0xbebcde2d, 0x3f4beab7, 0x3e184183, 0x3fc80933,
                               0x3f0cd6b9, 0x3dff830f, 0xbc290155, 0x3e17b91e, 0xbd7bea7c,
                               0x3d9fb56f, 0x3d47f454, 0x3dd562ec, 0xbdcac4a1, 0xbcd4c16d,
                               0xbd51c881, 0xbd575e29, 0x3dc5f6cc, 0x3cc526b3, 0xbe8119ba,
                               0x3e854d47, 0x3db3b8cc, 0xbd7dde7c, 0x3dd88e60, 0x3d463117,
                               0xbd92fa22, 0xbd068e8d, 0x3e179e7d, 0xbc9bcfff, 0xbde03af9,
                               0xbcc3b498, 0xbc37a2a3, 0xbe23375a, 0x3dfd4c2f, 0x3e130c58,
                               0xbd22d79f, 0xbe0ecf1b, 0xbd971b99, 0x3a3cd4ab, 0x3e407fc8,
                               0x3d562a43, 0x3e281329, 0xbb45d109, 0xbd557a4d, 0xbbcef585,
                               0xbd4b0f7f, 0xbd782551, 0x3cd67e66, 0x3d03d8b8, 0xbe6808ca,
                               0x3bdc5dfe, 0xbd0ced96, 0xbd2663a0, 0x3d8727e9, 0x3ca1c699,
                               0x3dfbc9cd, 0xbd205eca, 0x3e4f2779, 0xbc4b284e, 0xbe10162d,
                               0xbc8099b0, 0x3e3e954b, 0xbd414f7d, 0x3c81c693, 0xbc4907ff,
                               0x3b74a20d, 0x3da6c2d5, 0x3cd1065b, 0xbd51ea71, 0xbb07d83b,
                               0x3d83712b, 0x3d7e7525, 0xbd8875b5, 0xbdf1a18d, 0xbc9eec24,
                               0xbe1115c0, 0x3b206941, 0xbc85640a, 0x3aaf57f8, 0xbd8186a7,
                               0x3cb79387, 0x3d47c362, 0xbd4af894, 0x3bde55f5, 0xbe076b52,
                               0x3d564a1e, 0x3d609ca6, 0x3d61c89c, 0x3dc2448e, 0x3cba64f5,
                               0x3ca6a3a6, 0x3ddf35c1, 0xbc24362f, 0xbbc3b93f, 0xbdc573bc,
                               0x3d1e3ec4, 0x3ab1261d, 0x3cdaa0e3, 0xbcb94f49, 0xbb622ec0,
                               0x3dab3e59, 0xbca0e2bc, 0x3d28ef81, 0xbcf2a71d, 0xbe0f8d74,
                               0xbe227d0c, 0xbd3e8b4b, 0xbbe05a71, 0xbbc571d2, 0x3d280bc6,
                               0x3d48fe0d, 0x3ea3226a, 0xbc09bb87, 0xb9ae1d9e, 0x3c93ef54,
                               0xbd0ee9b3, 0xbe60e52b, 0xbd9c8f56, 0xbce1b601, 0x3e7c2579,
                               0x3e2995c3, 0xbdbae1e4, 0x3d15c74f, 0xbe640db1, 0xbd792927,
                               0x3e6cef35, 0x3cce7140, 0x3ca3b09e, 0x3d25b3da, 0x3d3f9098,
                               0xbc7f6e8e, 0x3d8420b0, 0xbe855f93, 0xbdbb2eee, 0x3d02c353,
                               0xbd34d393, 0x3e251584, 0xbca587f5, 0x3bad9e1c, 0x3d407881,
                               0x3c514ae1, 0xbd00a8c6, 0x3c10d6b2, 0xbd6d1c90, 0xbc17d2b3,
                               0x3d9b34c7, 0xbcd464cd, 0xbd4b1f35, 0xbe450358, 0x3c41b277,
                               0x3c820d67, 0x3e809000, 0x3c841b8a, 0x3e0fa00d, 0x3d20a1e6,
                               0x3d242f03, 0xbc223803, 0x3e04d5bd, 0xbdcb2e75, 0x3d94afd1,
                               0xbd4f2c9a, 0x3d908e5f, 0xbd0c8b41, 0xbd2ad78e, 0xbd90ae72,
                               0xbc0dfcac, 0x3d1ea4a0, 0x3deabbc3, 0x3c144329, 0xbd7ea9cf,
                               0x3cbc0c0b, 0x3d81ff3e, 0xbcd643db, 0xbd170fe0, 0x3d48be22,
                               0xbcf80611, 0x3c143cde, 0xbd649982, 0x3d19e71c, 0x3d42ac00,
                               0x3ed44777, 0xbbdbb032, 0x38cc1bb7, 0x3da4d98d, 0x3a4b0a5f,
                               0x3d17df03, 0xbbc19761, 0xbef9e84b, 0x3cd40b1f, 0x3d82a22a,
                               0x3d0474b9, 0xbcba1c7b, 0x3d5c449a, 0xbc1c2d56, 0x3c741e18,
                               0x3c93d3f3, 0xbe0e8c96, 0x3e1b1b47, 0x3d517f7a, 0xbe99bcf7,
                               0x3d8900a2, 0x3dd8ffa2, 0xbeb18ea2, 0xbeef6b3a, 0xbf03918e,
                               0xbdfb300e, 0x3dce7f04, 0x3f0d5d64, 0x3e9220b7, 0x3ef9b1ab,
                               0xbeeaa8d5, 0x3f210e07, 0x3ec3ab1b, 0x3d6eab25, 0x3ec68a60,
                               0x3eed8be0, 0x3eaa6f4e, 0xbc9f1be8, 0xbe6c1a88, 0x3ea97495,
                               0xbe048aa8, 0x3981ab82, 0x3e1de91f, 0xbefe55ab, 0x3edf4174,
                               0xbed5d408, 0x3e763803, 0xbebacedc, 0x3dd70c6b, 0x3dc1d74a,
                               0x3e8c0462, 0xbe969da8, 0xbe6146ce, 0xbe0d8666, 0xbde1159d,
                               0x3cb917d0, 0x3daa9b0c, 0xbecae3c0, 0x3ea4eba8, 0xbd0b4829,
                               0x3de83edb, 0xbcff41f0, 0x3e21c09f, 0xbe06cb24, 0xbe2a1eb2,
                               0x3f0f7943, 0xbeccc707, 0xbe7204ad, 0xbf6caa89, 0xbed548a6,
                               0xbd7b3022, 0xbc5686ee, 0xbdfa2e2b, 0x3e1ad013, 0xbed412d9,
                               0x3dbe245a, 0x3d63197d, 0x3ecb09e8, 0x3ea24de7, 0x3f4f4d06,
                               0x3efd53f4, 0x3ebab12b, 0x3d87927f, 0xbf358a3c, 0x3d1599ae,
                               0x3e5335a6, 0xbeeb07ef, 0xbe4c32d6, 0x3d3582e5, 0xbe8203bc,
                               0xbe918563, 0x3e7e8622, 0xbe658d72, 0xbd0722b0, 0x3e192793,
                               0x3cc3c2b7, 0xbda08bd6, 0xbdb639f9, 0xbd378e07, 0xbe5caeda,
                               0xbe577873, 0x3db4c025, 0xbca03e96, 0x3e32d36b, 0x3e86ffdc,
                               0x3e710ae2, 0x3e878238, 0x3d6b0e5f, 0xbea2e3bf, 0xbd0f2462,
                               0xbf092bb9, 0xbded5fe4, 0xbd86f15f, 0x3e830d2a, 0xbde75c0f,
                               0xbe5d3cee, 0xbe89c369, 0x3e1f7d10, 0x3eb9e04a, 0x3d88fdb7,
                               0x3d94ae9d, 0x3e46050b, 0x3df09a62, 0xbdf83ccc, 0x3e8957c7,
                               0xbebf973f, 0x3eb50da4, 0xbf1d7392, 0x3dedc2f3, 0x3e0e6ac7,
                               0xbf2a3c0b, 0xbf39c7f9, 0x3d8389a2, 0xbe76fe02, 0x3d0459bf,
                               0x3e7566bb, 0xbe05b3bc, 0x3daf2766, 0xbcf1b275, 0xbe3830c8,
                               0x3dab4490, 0xbeb41776, 0x3ec4f3cb, 0xbeb301df, 0xbdcfb48e,
                               0x3e925974, 0x3eb02a84, 0x3e51d1cc, 0xbe8a90eb, 0xbea70816,
                               0xbdf6768d, 0x3efe3b9c, 0xbed82571, 0xbed3106f, 0xbf41740c,
                               0xbf126180, 0xbedb395b, 0xbf0ba5c1, 0xbf127476, 0xbf197af8,
                               0x3f9ec291, 0xbdd2f262, 0xbf6a0bb3, 0xbefec8e2, 0xbe0d0bf9,
                               0xbdc8b63b, 0x3e0381c6, 0x3e8bb447, 0xbe3ea0a7, 0x3e7dca62,
                               0xbefee65f, 0x3e6352a9, 0xbd58ce39, 0x3e9d47ef, 0x3e3c6345,
                               0xbe39abb9, 0x3efb415f, 0xbec5eb6f, 0x3d7e55bc, 0x3eb12e8c,
                               0xbe43eb50, 0xbe8b06ac, 0x3f1b8501, 0x3ea78d00, 0xbf39e016,
                               0x3d3b1f2d, 0xbe5858ec, 0x3f662468, 0x3f4061ee, 0x3e15077a,
                               0xbcd8dd92, 0xbdf10d32, 0x3f0b4a2a, 0x3f005523, 0x3e8175d2,
                               0x3ee80c7d, 0x3eed027a, 0x3e8614aa, 0xbe45d802, 0x3e2af86e,
                               0xbd80b586, 0x3dddeb3a, 0xbd3f38a9, 0xbc8a26d5, 0xbe9d3d1b,
                               0x3ebdba19, 0x3e062020, 0xbd7407d3, 0xbe5338ea, 0xbcd66045,
                               0x3f15952d, 0x3f68e8e3, 0xbf36f8fd, 0xbf25e0d0, 0x3f0b3966,
                               0x3f1872d6, 0x3e2c7ba4, 0xbd926d1e, 0xbe588e13, 0x3ee571f8,
                               0xbdbadb7f, 0x3eaa6f55, 0xbedc8642, 0xbf8bbb82, 0x3e9cec21,
                               0xbe2dc5c7, 0x3ec58050, 0xbcee1c3a, 0xbf2820b1, 0x3c44e837,
                               0x3e3eeb42, 0xbeb0b2c3, 0x3f06f260, 0x3f832a49, 0xbea208fc,
                               0x3eecc2f2, 0x3f691c4e, 0xbef5d1b0, 0xbdeccebb, 0xbd4a1599,
                               0x3e5f4a0d, 0x3f2f7c9d, 0x3dc0a4f6, 0xbe70d68a, 0xbee892ac,
                               0xbe7560ed, 0xbdd74ce4, 0x3e92aaff, 0xbe58eb3b, 0xbf0e5aef,
                               0xbd4f9da9, 0x3de9f10f, 0xbdb0106e, 0xbe1e4db5, 0xbef6be1f,
                               0xbf04801a, 0xbf24ca38, 0x3d43d5eb, 0x3ecbc6f4, 0x3dcb23fa,
                               0xbea9ef46, 0xbec158a4, 0x3f08f43c, 0xbe1ea4f4, 0x3e519c24,
                               0x3e96d940, 0x3e8ad522, 0x3ea036f0, 0x3f3fd308, 0xbe2a18f7,
                               0x3e955b4e, 0xbe8404b8, 0xbeb9e251, 0x3eacbf75, 0x3d403b68,
                               0x3d984cd3, 0xbee2c28d, 0xbdfb536e, 0xbe91c6b8, 0xbe85ab09,
                               0xbe5d9657, 0xbe9fc4a9, 0xbf8ec875, 0xbe87e258, 0x3f5d8df5,
                               0x3ef4f551, 0x3f20be9b, 0x3e380e18, 0x3d76e997, 0x3f45b2a1,
                               0x3f36aa95, 0x3e83e7e4, 0xbf2f2a5f, 0x3f33135d, 0x3e7e78eb,
                               0xbe37e053, 0xb9ba5883, 0x3f303e60, 0xbe1ac0d7, 0xbee516ab,
                               0x3f487961, 0xbf12440e, 0xbde2a069, 0x3eff953a, 0x3e9793be,
                               0xbe844611, 0x3d295b02, 0xbdcab7eb, 0xbe2b6441, 0xbd9a7e53,
                               0x3e07066b, 0x3e0186c3, 0xbda0c0c3, 0xbb311e45, 0x3dbee5aa,
                               0x3da9df2c, 0xbddef206, 0xbe2ac5a8, 0xbd705c6d, 0xbe908751,
                               0x3ec0fef3, 0xbda18f3d, 0xbc265612, 0xbe1597b3, 0xbf04e2a8,
                               0x3b315925, 0xbdd14ab8, 0xbdb10c33, 0x3de93721, 0x3e991714,
                               0x3e09dcf5, 0xbe8293d8, 0xbd9915d8, 0x3e5139f9, 0xbc9d5c7a,
                               0x3e117a87, 0xbe78d048, 0x3e59bdbd, 0x3fa7f8d0, 0xbeb90342,
                               0xbf75708e, 0xbdf9f743, 0xbf5c15a6, 0x3ee8021a, 0x3f930e9a,
                               0xbf54ecb3, 0x3e37bae9, 0xbe41245a, 0x3e040a26, 0xbf18f6b6,
                               0x3ed4c2f6, 0x3fd24c69, 0x3fbb11ca, 0xbdd6b88c, 0x3f9fdd28,
                               0x3fa2455f, 0x3f416642, 0x3ebd543d, 0xbf03d734, 0xbeeb1f8b,
                               0x3f63aed6, 0x3ef8d8f8, 0xbe531e38, 0x3f1075c6, 0x3e182aed,
                               0x3f17d1fb, 0xbefd00b4, 0xbef52562, 0x3f3b9663, 0x3f9d8884,
                               0xbeb283ae, 0xbf0969aa, 0xbc8bf50e, 0xbce030aa, 0x3e546b20,
                               0xbe304003, 0x3e0656b7, 0x3e374a6a, 0x3ee546df, 0x3cae7a12,
                               0xbeedb01d, 0xbec066c0, 0xbed71d1f, 0x3d2ebcd6, 0x3e5e762d,
                               0xbe3bb7cb, 0xbd147c0a, 0x3e7b6330, 0xbe9e547e, 0x3be3a74a,
                               0x3d4f36b2, 0xbe34c5fa, 0xbd8cc1f3, 0x3ca05c51, 0xbf0dc68f,
                               0x3ed951f1, 0xbe071063, 0x3c06b24f, 0x3eacf939, 0xbe7ae52a,
                               0x3cf73087, 0xbd3d38c9, 0xbe8564d9, 0xbe96d68e, 0xbde6f7c6,
                               0xbefca521, 0xbd80ecd6, 0x3e6433de, 0x3def2b5f, 0xbd73db29,
                               0x3d18fdc3, 0xbdb6af19, 0x3e6d2a5f, 0xbe582955, 0x3d258fe9,
                               0xbf516f88, 0xbec173ec, 0xbe4c9d3f, 0x3ed9fc41, 0x3de2d488,
                               0xbe5ee57f, 0x3d7b877c, 0xbe57e437, 0x3c8cfbb9, 0x3f2621f5,
                               0xbd9677b3, 0x3c0bf90d, 0x3e2176fd, 0x3eb0bfbc, 0x3e796fda,
                               0x3e2e30b3, 0xbed73210, 0x3e026b78, 0x3e8fcdf1, 0x3e3da54b,
                               0xbdcb2d7a, 0x3cfb3cc9, 0x3e769057, 0x3d6aef5b, 0x3c7ea6d2,
                               0x3d9d9448, 0x3f092ee6, 0xbeabc474, 0x3e95b782, 0xbf2e7ed3,
                               0xbec5635f, 0xbc3a6211, 0xbe960c44, 0xbe1ac421, 0xbeac9e1d,
                               0xbe0967db, 0x3e0c0f5d, 0x3f053c03, 0x3e968009, 0x3e019a1a,
                               0x3edf1bcc, 0xbded7ec4, 0x3d63e08e, 0xbe421ffb, 0x3e1f8c18,
                               0xbdbe849e, 0xbeb7e989, 0xbe45abeb, 0xbe863fc8, 0x3e0e9aa2,
                               0x3d427411, 0xbe86d805, 0xbe3d0449, 0x3d436996, 0xbd567de8,
                               0x3e3fa579, 0xbca14c93, 0xbe817a47, 0xbc77fd01, 0x3e4acafd,
                               0x3ea0c93e, 0x3e141f28, 0xbea7a355, 0x3d41ceab, 0x3e49b9c5,
                               0x3de6be49, 0xbd5bb2d0, 0x3d9cd23e, 0x3e033546, 0xbe009133,
                               0x3ea7af18, 0xbe082895, 0x3e0007a9, 0xbe00f3ac, 0x3d76514f,
                               0xbde6f6dc, 0x3e014e2f, 0x3dc0e6b7, 0xbdc2f7dc, 0x3dcc0b63,
                               0x3e37f0cb, 0x3d3163fd, 0x3ea39dc5, 0xbf3b6de4, 0xbd4e3463,
                               0x3f0732cd, 0x3c3fe619, 0x3dd46916, 0xbd0decc8, 0xbcd5564c,
                               0x3c8ab6b8, 0x3f0bc1fe, 0xbe501573, 0xbe2ae37c, 0x3eeea488,
                               0x3daec129, 0xbca953cb, 0xbe02675b, 0x3ea45244, 0xbe25bd64,
                               0x3ea2b939, 0xbea4ce51, 0x3f01dc06, 0x3d820978, 0xbed20a1c,
                               0xbc4cb3be, 0x3e669b6d, 0x3eadd846, 0x3ea2f509, 0xbe84061c,
                               0xbecab10b, 0x3da63c90, 0xbe9bd0f4, 0xbf0b1639, 0x3cb0f124,
                               0x3f3cd117, 0x3e04ea93, 0x3f5cf458, 0xbf3b7c61, 0x3ec8134b,
                               0x3f73635a, 0xbe0377ee, 0xbf4f3068, 0xbefcc030, 0x3f9ce37a,
                               0xbf899c9e, 0xbf009405, 0x3e71b3c7, 0xbbc8068b, 0x3e66c80c,
                               0xbef2a378, 0x3f62ec7b, 0xbe27db16, 0xbdd914b0, 0xbefff922,
                               0x3f8893d3, 0xbf297e81, 0x3e7bd158, 0x3f436cc9, 0x3efa7fec,
                               0xbf95f73e, 0x3ea5b159, 0xbf3c0e53, 0x3eb3b7fc, 0x3e6b1bc6,
                               0xbea93f24, 0xbf6ea635, 0x3ea89118, 0x3ee9362f, 0x3d0aafc6,
                               0x3eca694b, 0x3ea10446, 0xbe1b07d6, 0x3e09f390, 0xbece3084,
                               0x3defe803, 0xbd9c55ad, 0xbbbb8a09, 0xbe8df7cf, 0x3d43edd1,
                               0xbdf0f6cb, 0xbe9b3482, 0x3eaa99d2, 0x3eebbb30, 0xbe2cd539,
                               0x3eb256ad, 0x3cc2833f, 0xbeacfb3d, 0x3e89a6de, 0xbdc53674,
                               0xbe9bf270, 0xbcd937ce, 0xbc452cd0, 0x3db52dd2, 0xbd7ff524,
                               0x3e86ebe5, 0xbdb14329, 0x3d4c2d2c, 0xbe83eda4, 0x3eb84aa1,
                               0x3d89661e, 0x3f400b12, 0xbe328a74, 0xbd022344, 0xbdd2f3b0,
                               0x3edf9de1, 0x3e8b5149, 0x3e02dac3, 0x3e7e4620, 0x3ec51208,
                               0xbdd20e3d, 0x3e9177b1, 0x3f18029f, 0xbcf040d1, 0x3f67e865,
                               0xbe7b68b3, 0x3e3791cc, 0x3eaf7f4e, 0x3e2ce78b, 0x3f0002af,
                               0xbe39a438, 0xbebb4169, 0xbed3398b, 0x3ea91614, 0x3ed5cd63,
                               0x3e5b04b3, 0xbef359e4, 0x3f06473b, 0x3e916c17, 0x3d8c7949,
                               0x3f3247b7, 0xbe699b53, 0xbe7be8ad, 0xbcc99c8b, 0xbf1c7256,
                               0x3e2842d2, 0xbf0e5de1, 0x3ec0c69a, 0xbd40d9a8, 0x3dc83a00,
                               0xbe9afc5b, 0x3dd70160, 0x3c9395c0, 0xbe91bbbb, 0x3e89f6a9,
                               0x3e1643bf, 0x3e269283, 0xbdaa8367, 0x3f485fee, 0x3ebafb0b,
                               0x3d3ee139, 0x3e8e5a74, 0xbe4ca4b3, 0xbe1c584c, 0x3db3b752,
                               0x3ed8b6f1, 0xbe6d81ee, 0x3e9009b1, 0x3de58add, 0xbe7ea3ee,
                               0xbb42e4ad, 0x3c6f9b15, 0x3c2efa5f, 0xbf15318c, 0x3f66f057,
                               0xbdcd685f, 0x3f441ab8, 0x3e0b7c94, 0xbf3f534c, 0x3e25f95a,
                               0x3f3c6cee, 0x3d8a2a3e, 0x3ea50984, 0x3f5d97ae, 0x3eb1a0ce,
                               0x3f806cee, 0xbe2b98bc, 0x3e6fb4e1, 0xbedc8534, 0x3d96253c,
                               0xbfa8ea25, 0xbf5c9807, 0x3ea64ee1, 0xbe830159, 0xbf0b7da3,
                               0x3e777ddd, 0x3e47d90e, 0x3df2bf62, 0x3e5ec4c2, 0x3f082056,
                               0x3f4a478e, 0xbd014867, 0xbf2f90ec, 0xbd9bec02, 0x3eb1b02b,
                               0xbe8261a7, 0x3e8c3de0, 0xbe7fa662, 0xbd813cc4, 0xbe2fb665,
                               0xbdbd8266, 0xbe6a15d7, 0x3ca90617, 0xbec26589, 0xbbfae043,
                               0xbe7abff6, 0xbe8bb52f, 0xbd447747, 0xbc12627b, 0xbd70b502,
                               0x3f047d0a, 0x3cbfd593, 0xbe80d0e5, 0x3defa881, 0x3d80a6ce,
                               0x3d06de08, 0x3e748787, 0xbe2f00d0, 0x3d5a5577, 0x3e9f7f19,
                               0x3d1a2cfe, 0x3c9821bf, 0x3e31826e, 0x3e3d72ad, 0xbd8c08d0,
                               0xbd924099, 0x3e66a335, 0xbd3112e1, 0xbe94874c, 0x3e6adbd3,
                               0x3ea15d68, 0x3f38582f, 0x3e8818d7, 0xbe4a23cf, 0x3e4b2527,
                               0x3ca8aa5a, 0xbf341226, 0x3eacbe0b, 0x3f354004, 0x3e8c5a33,
                               0xbec5974e, 0x3d2b7e6c, 0x3f344336, 0x3df90f6c, 0x3eb5b03c,
                               0xbaf63d7e, 0xbe34aa10, 0x3e35d7c1, 0xbe6274e8, 0x3f414e3a,
                               0x3f130400, 0x3f0d121e, 0xbf28024e, 0x3f600bed, 0x3f81b285,
                               0xbe41bd53, 0x3e9f00d7, 0x3e16da0c, 0x3e14d3aa, 0xbe92712e,
                               0xbe20b6f4, 0xbe30202f, 0xbd569a36, 0xbd42347d, 0x3e015a06,
                               0xbc32d898, 0x3ecf1e4a, 0xbe6d9778, 0xbd98904d, 0x3e1b4926,
                               0xbd9dc428, 0x3e805050, 0xbd483cc1, 0x3db4f49a, 0xbe5c1238,
                               0x3f035dbe, 0x3c94cc9e, 0x3e59f3c2, 0xbecbb0ed, 0xbd80e5b2,
                               0xbd853e3a, 0xbf13ddd3, 0x3e951c54, 0xbf1dafae, 0x3e0a2126,
                               0xbd999d79, 0xbca2324b, 0x3e479df4, 0x3e18eeb0, 0x3e6e8d98,
                               0xbe4b3ebd, 0x3ea37fdc, 0x3f72d8ca, 0xbdc63e38, 0x3d3fcafe,
                               0x3e7406db, 0xbf11dca5, 0xbec6f07a, 0x3eb9f440, 0x3d602439,
                               0xbe2200f5, 0xbe41460d, 0x3da1944f, 0xbe8287ae, 0xbd700842,
                               0xbeb26375, 0xbde2b5fb, 0xbe9b9365, 0x3efc2ff9, 0x3f7e55be,
                               0x3d367e63, 0xbe952b4e, 0xbf3b4dbc, 0xbeaf311f, 0x3e517955,
                               0x3b2cbbd5, 0xbde505f1, 0x3e26aa7c, 0xbd4c6aa4, 0x3e05993b,
                               0x3e43cbc1, 0x3e50d696, 0xbd31b9c4, 0x3e710178, 0x3e80245b,
                               0xbda26e80, 0xbedfa891, 0xbe98c46f, 0x3e99718f, 0xbeb36692,
                               0xbe8729b0, 0xbd810416, 0x3dd0a90a, 0x3f19a150, 0x3ec07390,
                               0x3dcb874a, 0xbe09781c, 0x3eb32126, 0xbe2a8327, 0x3eb30ff9,
                               0xbe4711f5, 0x3ed938e6, 0x3c4b3645, 0xbe9a8dc1, 0xbdb25cc6,
                               0x3e5c4990, 0x3dae624c, 0x3ecf504d, 0x3e07932e, 0x3ef02d66,
                               0x3d1e1e2f, 0x3d41b171, 0xbf2a756e, 0x3f47d393, 0xbef5813c,
                               0xbe849379, 0xbec3253f, 0xbd254d83, 0xbdaf04db, 0xbdf80ed6,
                               0x3d1a7959, 0xbdf41267, 0x3dbc1cb6, 0xbe19d12f, 0xbeee7870,
                               0x3dda4ee0, 0xbdb8c579, 0xbee21ee7, 0xbe776bff, 0x3e00788e,
                               0x3d3204e9, 0xbe7216d2, 0x3c6e2807, 0x3e973c40, 0xbe9dee88,
                               0xbd98d407, 0xbea874af, 0xbe11d4ef, 0xbdb3ef1f, 0xbecb098c,
                               0xbdf96352, 0xbebd4592, 0xbde0cf24, 0xbf2d867b, 0xbf66be47,
                               0xbea0ecd9, 0x3e5708eb, 0xbcf5d292, 0xbb6b142a, 0x3f18517c,
                               0xbf21a91e, 0x3e4b3749, 0xbe02fe35, 0xbe3da46c, 0xbde8e7ab,
                               0x3ec09f1a, 0x3e1e009f, 0xbe0b5e5f, 0xbe8e9228, 0xbf3ba1a7,
                               0xbdfd4bbd, 0xbf25983c, 0x3ef85164, 0xbd975044, 0x3f0fdadf,
                               0xbece945a, 0xbe3410a3, 0x3e881512, 0xbf4aa7b7, 0x3e4eedc9,
                               0xbd875534, 0xbf1ff9ce, 0xbe32866d, 0xbe235df8, 0xbdc6f49e,
                               0x3eb7fae6, 0xbeb0aabd, 0x3c9b2351, 0x38de7886, 0x3e9e3d12,
                               0xbe4d9425, 0xbec3c3f9, 0x3ef04c1a, 0x3f190006, 0xbf2232c4,
                               0xbe768028, 0xbe9f87a7, 0xbf027e47, 0xbd9aaa67, 0xbcf78870,
                               0x3eb3980b, 0x3e932ab0, 0x3f0b6f4c, 0x3f093de4, 0x3efb068d,
                               0x3df9b538, 0x3d65ac20, 0xbe433699, 0x3e014209, 0x3edc1a5e,
                               0x3ebfcf2c, 0xbe96e517, 0x3e431419, 0x3d033102, 0xbdd984c7,
                               0x3e0f355c, 0xbcf2fd90, 0x3c976bb7, 0x3c614a2e, 0x3efe9f4e,
                               0x3db6dfce, 0xbe28b735, 0x3f2caacc, 0x3e6f0783, 0xbf30d1cb,
                               0x3e82f197, 0xbf4dc911, 0xbe2ee894, 0x3e885ba2, 0x3f38e7bd,
                               0x3ef8da02, 0x3ebd5477, 0xbeef29c9, 0x3edd92b4, 0xbdb329a6,
                               0xbeb77acd, 0x3e3843b6, 0x3d719c70, 0x3e33fc98, 0x3f3c8a20,
                               0xbf8a4903, 0xbf0a9c7c, 0xbf02b474, 0x3f5b1184, 0xbe9f662e,
                               0x3f1fb163, 0x3de457eb, 0x3f051a48, 0xbeaa3ad4, 0x3eac17f2,
                               0xbd049e15, 0xbeb196b6, 0xbd10ba5f, 0x3e84614f, 0x3d8e3d46,
                               0x3e15f3cc, 0x3e175aee, 0x3dbc8688, 0xbc49a467, 0x3e1bbdd2,
                               0xbe0c6ee8, 0x3dce6094, 0x3d1c3c60, 0xbe810933, 0xbe233bec,
                               0x3e63db2a, 0xbeb56ecd, 0xbddec5af, 0xbdd4e157, 0x3e70a37b,
                               0xbee844f5, 0x3f1f6855, 0x3d6c1482, 0xbf1b5e91, 0xbdb04d33,
                               0xbcc0c473, 0x3e8fc619, 0xbdc50bf7, 0x3d859469, 0xbd6e3fa1,
                               0xbe9f37fe, 0xbeb32855, 0xbe230afb, 0xbdcd15c8, 0x3c3f5d02,
                               0xbe4c6008, 0xbd6e6575, 0xbe9272b9, 0x3c427b31, 0xbe8f819e,
                               0x3e739dd6, 0xbd3d8db0, 0xbe716396, 0x3e78875d, 0x3de89cd8,
                               0xbe106192, 0x3e84c3fb, 0xbe1357d1, 0xbe0d1dab, 0x3dbf63ac,
                               0xbee31f58, 0x3e766652, 0x3dedc86f, 0xbdc0525d, 0xbc131fab,
                               0x3e073c8a, 0xbeaae3d3, 0x3d8d3587, 0xbce54e15, 0x3de6f16c,
                               0x3e59a3d5, 0xbd4f5f27, 0xbc45ae3f, 0x3d505ac8, 0xbda97395,
                               0xbe31f64c, 0x3db4fd00, 0x3eadd196, 0xbde9a624, 0x3e8eba51,
                               0xbe3fda00, 0x3dbe9575, 0xbc9796b9, 0x3f2da658, 0xbee7e842,
                               0x3f31a701, 0x3defa520, 0xbea997c8, 0xbe4f010e, 0x3f5e3f6a,
                               0x3f0fc9b1, 0xbf04f54e, 0xbe142b0c, 0xbee23b97, 0xbebe1b47,
                               0x3e2f0016, 0xbf098f27, 0x3f087aeb, 0xbe2e5a4a, 0xbe87841c,
                               0x3cc7405b, 0x3e5d362c, 0x3e4c627e, 0x3f3a9da7, 0xbe840a3c,
                               0xbe8b5aa8, 0xbe8bb8c6, 0x3da85e62, 0xbd0a14d3, 0xbdec52c1,
                               0x3e7066a5, 0x3db1506f, 0x3cda3c3c, 0xbe95aa53, 0x3eceb7f7,
                               0x3e0fae3a, 0xbe95ec28, 0x3ea0658f, 0x3f0d56fd, 0xbe26026e,
                               0xbf049479, 0xbf1970bf, 0xbf183d73, 0xbf10c1ea, 0x3ec76441,
                               0x3df4441b, 0xbef561e9, 0xbdae1c24, 0xbe118b71, 0xbeb39d46,
                               0xbe213014, 0xbde660e7, 0xbe35dc3a, 0xbca1d383, 0x3e35f9f3,
                               0x3edcc465, 0x3ef4be63, 0xbe44bef8, 0xbf408313, 0xbe335a37,
                               0xbe57a9f8, 0xbe4d7692, 0xbe617965, 0x3e09de95, 0x3f181243,
                               0xbe345677, 0xbd7900f6, 0xbe73d36f, 0xbe3c3e93, 0x3edefde7,
                               0x3d7fd2dd, 0x3e3e0f3a, 0xbdebb1e1, 0xbe166f50, 0xbee2838c,
                               0xbe5121a7, 0x3e904d86, 0x3eeb2376, 0x3dc51de5, 0xbe20eb91,
                               0x3eebcbc9, 0xbdcbfcc0, 0xbde86380, 0xbe5094ff, 0xbef73de2,
                               0xbed02928, 0x3d847697, 0xbf229d3e, 0x3f3de113, 0x3f12f0ff,
                               0xbef677e9, 0xbc1d6977, 0x3e7a829a, 0xbeb1dac5, 0xbe931328,
                               0xbed5248a, 0x3ea19c68, 0x3f2edc33, 0xbc645845, 0xbe533272,
                               0xbe76fb3c, 0xbeb0977e, 0xbeae8389, 0x3efaf2df, 0x3c07618a,
                               0xbe840afb, 0x3e3f6159, 0x3e2b33a7, 0xbe15cdbd, 0x38d7862a,
                               0x3d75c44c, 0xbefa0eb6, 0xbf16cfec, 0xbf00422f, 0x3f070895,
                               0xbe6468e5, 0xbe7c61ed, 0x3c2edf35, 0x3f3059b8, 0xbf06949b,
                               0x3dd2d7c0, 0x3eb1a010, 0x3f84942a, 0xbf25baa8, 0xbe8ee90f,
                               0xbde2bce8, 0xbf8885c1, 0x3e8b620d, 0x3f04d6d0, 0xbe7e8b1f,
                               0x3dd1178f, 0xbee192d0, 0xbdc75b7a, 0x3e447f02, 0x3de44c4c,
                               0xbe88c863, 0xbebf9e2f, 0xbeb5dd76, 0x3ea94c81, 0x3ed212dc,
                               0x3f659722, 0x3e0ec658, 0xbe54d640, 0x3e0c9c65, 0xbe16a228,
                               0x3e8f3cbb, 0x3ed7c119, 0xbe9dda65, 0x3d3fbeb2, 0x3f1d3576,
                               0xbe08f38e, 0xbe29079f, 0x3f0c7e09, 0xbc63515d, 0x3a22d2de,
                               0xbea69ea5, 0xbe25ec21, 0x3df5416a, 0xbf0c4844, 0x3ec01a90,
                               0x3c28adec, 0xbe932e45, 0xbe9c6fa2, 0x3eb2ed09, 0xbdcbc0c4,
                               0xbe47ef8d, 0xbdb5f8ec, 0x3ecef6dc, 0x3e343bd7, 0xbe5abac2,
                               0x3deba319, 0xbdfeef53, 0xbeb7234a, 0x3f0ecaa7, 0xbece7515,
                               0x3db398e2, 0xbe7fb3a2, 0x3f3b6932, 0x3c87e8ae, 0x3e95acb6,
                               0xbd58a0a4, 0x3ec5b943, 0xbd8f22fc, 0xbddf8d47, 0xbe9e64cf,
                               0xbf249596, 0x3c9b68a3, 0xbde18601, 0x3f43828f, 0xbe29deaf,
                               0xbdd1e4fd, 0x3c76bdae, 0xbdce7dff, 0xbe9105f7, 0x3da107c0,
                               0xbef7face, 0xbebd8a86, 0xbe01b15f, 0x3e73a2bb, 0xbebea171,
                               0x3d09dd50, 0x3edd4edc, 0xbdcc4d7b, 0x3e3b9ed8, 0x3ed407cb,
                               0x3d78b08e, 0xbe29e2ba, 0x3e0893e1, 0xbc13f7e4, 0x3f2a058f,
                               0xbf582891, 0x3e9a02ad, 0xbe75ca4e, 0xbe8c5b5e, 0xbd7eb6f2,
                               0xbef5f48e, 0xbe588458, 0x3de78e44, 0xbe7cb77c, 0xbef1ae5a,
                               0x3e8c423f, 0xbec17ea7, 0x3d286cc1, 0xbc0febb6, 0xbe3b21f6,
                               0x3f2051a1, 0xbe8ac058, 0xbe0c84d3, 0x3e26ace2, 0xbe327c0f,
                               0x3de89043, 0xbf1db8d7, 0x3e094793, 0x3eb7f638, 0xbeab1a6f,
                               0x3f014dd8, 0x3e8daf3f, 0x3cba97dc, 0x3e0f121e, 0xbd5b5512,
                               0xbe8dbbac, 0x3d4dd669, 0x3ec0bb44, 0xbe3b0637, 0xbec028fa,
                               0xbbf31374, 0x3e5941fe, 0xbcf22185, 0x3ae653b3, 0x3ea65683,
                               0x3edec39e, 0x3ee68169, 0xbe48f758, 0x3bdae80f, 0x3d828a98,
                               0x3c4a87d9, 0x3e271593, 0xbf05ab8a, 0xbe6d235d, 0xbe94b63b,
                               0xbe80ab47, 0x3ea6052b, 0x3dffdb14, 0x3f3fcf0a, 0xbebbea78,
                               0x3eb8f6e7, 0xbec19cf6, 0x3f0ea6ba, 0x3d22bbac, 0xbe4e5f7a,
                               0x3c873cef, 0xbe57f049, 0x3e9cf9f9, 0x3eac9d2f, 0xbefbe516,
                               0xbe5cf47e, 0xbee3b289, 0xbd3eea07, 0x3eeeac06, 0xbf3a4a10,
                               0x3e5d7bdd, 0x3e9007f7, 0xbe68a8b6, 0x3de57fed, 0xbf26361e,
                               0x3e3489c6, 0x3c484220, 0x3f08d9d4, 0xbd38ab48, 0xbfa30be3,
                               0x3d902ce8, 0x3eed10df, 0xbf150adc, 0xbebdddc3, 0x3eb3eab6,
                               0x3f5ac529, 0xbf602514, 0xbe9d8bff, 0xbec7d3c5, 0xbe3d2994,
                               0x3f1c27f8, 0x3e33d6a9, 0xbee27ff3, 0x3c2cddd7, 0x3edd5301,
                               0xbf265d4e, 0x3f04641b, 0xbeadf99d, 0xbdb30185, 0x3e2c2a6f,
                               0x3cf4d5a4, 0x3e81f7f0, 0x3dca317e, 0xbc964c0b, 0x3ef22e1a,
                               0x3ed819a7, 0xbed65e4d, 0xbea4af4d, 0xbd18ff0a, 0xbef935ed,
                               0xbe8991b7, 0xbed431f4, 0x3e0f1d61, 0x3ecfe94c, 0x3daa4a2a,
                               0xbe95b9aa, 0x3dfeac37, 0xbe9ecc1a, 0xbdb6dc5e, 0xbeefeff3,
                               0xbef070f4, 0xbf4eec43, 0x3e1744a5, 0xbe75be03, 0xbdc065f0,
                               0xbe3b57e4, 0xbc809d3a, 0x3de9d2dc, 0x3f10d175, 0xbdc823b9,
                               0x3eab5140, 0xbf5be056, 0x3e358ded, 0x3d0a130e, 0x3e622fa3,
                               0xbe4fba6a, 0x3f3e5250, 0xbe17e586, 0xbe5b5f76, 0x3e9c51b4,
                               0xbebcbe54, 0xbe1c5741, 0x3d4a5a3d, 0x3cca3397, 0x3dd85217,
                               0xbd92ee96, 0xbee2720d, 0xbeba0f60, 0x3e8eac55, 0xbde43d29,
                               0x3f20c51b, 0xbf19c6f6, 0xbef758c2, 0x3e43d382, 0xbe6bdc49,
                               0x3d985114, 0xbd905731, 0x3e383a26, 0xbeb1d6d7, 0xbbe5da80,
                               0x3d150426, 0x3e5285b6, 0x3e565da0, 0xbf8b8478, 0xbe56fbd7,
                               0x3e83ef2c, 0x3e36c3d8, 0x3e5add43, 0x3e8fa98c, 0xbf2f98c8,
                               0x3e847a74, 0xbe6b743e, 0xbe144341, 0xbe41547e, 0xbf38afd7,
                               0x3f196cad, 0xbb140ec2, 0xbf37eec2, 0x3e51d1f5, 0xbf0c8b65,
                               0x3f604e49, 0xbe115e06, 0xbc8b41a3, 0xbe9694eb, 0xbebc7c3d,
                               0x3e749584, 0xbed70ae3, 0x3e310427, 0xbd5406cb, 0x3dcd5490,
                               0xbd6b54fb, 0x3ea90501, 0x3bc13a79, 0xbe803866, 0xbe011328,
                               0xbef0a207, 0x3e0c31d5, 0xbe70d66f, 0x3ed2fb1b, 0x3da115d0,
                               0x3eb354ee, 0x3e98c210, 0xbd00c00a, 0x3e15ae4e, 0xbded443a,
                               0xbe982ce4, 0xbe0bfb45, 0xbf1763dc, 0x3e4f0764, 0xbc18e6ed,
                               0x3ed573cd, 0x3f155658, 0x3db87393, 0xbea2aa2d, 0xbf199759,
                               0xbc7943c6, 0xbde4a221, 0xbe840ef3, 0xbf1ebccd, 0x3e7bbec6,
                               0xbdd408aa, 0xbe9dec5f, 0xbe83e0b9, 0xbe92bcb1, 0x3c94c1d1,
                               0xbf0775ad, 0xbde9347b, 0xbefced83, 0x3e8dc38a, 0x3ea391ae,
                               0x3d0ceab5, 0x3e72f927, 0xbeecdd52, 0xbdd757c1, 0xbecc54e2,
                               0x3d7db41a, 0x3dca45ea, 0xbd30120c, 0x3c82fa4a, 0xbeb8cf5b,
                               0xbf075d36, 0x3ed3894b, 0x3e641fcc, 0x3e6fa9db, 0xbe99a43b,
                               0x3f2659b3, 0xbd353760, 0xbdd73523, 0xbf00c498, 0xbf54ab7f,
                               0x3e936933, 0xbf1e1f6c, 0xbf4d8e75, 0xbe463495, 0xbe914175,
                               0x3f10544e, 0x3e1a6b6a, 0x3e5fe67f, 0x3f1a898b, 0xbf25c1e4,
                               0x3e348ba2, 0x3f26d413, 0xbe85051c, 0x3e6392c4, 0x3de233e3,
                               0xbee4546d, 0xbee66e4b, 0xbe546940, 0x3d175fe3, 0x3de2e16a,
                               0x3d5e32bc, 0x3ede7414, 0x3e30f93c, 0xbeef235f, 0xbe5d09f7,
                               0x3eff1cc2, 0x3e8fcc7b, 0xbe82f19a, 0x3e31d7bd, 0xbee0989b,
                               0x3e863447, 0x3e81d648, 0x3d45e4e1, 0xbe1aae3f, 0x3cb5d1aa,
                               0xbeac9250, 0xbe88e510, 0x3e4c5b05, 0x3ec2bf53, 0xbeadc062,
                               0xbe78b08d, 0xbe829c43, 0xbeb0bc9e, 0xbd82d0fb, 0xbe9ea5c6,
                               0xbe70cf71, 0x3d44fbdd, 0x3ebb237a, 0x3f4eb9e4, 0x3eb5d2cc,
                               0xbcd35479, 0x3dd9186f, 0xbeb32b9b, 0xbedd186d, 0x3e7daca2,
                               0x3d548d03, 0xbe32d59f, 0xbeb8301e, 0xbe443e79, 0x3de79fb3,
                               0xbee8bdc1, 0x3bf8373d, 0xbe974d68, 0xbf0958cc, 0xbe99c564,
                               0x3e485a5a, 0xbdd45816, 0x3ebe61b0, 0xbb37edd0, 0xbe3dc74e,
                               0x3e89a5ea, 0xbf0e06b7, 0x3e9826d2, 0xbe854f46, 0x3e39b0cb,
                               0x3eb4fd8c, 0x3f3958a4, 0xbef22422, 0x3ec39525, 0xbddf398a,
                               0xbf478795, 0xbe047478, 0xbd11ffef, 0x3f258295, 0xbf0135aa,
                               0xbef39ced, 0xbd2e5da2, 0xbd5b6fca, 0x3e507de7, 0xbd7d8f9e,
                               0x3d2aeb0c, 0xbdc947c2, 0xbf10c14f, 0xbf0c6826, 0xbe08fe9a,
                               0xbf57ca1e, 0xbcef7e97, 0xbd9fc017, 0xbe3d26cb, 0xbe284089,
                               0xbdf3beb0, 0x3ddb3529, 0xbe90fda9, 0x3f64c8ef, 0x3ecc7da8,
                               0xbd9098b9, 0x3ecac439, 0x3eb9b7f2, 0x3ea610b5, 0xbd318d66,
                               0x3af84eea, 0x3cd3bf06, 0x3f8fa216, 0xbd4d5c30, 0x3f156e07,
                               0x3d1aa905, 0x3e97303b, 0xbf725271, 0xbd9ca875, 0xbe94d060,
                               0x3d237b7d, 0x3eabe9e9, 0x3d02e29c, 0xbf23318e, 0x3daec927,
                               0xbd04902b, 0x3e891454, 0xbf40cfa7, 0x3ee77ef0, 0xbe5577ec,
                               0xbf07caf9, 0x3ec48091, 0xbe114f14, 0xbe118157, 0x3eaccdb9,
                               0xbeb8817e, 0x3f21341c, 0xbe6fc056, 0x3e931a25, 0xbe4df713,
                               0x3e9d57ed, 0x3ece8460, 0xbe6e1fa5, 0x3e1059b9, 0xbd3009a6,
                               0xbd8366ac, 0xbd83ab5a, 0xbee99133, 0xbd85a357, 0xbf1a5b40,
                               0x3e99b040, 0xbcb511bd, 0x3e8f8cd5, 0xbe17f40c, 0x3eb44a5e,
                               0xbc90483a, 0x3bb8e110, 0x3d52cc64, 0x3dad0eac, 0xbe0f48d0,
                               0xbe3463b0, 0x3ed77759, 0xbe44949d, 0xbf09aff6, 0xbf1d7256,
                               0x3ee1206c, 0xbe8da4fc, 0x3d879acc, 0x3f5cd9ab, 0xbec9489d,
                               0xbe316d7f, 0x3e8874d9, 0x3c9906a3, 0xbe9d96fa, 0x3ec09594,
                               0xbe3b1705, 0x3eab7cc6, 0x3da410d6, 0xbee5918d, 0x3e6af522,
                               0x3eb4b7ff, 0x3f041fce, 0xbce2961d, 0x3f572890, 0x3dc8b647,
                               0x3ef9ba68, 0xbc92ee5e, 0xbe39f0ac, 0x3e91f6f1, 0xbe85ae26,
                               0x3f3571df, 0x3dd7f120, 0x3df8bdae, 0x3d52239b, 0xbdda0190,
                               0xbe34c85d, 0xbec118a6, 0x3d26f3a2, 0x3e763f21, 0x3f4131c0,
                               0xbe28be58, 0xbd074c16, 0xbef862ab, 0xbdde8734, 0xbddc816a,
                               0xbe2cef55, 0x3e3ec3cf, 0x3d966b2c, 0x3d9d7fae, 0x3e4a9c53,
                               0xbd4a46b4, 0xbe5d5ce5, 0x3ebe1762, 0xbf6ecbcd, 0xbf283644,
                               0x3dc1f628, 0x3c778e8f, 0xbc058bc4, 0x3e0b5a0f, 0xbee80776,
                               0xbc5e1258, 0x3db907df, 0x3f1d5281, 0x3e9566ad, 0x3eb8bc42,
                               0xbec9f635, 0x3eaf5fdf, 0xbed38229, 0xbe620c69, 0xbe8de578,
                               0x3d6120d2, 0xbefff951, 0x3e636242, 0xbe97a05a, 0x3e5b5106,
                               0x3e40aa66, 0x3e05a055, 0x3e1793c2, 0x3f024f45, 0x3eb4291f,
                               0xbd9d0c83, 0x3d4330b3, 0xbc8b448a, 0xbf017e44, 0xbec4b357,
                               0xbd963d21, 0x3e17adaf, 0xbef6468b, 0xbf6462fd, 0x3e860902,
                               0x3e2a6865, 0xbd2bfdb8, 0xbe8fa853, 0x3f0b7637, 0xbeb32714,
                               0xbea3c443, 0x3d436f4f, 0xbeb8661d, 0xbe8b884a, 0x3d487de5,
                               0x3e87ef92, 0xbcf7a9b8, 0xbe4ea60d, 0x3a71bf2a, 0x3db1efd0,
                               0x3ed514d1, 0xbef15577, 0xbed763ce, 0xbd92e8b4, 0xbe30d768,
                               0xbf33ab65, 0x3eb45937, 0x3f1d83c4, 0x3eb9d9f3, 0xbef677a2,
                               0xbe2b8d2c, 0x3e70b513, 0x3d07b21d, 0x3f12c9de, 0xbe24b1ea,
                               0x3e1907e6, 0xbddc03af, 0x3f2d36f8, 0xbdf9e5d2, 0xbb81306d,
                               0x3d7c29f0, 0x3e96c50a, 0xbefa509f, 0x3e8bfe98, 0x3e2da5d2,
                               0xbe62ee26, 0x3da7ba1f, 0xbe7f9135, 0x3f43dfe8, 0x3f020712,
                               0x3e931f78, 0xbe11dd0e, 0x3edc9ddf, 0xbe98eb8f, 0x3f4242d7,
                               0x3ec1aebe, 0x3eb27931, 0x3e6fe39c, 0xbeaa8f99, 0xbceb2a25,
                               0x3dfc0997, 0x3f110f79, 0x3ddbc613, 0xbe868b57, 0x3e858db5,
                               0xbec83cc0, 0x3e6ae95b, 0xbee4e887, 0x3e011e8c, 0xbd93652f,
                               0x3e3dd206, 0x3ef473c8, 0xbd3fa4f6, 0xbe670c27, 0xbd5461b5,
                               0xbc31dfc4, 0x3e07042b, 0x3da89712, 0xbe8b0968, 0xbddc8041,
                               0xbebc5aba, 0x3f089e83, 0xbe1c57ee, 0x3cbeae9c, 0xbe450be7,
                               0xbebf81d9, 0xbe1a4594, 0x3c9c4e4f, 0x3e8a3eae, 0xbec17950,
                               0xbe9711b1, 0xbedc2e90, 0xbec04a6b, 0xbe249f6f, 0xbe817d80,
                               0x3f1a3537, 0x3f1fc818, 0x3c15025f, 0x3efc081e, 0xbdc4da8c,
                               0xbf3adf5b, 0x3e1834ba, 0x3ee1db10, 0xbe55d48f, 0x3f277a05,
                               0xbe4a50cb, 0x3eb94fb5, 0xbe32505b, 0xbe037581, 0xbedde62b,
                               0xbf2cbae2, 0x3e12be69, 0x3e02c4fe, 0xbe452841, 0xbe975228,
                               0xbdbe123c, 0xbe93d754, 0x3ea3995e, 0x3ed289d0, 0xbf0853dd,
                               0xbe9819fc, 0xbedf36aa, 0x3cc3dd35, 0xbe66398f, 0x3eff23aa,
                               0xbec433ab, 0xbeb286f7, 0x3e5c982f, 0x3ef19612, 0x3daffc47,
                               0xbec25cf9, 0xbd76cea7, 0xbf08b02c, 0x3da0feb3, 0xbe3965bc,
                               0x3e1c9b34, 0x3d80559d, 0xbe7c636d, 0x3e04f369, 0x3e5a46d7,
                               0xbeb7cec8, 0x3dbd1b45, 0xb80b5fed, 0xbf11d41c, 0x3f4179f5,
                               0x3eb87f98, 0x3ed14628, 0x3d02b51c, 0x3ea3c992, 0xbdb23dec,
                               0x3ec2637e, 0xbef27972, 0xbe841127, 0xbe2c3060, 0x3e278f91,
                               0x3fa6a72c, 0xbf0b369f, 0xbe536238, 0xbeffb2db, 0x3f09224c,
                               0x3c1692ef, 0xbf7a113f, 0xbb0f8c50, 0xbf15ce0a, 0x3da2a0bf,
                               0xbea9a861, 0x3e9b6735, 0x3f7bed43, 0x3e554dd6, 0x3d21cfa9,
                               0xbf8b4c45, 0x3e9a0f26, 0x3dbb00dd, 0xbd9d2338, 0xbdcd353f,
                               0x3ea5b372, 0x3cf0416a, 0xbefc2cbd, 0x3e8f8725, 0x3e63b294,
                               0x3dbd361f, 0x3ebd1074, 0xbe17615f, 0x3d95808f, 0xbe87d1b6,
                               0xbca5af3d, 0xbe8e19ec, 0x3ce8e728, 0x3e1f5c01, 0xbe471ac2,
                               0xbe5a4720, 0xbed3d839, 0x3f266043, 0x3eaa8f75, 0x3efa31f4,
                               0xbda3d42e, 0xbe1aa480, 0xbe898057, 0xbe881aa4, 0xbf27b562,
                               0xbe2900c0, 0x3c1dacae, 0x3f056c48, 0x3e913813, 0x3e92b3a3,
                               0x3e31084e, 0xbf33140e, 0x3e51be06, 0xbe2997af, 0x3cf0575c,
                               0xbf8d5b03, 0x3dfbf16a, 0x3eed9bb8, 0xbec7bfb8, 0x3ecf4ce9,
                               0xbe9c5558, 0xbe2f9fc8, 0x3c4bca9d, 0x3e3d8063, 0xbf22100c,
                               0x3ec67a44, 0xbc8bdd8e, 0xbe6bf714, 0xbd19a233, 0x3f092416,
                               0xbe61edb4, 0x3bf5e5ce, 0xbe2a80ff, 0xbe9677fd, 0xbee8698e,
                               0xbe5006d3, 0xbd3e56be, 0x3ca298c2, 0x3f84f12b, 0x3e0456de,
                               0xbeafd252, 0x3f3177b0, 0x3e99f990, 0xbe9d307f, 0xbdf283cf,
                               0xbea2da22, 0xbeccd0a3, 0xbf2e2639, 0xbef426a7, 0xbec95c51,
                               0xbe34d2b1, 0x3f2ca5be, 0x3ebe6fed, 0x3e3e21e2, 0x3e5471f2,
                               0xbe34b42a, 0xbf3f6b33, 0x3eaa6ac3, 0x3eef2fcc, 0xbe9b841b,
                               0xbe685c54, 0x3f38a576, 0x3df96f16, 0xbef2e816, 0x3d0f753e,
                               0x3e80b2bf, 0x3d97037c, 0xbddf0656, 0xbe8f6d46, 0x3f078b6f,
                               0x3ef5cacc, 0x3e89a607, 0xbed15e51, 0xbe960d0d, 0xbb4c3f9f,
                               0x3e9c9d3f, 0x3e02809b, 0xbeeb97ab, 0xbe501f97, 0x3dc372dc,
                               0x3e241b2e, 0xbec4f6d4, 0x3e379b45, 0x3e5a134b, 0xbf0d6587,
                               0xbe2f2221, 0xbecfbb35, 0xbe9f90bc, 0xbf061abc, 0xbed3dc35,
                               0x3e6ab115, 0xbe3a7bc1, 0xbf2e1f27, 0x3f3ad3a2, 0xbe186b22,
                               0xbe14d396, 0x3ed99b0e, 0x3e26895a, 0x3d3282e7, 0x3f016bc2,
                               0x3f2a690d, 0x3f07ea54, 0x3dc52b9f, 0x3e2ef5c5, 0x3ec6cb2b,
                               0xbe72e621, 0xbf2dcd4a, 0xbe9c3390, 0xbe99d2a3, 0x3dfdf459,
                               0xbda206ca, 0x3e3e1c14, 0xbef37420, 0xbdfad0c0, 0x3f1a8b7f,
                               0xbe81c996, 0xbb000e35, 0x3ea00d53, 0x3ec07766, 0x3e873489,
                               0x3f67c3f0, 0xbda3827e, 0xbf379249, 0xbe8b0b6c, 0x3e21f147,
                               0xbd91310a, 0x3f658b0f, 0x3e8a76f2, 0xbe083a18, 0x3c65d979,
                               0xbeddacfa, 0x3d817cb8, 0x3e10de2a, 0xbf107f2c, 0xbe9cd4bb,
                               0xbe730fc1, 0xbe51c805, 0xbf596d0d, 0x3f053a38, 0xbd893e9d,
                               0x3e0d9141, 0xbf0200c3, 0xbce078db, 0x3eac7a10, 0xbebf23db,
                               0xbeb4b874, 0xbd7b55f1, 0x3df72489, 0x3e11a06f, 0xbf862645,
                               0x3e52661f, 0xbe37e47a, 0xbef4752c, 0xbdeaad15, 0x3f1e5e50,
                               0x3e3eb13d, 0x3d0579f9, 0xbeba4c3b, 0x3e222f64, 0xbe58f581,
                               0xbe6dce17, 0x3e54567d, 0x3f02bd22, 0x3ef5b09c, 0x3ea9a44a,
                               0xbe5207a9, 0x3c7964c1, 0xbf121622, 0x3ec5b48b, 0x3ecb9463,
                               0x3d82d58a, 0xbeb5d8f5, 0x3cb8f0ac, 0xbe2e1733, 0xbe33568f,
                               0xbda38d15, 0xbe4bff8d, 0x3efc5e97, 0x3eb4e9fe, 0x3d80a3ab,
                               0xbe886186, 0xbe1fe30b, 0x3e673035, 0x3e7d15d5, 0xbef6dd6a,
                               0x3df1842b, 0x3e8b20e4, 0x3ea233d3, 0x3f30621a, 0xbe2a7cdc,
                               0xbe0250fc, 0x3e83783c, 0xbf0f8e2c, 0x3e9622e0, 0xbf1b6acc,
                               0x3e1552e2, 0x3851777e, 0x3db7f193, 0xbdeb7524, 0x3ea0f94f,
                               0xbd903d41, 0xbe89a16b, 0x3e41579c, 0xbef139dc, 0x3c16b1b8,
                               0xbe38f775, 0xbe0b0930, 0x3e817e6e, 0xbcce53e3, 0xbf8466f7,
                               0xbf0bc31d, 0xbe4b807a, 0x3e1fad98, 0x3c49a0e5, 0xbda96b05,
                               0x3f19b867, 0xbe8b3287, 0xbeee3be2, 0x3e6590fe, 0xbd8508d9,
                               0x3eca4c9a, 0xbea46612, 0xbe84a945, 0xbda1dbda, 0x3c851a9f,
                               0xbf1482c8, 0x3d84e6b3, 0xbf1a2d36, 0xbf0a4a89, 0xbdb9395e,
                               0xbef1032e, 0xbe263b21, 0x3dc7ee7d, 0x3f230ad0, 0xbe5691e5,
                               0xbe95a3ce, 0xbe95b3b4, 0xbd7a3502, 0xbecd94f5, 0x3cc4ea23,
                               0xbf06eb31, 0x3e2c7b8d, 0x3e822cb1, 0x3ea65746, 0x3ef8b59e,
                               0x3df712f0, 0xbcf07704, 0xbeb029d2, 0xbc234d50, 0x3debea27,
                               0x3ec18134, 0x3ea54ebc, 0xbdfbf668, 0xbb602e36, 0x3e52e5b6,
                               0x3ea77466, 0xbcd06948, 0xbe0114f0, 0x3eab97fd, 0x3e1cbafc,
                               0x3e6142d8, 0xbf053123, 0xbf4a46cb, 0x3f016405, 0x3e604b80,
                               0xbf0fe5bb, 0xbedbec27, 0xbd4c3aaa, 0xbea9fb5d, 0xbe01d749,
                               0xbc55db0f, 0x3eaf10a9, 0x3e8a3c47, 0x3e4f7e98, 0xbeb1568b,
                               0xbda0bfc8, 0x3e23eb33, 0xbe3194f8, 0xbe4402a9, 0xbbd2034d,
                               0xbee466c7, 0x3d133748, 0x3fa6f5de, 0xbeada712, 0x3ea5bbaf,
                               0x3e7d2d17, 0x3d027a4c, 0x3ebda774, 0xbf60b523, 0x3d13ede7,
                               0x3edd5576, 0x3d95b291, 0x3e2e12ff, 0xbebf06c1, 0xbf0a7757,
                               0x3cb026f3, 0x3ecbed92, 0xbbc8f99e, 0xbdc9a72a, 0x3e99133b,
                               0x3e8fc4f8, 0xbf04f607, 0xbf39efb3, 0x3dc684c1, 0xbea91b25,
                               0xbe86ca50, 0xbe6eb8ef, 0x3efc7da6, 0x3f208286, 0x3eabfd05,
                               0xbd117635, 0xbc5bb830, 0x3db35bab};

uint32_t bias_array[102] = {0xbe0a55f1, 0x3e5d052e, 0x3e62959e, 0x3d330a09, 0x3eea69f3,
                            0xbe0129b3, 0x3e9a0b8c, 0x3ec0dd4d, 0xbe80ba33, 0x3e91c559,
                            0x3f1e080d, 0x3e6744d3, 0x3ea94bdc, 0x3d4cbc10, 0x3c1968e5,
                            0xbe826cc0, 0xbd1d154b, 0xbe7751ff, 0xbf268423, 0x3db88ba6,
                            0xbeb081c0, 0x3daf52c7, 0x3e99055a, 0xbe76881e, 0xbeab4a3a,
                            0x3e411176, 0x3d3716d1, 0xbe5e7e0b, 0x3d8603e5, 0xbbb6585d,
                            0xbe2c5051, 0x3e7b37c4, 0x3e989b9e, 0xbe8ccdcb, 0x3c258893,
                            0x3e58f810, 0xbc26eed3, 0xbd04a253, 0x3c9385f2, 0x3d325448,
                            0x3d2a698c, 0x3c7a557e, 0xbd780949, 0xbe5ccb8a, 0xbea17e49,
                            0xbe8b2e3a, 0xbe5f861c, 0x3c61a273, 0xbebef153, 0x3dac0ab4,
                            0xbe1fdc7e, 0xbe75abbf, 0x3e7a898a, 0xbbff77b2, 0x3e072bdc,
                            0x3cd2a96c, 0x3e81468d, 0xbe722463, 0x3d0e6ac7, 0xbdfbfe22,
                            0x3e8b4c9d, 0x3dbf395c, 0x3de8aa95, 0x3ef2ab32, 0x3da78249,
                            0xbe94d7da, 0x3e09319a, 0xbefb4209, 0x3eb4b723, 0xbdad3bdf,
                            0xbdbaedb7, 0xbe754cce, 0x3c91b77e, 0x3e0f9b1c, 0x3b1f1071,
                            0xbe333ba4, 0xbdc9b986, 0x3d499a05, 0x3eb825c1, 0xbe647403,
                            0x3e59d127, 0xbda0d70d, 0xbef276c5, 0xbe8a4169, 0x3f20eef2,
                            0x3e3f5bae, 0x3eefb950, 0xbf16c4f4, 0x3d00d263, 0xbd91d1a1,
                            0xbe49ef32, 0xbe198bac, 0x3e0eedc4, 0xbec4b66b, 0xbd0522d6,
                            0x3e3e191b, 0xbe21c42a, 0x3d0fbe9b, 0x3e4a871a, 0x3e83633e,
                            0xbf8b74c9, 0xbe255562};
extern uint32_t bias_array[102];
extern uint32_t weight_array[3328];