uint32_t weight_array[3328] = {0x3ee140e3, 0xbec7143e, 0xbd278dc2, 0xbd73727d, 0xbee1ce12,
                               0x3ead0f02, 0xbe4a8c03, 0x3d4f2403, 0x3ec2ba27, 0x3d82a95a,
                               0xbd18663a, 0xbedc0633, 0xbe11a992, 0xbd56bb1f, 0x3f50d4ad,
                               0xbe08290f, 0x3e73f7e5, 0xbe0e941c, 0x3ee357cd, 0xbe8528a2,
                               0x3f44a487, 0x3ee173c9, 0x3f0dc6cc, 0xbe4368da, 0xbed70da2,
                               0xbdad5817, 0xbbfc3978, 0xbeec2182, 0xbed11205, 0x3e5aab91,
                               0x3e0582d1, 0x3d242163, 0x3ea196e0, 0xbcfc2540, 0xbd198009,
                               0x3ca588b7, 0x3ef49f7e, 0xbe88d343, 0x3d82c838, 0xbec8f26e,
                               0x3cd1227d, 0x3e691dc8, 0x3decee36, 0x3ec833ae, 0x3e7dd60b,
                               0xbe7575fe, 0x3e31ee10, 0x3e3122d5, 0xbd89d912, 0xbdde3e6f,
                               0x3f2d2163, 0xbdaa335c, 0xbde1f1dd, 0xbf147481, 0xbdb2e899,
                               0xbe10024c, 0x3e2d467b, 0xbdc60c14, 0xbf067156, 0xbcb0fba0,
                               0x3c14e442, 0x3b48fb24, 0xbe82c284, 0xbeb812b0, 0x3e911449,
                               0x3e711918, 0x3da212cd, 0xbe7db10a, 0x3e9ad445, 0xbe0bafeb,
                               0xbec25ea9, 0xbedef64d, 0xbd34da29, 0xbccea0bf, 0x3ec1e313,
                               0x3d4c54a8, 0x3e6a83dc, 0xbe37c8f3, 0xbd252621, 0x3e81a15f,
                               0xbc4a108e, 0x3ec2a996, 0x3d9ebf3d, 0xbe66c04c, 0x3bec54c4,
                               0xbdd9aefd, 0xbda453b6, 0x3f0851e3, 0x3e167c56, 0x3e8467e2,
                               0xbe0ccd40, 0xbc8587d2, 0x3d08174d, 0x3bf8eecf, 0x3f3e667a,
                               0xbea6139e, 0xbf02e817, 0xbde078b6, 0x3e23e0e8, 0x3ec9fa62,
                               0xbcd93498, 0xbd17c739, 0x3e6233e6, 0x3cfb2afc, 0x3d62ccde,
                               0x3edb842d, 0x3ddfa2fb, 0x3eeaab2e, 0xbeb98ea5, 0xbedc32ca,
                               0x3d2feb98, 0xbd9e89e8, 0x3e26504f, 0x3d9f91d9, 0x3dfd9330,
                               0xbe606c30, 0xbede2311, 0xbd8abc10, 0xbdba442a, 0x3e1b9981,
                               0x3da5586f, 0xbcd218f5, 0x3e621de5, 0x3e27e5da, 0x3c1140f9,
                               0xbc9fbdcb, 0x3e86ce6e, 0x3d2d477a, 0xbc305192, 0x3e412b2c,
                               0x3d113c9e, 0x3df618b3, 0x3ea0a46f, 0x3da5b4e7, 0x3c7fed5d,
                               0x3deaf44c, 0x3e480f46, 0xbdf664bd, 0x3e48e653, 0xbe105720,
                               0xbe5812b5, 0xbde4dfc5, 0xbef92e78, 0x3d2f56c6, 0xbe2f3ddf,
                               0x3e701fb5, 0xbe65bf06, 0x3c928949, 0x3e0897a3, 0x3e84d90e,
                               0xbd2588d5, 0xbedc76e8, 0xbe015f5e, 0x3e061231, 0x3e010922,
                               0xbdfd0c20, 0xbe77b042, 0xbe08e7d1, 0xbba223ec, 0x3e8fc8ba,
                               0x3e0eaf39, 0x3c7bfca0, 0x3e278508, 0xbd385b03, 0xbda239fe,
                               0x3ddc501b, 0x3e2471f2, 0x3db2156b, 0x3e909d98, 0xbea90451,
                               0xbeb1c14f, 0x3dd649ca, 0x3eb15b27, 0x3d78bd0b, 0xbd859a1f,
                               0xbe8bdb76, 0xbe01ea4a, 0x3dac14df, 0xbe14e7a6, 0xbca1c6d1,
                               0x3e19a40a, 0x3d615b53, 0xbde2df4d, 0x3d4ba48e, 0x3e75a041,
                               0xbe1d5e60, 0xbdc6c3fe, 0xbb6d09a0, 0x3e83fe14, 0xbdc15bc8,
                               0xbe3cb1b1, 0x3e6148b7, 0xbee298b9, 0x3e0c3eec, 0xbc78056d,
                               0xbe079412, 0x3e83ce92, 0xbdbb4168, 0xbca987dc, 0x3c80e593,
                               0xbe73c410, 0xbe5cbeb3, 0xbe629d47, 0xbc92e7d3, 0x3d45f47e,
                               0xbe2e6bee, 0x3d73fc26, 0xbb7be743, 0xbdaa53c2, 0xbe94d86f,
                               0xbeebd1cb, 0x3e236d2c, 0xbcd68030, 0x3c4886c1, 0xbe324b74,
                               0xbeb8f937, 0xbf4338fb, 0xbe6a2527, 0x3e38ef90, 0xbe89ac79,
                               0x3f1f9e9d, 0x3d3f3a6e, 0x3e0d4312, 0xbd0efa12, 0xbe9a5ae7,
                               0xbee5eff6, 0x3d99b8b3, 0x3e6385ef, 0xbe0400c6, 0xbdf733b2,
                               0xbecb04fa, 0x3ea9be5d, 0xbdc7a685, 0x3d7f2cae, 0xbcbeab06,
                               0xbd15b5df, 0xbe9e74a4, 0x3ed5c774, 0xbf00eed3, 0x3dc94b70,
                               0xbb88b274, 0x3d8c073e, 0xbe6cecbe, 0xbe7d86b8, 0x3d7f2214,
                               0xbef2fa92, 0x3d887fb7, 0xbdcc371e, 0xbd37da7b, 0x3cd644fa,
                               0x3e3b56b1, 0x3eb34a90, 0x3e29eb5d, 0xbe1b9a1d, 0x3e805446,
                               0xbd9e8201, 0xbcad6b2e, 0x3ecb38a7, 0x3dfc912f, 0x3d9d220d,
                               0xbeae5336, 0x3d7fef0a, 0x3e271f83, 0xbd97470c, 0xbe60077c,
                               0x3c693610, 0x3e2ff40b, 0xbe88a9f0, 0xbe22cc46, 0x3e74cf1f,
                               0xbe43057a, 0xbed4b476, 0xbd82b28e, 0xbe2ad9d7, 0xbed6dda1,
                               0xbd7d31e2, 0xbc97dd17, 0x3eae906c, 0x3e0a1684, 0x3ea9cd32,
                               0x3d2569b5, 0xbd720a58, 0xbe049d1d, 0xbd45a1ba, 0xbf244e34,
                               0x3e96b5bb, 0xbe171a28, 0xbdf8b7c7, 0xbe6c8f0b, 0xbd687bf4,
                               0xbe138486, 0xbf13230c, 0xbee4d9c5, 0x3ccf227d, 0x3d6022cc,
                               0xbde550c2, 0xbdfe608d, 0xbe3b68aa, 0xbea24ea5, 0x3e90f60c,
                               0x3eb36310, 0x3e3b88eb, 0x3e735c17, 0xbcb0c2da, 0x3cc7cf2c,
                               0x3cc08b2a, 0x3e5a4970, 0x3d59dae3, 0xbf1d966a, 0x3decda73,
                               0xbde2e8d1, 0xbbb866cb, 0x3b597800, 0x3f08394d, 0x3e4b51a1,
                               0xbcfad349, 0x3c399b2f, 0xbe8bbb66, 0xbd901a03, 0x3e156841,
                               0xbe7f4257, 0x3e893085, 0xbe34ad59, 0xbd5c8b1a, 0x3d09e7f6,
                               0x3e15b52d, 0x3edda02e, 0x3ec6ba3b, 0xbd67f065, 0xbd642bb1,
                               0x3e15632a, 0xbe5953a7, 0xbe04def9, 0xbe35c0c3, 0xbdae0710,
                               0x3e4450b6, 0x3e512fd2, 0x3c2f4efa, 0xbd560a58, 0x3ba10bd7,
                               0xbbe233a0, 0xbf070a4f, 0xbe31f20a, 0x3ea989c3, 0x3dadd473,
                               0xbeb5e4ac, 0x3ca3bdb3, 0x3cafeb3d, 0x3e10072b, 0x3e63eb3b,
                               0xbea94777, 0x3ddb90de, 0xbf9135ae, 0xbec8ce3d, 0x3fb9cda3,
                               0x3f38c506, 0x3fd3aa3e, 0xbf429358, 0xbd530ad4, 0xc01eabba,
                               0xbf9d7e6d, 0x3fd9783d, 0x3f65b786, 0x3f4648cf, 0xbff038d6,
                               0xbf5b67a4, 0x3f95015c, 0x3e0e6e5d, 0xc0942ee3, 0x3f7a4e32,
                               0x3f399818, 0xbf3bfc99, 0xbfc55b46, 0x3e30c042, 0xbf81587e,
                               0xbf95a500, 0xbf31f5e1, 0xbf9d838e, 0xbfdcb048, 0x3f8ace5f,
                               0x3f62f7d9, 0xbee11382, 0x3fb01a18, 0xc0263fdd, 0x3e687469,
                               0xbd6059ae, 0xbefa4ac3, 0x3fa7acb2, 0xbfc52515, 0x3fb408bc,
                               0x403cecc6, 0x3fc4f460, 0xbfaff981, 0x3d58176b, 0xbf16885c,
                               0x3f6f1e63, 0x3f84e713, 0xbdccf95e, 0xbe1e9324, 0x3f394690,
                               0x3e086443, 0x3fc1d79c, 0xc019eb8f, 0x3f2f2092, 0x4032a5cb,
                               0xbe94f66c, 0xbfc5fbae, 0xc05ddc8e, 0x3ecf63e0, 0x4063aa9a,
                               0x3fa7131e, 0x40133d9b, 0xbf51dbcb, 0x3fa36c1b, 0x3fd7d899,
                               0xc066d770, 0x3da66756, 0x3e8ae9f3, 0xbf4f4eec, 0xbeee8540,
                               0xbecfefeb, 0xbd903c42, 0xbee71910, 0x3dea4a20, 0x3e396647,
                               0xbec92b91, 0xbd153504, 0xbe00531f, 0xbeb78aed, 0xbdb5d9e8,
                               0x3eacd5b5, 0x3d2a917e, 0xbe7f1ef2, 0x3e55b088, 0xbdd6261f,
                               0xbe305b5b, 0xbec997af, 0x3f427ae5, 0xbe63e43d, 0xbd48bff3,
                               0x3f238042, 0xbe9530a6, 0xbeddf904, 0x3e8b9c89, 0xbd110fc2,
                               0x3ef180f2, 0xbad4d3e5, 0xbe1d069d, 0xbe15de5e, 0xbedaafbf,
                               0x3d778402, 0xbfa27ca7, 0xbe519465, 0x3e806675, 0xbf7573c2,
                               0x3d4b512f, 0xbedb2744, 0xbea6d713, 0xbe50bf49, 0xbdc033ff,
                               0xbe06eab6, 0xbea87ce7, 0xbeaf1993, 0x3d62c81a, 0x3dd15cef,
                               0xbe89cc53, 0x3e4ed534, 0x3e93dc08, 0xbea7c214, 0xbf0235da,
                               0xbea4d80b, 0xbd916b86, 0xbd2eff1e, 0xbf10982f, 0xbe079716,
                               0xbe9e8017, 0x3dc2cceb, 0xbe85d0fa, 0x3e732610, 0x3f27bf32,
                               0xbf1b16c2, 0xbe1b063d, 0x3f16ddf1, 0xbe065df5, 0x3f482fd0,
                               0x3d342f95, 0xbf3d318d, 0xbf23302a, 0x3eab0af8, 0x3db46710,
                               0x3ed2fee0, 0xbe06a106, 0xbd3461c5, 0xbdc120c0, 0x3eb6399c,
                               0xbe435790, 0xbf7a0490, 0x3d9d0be5, 0x3e229854, 0x3d2fc5e4,
                               0x3edf6cdb, 0x3ed32dab, 0xbf739b35, 0xbed4da34, 0xbd1c3ef4,
                               0x3e72fc2f, 0xbee83cee, 0x3ed1aaa1, 0x3ef5d30d, 0xbef4fa8c,
                               0xbf440df5, 0xbf3e9ded, 0x3de4b22d, 0x3e1b82c8, 0xbdbe6fa3,
                               0x3cef9cfc, 0x3e9e58e5, 0x3b62bb5e, 0xbda1c95e, 0xbea5869b,
                               0x3cf6da63, 0x3e8e444c, 0x3e0365b9, 0xbe591940, 0x3bdf3577,
                               0x3ebfa009, 0xbf0a60de, 0x3e38c3b7, 0x3d299c2c, 0x3e1a2f40,
                               0x3e305cee, 0xbe2063e2, 0x3ec28062, 0x3f3cd83e, 0xbe07a994,
                               0xbe59a7d1, 0x3e8c85a2, 0xbdc1ec23, 0xbc8097dd, 0x3e1a2200,
                               0x3ee79770, 0xbbcd23db, 0x3ef129bc, 0x3d040b92, 0x3d81348a,
                               0x3e8eb294, 0x3f996788, 0xbe6cb84a, 0xbf7a8c09, 0xbfd737da,
                               0x3e49e8d1, 0x3f1f5523, 0xbf41b6d5, 0xbf1daeb3, 0x3fddd2e6,
                               0x3f53f780, 0x3f1648bd, 0x3d530c60, 0x3dcac578, 0xbf325d9a,
                               0xbe09a4e2, 0xbfdf4704, 0x3e038d7c, 0xbe8e0a93, 0x3f051809,
                               0xbeb6fc24, 0x3e00fd0a, 0xbf31316a, 0xbf489ac5, 0x3fba1ee9,
                               0x3e0b8a2d, 0x3f22b3ca, 0xbf479358, 0x3f11ff54, 0x3fa203d0,
                               0x3e6aa817, 0xc001f982, 0x3f4c6027, 0x3f3c08f4, 0xbf33d826,
                               0xbfb13e06, 0x3effe697, 0xbf7a627d, 0x3ed74302, 0xbd34f546,
                               0x3f013c72, 0xbfe48a31, 0x3e9e36f0, 0xbce0f878, 0xbfa6969f,
                               0xbf750e78, 0x3f1de63f, 0xbeaf1785, 0x3f7a5f1b, 0xbe9cf6ce,
                               0x3f7ee648, 0xbf63bd47, 0x39ee5a5f, 0x3fd6a9b1, 0x3d048c72,
                               0xbec40527, 0xbe288b42, 0x3dcbfbf3, 0x3f2f07c1, 0x3f479af1,
                               0xbfd7466f, 0xbcf8914c, 0xbef1988e, 0xbe39c19c, 0xbd8d847d,
                               0x3df93b29, 0xbca6da58, 0xbda9f7fe, 0xbedcdf91, 0xbc07c44d,
                               0xbe296750, 0x3d429645, 0x3d52ee71, 0x3e2cbb6b, 0x3e1593e1,
                               0xbd2b3744, 0xbd9e6ac9, 0xbe0d7384, 0xbd769723, 0xbdad9a75,
                               0xbdb43ed9, 0xbdc4d6d6, 0x3e06b217, 0x3e1b01ec, 0xbee4ef88,
                               0xbd99c7e8, 0xbde17df1, 0xbda12ff0, 0x3bdf5eae, 0x3de4900b,
                               0x3da1744e, 0x3e4c0b31, 0x3d1ad0fb, 0x3e97a1eb, 0x3e06f584,
                               0xbe2f2a93, 0x3e100797, 0x3dde85e9, 0x3d8a28e0, 0xbdaa594d,
                               0x3e941505, 0xbdce3eea, 0x3cbae0f2, 0x3def6c79, 0x3c75f70a,
                               0xbdc6385e, 0xbd913a59, 0x3b9ff905, 0xbe8a3924, 0xbe85bedf,
                               0x3e54d7b4, 0xbe2e64b3, 0x3e23b4a5, 0xbcff4827, 0x39aebbea,
                               0xbd5b1f50, 0x3dcd6733, 0x3e2429e3, 0xbdd2b1ce, 0x3da1f42e,
                               0x3e3e3258, 0xbe4c65e6, 0xbdade952, 0x3ec9edc7, 0x3cea29a1,
                               0xbe510e5e, 0x3d740778, 0x3f0bff60, 0x3fa9b7ac, 0xbfd3d71a,
                               0x3f8f17e1, 0xbe641b5f, 0xbebe7c20, 0xbfbfa31f, 0xbf45ea3d,
                               0x3f5d3251, 0xbfdbc818, 0xbf9c5e77, 0x3f6998b6, 0xbf8c74fa,
                               0xbcd35d12, 0xbc30dd29, 0x3ed092ff, 0xbf785664, 0xbdc9aa02,
                               0x3fd5c27f, 0xbf57bd28, 0x3e965285, 0xbf5f2a5b, 0xbedd1e2d,
                               0x3ec8c3e9, 0x3fa5fdcc, 0xbe0d0a8e, 0x3faad20f, 0x3ed1660c,
                               0x3f26cf71, 0xbe7bbe6a, 0xbf47f32a, 0xbf6b9e2b, 0x3e0abcf6,
                               0x3f3cb3b2, 0xbf8bd596, 0x3f80004a, 0xbf8c4e70, 0xbef79e8a,
                               0xbf76105d, 0xbf03229f, 0x3e089eb3, 0xbfaaac75, 0xbf9a506b,
                               0x3f5dd13a, 0xbf5e2dba, 0xbcc241aa, 0x3e437fb5, 0x3f85107b,
                               0xbf3f502c, 0x3e31f353, 0x3fd580d7, 0xbf4e1465, 0x3f1298d0,
                               0xbed06925, 0xbfa58aa8, 0xbf1696d1, 0x3fb144cd, 0xbe75b032,
                               0x3fa8a77e, 0x3f285353, 0xbf16411f, 0x3e3e069f, 0xbeba639b,
                               0xbfa34db1, 0x3ec92e8e, 0x3f8d8d44, 0x3e2f0bad, 0xbe0f9141,
                               0xbcb6802c, 0xbd8e4353, 0xbe06a8e0, 0xbf1e75bf, 0x3e946032,
                               0xbe7fc2a2, 0xbf28a049, 0xbebae41f, 0x3e08922b, 0xbf256d6e,
                               0x3c71433b, 0x3ece012b, 0xbe0b32bf, 0xbe8e3447, 0x3f139eb5,
                               0xbea86fa3, 0xbdbe5747, 0xbeeb43f9, 0x3e705625, 0xbedad337,
                               0xbe1435d2, 0xbf17c599, 0xbe05f0fb, 0x3edd1395, 0x3e788da2,
                               0x3ef59936, 0xbf03cd4a, 0xbdbe6599, 0x3e053236, 0xbeaf0abe,
                               0xbe65c0aa, 0x3f1592cd, 0xbd8e8479, 0xbeae4144, 0x3e15f50f,
                               0xbe3b98aa, 0xbee8b2bf, 0x3d416bd2, 0x3dab098e, 0x3f2f50ff,
                               0xbe0965df, 0xbeb5b285, 0xbe6ac7fd, 0x3df61c47, 0x3dd83148,
                               0xbe607e1f, 0x3f297f6a, 0x3ef036ee, 0x3c3d6f9b, 0xbf083a0a,
                               0x3daea11b, 0xbe28ac51, 0xbe536bf3, 0xbd36c526, 0x3ddbed19,
                               0x3deed045, 0x3e031758, 0x3e164246, 0x3db632ea, 0xbd359d9d,
                               0xbcdfe8a3, 0xbe1dff9f, 0xbe539697, 0xbe4f7c51, 0x3c24bba2,
                               0x3d32f6e2, 0xbd1f4686, 0x3e2ae71c, 0x3e5c3611, 0x3d67ddaf,
                               0x3c777b1b, 0xbd6af5ba, 0xbca8c807, 0x3ef03808, 0xbca29e61,
                               0x3d77ac8b, 0x3cbad364, 0xbd052b30, 0xbc0ba6fe, 0x3f2404a2,
                               0x3d4f6daa, 0xbe4e53f8, 0xbd7b9686, 0xbd70af19, 0x3db6d330,
                               0xbd376958, 0xbe3446ad, 0x3ec6de0f, 0xbee1789a, 0xbd12dbaa,
                               0xbf124cce, 0x3d6ccac4, 0x39f74bf2, 0xbdc39f72, 0x3d1f3ccf,
                               0xbcf19632, 0xbde74ed6, 0xbe091e71, 0x3cb8079a, 0x3e5b64c8,
                               0x3dce0708, 0xbdcfa78c, 0x3def9373, 0x3e20846d, 0xbd1e3002,
                               0xbe508b0c, 0x3f253b7c, 0xbe32c8f6, 0xbce1370a, 0x3e03f06e,
                               0xbe146576, 0x3de660ac, 0xbd539766, 0x3cb9015c, 0x3e44f15b,
                               0x3e132cde, 0xbe46f572, 0x3df280dc, 0xbd99fad2, 0x3c87d96d,
                               0xbebe58a5, 0xbd03f62e, 0xbebf1ec3, 0xbe296178, 0x3e86f335,
                               0xbf8b169d, 0x3f760c6d, 0x3dd3fd86, 0x3faac56d, 0x3e775871,
                               0x3f45268e, 0x3f33ffc0, 0xbf4891f3, 0x3fa2ecac, 0x3eef7dfa,
                               0xbfdf5c86, 0x3f80263c, 0x3ee229c6, 0x3eaa031c, 0xbd9516ed,
                               0x3f03542b, 0x3f2a2085, 0xbec18a97, 0x3f6195ef, 0xbf941edd,
                               0x3ee3679f, 0x3e77700d, 0x3ea4b3ab, 0xbeda468e, 0xbddb69b2,
                               0xbf52b9d4, 0xbf103072, 0x3f44e320, 0xbe0a2ad2, 0x3d13c2f9,
                               0x3dc2f07c, 0xbd683080, 0xbba67aaa, 0xbd0f7a43, 0x3d924387,
                               0x3d48acae, 0xbc953da3, 0x3d53348c, 0xbd8d3a75, 0x3db69d74,
                               0x3d1e9704, 0x3d78b8be, 0x3d69fd92, 0x3ce66635, 0xbcd75421,
                               0x3d9cadcf, 0x3d89b371, 0xbc545e90, 0x3d0232c5, 0xbcfdf1cc,
                               0x3e105f6f, 0x3d268ac1, 0xbe929cae, 0xbca812f2, 0x3d51b548,
                               0x3cc38a9c, 0x3d06c64e, 0x39cb5453, 0x3d428b00, 0xbc2fcbad,
                               0xbd5b9924, 0x3de005a6, 0x3c7a5edf, 0xbd7eec0b, 0x3d3f0ec3,
                               0x3c7d9f13, 0x3e09bc3c, 0x3d332b8a, 0xbca297d3, 0x3d0e89d2,
                               0x3d1d48af, 0xbdb1cec6, 0xbcef83f9, 0xb90b1230, 0xbce96ac7,
                               0xbcfb2d8f, 0xbdc25c7a, 0xbd11d75f, 0x3c281fd4, 0xbbb4a82c,
                               0xbc35e5c7, 0x3cac28eb, 0x3c4b75cf, 0xbd62a6a2, 0x3d86042d,
                               0xbcf41c04, 0xbd9910a7, 0x3ce23de9, 0x3c3704c5, 0xbb9bad7d,
                               0xbd1300fe, 0x3e2468d9, 0x3ccb91a6, 0xbd0f3ee0, 0x3ce2fb72,
                               0x3d305593, 0xbcb4479a, 0x3b368797, 0xbe541fda, 0xbe205183,
                               0x3d275ba4, 0x3bf7ca6b, 0xbd0deaa6, 0x3e1bd4c8, 0xbcded3df,
                               0xbd8191da, 0x3d4bcc0d, 0xbda57c25, 0x3e1dce6e, 0x3c6c514a,
                               0x3dc63ae5, 0x3a12a87a, 0xbcdff5d2, 0xbe012059, 0x3d2f9c21,
                               0xbd592b2d, 0xbd32e09f, 0xbd4c94ed, 0x3d05a92d, 0xbdb70a3a,
                               0x3d64cdc7, 0xbb45827a, 0xbe09c8cc, 0xbe0b9031, 0x3da0b6c3,
                               0x3d820c7a, 0x3d68f52a, 0xbe07b98e, 0xbd6447c2, 0x3bd2b31a,
                               0xbe631b93, 0xbd62dac3, 0x3d47528c, 0xbd5a9cc8, 0x3e0bc6b0,
                               0x3e89fc08, 0x3d11e082, 0xbd035ea0, 0xbc94f259, 0x3daa7465,
                               0xbdbe8afe, 0xbde464a0, 0xbe5be986, 0xbd634cd2, 0x3dcee332,
                               0xbd62406f, 0xbd632745, 0x3ddc1835, 0x3dd8edfb, 0xbd60a168,
                               0xbdb4b644, 0x3dabc48d, 0xbd7d6f06, 0x3da7bdc3, 0xbe32a6f6,
                               0x3d9ae92d, 0x3d3fa7c4, 0xbd20dcfe, 0x3dd2dc7e, 0x3d01596e,
                               0xbd14a044, 0x3dc172f8, 0xbe45a5d5, 0xbca58a38, 0x3c76738e,
                               0x3d8cd237, 0xbca1e306, 0xbc074d3a, 0x3de0f5f9, 0xbd0990c2,
                               0xbd38d6f8, 0x3c97ab79, 0x3d805bdc, 0xbd87a09f, 0x3dcd2e19,
                               0x3c876a63, 0xbcb227c9, 0x3dc17c67, 0xbd29a821, 0x3d9b5297,
                               0x3d8df13a, 0xbd69aa55, 0x3d70445c, 0x3be49027, 0x3dcdd2fd,
                               0xbd73c861, 0x3d3516f5, 0x3dfca264, 0x3dfd1482, 0xbc52d4b4,
                               0xbd3c9b51, 0x3d04cd92, 0xbd0533f3, 0x3dc970b3, 0xbe22b686,
                               0x3daf3d3e, 0xbc23d404, 0x3ce56b69, 0x3d973f8d, 0x3d96d856,
                               0xbd6baa50, 0xbc956560, 0xbd135683, 0x3d91061c, 0xbc865f65,
                               0x3e1c55e1, 0xbeffaaea, 0x3c89382d, 0x3e15fb47, 0x3d65a2f2,
                               0x3c26b7a5, 0xbd9c8d85, 0xbed78d7a, 0x3cd4aecf, 0x3c99507a,
                               0x3e3d2ca9, 0xbe0f3943, 0x3e0dfe51, 0xbdafdc6e, 0x3d9d1b03,
                               0xbdde1861, 0x3ac3f8b4, 0xbc242366, 0x3cbc145a, 0x3e2deccc,
                               0x3e8549e6, 0x3e22957e, 0xbe7feb2e, 0xbea91333, 0xbeaedb0c,
                               0x3e2ec30a, 0x3db555a8, 0x3ed0c45a, 0xbe984679, 0x3e532a6c,
                               0xbe8bf734, 0x3eb6d427, 0xbc7b58cb, 0xbedaa4ee, 0x3e859f77,
                               0xbc1f19a6, 0x3e37d7c9, 0x3cdb558d, 0xbe58e8fa, 0x3eb2e089,
                               0xbe2c3043, 0xbda10fcc, 0x3e3787b6, 0xbeeb5607, 0x3e9c7cb9,
                               0x3d34077e, 0x3e967a37, 0xbe092afe, 0xbe8d37e2, 0xbed714f2,
                               0x3eae146e, 0x3e9c87b8, 0x3e905269, 0x3d3c81c3, 0x3ee1fa03,
                               0x3e844546, 0x3b37ee0f, 0x3e5851b6, 0x3f20ce0b, 0xbe9ac9ad,
                               0xbeaca8ab, 0x3f010721, 0x3ec6d63c, 0xbe20b367, 0xbf44c5bb,
                               0x3f1dffb8, 0x3ef16b12, 0xbeab9633, 0xbe7e7d19, 0xbe916779,
                               0x3ed68130, 0xbf140bad, 0xbebf9e2b, 0xbe8e915b, 0xbef78754,
                               0xbdb0d113, 0xbec17976, 0xbe3a9d7c, 0xbe0e6139, 0x3f0df998,
                               0x3f09c3e7, 0xbdcf69a4, 0x3e97a6a4, 0xbf0acf43, 0xbeb4a270,
                               0xbf46799d, 0xbf0cfa3d, 0xbecbd68d, 0xbf3e06c0, 0x3dd508f8,
                               0xbda621e6, 0x3e2ae085, 0x3e1af406, 0xbe52f7f2, 0xbf264419,
                               0xbf0718ae, 0xbdffabd5, 0xbf15c78e, 0x3cac9d33, 0x3ebb37e7,
                               0x3c9454ed, 0x3f193ce1, 0xbf2ad3ff, 0x3e278a5e, 0x3dc35bd5,
                               0x3f1704d7, 0x3f03c511, 0x3ec3a302, 0x3eee50b4, 0x3ebeb3c9,
                               0xbc5c20eb, 0x3dbf12e4, 0x3e8628b3, 0x3eb2a035, 0x3c4dce2d,
                               0xbe04df05, 0xbec0cd4a, 0x3d884ec1, 0x3e1fb6ec, 0x3f3ca5f3,
                               0x3cbdb026, 0xbd8fa02a, 0xbe76710c, 0xbe2093e5, 0x3df05dcf,
                               0xbeb10348, 0x3e4a46be, 0x3d67a317, 0x3e0dcd2d, 0xbec09ac1,
                               0xbd9ddea8, 0xbf6f9e6a, 0xbbbf54ab, 0xbe142f8a, 0x3d42ffa3,
                               0xbd68cea6, 0x3dfa05ca, 0xbcecbedc, 0xbdad5b00, 0xbf01a4de,
                               0x3da43261, 0x3cbb81ad, 0x3e995c7a, 0xbe8a1de9, 0xbc605af4,
                               0x3de8e1c7, 0xbf46697f, 0x3e4e4fd6, 0x3ef31190, 0x3ebe344e,
                               0xbef32870, 0xbe4a67ae, 0xbd36bed4, 0x3e887dff, 0xbeed798f,
                               0xbea33e52, 0x3d1bea14, 0xbdaf0e3e, 0x3ecdca9b, 0xbea1dcb3,
                               0x3f968922, 0x3daa8334, 0xbecbf190, 0x3f21e2f6, 0xbe9834ab,
                               0xbde65022, 0x3ecdf199, 0x3ec38a01, 0x3d13c553, 0x3dcbe6d0,
                               0x3e7c1621, 0x3ee9cae7, 0x3e4fb6e7, 0xbe1d46f2, 0x3eb623dd,
                               0xbe743383, 0xbdc655cd, 0x3e04b39a, 0xbc8828b4, 0xbdc4a13a,
                               0xbe8ca50c, 0x3e9bcb12, 0x3eced62d, 0x3efcb0bd, 0xbc775719,
                               0x3f083372, 0xbe11ec99, 0x3e7e16cf, 0x3f32c4e3, 0xbd9e0ac1,
                               0x3d2497ec, 0xbef98370, 0x3ee47d94, 0x3f2eaf86, 0xbede15cc,
                               0xbd15e6ea, 0xbbc8340b, 0x3f1dff3b, 0xbd2c05b1, 0x3ef6e6ba,
                               0x3e3f6a4a, 0xbcf7e960, 0xbf107204, 0x3e60f712, 0xbf008215,
                               0x3e12a598, 0x3e10b9e8, 0x3e3442d6, 0xbe74997c, 0xbe26a879,
                               0xbba92c28, 0x3ea352da, 0xbe9614a8, 0xbefc2850, 0xbe1eafec,
                               0xbeb3542c, 0x3eb15791, 0x3d779554, 0xbf1ba7ca, 0x3d871048,
                               0x3ee45f18, 0x3f729d4a, 0xbcdcf0de, 0x3e9690d9, 0x3f2b51a8,
                               0xbe6564ab, 0x3d8ad807, 0xbe53b6e9, 0xbe1d2127, 0x3e017ce7,
                               0x3e90f88d, 0x3f101acb, 0x3d4fefbe, 0x3e22d29e, 0x3edd3c13,
                               0x3e26d4aa, 0x3ce004b0, 0xbe98a836, 0xbe1e3eab, 0xbec435b8,
                               0x3c00f841, 0x3e8b78c1, 0x3e109ee5, 0xbe340d50, 0xbd7f7428,
                               0x3e6273bc, 0xbd7698db, 0xbe490e5c, 0x3eec74fb, 0xbf082a81,
                               0x3f06d1c5, 0x3eba53fa, 0x3f0be012, 0x3e16a221, 0xbe396411,
                               0xbd2d3096, 0xbeb800ac, 0x3ea02888, 0x3efcdcca, 0x3dd25461,
                               0xbdd7c582, 0xbeb07c61, 0x3f908e8d, 0xbecf796a, 0x3eb70c1d,
                               0x3f15fc0a, 0x3f37aef6, 0x3e553392, 0x3dee8d27, 0xbe57925b,
                               0x3f3f0c8c, 0xbe870e72, 0x3e3e3760, 0xbf11574f, 0x3e09d364,
                               0x3e7cdd3e, 0x3ede1b78, 0x3e1427f5, 0x3e86ad56, 0x3f01319a,
                               0xbed34bba, 0xbd8fdc50, 0xbed7f200, 0x3e077c8f, 0x3eeca4b6,
                               0xbe92b401, 0x3f06591c, 0x3da4557c, 0xbe72f26d, 0xbe0ecbf9,
                               0xbe536cf6, 0x3d77a701, 0xbd815a07, 0xbddd7e1e, 0xbd86e7ab,
                               0xbd3bce4e, 0x3ecffea1, 0xbe11328f, 0xbd848bbd, 0xbe3ee918,
                               0xbe824fec, 0xbeb29500, 0x3eaa9c48, 0x3eb97215, 0x3e87fd65,
                               0x3e8220e4, 0x3f2e1dfe, 0xbe7112ed, 0xbe6700cb, 0xbd9d0e60,
                               0xbee5bc53, 0xbe5285b5, 0x3f4275e4, 0x3f2668bc, 0x3ce3b8bf,
                               0x3d7e545b, 0x3de2bac6, 0xbd9406dd, 0xbcef2e8b, 0xbf2690bb,
                               0x3f2cff60, 0xbc50a7be, 0xbe66290a, 0x3d5d9cf4, 0xbf014ea6,
                               0x3f1ce603, 0xbd5a9674, 0x3ea171ea, 0x3de73c4e, 0xbe31b6a5,
                               0x3edd2485, 0xbf77c905, 0xbe7c35ae, 0xbdc024c7, 0x3f0426d4,
                               0x3ec522fa, 0xbf176f7e, 0x3dbe1aba, 0x3f1d1246, 0xbe70a0e8,
                               0xbec828a8, 0xbde0e7ed, 0xbf5457fb, 0x3dca7ed0, 0x3f3207d1,
                               0xbe4ea966, 0x3d4aa274, 0x3e369bee, 0x3e13128d, 0xbe4c9eb6,
                               0x3e576302, 0x3ee9347d, 0xbed00fe9, 0xbd8872e6, 0x3e744029,
                               0xbdecefec, 0x3e8bbfb6, 0xbf0cfb4d, 0x3d0675c7, 0x3e21aa65,
                               0x3dfb12c4, 0x3ed87fcc, 0x3e125bb0, 0x3eaadef7, 0xbde128d3,
                               0xbca83411, 0xbddce576, 0xbeb1ed10, 0x3f2fa120, 0x3ea2768e,
                               0xbd97b811, 0xbebbb5e8, 0xbe2b732c, 0x3eaccbf4, 0x3ef80cf6,
                               0x3d0eba0d, 0x3e45b491, 0x3ea364f4, 0xbadfaa9f, 0x3f0625f8,
                               0x3d749f2d, 0x3e52f5ef, 0x3d998b03, 0x3eeee432, 0x3d434413,
                               0xbe6c8432, 0x3ead97d5, 0x3e781f9c, 0xbed1ba0f, 0x3e35f08c,
                               0x3eade530, 0xbf62a953, 0x3edc3f1a, 0xbec51122, 0xbf71457f,
                               0x3ee6ab4c, 0x3e1d0ba7, 0x3e15b4a1, 0xbdcfe7ad, 0xbe52b449,
                               0x3e959c8f, 0x3e030e97, 0x3df068ff, 0x3d9de1ce, 0xbe221f90,
                               0xbf460f60, 0xbeb493b5, 0x3d6fcc37, 0xbe03836f, 0x3e1f7362,
                               0x3e0679bd, 0x3e9f710f, 0x3d1a5e6e, 0xbe531b5b, 0xbeebeb72,
                               0xbea6ab39, 0x3f00a801, 0x3dafb69c, 0x3f0805c2, 0x3eafc618,
                               0x3d728887, 0x3f21175b, 0x3edae1d3, 0x3e9b5d5b, 0x3f09962a,
                               0x3eef39e7, 0x3ea16137, 0xbe3e71c0, 0x3ec73270, 0x3de5e87b,
                               0x3e76c1f6, 0x3cbdea90, 0x3f153f10, 0xbf016ef7, 0xbdd870f1,
                               0xbda322d8, 0xbefd54ea, 0x3e577dd1, 0xbda4ca14, 0x3cabf801,
                               0xbdf8feaf, 0x3f05d556, 0xbd8e2de0, 0x3d457ccc, 0x3cdaee29,
                               0x3d527901, 0x39aaf2ea, 0x3d56306b, 0x3f0ad93c, 0x3e62b2cd,
                               0xbf1397e3, 0x3c2934f1, 0x3db01d39, 0xbd215b16, 0x3eadb3e2,
                               0xbc85ee5d, 0xbd0e14c3, 0x3e6c2da0, 0x3e8680f0, 0x3dc21e90,
                               0x3dcc6798, 0xbf655586, 0x3d2ef17d, 0xbed0076a, 0x3e9cd07e,
                               0x3da55bc6, 0xbf484f2f, 0x3d5de177, 0x3eb78aa8, 0x3d9830ed,
                               0x3cce7d82, 0xbe991f71, 0xbe83d161, 0x3de47047, 0xbe7f2f96,
                               0x3e36b294, 0x3ef6e6bf, 0xbf326ff3, 0x3da0664d, 0xbc026f20,
                               0xbe50a70a, 0xbe4c5668, 0x3d977476, 0x3f10ffc1, 0xbd9dd286,
                               0xbe01ed13, 0xbdfe665a, 0x3cdd0eb4, 0xbea7a33c, 0xbd401fd1,
                               0x3e2d2b42, 0x3e5cbffb, 0x3edfcf68, 0x3eaa7ae2, 0x3f31122b,
                               0x3d8baf31, 0x3e5b1483, 0xbd877d35, 0xbedce39c, 0xbdcbcb5e,
                               0x3ab0ce66, 0x3df58ccf, 0x3e09878f, 0x3e7e9642, 0xbc4488bc,
                               0x3e2e02f6, 0x3e4bc265, 0xbd025fac, 0xbe91c3d5, 0x3e9ef9dc,
                               0x3d3e8253, 0xbe9e9da1, 0x3d0d4960, 0x3e7a79ac, 0x3e56272f,
                               0xbe582115, 0xbe18cf2e, 0xbe3564aa, 0x3d167964, 0x3dcf5456,
                               0x3e8624d0, 0x3c27f337, 0x3e23411d, 0x3e28c043, 0xbe925477,
                               0xbe529f83, 0x3e1e5e86, 0xbe4426a6, 0x3c118052, 0x3c24f5d3,
                               0x3f1c4085, 0x3ec9f703, 0x3eb8da79, 0xbe4c80fb, 0x3ef7bfdc,
                               0xbcd83215, 0xbe9bef9d, 0x3d26513c, 0xbf1c7846, 0x3f8dff40,
                               0xbf88370b, 0xbe06f4e8, 0x3f4fd105, 0xbf04fb0a, 0x3c8a6bc7,
                               0xbf2cd6c9, 0xbdc5e6d0, 0x3e727437, 0x3f265ae1, 0x3f0f8ac6,
                               0x3fa89645, 0xbd795149, 0x3f381c29, 0x3f719a5e, 0xbb1fb185,
                               0xbf4a9c66, 0xbf166ce9, 0x3eb60c37, 0xbe210056, 0xbe4f0479,
                               0xbf16b549, 0xbf659309, 0x3e0c22a9, 0x3d334599, 0xbe366ca2,
                               0xbe3123a3, 0x3ed3072e, 0x3dd87abc, 0xbdad64fd, 0xbf347f5d,
                               0x3edc56ee, 0xbe69c84d, 0xbe8192b0, 0xbeca9f14, 0xbe384a12,
                               0xbddfa199, 0xbf2a4ef9, 0x3ec4e897, 0x3e2a7f85, 0xbcde9541,
                               0x3e037f7b, 0x3e90b688, 0xbed7cdd2, 0x3e53a75a, 0xbd520cd6,
                               0x3e103e4e, 0x3e6c7311, 0x3ee51061, 0x3d18170a, 0x3e44d4b8,
                               0x3e68299a, 0xbe659675, 0xbefc13d5, 0xbec9be4d, 0x3d98c19e,
                               0xbdcd19f3, 0x3f5993c3, 0x3e906b0a, 0x3d5806e8, 0x3cf28859,
                               0xbed61283, 0x3f1e74a2, 0x3e0edf35, 0xbe0d680e, 0x3bb1192f,
                               0x3dde9c90, 0x3e5ff8a3, 0x3d913f15, 0x3dc4df42, 0x3eaf6a6d,
                               0xbcfb8d3f, 0xbeb1cb91, 0x3ecf11eb, 0x3db926ec, 0xbe006cc3,
                               0xbf4a5411, 0xbe9a6dae, 0xbefce383, 0x3d17664d, 0xbdb72345,
                               0xbd49fe8c, 0xbede954b, 0xbd07d37e, 0xbc9dbb12, 0x3aad5f69,
                               0x3f049289, 0x3f15f4c9, 0xbe67e194, 0x3cdc82c6, 0xbec9206e,
                               0x3e65f15d, 0x3e486f13, 0x3ebb9181, 0xbe6e52dc, 0x3f5975a9,
                               0xbe28b4e5, 0xbc2cb497, 0x3e7300f4, 0xbf09222a, 0x3eb7c71a,
                               0x3e9e77ec, 0x3e6fbf85, 0xbebaf0c5, 0x3e2aa726, 0x3ea1a986,
                               0x3e2f8299, 0x3ea39796, 0x3ef49abc, 0x3be9e5c0, 0xbd7801d7,
                               0x3deb2e46, 0xbed337ba, 0xbeb184eb, 0x3ce01a7a, 0xbeaeea21,
                               0xbe2a7b97, 0xbeb45c35, 0xbe379dcc, 0x3c5c6b96, 0x3f22d912,
                               0x3d88f761, 0x3e550855, 0x3e2026c8, 0xbd779ab0, 0xbd8fd8b9,
                               0x3ea51675, 0x3e7b2f0e, 0x3e4d6ded, 0x3de3b450, 0x3e12d3db,
                               0x3f12b758, 0x3ebe7f7d, 0xba09d1cf, 0xbe1a1bfb, 0xbe3af5b7,
                               0xbe7bb4e2, 0xbdc95ec9, 0xbcf76aa1, 0x3e16fb71, 0xbec27324,
                               0xbe6c03ce, 0x3d48b6ef, 0xbe477ded, 0x3ef5104e, 0x3ea695a1,
                               0x3f214c74, 0xbe36714a, 0xbdecbf23, 0xbd8dddf0, 0xbe65de0d,
                               0xbf0611ef, 0x3e8471ff, 0xbdc9df5c, 0x3d6c9d03, 0xbe93a7ce,
                               0x3ea18b9a, 0xbeef0308, 0xbe1b1fba, 0xbebac6e6, 0x3ded00ec,
                               0x3df621b5, 0xbebd811b, 0xbf0afc31, 0xbe28f48f, 0x3d3292b1,
                               0x3f06e174, 0x3e43708c, 0xbe069a44, 0x3ec94839, 0x3c7aafd3,
                               0x3dee9dff, 0xbe13726c, 0xbe34e57a, 0x3e3a706b, 0xbdc21084,
                               0x3e9b252f, 0x3e493407, 0x3e46434f, 0x3ed795e2, 0xbc35b14b,
                               0xbe430c12, 0x3cd41f7d, 0xbe4e6d88, 0x3e19350d, 0xbeaa2105,
                               0x3ed90358, 0x3edf59d5, 0xbe8e2fbd, 0x3e67d8c4, 0x3eb96a22,
                               0x3eecf06d, 0x3e2e8e8b, 0xbe1e46dc, 0xbde2b18f, 0xbe13b7e1,
                               0xbed3c91b, 0x3d53d6a6, 0x3e20d7c3, 0x3ee8b5d5, 0x3dacd81e,
                               0x3cd9afe2, 0xbd9e0dd5, 0xbed4bfbc, 0x3d81f1b0, 0x3f7078b7,
                               0x3d7bb0d6, 0x3e8eecda, 0xbea30673, 0x3ed813fd, 0x3f702053,
                               0x3e734a52, 0x3f0baf67, 0x3eac2b2f, 0x3ecb11ee, 0x3e3f93c5,
                               0xbe6d4453, 0xbda0795c, 0x3eee2c46, 0x3da216a6, 0x3ded4646,
                               0x3f346d65, 0xbe68ac31, 0x3e3199f0, 0xbf007494, 0x3e80ad05,
                               0xbe8d2135, 0x3e438815, 0xbe9b33bb, 0xbd6401d7, 0x3ddcd1bd,
                               0x3f19247e, 0x3ebeb4bc, 0x3ee0cf0b, 0xbec85a43, 0x3e042c8a,
                               0xbdcb686f, 0x3d558656, 0x3d274084, 0x3e9d388f, 0xbe0ebd2c,
                               0xbe363b9f, 0xbcacb393, 0x3ef3b654, 0xbd8b2ae4, 0x3d8b1c2d,
                               0x3e76f98d, 0xbd87a4aa, 0x3e1fad85, 0x3e648d3c, 0x3e83b96f,
                               0x3ea3b27b, 0xbe969b48, 0xbf10c399, 0xbe4dbb90, 0x3ed13751,
                               0xbf28fe93, 0xbc6fb7dc, 0xbde75b6e, 0xbedce6e6, 0x3e75d356,
                               0xbeb49641, 0x3e479cf2, 0xbf5223be, 0xbd87a5b4, 0xbd77470d,
                               0xbe13d9ca, 0xbe6805b0, 0xbf3947d9, 0xbeab8b1d, 0x3e04fbaa,
                               0xbcd5c778, 0x3e118c33, 0xbe8adf60, 0xbf03ae45, 0xbbd5d3cf,
                               0xbdd2e660, 0xbe0601c3, 0x3e4cf844, 0x3e26cd5b, 0x3df98845,
                               0xbe91803f, 0xbef6cb43, 0x3daa2b05, 0xbcc25e37, 0xbe07f967,
                               0xbd921b3a, 0xbed72ea6, 0x3ec26fa6, 0xbd68d428, 0x3e22cc07,
                               0xbb099469, 0x3ed94562, 0x3e31ecec, 0xbe6c598e, 0xbe5d2690,
                               0x3e4a73a0, 0xbe06d2f5, 0x3e8b4521, 0xbe2fe37e, 0xbed8c449,
                               0xbd4b695e, 0x3f07167d, 0x3e41f980, 0xbe23392e, 0x3f4a066f,
                               0x3f1cff2e, 0x3ea37add, 0xbde1b0f6, 0xbe520d61, 0xbed99a2b,
                               0xbe9908b9, 0x3d740dc9, 0xbd498a30, 0x3e730b08, 0x3e7c60c6,
                               0x3e957a7a, 0xbed18a52, 0x3e976a63, 0xbe87ccb2, 0xbe29f872,
                               0xbdb4e8e9, 0xbea4aeab, 0x3ee14b1f, 0x3d3550cc, 0x3d23f8c1,
                               0x3d4b6dfc, 0x3f036658, 0x3b8309a8, 0xbe5a6094, 0xbe40c670,
                               0x3e68af7c, 0xbf2fe3a6, 0xbdeff40d, 0xbde2ac16, 0xbcfd4d59,
                               0xbf02540f, 0xbcb87a5d, 0xbece108a, 0xbf61ba2f, 0xbf0cca76,
                               0x3daa9925, 0xbe234ba7, 0xbcaa1103, 0x3dc68ef0, 0x3f2138b7,
                               0xbebe7651, 0x3e442eb7, 0xbeaa3273, 0x3e8b18f0, 0xbecdaabc,
                               0x3f05d6f4, 0xbd5311d2, 0x3f1890b6, 0x3e9d141c, 0xbf3895ba,
                               0xbdd8d74a, 0xbf352f52, 0x3edbf3bd, 0xbeb2ebdd, 0x3ee4dc6a,
                               0xbe6be08b, 0x3ec1cacc, 0x3f401cbe, 0x3cdeb575, 0xbe8ec5d2,
                               0xbdb0fe99, 0xbf470dda, 0x3e11695d, 0xbed79521, 0xbecf52ae,
                               0x3d38a013, 0xbda27e36, 0x3f0cc13e, 0x3e38895d, 0xbe0aa8ed,
                               0xbe977b9e, 0xbe65bb2c, 0x3dc91d31, 0x3edd3fce, 0xbe4ee95c,
                               0x3dd943b6, 0xbdc5cb90, 0xbe0e89e4, 0xbeb9332a, 0xbe87cef5,
                               0x3c690bef, 0xbe622c0d, 0x3e000f0a, 0x3f24ba7c, 0x3cd8cf13,
                               0x3dab876d, 0xbec7a3a4, 0xbe3dc386, 0xbe49db78, 0x3ebb6036,
                               0x3de61fa4, 0xbcd33796, 0xbcd08d42, 0x3e116494, 0xbe4e3445,
                               0xbda6bffe, 0xbebc802e, 0x3e17aafd, 0xbe361d99, 0x3e9b85be,
                               0x3e88c74f, 0x3e2073f4, 0x3f43f431, 0x3f070513, 0xbee6cf9a,
                               0x3e4c987b, 0xbf162d5a, 0xbf1598a1, 0x3ee646be, 0xbbcab008,
                               0xbd056408, 0x3f3309eb, 0xbf259eea, 0x3e9e7103, 0x3eb1923c,
                               0x3f16cff2, 0x3ec121d2, 0xbf252c43, 0xbe84d214, 0xbe0efbc4,
                               0xbe9ec206, 0xbe78e9f3, 0xbe24a59f, 0x3e1806aa, 0x3d814422,
                               0xbe170dfe, 0x3e17d34a, 0x3ec0d793, 0xbe3ea846, 0xbdfaef26,
                               0xbf225bcf, 0xb9f4567b, 0x3e67883f, 0xbee409d3, 0xbd1e6a6c,
                               0xbce89f5d, 0xbe37ab6b, 0x3ddcc1c0, 0xbe44e4ec, 0xbb233990,
                               0x3da6f30a, 0x3c8c1c26, 0xbccaf81e, 0xbb05147c, 0x3dc72f08,
                               0xbecf13d5, 0xbdd72988, 0xbd70df26, 0x3ead5c47, 0xbe142dec,
                               0xbf2f334a, 0xbda33e46, 0x3e0ab9fb, 0xbeeb8117, 0xbedf61df,
                               0x3dea9ae0, 0x3ec9ae3c, 0xbe00296b, 0x3f24a6f4, 0x3f41be97,
                               0xbe84804a, 0xbefdc37d, 0x3ed5567b, 0xbe6e4aba, 0xbe282340,
                               0xbe0a1701, 0x3ea68c90, 0xbc68cd10, 0x3db720fc, 0xbed589fb,
                               0xbe834780, 0x3f296691, 0xbf48a6ab, 0x3e86ca87, 0x3eaf3410,
                               0xbea966c5, 0xbd1cbd0a, 0xbd38226c, 0xbea1e99c, 0x3f3ae61d,
                               0xbf0b9b9a, 0x3c767cf9, 0x3c53ba7c, 0x3f554148, 0xbed0ca40,
                               0xbe7488b8, 0x3eaec30a, 0x3f31416c, 0x3eb52517, 0x3e0770af,
                               0xbdd93924, 0xbea05ff8, 0xbea36e85, 0xbefb8858, 0x3c8e635b,
                               0x3f08b3e7, 0x3e1534a1, 0x3ed01174, 0xbe403626, 0x3ea8dbdc,
                               0x3ef540d2, 0x3ddefb1d, 0xbdceddf3, 0x3f0224a9, 0xbedb3f84,
                               0x3e33e3d1, 0x3caea84d, 0xbd57f115, 0x3dcc761c, 0x3ee205fd,
                               0x3f1a885e, 0xbe1dea5d, 0x3d293e33, 0x3df4a6e8, 0xbf06a946,
                               0xbd3db6fe, 0x3dfa6ebe, 0x3d528a9c, 0x3e35ca3f, 0xbe000e83,
                               0x3e5ea759, 0x3eed2a6c, 0x3e490d67, 0x3f6484ff, 0xbde08ce0,
                               0x3efadbbf, 0x3d4ca657, 0x3dd0b529, 0xbe4a451f, 0x3d91fb3e,
                               0xbe86e9e3, 0x3f2ab8e3, 0xbf07b1b0, 0xbe3f8758, 0xbea7293e,
                               0xbe828df2, 0xbe7f52a1, 0x3f3c6502, 0x3f36030b, 0x3e082330,
                               0xbea0387f, 0x3e515517, 0xbeaf35bb, 0xbe9e42ee, 0x3f7bffcc,
                               0xbe9d3daf, 0xbf24ae8f, 0x3eca2a40, 0xbeaaea3b, 0x3e717223,
                               0xbe60dfbb, 0x3c014794, 0xbec17084, 0xbd0a895b, 0xbe98e120,
                               0x3e8af843, 0xbde97a9a, 0x3e45ac38, 0xbf637685, 0x3e5fb7c2,
                               0x3e6c59f7, 0xbc030869, 0x3eae90ea, 0x3db9f0ea, 0x3e92885f,
                               0xbddd1918, 0xbe8136d2, 0xbe2c0c69, 0xbf3c18b5, 0x3e4c4657,
                               0x3f39d917, 0xbd9f546e, 0xbe7a4cc6, 0x3f13f578, 0xbe06d621,
                               0xbf32ce4f, 0x3e81e9d2, 0x3e4c65ec, 0x3e2a58ed, 0x3d314733,
                               0x3f079520, 0xbf4e415d, 0xbe2dcf00, 0x3e01cbf4, 0x3e44587f,
                               0xbe844b5a, 0xbd8b8820, 0xbef5cfaa, 0x3e430410, 0x3f2a1bcc,
                               0x3e87af32, 0x3e38af44, 0x3ecd48b5, 0xbf02d02c, 0xbec9e60c,
                               0xbc9c86f4, 0xbf3ea1ef, 0xbf21c005, 0xbf4d3770, 0x3ca1d572,
                               0xbeb1cf3e, 0xbe1ae518, 0x3dbd43dd, 0xbdc19e81, 0x3db80958,
                               0xbed6670e, 0x3f13d0c1, 0x3e98e332, 0x3eb55cf3, 0x3f4340e6,
                               0x3f04c1da, 0xbed570e8, 0xbeea5119, 0xbebeefd6, 0xbeade859,
                               0xbec85cab, 0xbe3f3d1f, 0xbeada414, 0x3e9ecb66, 0xbf17c1ae,
                               0xbd9e8888, 0x3e790327, 0xbde7f1af, 0xbf30dd53, 0x3d809561,
                               0xbf5786e6, 0xbf10709b, 0xbce2f343, 0x3f04809c, 0x3f23ad8a,
                               0xbd953347, 0xbeeab899, 0x3e356779, 0x3eb60ac1, 0x3e70eaa5,
                               0xbf437e1e, 0xbeab8e70, 0xbea1f937, 0x3e2ecf9e, 0xbef6a8e2,
                               0x3f6e0382, 0xbeeb0af2, 0x3d5b9ce8, 0xbed206f0, 0xbf16bd42,
                               0x3e959cea, 0x3e60e30b, 0xbeb460b7, 0x3f2fe856, 0x3d9ab6ff,
                               0x3c1ca7e3, 0xbeb072d0, 0x3d61839b, 0xbf2dfe89, 0x3df505ef,
                               0x3da61889, 0xbea8ab3b, 0x3ed6e73b, 0xbeb084c9, 0x3e905947,
                               0x3d6e6382, 0x3f243401, 0xbe6ca6df, 0xbe9506a9, 0xbd783f03,
                               0xbee0953a, 0x3e713b9f, 0xbf3e8946, 0x3ecd6667, 0xbef416e0,
                               0xbe9a8b39, 0x3f086d12, 0xbf186aa3, 0x3dadf96d, 0xbeb76905,
                               0x3e222efa, 0x3e420340, 0x3c2b1ba3, 0xbe9b457f, 0x3dc80cc6,
                               0x3dc612a0, 0x3d121863, 0x3e200832, 0xbeb647c0, 0xbf0b68ee,
                               0xbe7b5f2a, 0xbe441f35, 0xbc413dcc, 0x3ec8cd42, 0xbe293d21,
                               0x3f14a8d5, 0x3ebfbab2, 0xbeb48372, 0xbe91c130, 0xbef0a352,
                               0x3e1c5229, 0x3c4589cd, 0xbe417de5, 0xbe6c3f44, 0xbe82bff5,
                               0xbe792447, 0x3cb01a17, 0x3d539c90, 0x3f7c3eba, 0x3e1d6143,
                               0xbee5fac3, 0xbe23221a, 0xbf229aa3, 0x3eaa692e, 0x3e642c63,
                               0x3af9b46e, 0xbe946a30, 0x3e6f2566, 0xbe6ec5a7, 0xbef6770c,
                               0x3e2a367a, 0xbed36b94, 0xbd877bda, 0xbc748fe8, 0xbf58df6f,
                               0xbe1f829d, 0x3de36c29, 0x3f359d2e, 0x3e17e011, 0x3d9dcad6,
                               0x3da3bc1c, 0xbf08f7b5, 0xbede465f, 0x398bc050, 0x3ed81685,
                               0xbdc1077e, 0xbedeb0b4, 0x3ba0e198, 0x3f255a31, 0xbd9ad8b2,
                               0x3ccc4b06, 0xbe72aca9, 0xbdb8b36f, 0xbd632a3b, 0x3f11f770,
                               0xbf579883, 0xbd0b739b, 0xbe2ddee3, 0x3e2caf9f, 0x3dd8746a,
                               0x3d9c13f0, 0xbccc381f, 0x3e4b80f5, 0xbd8abf4f, 0xbe6abf01,
                               0x3f81c849, 0x3d31ad5d, 0x3e40f48f, 0xbe646b5a, 0xbe4e9d8c,
                               0xbd7e0d32, 0xbe0813b5, 0x3e06f955, 0x3cb38fe3, 0xbe3b400e,
                               0xbd0aa983, 0x3edc8cc5, 0x3ee04676, 0xbd1d303d, 0xbe306b0e,
                               0x3eacf9e3, 0xbdcf3cf5, 0x3ef2240a, 0xbe3ecf8d, 0xbf4f0711,
                               0xbe2955cd, 0xbe35e6db, 0x3b3f4c05, 0x3d6bc417, 0xbc83e8b0,
                               0x3c6613f1, 0xbe640a72, 0xbe030a71, 0x3ee024b3, 0xbf07f3a3,
                               0x3f04f940, 0xbd384ca8, 0xbe542e62, 0xbdfdc4b2, 0x3d2521bd,
                               0x3b1da674, 0xbc899428, 0x3dad4237, 0x3eca6b1a, 0xbf182922,
                               0xbee4b2e6, 0x3cc2395f, 0xbee8387f, 0xbd53896a, 0xbe87f3cb,
                               0x3f1f45e2, 0xbf104c0b, 0xbc9c9f62, 0x3e575492, 0xbe2f344f,
                               0xbd3eb0ae, 0xbe0a0b40, 0xbee64f30, 0x3ce38fce, 0xbdb47540,
                               0xbdf38dcc, 0xbc03f9c7, 0x3e612b37, 0xbc2fa41c, 0x3c8c06d7,
                               0xbe1153c1, 0xbec9dd06, 0xbef8509c, 0xbd2cf0f9, 0x3d4aee5e,
                               0x3ed939d3, 0xbecebf1a, 0xbeb653aa, 0xbdcafc8c, 0xbf48661c,
                               0x3f0e04b3, 0x3c5d31cf, 0x3e9381f0, 0x3dc70d1a, 0x3dfa8193,
                               0xbcde0502, 0x3eb9cacb, 0xbe1529a7, 0x3ee02f8c, 0xbe1a4383,
                               0xbeba579e, 0xbf005fbe, 0xbe3dc2a0, 0xbf0d5355, 0x3e383418,
                               0xbd49cc65, 0x3e945432, 0x3f202735, 0x3f1752dc, 0xbc34027c,
                               0x3d8ddf80, 0xbeadbe98, 0x3e53d266, 0x3e96b763, 0xbea177dc,
                               0x3e30bb02, 0xbe0dd83f, 0x3ac4a675, 0x3c7fca55, 0x3f29dceb,
                               0xbdff3b9c, 0x3e248b2a, 0x3e6336d7, 0x3e872b46, 0xbdfa166b,
                               0xbe9df4aa, 0xbe217046, 0x3e35bb72, 0x3e12c66e, 0x3e932caa,
                               0x3eec793c, 0x3e39c8b3, 0x3d82abe4, 0x3f39e8af, 0xbac66356,
                               0xbe4c1607, 0xbe107af8, 0x3e8c17e2, 0x3e62fb92, 0xbec62681,
                               0xbeb1f1c5, 0xbc96990c, 0xbee1d1f5, 0xbeb8a314, 0xbed88288,
                               0x3e7cdfcf, 0xbe9b73cd, 0xbe66e425, 0x3f2585c4, 0xbe7c406e,
                               0xbe36464f, 0xbde5be74, 0xbd819961, 0x3d990a01, 0xbf20a30a,
                               0xbe0f8eeb, 0xbdb3a33a, 0xbefa9d8f, 0x3eb6f2f0, 0x3e1d5a96,
                               0x3f380024, 0xbe31b706, 0xbe574a15, 0xbe3789e8, 0x3dfc972b,
                               0xbc625edb, 0x3dac2f10, 0x3f16e1d0, 0xbdd2663c, 0x3f0175f7,
                               0xbe2ac000, 0x3e50b048, 0xbe30c626, 0xbe74cebc, 0xbf14caef,
                               0xbd8880dc, 0x3e41a7f6, 0xbe8021b0, 0x3e9fd94b, 0x3f0ecb68,
                               0xbdd7b9bb, 0x3ebf0f79, 0x3dfb2d68, 0x3d2b223e, 0xbe1431bb,
                               0xbec7c0d8, 0x3d963480, 0xbf5b09a1, 0xbe8561a4, 0x3c344292,
                               0x3e1ef62e, 0x3d3a2bd6, 0x3e5392fe, 0xbdcada79, 0xbe793ec5,
                               0x3f3c631a, 0xbf375c49, 0xbd7065f4, 0xbe380757, 0xbe95e99b,
                               0x3dc7194a, 0xbeb0e266, 0xbe21384b, 0xbf0effea, 0xbe017d9e,
                               0xbf251be5, 0xbf476f3c, 0x3f0e38d8, 0x3eb808ce, 0x3f16011c,
                               0xbeaa5676, 0xbf2632a2, 0xbf1546ae, 0x3d14926e, 0x3d587b09,
                               0x3cef3998, 0xbcf6cfa5, 0xbed46547, 0xbe703523, 0xbe90967b,
                               0xbe04670b, 0xbe4116f2, 0x3eba1d8c, 0x3de00965, 0x3e938cf9,
                               0xbd75c731, 0xbe675eb5, 0xbcefb612, 0xbf10d83a, 0x3eb206f2,
                               0xbe7489ea, 0x3e39d58d, 0xbf17f046, 0x3dddfcd1, 0xbe1c5af7,
                               0x3f1f3b2d, 0xbed59982, 0xbb8a5295, 0x3eb34041, 0xbf41914f,
                               0xbee2be78, 0x3e9a69dd, 0xbe8274f8, 0x3eda9990, 0xbed4fcd9,
                               0xbd275d81, 0x3e74f0bc, 0xbe0b2017, 0x3da4e968, 0x3eb8ed80,
                               0x3f20facb, 0x3e0f11b9, 0x3f6650b9, 0xbe7e7b63, 0x3cd80667,
                               0x3d519b50, 0x3ee244ef, 0xbc11850f, 0x3eb4928b, 0xbefbc6bb,
                               0x3d6b45c7, 0x3eb4baeb, 0xbea662d3, 0xbf370166, 0xbdd56bf0,
                               0x3e82c147, 0xbc38c623, 0x3f0548d9, 0x3ea96ecc, 0xbe4e6ec2,
                               0x3d21858f, 0xbf7ede1b, 0xbc5ca805, 0x3c97f1ec, 0xbf1fc816,
                               0x3dd2fdcc, 0xbe873d12, 0x3e4aa5dd, 0x3d64de75, 0x3ecfc13c,
                               0x3e251b6b, 0xbeb6fb65, 0xbdbc5ead, 0xbea12990, 0xbdb3d799,
                               0xbe415292, 0xbdf3d8c4, 0xbdb931d0, 0xbe288d1e, 0xbecab351,
                               0x3c637d98, 0x3cbe6f2c, 0xbeae06cd, 0xbea3d5fb, 0x3e5d63a4,
                               0x3d5ab491, 0x3ce82809, 0xbdab0f7d, 0x3e7d15af, 0x3e222ae3,
                               0xbdf95275, 0x3e1120c6, 0x3ebd62ec, 0xbf057086, 0x3ede25e9,
                               0x3dafb633, 0x3ed656ff, 0xbf201810, 0x3eec1f77, 0xbf30cde6,
                               0xbea2615f, 0x3aa8c115, 0xbddc05f8, 0x3e34708b, 0xbdee62f0,
                               0xbecdc5b0, 0x3ede5b87, 0xbe741954, 0xbe94e625, 0xbeeb0d1b,
                               0x3eae7adb, 0xbe44437b, 0xbdecf5ad, 0xbf1add35, 0xbeef5ad0,
                               0xbe654be8, 0x3e48c855, 0x3e7a21b5, 0x3eb760b8, 0xbf4489fa,
                               0xbe3b7005, 0xbda4999c, 0xbd5075c5, 0x3ea987d7, 0x3dc2d2be,
                               0x3e5c9742, 0xbe6ac9f8, 0x3db3e675, 0x3e91a9e5, 0x3f194e7d,
                               0x3eba144c, 0x3b9adcb5, 0x3e08349f, 0xbe2c629f, 0x3f20fbba,
                               0x3ec43c3b, 0x3d86d44c, 0xbed91dfe, 0xbe611943, 0xbf017dbd,
                               0xbee88d22, 0xbbd2a6af, 0x3eb6901a, 0xbef8d37b, 0xbe665951,
                               0xbebb151e, 0x3f2497a9, 0xbed23cd4, 0x3c0d27f3, 0xbdbad56a,
                               0xbea8fca6, 0x3da8c7aa, 0x3eb97fed, 0xbeb31c4a, 0x3e8cf415,
                               0x3e884e71, 0x3f1a6897, 0x3f7298b7, 0x3f2f103f, 0xbea20f34,
                               0xbea4e173, 0xbd66dc34, 0xbf1eff8c, 0xbea2ddeb, 0xbf2655d3,
                               0x3ef72d74, 0xbe10fd19, 0xbe0db5fc, 0x3e57b8db, 0x3dbdfd51,
                               0x3ea53a43, 0x3e6a158d, 0x3dedbdda, 0x3eb023f2, 0xbcbef624,
                               0x3e83beca, 0x3f063564, 0x3efb36e4, 0x3ecbf5d1, 0x3e9c36ae,
                               0x3e85973a, 0x3f61b8f2, 0xbe9d3fba, 0xbe74c128, 0xbf1a69df,
                               0x3dfd134f, 0xbe2e4a11, 0xbdfe9fec, 0x3efbb502, 0x3c80be02,
                               0xbef51a33, 0xbec94d8f, 0x3d0144a1, 0xbede07ef, 0x3de81ef3,
                               0x3e9dbabb, 0x3e2dd91b, 0x3e2595d0, 0xbd8765c6, 0x3f395a49,
                               0x3f6959d7, 0xbe8baca7, 0xbd580f1d, 0x3fa0c919, 0xbd89807e,
                               0x3e1b917e, 0x3e9c448c, 0xbe515072, 0xbe33dfab, 0xbd9236e8,
                               0x3e8c1f04, 0xbeebf4ff, 0x3c2e2f46, 0x3e6ab4e2, 0xbe7b1e1c,
                               0x3f593964, 0x3e8dcbda, 0x3e4d93e2, 0xbeff6fce, 0x3f197925,
                               0x3e85fb17, 0x3f17d045, 0x3e2339a8, 0x3e98e016, 0x3dc71ce5,
                               0xbe0cb260, 0x3f5b4d3d, 0xbd9b667a, 0xbeb03729, 0x3f311b2b,
                               0x3eb67a65, 0xbf33f162, 0x3ea59b98, 0x3e88e632, 0xbd3fd859,
                               0x3ed2bbd0, 0x3c9f2ccc, 0xbef18929, 0x3e6d16a6, 0xbe1c4cdd,
                               0xbeb957e7, 0xbe675239, 0x3f224d17, 0xbe9c7c1d, 0x3e7d84b8,
                               0x3f8a9320, 0x3e8302d5, 0xbe8af6e4, 0xbebc7268, 0xbe0f97a4,
                               0x3eaed858, 0xbebff83c, 0x3e60d4b8, 0x3e086d58, 0xbe00f004,
                               0xbd6d9c2e, 0x3f01baad, 0x3ec9f496, 0x3e28e452, 0x3eb7f78d,
                               0x3ee5edff, 0xbe2f9867, 0xbe581347, 0xbf389bcb, 0xbec8e40a,
                               0xbcb7435d, 0x3dc26e75, 0xbe663f68, 0xbf2abbad, 0x3f151de9,
                               0x3a64d089, 0xbf51b283, 0xbeb249ad, 0x3d2154c9, 0xbe637692,
                               0x3c97a0e6, 0xbeaaf020, 0x3db85691, 0xbeff6095, 0xbec76c43,
                               0xbd74ef4d, 0xbe6890aa, 0xbd7f2fb6, 0x3d9f535f, 0xbe362a90,
                               0x3e690a83, 0xbebbbdc2, 0xbe56efe2, 0x3e0f5688, 0x3ebc8835,
                               0xbdc80f82, 0x3ebfa7b7, 0x3b271ada, 0x3ec546ce, 0x3e25b9e9,
                               0xbeb48f0a, 0x3ea63c99, 0x3ef9f2c2, 0x3e605680, 0xbe554804,
                               0x3ca15842, 0x3f55b370, 0x3e0bdd7c, 0x3e80b673, 0xbeb2ca23,
                               0x3f09c949, 0xbe31244c, 0xbe9dd645, 0x3e86da2a, 0xbdfb090a,
                               0xbf252eb3, 0xbe06f5d4, 0xbedb6b22, 0x3eeb60d0, 0x3f2722a2,
                               0x3e5c4403, 0xbf1d3552, 0x3f3af33a, 0xbec1e4f7, 0xbc0c3ab0,
                               0x3f49af10, 0x3f401c59, 0xbf0e5d88, 0x3d6a0f6c, 0xbf3589d9,
                               0x3dbd410b, 0x3f1a23fd, 0xbe9e5b2d, 0xbf561848, 0x3e9a7a67,
                               0x3e19a0bb, 0x3f2b5b0d, 0x3d7068c0, 0xbe74c4bf, 0xbcef28c3,
                               0xbba3b625, 0x3e919a94, 0x3ec88e87, 0xbc16fb9f, 0x3e0c10a7,
                               0xbdc50f80, 0x3ee41c2b, 0xbe33775c, 0xbf117124, 0x3ef669e0,
                               0xbdc3cb5d, 0x3f9e5389, 0x3ed6a1b6, 0x3e8c33c1, 0xbe0c6ed3,
                               0x3df6f93f, 0xbcb94a49, 0xbddd1d1a, 0xbe310354, 0xbe915341,
                               0xbd3b61d1, 0xbf0d7dc4, 0xbe6c694b, 0x3d876732, 0xbe79197e,
                               0x3ebdf5c2, 0xbdd00068, 0x3eaad0f4, 0x3ded8e83, 0xbe1a9c13,
                               0xbeff6eb7, 0xbe3969af, 0x3e16b085, 0x3ea991f5, 0xbc51e3b0,
                               0xbed324d2, 0x3d5188c0, 0xbe6342d7, 0x3d99822b, 0x3e9d47d2,
                               0xbe4203c1, 0x3e12de4b, 0xbf24c99f, 0xbe88215a, 0x3ee7ec01,
                               0x3dcedee5, 0xbe9a04da, 0xbd319ccf, 0x3e01688e, 0x3ddc2488,
                               0xbe10ff21, 0xbf393e20, 0xbe542de3, 0x3f016df1, 0x3ed67c65,
                               0xbd0dae6c, 0xbed1f7d0, 0xbe84bb45, 0x3cd8da17, 0x3e77761c,
                               0xbe3ddbaa, 0xbf1e8617, 0xbed44bfa, 0xbe39c176, 0x3e445248,
                               0x3df40b8c, 0x3e9dfc67, 0xbe268882, 0xbe835704, 0x3f26f7a8,
                               0xbf030397, 0x3b73a16d, 0xbec9baf7, 0xbe56f07d, 0xbdfa6c35,
                               0xbdbd4333, 0x3f6aa319, 0xbd5258df, 0xbd555567, 0x3e1b0255,
                               0xbf01ff6a, 0xbe856d02, 0xbe4d17de, 0xbf1a9603, 0x3e9b72d9,
                               0x3ea9d00a, 0xbe9fc5af, 0xbe4eea09, 0xbf1702ac, 0x3e8e31cb,
                               0x3ea9b9dc, 0xbeaaeb40, 0xbe103b7b, 0xbe9b4de7, 0x3efc3171,
                               0xbf0cb116, 0x3d5db503, 0xbf06a69a, 0xbe2ac83c, 0xbec8d39e,
                               0xbd8936c5, 0x3f70aafc, 0x3ec35398, 0xbe2811aa, 0xbdb9fb1c,
                               0xbe5fa5e0, 0x3e68c87a, 0xbdc6f38d, 0x3e0d6200, 0x3e17de89,
                               0x3dca2f15, 0x3df4bf9b, 0x3f2fa9da, 0xbdfa6c39, 0xbeb1780e,
                               0xbd4d05c6, 0x3e4b6cbf, 0x3ecd6fe7, 0x3d901c8e, 0xbebc24c2,
                               0xbec3a98a, 0xbf0729e9, 0xbd8670a8, 0x3e113985, 0x3e61d5af,
                               0x3e19a051, 0xbecf76c8, 0x3ccba198, 0xbe5ed75b, 0xbeb8a211,
                               0x3de676aa, 0xbdddddb5, 0x3f444a1f, 0x3f1900d4, 0x3ea41bc4,
                               0xbce14ba3, 0xbe643cf8, 0xbe4e5f7e, 0x3eb65f07, 0x3efdef02,
                               0xbba1746d, 0x3e71d44f, 0xbd93caa2, 0x3ede59b6, 0x3e54f7d1,
                               0xbe2a2fea, 0x3e872f32, 0xbe044953, 0x3f219311, 0xbdb72600,
                               0xbdefb552, 0xbe2fb5a1, 0xbd8f528b, 0x3eb6cbcf, 0x3f4288ba,
                               0x3dcb6bc8, 0xbe6e568e, 0xbf05eed8, 0xbe18075b, 0xbf63c4b5,
                               0xbe9e3825, 0xbe063b61, 0x3d0ec14e, 0x3f5d29f3, 0x3ebe5a52,
                               0xbdd0bd4a, 0xbf0dede0, 0xbdbfa06a, 0xbf58c60e, 0xbe8f376a,
                               0xbe360ae6, 0xbea468a7, 0xbeb03315, 0xbeeb928c, 0xbe1754eb,
                               0xbdbda721, 0xbf419dcf, 0x3ecbac19, 0x3df62918, 0xbf085b9a,
                               0x3ea5da15, 0xbeadc824, 0x3e41e22b, 0xbe9ae16d, 0xbe59bd9b,
                               0xbdf5f21d, 0x3ee269ae, 0x3edb5479, 0xbf0fce5c, 0x3eeb54d4,
                               0x3f4b086e, 0x3e1a8638, 0xbdd29c2d, 0xbf2c2958, 0xbe8ac1b7,
                               0xbe26260b, 0xbe8e1aed, 0xbea7b5d3, 0xbe812c14, 0x39bc56e0,
                               0x3d08c250, 0x3f21f119, 0xbee8d103, 0xbdf8e4db, 0x3ed3bfda,
                               0xbec18bf0, 0xbe994c40, 0x3f0d1236, 0x3ed1ea1d, 0x3de2258c,
                               0xbe2a0753, 0xbd81586b, 0xbf3f80fe, 0x3ea25da2, 0xbc35d0ee,
                               0x3e296d46, 0xbdfc0a49, 0xbe9f3ac7, 0xbd2f656e, 0x3f0e1c1d,
                               0xbe26aca5, 0x3f13f604, 0xbe1c9de1, 0xbee97884, 0xbc332819,
                               0x3eefcef4, 0x3ee9cab4, 0x3dc759fd, 0x3f218323, 0xbde88474,
                               0x3e93ddb5, 0xbf001007, 0xbee201ce, 0xbe72eaf3, 0xbece6fd3,
                               0x3f118d12, 0xbed22e70, 0xbef16482, 0x3dc325c0, 0x3ed84cfc,
                               0x3d18a9af, 0xbd0bc29d, 0x3f93e4de, 0x3f246ca1, 0x3e424de4,
                               0x3f2eaa6d, 0x3ee44b21, 0xbe40d476, 0x3d1e184f, 0xbd3a3744,
                               0x3f421e8d, 0x3e80431d, 0x3d8503b8, 0xbf0ecf67, 0xbe9a3822,
                               0xbd9f41ec, 0x3ecac16d, 0x3f3676b9, 0x3e17afd9, 0xbf16437c,
                               0xbe015215, 0x3f004a10, 0xbe38aa8a, 0xbec46a9a, 0xbe8abad4,
                               0x3efacc98, 0x3d1c9072, 0xbe9903f5, 0x3e21c07f, 0xbd9bd929,
                               0x3d3b2fee, 0x3f2c4de0, 0x3e51108d, 0x3edfbbf8, 0x3e14bb1e,
                               0x3bcdfe18, 0x3f30abed, 0x3ec996c5, 0xbe9057ca, 0xbd7dd226,
                               0x3e97e877, 0x3e894f0a, 0xbecae9f3, 0xbe05ffbc, 0xbe8f7f9e,
                               0xbe41a496, 0x3ee60fb6, 0x3e24c518, 0x3ef78984, 0x3ef9f35f,
                               0x3d491bbb, 0xbef504ad, 0x3e6337d0, 0x3cb94f43, 0xbe81e67b,
                               0xbe8e4019, 0x3f0c7ad3, 0x3ef40309, 0x3d21accf, 0xbebeafe6,
                               0xbfb3f6fc, 0xbf917348, 0xbe60e31a, 0xbe85a7ad, 0xbd5ba83c,
                               0xbe6105f7, 0x3f0a8ecb, 0xbe8844c6, 0xbed52648, 0xbe576faf,
                               0x3f14918c, 0xbdcd31fc, 0x3e42d078, 0x3d8ae492, 0xbf4994f8,
                               0x3d830cdd, 0x3f0c94bf, 0xbd866d8c, 0x3eb87fb4, 0xbd7e1081,
                               0x3deeb650, 0xbbd7a2da, 0x3eee1f46, 0xbe5cece4, 0x3cb13878,
                               0x3ccb85c0, 0xbf33b8e5, 0x3f4c54f6, 0xbe05c730, 0x3e55f476,
                               0x3e920158, 0x3eafc455, 0xbec63387, 0x3ea3fded, 0xbd27b105,
                               0xbe5cd701, 0xbf2d426e, 0xbd6c356b, 0x3e1d5ca2, 0xbe37daad,
                               0x3e4f4a3c, 0xbe49dd29, 0xbf0c0727, 0xbe59a656, 0xbdd473eb,
                               0x3e400c51, 0x3e8cf20c, 0x3e930f3b, 0xbead7640, 0xbe0eaf2c,
                               0xbf04b8ef, 0xbf3651ec, 0xbd39b6a5, 0x3d53e60e, 0xbdde6a45,
                               0xbed091ac, 0xbdecc080, 0x3e122051, 0x3e2692c9, 0xbe8b0f5e,
                               0x3eedcc61, 0x3c8d493a, 0xbe0c1072, 0x3d80abfc, 0xbec7545f,
                               0x3b58add9, 0xbf0919f0, 0x3f0493a3, 0x3e7bed26, 0x3d2ba272,
                               0x3f2df948, 0xbf040402, 0xbd8cb6b6, 0x3e9d0bd8, 0xbddef7e2,
                               0xbe698a7c, 0x3f122229, 0x3f0ed1dd, 0x3db4adb7, 0xbde0f6c5,
                               0x3f12aaf6, 0x3e47c9ef, 0x3e80b6a6, 0x3ea2a01a, 0xbf066822,
                               0x3e994e02, 0xbd4c60d3, 0xbcf60047, 0x3d86b834, 0x3eedac3b,
                               0x3d749fa8, 0xbebb5d40, 0x3eb1f953, 0xbce39b69, 0x3cc54b00,
                               0x3e951052, 0x3cc48301, 0x3e19ddb3, 0x3e708c5a, 0xbf071b8d,
                               0xbf27089b, 0x3ee2dbe5, 0xbd45cc0c, 0x3e86dd33, 0x3eea4c9d,
                               0xbe93fdb4, 0xbc2a51cf, 0xbdabb56b, 0x3d0f68e1, 0xbd16ca5a,
                               0xbd928ef7, 0x3eaa1c6a, 0xbd013239, 0x3f61c25e, 0x3c1ee0a1,
                               0xbe0088a2, 0xbdfc0d3d, 0x3c535e34, 0x3e22b972, 0x3f0e8746,
                               0xbe52faaf, 0x3e21c791, 0xbe6406a3, 0xbf22d1db, 0x3eb1ab46,
                               0x3f0b71ff, 0xbe85a4e2, 0x3a952f57, 0xbd8ea336, 0x3dc5acd0,
                               0x3ea1d582, 0xbe49ecde, 0x3ea7c38d, 0x3f23f471, 0xbf166a28,
                               0xbf004f80, 0x3dcb622a, 0xbda3cd63};

uint32_t bias_array[102] = {0x3d9a400f, 0xbde02c30, 0xbd8c90b0, 0x3ec15f9e, 0x3ec2ac0b,
                            0x3d105efb, 0x3d99b52b, 0x3e375b51, 0xbf031115, 0x3e74e01d,
                            0x3e02dc96, 0x3e5dd09c, 0x3eb2c601, 0x3d057ffd, 0xbcc7c86b,
                            0xbd91015c, 0xbd457825, 0xbe7c1efe, 0xbe61f9ef, 0xbd9a6bae,
                            0xbdfa0134, 0xbe61e48b, 0x3ec75c9d, 0xbe340d93, 0xbe7c74e9,
                            0x3d554837, 0xbdf19a1c, 0xbec9fc55, 0x3d0cee2d, 0xbd4c8ac3,
                            0x3cd1a894, 0x3bc7168a, 0x3ea58707, 0x3e128799, 0xbeb8cfbf,
                            0x3e84f4f0, 0xbdd8d141, 0x3ef9efb3, 0xbd421c01, 0x3dba4c8f,
                            0x3e635319, 0xbd8d2f45, 0xbe70e6a9, 0x3d2e4c74, 0x3efc3cb6,
                            0xbc05d840, 0x3ebb5c76, 0xbe137c95, 0x3ec7057c, 0x3e8af3c5,
                            0x3da44ddf, 0x3d50b7b7, 0x3c042145, 0x3d344e9a, 0x3e781180,
                            0x3dc34f8f, 0x3d2380a0, 0x3d6f89c2, 0xbe94c9ae, 0xb881163d,
                            0x3e1a32a1, 0x3d3cd8bf, 0x3eb17786, 0x3ee0281c, 0xbe6ca6e8,
                            0xbe81102e, 0x3c3e169c, 0xbd643df4, 0xbe0fbbd4, 0xbe898848,
                            0xbe2d604c, 0x3e4589ae, 0xbf0503e1, 0xbc82057e, 0x3dcf49b2,
                            0x3d31e259, 0x3dbbf4e5, 0x3e56ad09, 0x3e9a2849, 0xbeb74fc6,
                            0x3da02b9f, 0xbedd1095, 0xbd69e5e5, 0xbccc4d9f, 0xbe80d4c2,
                            0xbeb94362, 0x3d82e678, 0xbe67c4d8, 0xbc79a342, 0xbd9dbdba,
                            0x3e90af2c, 0xbd8f1cf1, 0x3daf1b81, 0xbdfc7abf, 0x3d7cd622,
                            0x3f05ee9a, 0xbdaad6d4, 0xbd4a1d78, 0x3d5b31b4, 0x3e0f23da,
                            0xbee051e7, 0xbebd48e2};
extern uint32_t bias_array[102];
extern uint32_t weight_array[3328];