uint32_t weight_array[3328] = {0xbe83db9d, 0xbdadb7e0, 0xbe1764a1, 0x3d6f0fb4, 0xbf032e19,
                               0x3ed3952d, 0xbe0b5ef0, 0x3ee5773a, 0x3f2d9f14, 0xbd723c5a,
                               0xbe08d23e, 0xbe711d5e, 0xbdb1be2c, 0x3e33c59b, 0x3f08c129,
                               0xbed4e4a3, 0x3ddd001b, 0xbec1b895, 0x3e018496, 0xbea79d50,
                               0x3f1c53f0, 0x3e8745b6, 0x3eb3ed92, 0x3d9410c3, 0xbe88c537,
                               0xbddf1042, 0x3f39d6cb, 0xbe45f568, 0xbed32396, 0x3f05b4c7,
                               0x3e2dd863, 0x3e209bd0, 0xbd721bf4, 0x3e1717fb, 0xbde328ca,
                               0x3e0950ae, 0x3d918f98, 0xbf00eb8f, 0x3df0aebc, 0xbdfe42e9,
                               0xbdeabd83, 0x3da104ee, 0xbe0b0ad9, 0x3e54ebd4, 0xbd597f89,
                               0xbca9ace8, 0xbdbfe3d7, 0xbe1f21a4, 0xbd99cdd6, 0xbe16fd21,
                               0x3e02220e, 0x3d138487, 0xbddf7fcd, 0xbe0e512b, 0xbe1a074a,
                               0xbe94e5b2, 0x3e8f4e7d, 0xbe108981, 0xbe469104, 0xbd59eaf3,
                               0x3e96c46d, 0xbd487233, 0xbe9b3cd0, 0xbd8f5c3d, 0x3d83c441,
                               0xbb926b5b, 0xbd4a9174, 0x3e5bd5de, 0x3c8360d3, 0xbda95a4d,
                               0xbcf18201, 0xbe3f1210, 0x3ce098a5, 0x3e01f577, 0x3d5a0009,
                               0xbe0fc90f, 0x3e4825af, 0xbdbf3b5e, 0xbdf0c12a, 0x3e386c4d,
                               0x3d981eae, 0x3ee75230, 0xbe0ddadb, 0x3d334593, 0xbf0e00da,
                               0x3e3bd76d, 0xbdc3ded4, 0x3dd893b9, 0x3c5d4144, 0x3d384cdc,
                               0xbea1c395, 0x3ad29c9c, 0x3eeec501, 0x3d45af6e, 0x3f011749,
                               0xbd8fc85a, 0xbe08490a, 0xbe4c0c28, 0x3d8f5e71, 0x3ce5ee6c,
                               0xbf204c6c, 0xbe3ab4ce, 0x3d661816, 0xbcc5225d, 0xbd4a1b51,
                               0x3ea73954, 0xbe446ded, 0x3df82746, 0xbe9c8b74, 0xbe3de160,
                               0xbe06386a, 0xbe5e03f6, 0x3e687e22, 0x3e6124dd, 0x3d5260bc,
                               0x3dcb8b19, 0xbe39829d, 0x3dffe8cd, 0xbdf74344, 0xbeadb390,
                               0x3d9f8b11, 0xbdaf009b, 0xbddd209a, 0x3c75a40f, 0xbd15d50b,
                               0xbd5321be, 0xbe934cee, 0xbc7216c2, 0x3c8874be, 0x3d8a1580,
                               0xbe3b64e3, 0xbe5fdab2, 0x3e1ab3a4, 0xbe52318b, 0x3da97282,
                               0xbd442b63, 0x3d9620af, 0xbd26fa37, 0xbd1288c7, 0xbd7e25ff,
                               0x3e1bf4e4, 0x3dcaa09f, 0xbe22fec9, 0x3e9e957e, 0xbde724e0,
                               0x3eb477c5, 0xbc823b90, 0x3c87bcdc, 0xbe995090, 0xbb1367f5,
                               0x3de4b3bb, 0xbe868809, 0xbe0db5b2, 0x3e3b77c7, 0x3e9c3926,
                               0xbd55bb2c, 0x3e32be31, 0x3da5b266, 0x3d4f8d73, 0x3dd1a339,
                               0x3dd44d92, 0xbeb0e6c8, 0x3de60b68, 0x3d43642c, 0xbdb76b07,
                               0x3ce5e289, 0xbca65696, 0xbe2ef322, 0xbcdb6fdd, 0xbdf7a43b,
                               0xbcf4f63f, 0x3d8baae2, 0x3e9fbdbb, 0xbccc6a96, 0xbbfe11a2,
                               0xbc88e86b, 0x3d0c7507, 0xbc8a2a61, 0xbe04957d, 0xbd3bd474,
                               0xbe2d8cdb, 0xbd0e5ddc, 0xbde23600, 0xbe1492ff, 0x3dc5966c,
                               0xbe683b80, 0xbe00817a, 0xbe10e598, 0xbe775cbc, 0xbe06fa49,
                               0xbd4c5738, 0xbbcb532e, 0xbec6ee98, 0x3cbd8d86, 0x3cc05e63,
                               0xbd69bb92, 0x3ea5abf8, 0xbe06dd6c, 0xbc3b7382, 0xbd96c23e,
                               0xbe97eb6b, 0xbe26749c, 0xbccb0630, 0xbc6d0f46, 0x3dd1971c,
                               0xbe02db55, 0x3e0c258d, 0x3e813106, 0x3e1b4cbd, 0xbc7c9af7,
                               0x3e07e95e, 0x3e46f397, 0xbdc6dab7, 0x3e9203c0, 0xbce82415,
                               0xbeade7bd, 0xbe94ad3f, 0xbe1638d5, 0x3d571e57, 0xbcf16e7f,
                               0x3dd92ebe, 0x3cda6f0f, 0x3aad655f, 0x3d0f9f8f, 0xbe2c2a30,
                               0xbe579458, 0xbe3321d0, 0xbd761535, 0x3e599e90, 0x3e3c0d30,
                               0xbe28663b, 0x3df98506, 0x3d1ff87a, 0x3eaf92d6, 0x3e13af1a,
                               0xbb56e571, 0xbe2c83cf, 0x3dca754a, 0xbe4f968b, 0xbda383c1,
                               0xbc248508, 0xbd949a19, 0xbe3b81df, 0xbe98afee, 0xbd5c0dba,
                               0x3d3cf8ae, 0x3b76b33b, 0x3e2e4618, 0x3e8b959a, 0x3efcf372,
                               0xbc785ed2, 0xbd1f8269, 0x3e18ef83, 0xbe8ac871, 0x3cbd74c7,
                               0xbdf0933a, 0x3e4839c7, 0x3d1b2f6b, 0x3e4d2554, 0x3ea499ca,
                               0xbe59f249, 0xbe0e7299, 0x3e2d66c0, 0xbd1802fa, 0xbe88e0bc,
                               0xbe8706d0, 0x3dde99ed, 0xbcc03990, 0xbe4e5a2e, 0xbc19c083,
                               0xbd7b911f, 0x3d7d20b4, 0xbde15e36, 0x3e1f5e22, 0x3e5eec4a,
                               0x3e9e4a22, 0xbe0b0057, 0x3def4dc2, 0x3d6e0edd, 0xbdf782a1,
                               0xbe66aad8, 0x3cc5e799, 0x3c1dc78d, 0x3b9cd4d5, 0xbf0059b8,
                               0x3de81954, 0xbe9561b9, 0x3e1eeaa1, 0xbe36c5b4, 0xbd9325c5,
                               0xbe6e4e87, 0xbebeb111, 0x3d3bb211, 0x3e468a25, 0xbc5c6b3c,
                               0xbe0e2044, 0xbeb1c9cc, 0x3cae42ce, 0xbdc53592, 0x39e943aa,
                               0x3e9ac838, 0xbc7a4357, 0xbdd3e847, 0x3c2604cb, 0xbd5db987,
                               0xbea4cb0d, 0x3dae0de8, 0xbe07e5a0, 0x3d99fa66, 0xbc365d95,
                               0x3d3d1804, 0xbde11379, 0x3e290285, 0x3f5c501a, 0xbd184bf8,
                               0x3de088d9, 0x3e34174d, 0xbe450134, 0x3ceab9cb, 0xbea2a76e,
                               0x3e41aa6a, 0x3f36ba70, 0x3e6a138c, 0xbee87933, 0xbd4cd8ad,
                               0x3eacf75b, 0x3e1219db, 0x3ea1dc9a, 0x3e82862a, 0xbf006640,
                               0x3e407e61, 0xbe3eb31d, 0xbe6da9e5, 0x3ce626e9, 0xbcb70d04,
                               0x3ed14c07, 0xbeee9cf7, 0xbe07de35, 0xbea7ad12, 0xbd1247ae,
                               0x3eae4cb8, 0xbf57192f, 0xbba4d020, 0x3f84fa70, 0x3ea45c87,
                               0xbf5c85aa, 0xbf34014c, 0x3ec0925e, 0xbfe3fc31, 0xbdd95714,
                               0x3f09aee0, 0xbe0f654d, 0x3ffd6b28, 0x3f03f56b, 0xbec7624e,
                               0x40656d77, 0xbe849f6a, 0xc049e50b, 0xc0bae0b0, 0xc0a23c97,
                               0x400045e8, 0x3ff0cdec, 0xc04181c9, 0xc032e68b, 0xbff466da,
                               0xc0373a42, 0x3fc3087f, 0xc004c33a, 0xc0b46924, 0x3f1f7ef9,
                               0xbf5a6cac, 0x3e8717c9, 0xc02b724a, 0xbfa5328e, 0xbff4b3e6,
                               0xbf387e03, 0xc0945e2a, 0x3fb4b98d, 0x3f06d2b1, 0xbf37db0e,
                               0x3f1ea65c, 0xc053ed15, 0xc08af919, 0xbfb2f253, 0x3f7cbb45,
                               0xbf9f7e88, 0xbe6ce8d8, 0x3f167abd, 0xbf3a1623, 0x3f85a98a,
                               0xbf415213, 0x3ea623c4, 0x3fd81ea9, 0x3faab9d5, 0xbed9e8de,
                               0x3fa5f77d, 0x40701f24, 0xbe4b8fd0, 0xbf8d5228, 0x3ff28aac,
                               0x3ef8d0a3, 0x3f3aaf23, 0xbe203619, 0x3f4415b1, 0x3fe25c79,
                               0x3d0ced8f, 0x3b90bcd5, 0x3f3b94f3, 0x3f6f18be, 0xbf897d00,
                               0xc0399fa9, 0xbf3f105a, 0x3f4687c3, 0xc00f6a8f, 0xc042ebf1,
                               0x3f74d362, 0xbde237e3, 0x3e31b64d, 0xbf61f5c1, 0x3e065965,
                               0xbf205603, 0x3eaf84bd, 0xbec71842, 0x3f02c095, 0xbcf472e9,
                               0xbeda46a8, 0x3e846112, 0x3f095288, 0xbd9ea6a7, 0xbe9e90ef,
                               0x3d6f5cb5, 0x3f10b2a2, 0xbeb589b9, 0x3f1865cf, 0xbf1bdda2,
                               0xbe122a04, 0xbec317a7, 0x3fdc30e2, 0x3e0cdd71, 0xbe83cc7d,
                               0x3f05b1b7, 0xbe6ec13c, 0xbec11bd4, 0x3e1af333, 0x3ead3d38,
                               0x3e86d5d6, 0x3ee9de87, 0xbea0180a, 0x3fa4f245, 0xbdc89efe,
                               0xbf555e46, 0xbf19752f, 0xbee39276, 0xbf176552, 0xbde354ea,
                               0x3e81c4ff, 0x3ea3e79f, 0xbf8a827a, 0x3e6c2cea, 0xbe983aa3,
                               0xbd9cebac, 0xbf1ed254, 0xbfb08b27, 0xbf0419b6, 0x3ea4a19f,
                               0xbd5662c1, 0x3f89471b, 0xbed94312, 0x3ec80015, 0xbe0fb976,
                               0xbf111004, 0x3e9e3f07, 0x3c2b1fe7, 0xbe58be0c, 0xbdaf03ed,
                               0xbf2a539d, 0x3f053af5, 0x3e666128, 0x3f2170a7, 0x3fadc484,
                               0xbeddc9dc, 0xbf084404, 0x3cfbf16c, 0x3f0c865f, 0x3e87c048,
                               0xbea658d6, 0xbf1cb6f3, 0xbf3c3cdf, 0x3f1b8016, 0x3e10978a,
                               0xbe375d92, 0xbefcc762, 0xbef55b94, 0xbf55db9e, 0x3d64575a,
                               0xbe98801a, 0xbfb68b43, 0xbee7d623, 0xbeed1674, 0xbe429f16,
                               0xbf38c85e, 0xbf8904b3, 0xbf36fa23, 0xbe8aab34, 0xbed9ddbc,
                               0xbdde1504, 0x3deb67cd, 0xbea5f987, 0x3ecae005, 0x3eace81c,
                               0xbf3cc093, 0xbf2707fa, 0xbea1f1bb, 0x3ec33bd2, 0xbeb1362b,
                               0x3dd0d69f, 0xbf0f895b, 0xbe1e7391, 0xbda1431a, 0xbe63f2c0,
                               0x3f6a2cb2, 0xbf2a63c5, 0x3d6ebb19, 0x3ea2789b, 0xbe868871,
                               0x3ef7d61a, 0x3d325326, 0x3e8961fa, 0x3d0dbd59, 0xbd14b66f,
                               0x3ebb8ae1, 0x3f8b763a, 0x3ebf22a0, 0xbe44a47a, 0xbe0859c7,
                               0xbe6b16f6, 0x3ed960a6, 0x3f053b5e, 0xbed0b960, 0xbf57db38,
                               0xbe48d443, 0xbeb8c647, 0x3e0c4d0c, 0xbf49725d, 0x3f096677,
                               0x3f188bdc, 0x3fb08320, 0x3f21ae67, 0xbfacac1a, 0xbf00cd4a,
                               0x3ef01eda, 0xbc940cad, 0xbfbe5d02, 0x3f2e42c8, 0x401385b9,
                               0xbeee0ee5, 0x3f0ec725, 0x3e08919b, 0xbf9085f0, 0x3e1069d9,
                               0xbf054dab, 0xbfee34e4, 0xbfbdcf33, 0xbf019032, 0xbe74bd7e,
                               0xbf56686c, 0xbf3ee371, 0xc0049c64, 0xbf082807, 0x3ea3e556,
                               0xbda59ff4, 0xbf4f15b5, 0x3f015dee, 0x3f4c1607, 0x3f6e53e5,
                               0xbf82de7c, 0x3e0a49c0, 0x3fce3ec9, 0x3d8cb35d, 0xbf915595,
                               0xbd6251a7, 0xbfd4e542, 0xbebbe5f7, 0x3ee6d06d, 0xbeea77e1,
                               0x3e7f9be8, 0xbe1c91ac, 0xbe972b1f, 0x3f21fc46, 0xbf52ee6c,
                               0xbeba878e, 0xbf2c420e, 0x3ef61450, 0x3f684aa1, 0xbfdf0f29,
                               0x3f8c6f41, 0xbfa684a8, 0xbf71abe0, 0x402a27b4, 0xbf19cbdc,
                               0x3f908b70, 0x3e88e5f2, 0xbf89e8a3, 0xbf273ddb, 0x3f14c201,
                               0xbf406a7a, 0xbf757481, 0x3f13ae6a, 0xbde181e6, 0x3df4130e,
                               0x3baf1d34, 0x3e88f6a6, 0xbf282960, 0xbe09dab8, 0xbd6c366f,
                               0xbe02be17, 0xbe76b7e4, 0x3dfbe933, 0x3e539e8a, 0xbd1dd786,
                               0x3e15f637, 0xbd5a0974, 0x3d6b9567, 0x3dc974f1, 0xbcf6695b,
                               0xbe34c528, 0x3d25a12c, 0x3c82cb09, 0x3e1515f8, 0xbe3570b2,
                               0xbe17af69, 0xbe5948f3, 0x3ce96321, 0xbbed1949, 0x3e1f4fd1,
                               0xbdf1a65b, 0xbe426b87, 0x3d6a0b30, 0x3d2fce45, 0xbe12ca60,
                               0xbe405851, 0x3cdec3d1, 0xbe069ce6, 0xbe045618, 0x3ea5165e,
                               0x3d8c43db, 0xbd08e3c2, 0xbd3d407e, 0xbe0f8fd6, 0x3dd950f8,
                               0x3caf7e24, 0xbe812ede, 0x3db9fb7c, 0xbe7e3f84, 0xbd303346,
                               0xbe091446, 0xbde475b1, 0x3e89c64a, 0xbe4e4a1c, 0x3cd01821,
                               0xbe8c3bc3, 0xbea587a5, 0x3e01d7c1, 0xbb5ce9c8, 0x3e410622,
                               0xbd655b27, 0xbd03f58c, 0xbe2a9978, 0x3e418460, 0xbdb1a8ea,
                               0xbe234aa2, 0x3e5aee23, 0xbf22ab25, 0xbef69948, 0xbca91407,
                               0x3f017c54, 0x3dddc01c, 0x3f148309, 0xbd2eb7d8, 0xbe783480,
                               0x3e453a27, 0xbd7abd80, 0x3f219930, 0x3f9066b6, 0x3dbd1880,
                               0x3f8c3c65, 0x3e8a2952, 0xbe7edfdf, 0xbd96b3cf, 0x3f072005,
                               0x3f5c1e84, 0xbbcee799, 0xbf0e0a39, 0x3e8efad7, 0x3f856277,
                               0xbf19d3e2, 0xbeb5ef7e, 0x3ec2a250, 0xbf0d8132, 0x3f33a5b7,
                               0x3f0ba86c, 0x3fb9bb6e, 0x3e56682e, 0x3f28886e, 0xbf201ab3,
                               0xbf70d43b, 0xbcc36481, 0x3c8db3a5, 0xbf7bfab7, 0x3f20c732,
                               0xbebda584, 0x3e210d5e, 0xbe5713e0, 0x3dfa0d58, 0x3f07270b,
                               0x3f735621, 0x3ee342ae, 0x3efebc53, 0xbe8bccf1, 0x3f6a65a0,
                               0x3e91088f, 0x3f3d442e, 0x3fd30190, 0x3eacf014, 0xbe6ff58d,
                               0x3ef4b208, 0x3e1e5285, 0xbeb05737, 0x3dd5d845, 0xbf31e7e4,
                               0xbfafe3c3, 0xbe7668f5, 0x3c497c18, 0x3f64b55e, 0xbe9a6124,
                               0x3f3d99a1, 0xbd2788c7, 0x3f4874d3, 0x3eea2f07, 0xbe439058,
                               0x3e995411, 0x3e2db13d, 0x3e6501b7, 0xbf432f66, 0x3ec08c9c,
                               0xbf12dad2, 0x3d6ce1b3, 0xbdd3013b, 0x3e2cf70e, 0x3e5f0ae7,
                               0xbf3bd602, 0xbdcfab07, 0xbdefb123, 0x3d436b07, 0xbde63f82,
                               0xbf19bcc7, 0xbe95ff4a, 0x3e2d5267, 0x3ef32216, 0xbd9494b8,
                               0x3dd3eebe, 0xbe96a045, 0xbf0b2e44, 0x3d8d5a6a, 0x3ed4a65f,
                               0x3f12db28, 0xbf3f7c27, 0xbf1354c4, 0xbd7fa991, 0x3ebc6cbb,
                               0xbe17733c, 0xbee9eee6, 0xbd329a2b, 0x3edf9857, 0xbe8fb728,
                               0xbe899160, 0xbf0edb81, 0xbe3a0475, 0x3f0cd207, 0x3ec232f4,
                               0x3ec7e5f3, 0x3d301a7b, 0xbe1effad, 0x3f4b0439, 0xbd407c3a,
                               0x3e3a4a31, 0x3edc686e, 0x3e6434ed, 0xbdb45bcd, 0xbf615cda,
                               0x3ef4fc69, 0xbda45e01, 0xbe593fab, 0xbe480173, 0xbd113b3c,
                               0x3e11a568, 0x3f104a10, 0x3ea556d2, 0x3e97bac1, 0x3da62841,
                               0x3ee76879, 0xbe3d984f, 0xbdf2ff40, 0xbe236529, 0x3e0f3793,
                               0x3e8ed146, 0xbd0efdb4, 0xbd2a14bc, 0x3e547c0c, 0xbda7fc66,
                               0x3d83c196, 0x3d69b7ce, 0xbe9bb3e0, 0x3e1d472c, 0x3d8ae7ba,
                               0x3ec294af, 0x3d96e814, 0xbebda001, 0xbe788c77, 0x3de5ba87,
                               0x3ee847a2, 0xbdc5aa52, 0xbda13fbb, 0x3f13b360, 0xbd5b4abd,
                               0xbedd180f, 0xbf03f88c, 0x3e9989c1, 0xbecf0cb5, 0x3d6ba54b,
                               0xbd15f551, 0x3eaf4188, 0x3ebd983d, 0x3ddfe3fa, 0xbe974966,
                               0xbd918550, 0x3dfbebed, 0xbdbd048a, 0x3e0ab003, 0x3df095d8,
                               0xbf78ee7e, 0x3f275add, 0x3b4f0963, 0xbe7aca2d, 0x3d033caa,
                               0xbe7bc0f8, 0x3eb31070, 0xbf4a8981, 0xbd18adf5, 0x3e987664,
                               0xbea6622c, 0xbf8eeb4d, 0x3cccb2b3, 0x3e4450ce, 0x3e313afa,
                               0x3c430704, 0xbee732e9, 0xbf27b872, 0x3e0ba981, 0x3f5ce83a,
                               0xbc03704d, 0x3e3be954, 0xbe8a9ac8, 0x3eec00dc, 0x3cdf1e78,
                               0x3f994648, 0x3f5fb757, 0xbf4fee65, 0xbf0e23ea, 0xbe3dd54d,
                               0xbfc44dfd, 0xbecb2ad5, 0x3e107212, 0xbfba30fa, 0xbd38dae6,
                               0x3f3d0986, 0xbf814069, 0xbd3cf4a8, 0xbf57f449, 0xbed3da0a,
                               0xbf01c1f2, 0x3f2ee50f, 0x3f9b7613, 0xbf22dfcf, 0xbe76903d,
                               0xbf43a207, 0x3cbb9dcf, 0xbf5d077e, 0x3f99d6c4, 0xbf1e84b3,
                               0xbee09b71, 0x3f49983e, 0x3eb2c35d, 0x3f35c005, 0xbe17ff4b,
                               0xbf3ba3c5, 0x3d15d62e, 0xbd41c126, 0xbb4b385a, 0x3db9ae14,
                               0xbc150412, 0xbc4c5458, 0x3b22303f, 0xbd0373e7, 0xbd9b7291,
                               0xbc9f5589, 0xbd957d36, 0xbd4f8319, 0xbd24e8cd, 0xbc03df97,
                               0xbd0b50ce, 0xbbb6f8ff, 0x3c93f64c, 0x3d839ba9, 0xbc60106f,
                               0xba607398, 0x3d04107d, 0xbd8246ed, 0x3c96d7e0, 0x3bb0c3b2,
                               0x3d34524f, 0xbbcf3912, 0x3cea90af, 0x3bedf1bc, 0x3c66cd5a,
                               0xbcbacf6d, 0xbd810233, 0xbd92c75d, 0x3d4fbc76, 0xbcc4c1c8,
                               0xbba239a3, 0x3d8e6b3b, 0x3c918155, 0xbc23f79a, 0x3c96e600,
                               0xbc9b2216, 0x3d1e1751, 0x3da8594c, 0x3d61ca68, 0x3d9ed859,
                               0xbd3667e9, 0xbcf26866, 0xbd7bb7a4, 0x3d3877e9, 0x3b6e027e,
                               0x3dd4b38c, 0x3c547063, 0x3d361e05, 0xbdb49ecd, 0xbc103699,
                               0xbdc0175f, 0xbd09550a, 0x3c62a276, 0x3d59d743, 0xbda22803,
                               0xba6cc76a, 0xbddd858c, 0x3d9e49c1, 0xbd9b5505, 0x3d283a81,
                               0xbdc856bf, 0x3dd5d616, 0x3c93c5fc, 0xbd58d70c, 0xbea5260c,
                               0xbbf93b27, 0xbd0d3db5, 0x3dcad0f7, 0x3d030386, 0x3d39f5a2,
                               0xba867895, 0x3dbe73a8, 0x3c2a40e3, 0xbdaff661, 0x3a9e824c,
                               0xbbec0aa0, 0x3b987141, 0xbe37d25b, 0x3d9c23aa, 0xbb7d62c1,
                               0x3dfcb5f0, 0x3d1389a3, 0x3ceab43b, 0xbca1e901, 0x3baebfd6,
                               0x3b96c365, 0x3cf0afbd, 0x3d18178a, 0xbd2e88aa, 0xbe04e3f6,
                               0x3da7b8f7, 0x3dd30655, 0x3cb5c4af, 0x3e318f7d, 0x3ba78d59,
                               0xbd0e713f, 0xbe1cd9f4, 0x3d2bdf70, 0x3b420937, 0x3cb5602f,
                               0x3da33fab, 0x3df8a134, 0xbca44532, 0x3ce70ff9, 0xbc9dd8cb,
                               0xbd130d22, 0xbcdf748e, 0x3d53889f, 0x3c89127a, 0x3dce968f,
                               0x3d2f4996, 0xbcbac98e, 0x3db44b13, 0x3cf2a766, 0x3cc4b92d,
                               0x3c72bf7a, 0x3d19fcb9, 0xbd02d28b, 0xbda8eee1, 0xbce63b09,
                               0x3c8e1a77, 0xbb8fbb8d, 0x3cc0f15f, 0x3dec3d29, 0x3ee20707,
                               0xbd8117de, 0xbc931d3c, 0x3ef4f18b, 0x3e363b35, 0x3daa10e6,
                               0x3d7d8d4f, 0x3d9e23b7, 0xbe233fc1, 0xbd7bdf3b, 0xbe290c1f,
                               0x3d627a90, 0x3e012b1f, 0xbd626b14, 0xbdd00abf, 0xbde113af,
                               0x3b308253, 0xbd9d17be, 0xbe5c4b07, 0x3e82cb45, 0x3e2e934c,
                               0xbec041bf, 0xbb526eb0, 0x3e17a70e, 0xbd5cacfa, 0x3e66a374,
                               0xbeee221c, 0x3d71ee40, 0x3efbef98, 0x3ca5f279, 0xbe8d50fa,
                               0xbd8b7d0e, 0x3df46ec3, 0xbd8f9518, 0xbd24db52, 0xbee960c9,
                               0x3dacab88, 0xbcd97c8f, 0x3e1cf53d, 0xbdaa4ee4, 0x3ef0f8bd,
                               0x3e37529a, 0xbe0a1931, 0xbc4a8ad9, 0xbd11848b, 0xbdbbef6d,
                               0x3e55ed04, 0x3dd7953e, 0xbd028ec5, 0x3f13cd44, 0x3e9c4f2f,
                               0xbe1b9400, 0xbe41be07, 0xbddf6845, 0xbd9dd74f, 0xbd738372,
                               0xbd1142cc, 0x3bea6904, 0x3f3c0324, 0xbe42ae36, 0xbe526a74,
                               0x3dd1107b, 0x3eae4c1d, 0x3e125884, 0x3dbc325e, 0x3e7b3f6a,
                               0xbdab6e4d, 0xbd9d9d6e, 0xbe03fc25, 0xbde614de, 0xbe870ddd,
                               0x3f251b30, 0x3d7f5b6d, 0x3ea7e76e, 0xbdab16a0, 0x3e21c481,
                               0xbe1d7819, 0x3daadef4, 0x3e99209c, 0xbe45bc08, 0x3e8379d4,
                               0x3d1edae2, 0xbea9d868, 0x3e816f7a, 0x3da51d66, 0x3c351692,
                               0xbd9ba7bd, 0xbe0611b4, 0xbe342c60, 0xbe997163, 0xbebe803d,
                               0xbe41cacb, 0x3eb6ad95, 0x3e2c66e3, 0x3e669646, 0xbe3bfe19,
                               0x3e999a23, 0xbda9608c, 0x3cc064a8, 0xbe641a0c, 0xbdb8d13f,
                               0xbe01c2cf, 0xbe9c5d55, 0x3ea23a14, 0x3eb8ea51, 0xbded7db3,
                               0xbf198e67, 0x3d70c373, 0x3e1a576b, 0x3c52fb31, 0xbd1d1738,
                               0x3e9691f6, 0xbe8992a9, 0x3d4918a2, 0x3cd93b9a, 0x3e2ba357,
                               0xbde144d6, 0xbe0151f4, 0xbe19bbb0, 0x3dc021c6, 0xbe89ede2,
                               0xbc89cada, 0xbe9a84ea, 0xbd99316d, 0x3e163b52, 0x3e217004,
                               0x3eca7c63, 0xbe016288, 0x3e46f640, 0xbe65905d, 0x3d2f23d1,
                               0xbe0c2597, 0xbe53b5db, 0x3a95a4df, 0xbe60c635, 0xbe12e7e3,
                               0xbed6c337, 0xbd5c1167, 0xbe3c6613, 0x3e83b8bf, 0xbe5598a7,
                               0xbf2fb8fe, 0xbe0de376, 0x3e95c8fe, 0xbec9145b, 0xbe075d98,
                               0xbeaef4da, 0x3f1e1acd, 0x3c92a8dc, 0x3df819ba, 0xbe66ee40,
                               0x3df5cb94, 0xbd93a3a5, 0xbd1d8576, 0x3db0e60d, 0xbd406177,
                               0xbdfc2ac5, 0x3ead2b7a, 0xbe9cf2a3, 0x3eb1e41c, 0xbebf0b25,
                               0x3d693994, 0xbe880aa5, 0xbca1f9c0, 0xbccce3b0, 0x3f6d17ce,
                               0xbe8d214f, 0xbf2e19bb, 0xbc8f5a06, 0xbdef0f9a, 0xbe5d6f0e,
                               0xbf2f59cc, 0xbd8545a9, 0xbecff4fc, 0xbe110156, 0xbf23a34e,
                               0x3e05a781, 0xbefc8d5d, 0x3e5fd723, 0xbe5f6a61, 0xbd82d411,
                               0x3ea2d7af, 0xbee05d5b, 0xbe3d906c, 0x3dd4ecea, 0x3d84317e,
                               0x3d85c4d0, 0x3e82bb79, 0x3eb9ec99, 0xbe8ad18e, 0xbe357f74,
                               0x3ebf2470, 0xbdd3a2e0, 0x3e851cd2, 0x3dbf9f93, 0x3d3eaa55,
                               0xbe82528b, 0x3e822ddf, 0xbe2dfbb2, 0x3ddac08d, 0xbd0a3a2b,
                               0xbed0cb2e, 0xbeb0a548, 0xbdca4d1d, 0xbe939260, 0x3e4dd78f,
                               0x3e5ce1cd, 0x3ee46057, 0xbdffe999, 0x3ca68f27, 0x3e2eca2b,
                               0xbce1295a, 0x3e912f5b, 0xbdcc510c, 0x3d5d61b7, 0x3e050aae,
                               0xbe3fd7bf, 0xbe6b9ba3, 0x3e74a735, 0x3d35d29e, 0xbe3e26cb,
                               0x3e0c24b8, 0x3d8ee89a, 0x3e0f8819, 0x3ca9bafb, 0x3e824122,
                               0xbe360747, 0x3d134269, 0x3eef1d9f, 0x3efa32c9, 0xbdc4a575,
                               0x3ea0f769, 0x3e2f424c, 0x3d56c718, 0x3f407bdd, 0x3edc2202,
                               0xbe94c8d5, 0xbe843e8e, 0x3d277899, 0x3df8e30c, 0x3ecd4554,
                               0x3e194941, 0xbb768933, 0x3f058e86, 0x3ee1a4e3, 0xbe6b9beb,
                               0xbcf823cf, 0x3e510aca, 0x3da6e95d, 0x3e9d3e40, 0xbd2a1b36,
                               0x3e93ec1f, 0xbeaada54, 0x3de16abb, 0xbe577bac, 0xbdea4994,
                               0x3dc7ea11, 0x3ef9755a, 0x3dd124a0, 0xbf5d02de, 0x3e885903,
                               0x3f35ca58, 0x3f389ebd, 0xbda3e9c7, 0xbf3e2eb8, 0x3eca82c6,
                               0x3f177e31, 0x3e87ad61, 0x3ea0615d, 0xbeca26c7, 0x3f3f5f2a,
                               0x3eb9d536, 0x3e1aeb4f, 0x3f488c6f, 0xbdc432d2, 0xbba7410a,
                               0xbf515e37, 0x3e9706c3, 0x3e3b8bd2, 0x3f87d47d, 0xbec3979a,
                               0x3eb416f1, 0x3ec0246e, 0xbed8cf40, 0x3e6a579b, 0xbf51291c,
                               0xbeab2656, 0x3f245ec5, 0x3e8b8ece, 0x3eae627d, 0xbe6e8fce,
                               0xbe05e832, 0x3e944f19, 0xbec31077, 0xbe46b487, 0x3f289cdf,
                               0x3f413973, 0x3d5a1db1, 0x3ef5d466, 0xbe280705, 0x3d006829,
                               0xbeec2c1d, 0xbec2d6e4, 0xbf6b387a, 0x3ebab2b5, 0x3efa65af,
                               0xbef77871, 0xbe0909ae, 0x3f469770, 0xbdf42bf4, 0x3e9718b8,
                               0x3f03d103, 0xbea0c2b4, 0x3f63dbae, 0xbc9cf613, 0x3ee27be6,
                               0x3c151080, 0xbf2d43ad, 0xbe80c7c4, 0xbe58d190, 0x3d1fdb71,
                               0xbdad26fe, 0x3efa4630, 0x3de23f08, 0x3cf487c5, 0x3e8a7e14,
                               0xbd29b63b, 0x3db5eed3, 0xbf3b25ea, 0xbeb0345e, 0x3e438d08,
                               0xbdb894de, 0xbeab9523, 0x3e043420, 0xbf3e4597, 0x3ecf0d51,
                               0x3e148134, 0xbe969d77, 0xbe8c7de6, 0xbd1e6ecf, 0x3ed94d4c,
                               0xbe6371db, 0xbd0ad953, 0x3ddcb0b0, 0xbe78c9b1, 0x3ddcfa1b,
                               0x3efe7b32, 0xbeaee525, 0x3e2ac50e, 0x3e807528, 0x3d960479,
                               0x3dfa6df0, 0xbea45df7, 0x3ecab81a, 0x3d8c07b3, 0xbf2bdced,
                               0xbe414714, 0xbe372512, 0x3e0a8d63, 0x3e834da8, 0xbedfc96a,
                               0xbe0b016e, 0xbf32d927, 0xbe95e9c9, 0x3e9500a7, 0xbe9138e7,
                               0x3f16e7bb, 0x3e41599a, 0xbf13fb06, 0xbf02b135, 0xbed93d83,
                               0xbe803ccd, 0xbdc0f2ae, 0xbee2f9c1, 0xbe587d6c, 0xbdbbb86c,
                               0x3ec2aeab, 0xbe8e7ef1, 0xbd7e72eb, 0x3e8eb51c, 0xbdbf8221,
                               0x3d58ca7a, 0xbf2876e8, 0x3e9454f4, 0x3f02d7e1, 0xbd9c0a08,
                               0xbf34a656, 0xbe500a93, 0xbf76c961, 0xbd875319, 0xbdf6c2a1,
                               0xbcd62dac, 0x3f470851, 0x3e88c7a0, 0x3e6dbf86, 0xbe822748,
                               0x3ec508f9, 0x3eb02ad1, 0x3d62fbb4, 0xbf4c72c9, 0x3da5faf0,
                               0xbed859d2, 0x3e42ec9e, 0x3e5334d7, 0xbd4e940e, 0x3edc8e27,
                               0x3f2ab086, 0xbd75b642, 0x3e9902e7, 0x3c5301db, 0xbf5cd5d9,
                               0x3ecdf3fb, 0xbdd0f123, 0xbf784a30, 0x3df26796, 0x3e9e74ad,
                               0xbe1573a9, 0xbf08b7d6, 0xbe9d6b56, 0x3e91ca08, 0x3f059a61,
                               0x3e6cf630, 0xbc5fa8b1, 0xbc9d0665, 0x3ee99a54, 0xbd328e4b,
                               0xbe9d58e6, 0xbedb4406, 0xbd1192ba, 0x3db0b303, 0x3e7fef2b,
                               0x3ed51a98, 0xbd950b3d, 0x3e516140, 0xbdf1a27a, 0x3e813813,
                               0x3e56edf7, 0xbe58cae3, 0x3e88a4f9, 0xbe0ffbec, 0xbea0c51a,
                               0x3f1d0f3c, 0xbdbda64e, 0x3ea93111, 0x3d1c2ed3, 0xbe3f7ec9,
                               0xbf2a5663, 0x3ea20101, 0xbeeaffa3, 0x3ed44f6e, 0x3e902493,
                               0xbf262e21, 0xbdc18169, 0x3f2281d5, 0xbf1f40b5, 0xbf2deae8,
                               0xbe6e9eb0, 0xbe8db5ad, 0xbe868ca8, 0xbeea673b, 0x3d6bd741,
                               0xbe8e4595, 0x3dfbac8b, 0x3ec0dcc8, 0x3f6f8d7f, 0x3e626d70,
                               0x3e1c680a, 0x3d78d53e, 0x3e9ceb18, 0x3e5a1e3c, 0x3ed296f0,
                               0xbd10a57a, 0x3e322997, 0xbe098200, 0x3ec7ad06, 0x3ed009dc,
                               0x3c1f4363, 0x3e78076a, 0x3d317d41, 0x3ea4f55a, 0x3e0508ca,
                               0xbe2d9427, 0xbe9baec9, 0xbe2792d7, 0xbe95273a, 0x3e3413d1,
                               0xbe1e1c35, 0x3dd45b54, 0xbe995b59, 0xbe4960ff, 0x3c91fb6a,
                               0xbefaa9ce, 0x3e42c3cb, 0xbecc4504, 0xbeb684fa, 0x3f381eac,
                               0xbe87b129, 0xbdfbe3b4, 0x3eaa90b0, 0x3f80f3ed, 0xbe045ca1,
                               0x3ea3e340, 0x3ea86eb8, 0x3df5dd74, 0xbed0bddb, 0x3e203940,
                               0x3e1d2a7c, 0xbe9f6376, 0x3ebb730f, 0xbefe151e, 0x3d22763b,
                               0x3eb4e52c, 0xbf02eb32, 0x3e11d22f, 0xbec0a31c, 0x3dcf8de0,
                               0xbdd38db6, 0x3ecaebd4, 0x3ec2ab37, 0x3ea234bc, 0x3e26b0c7,
                               0x3c645101, 0xbd875288, 0xbf793bd5, 0xbe443819, 0xbe8db80c,
                               0x3dc9c8ff, 0xbd22f438, 0xbf45912d, 0x3e374166, 0xbcf958d3,
                               0xbe7f0ab9, 0x3e441312, 0x3df713ab, 0xbee64ecc, 0x3d5996e0,
                               0x3e647ff3, 0x3e13df02, 0x3e90f7bf, 0xbe7738b6, 0xbe8e6e9e,
                               0xbe37ae1b, 0x3ec2c8d1, 0x3e8c850e, 0xbee0ba21, 0xbebbd4ab,
                               0xbda9169c, 0x3d1ee2e6, 0xbe5c54cb, 0x3e365983, 0x3dafa22c,
                               0x3de7f70e, 0x3ecc5231, 0x3e7b427e, 0x3dce7d6c, 0x3dd3a1ef,
                               0xbee4a71f, 0xbe07710f, 0xbe6de16e, 0x3e6bcc9a, 0x3d402561,
                               0x3dd79360, 0xbee88b9d, 0x3f087f9b, 0xbd7b8fc6, 0x3dea9308,
                               0x3e7b3b3d, 0xbdd6aea7, 0xbd36d30f, 0x3ea82c97, 0xbf32e454,
                               0x3ded0cc4, 0xbd84fa1c, 0xbefbb7df, 0xbe1b3128, 0x3e6c958d,
                               0xbe4f8017, 0xbe2cccfc, 0x3fa73045, 0xbed6880e, 0x3eae55dc,
                               0x3c5d8867, 0xbe3ded8c, 0x3e3cdfb2, 0xbe3948c6, 0x3ef8052d,
                               0xbe04b222, 0x3db9fb22, 0x3f132e9f, 0xbe22e9d0, 0x3dbc1cae,
                               0x3ee154a7, 0xbe6a1469, 0x3e848867, 0x3f14aa9f, 0xbea90211,
                               0xbe4c86ba, 0x3e23b24b, 0x3ea2f4ec, 0x3f1641d5, 0xbf5364e6,
                               0xbd9d9141, 0x3f1334dc, 0x3f03bf0f, 0xbe4b5071, 0xbec344d5,
                               0xbe2f2903, 0x3e33f8a8, 0x3e95e92a, 0x3e93e55c, 0xbe09f2aa,
                               0x3f1f59f8, 0x3ef49fc1, 0x3ea30742, 0x3ee34a72, 0xbf0d2d6a,
                               0x3e329990, 0x3cb222ba, 0xbe779c96, 0xbebb7bfb, 0x3d9ea650,
                               0xbe6b5088, 0xbe49141d, 0x3e04c3e5, 0x3e98a3e4, 0x3ef8022b,
                               0x3da150cb, 0x3dd4d15c, 0xbe4eebed, 0xbe23b8c8, 0x3da006ce,
                               0xbd6aa393, 0xbc0b1cc5, 0xbe2dbcc2, 0x3e8392bb, 0x3eada70f,
                               0xbdc28875, 0x3e059553, 0xbc8122ab, 0xbe0cb649, 0x3f0398fc,
                               0xbefcd89c, 0x3f2db262, 0xbdc100a8, 0xbe290b00, 0x3ee00bda,
                               0xbe011787, 0x3bf12d6c, 0xbdb08707, 0x3eb9502b, 0xbe816b19,
                               0x3e5134b7, 0x3f0710db, 0x3e2fbf8b, 0xbe54a597, 0x3eebdf79,
                               0x3e10b151, 0xbe22cab0, 0x3f0cbae1, 0x3e5b3def, 0x3eaa4cd7,
                               0xbee3a5a4, 0xbe80653f, 0xbef05ac3, 0x3e583d22, 0xbe6bff59,
                               0x3e8a92da, 0xbef37591, 0xbe4ed463, 0xbe12c4f4, 0xbf09019a,
                               0x3e98b369, 0xbeb23d8d, 0xbf19cc25, 0x3df66111, 0xbf036085,
                               0x3ce076db, 0x3d9419c8, 0x3d863702, 0x3ec0c218, 0xbe8cd35a,
                               0xbf1a1469, 0x3decdbf6, 0xbe153ada, 0xbd1c3a47, 0x3ebf16ea,
                               0xbf98600d, 0x3f12ea28, 0x3e8404c8, 0xbe868b95, 0x3f7627d2,
                               0x3ec4a9fd, 0x3f4b6a36, 0xbe78ef84, 0xbea31b9a, 0x3ea140f4,
                               0x3e30f7c2, 0xbe43623e, 0xbe29de30, 0x3f08eca4, 0x3e8caab1,
                               0xbdbcd4a4, 0x3e751a32, 0xbe4e5591, 0xbe31866e, 0xbc8e9aea,
                               0x3daaa083, 0xbdb84145, 0xbe1d7e39, 0x3e25839e, 0xbe42036b,
                               0x3ec90ce6, 0xbd91cbf5, 0x3ef2a02c, 0x3f01a1b8, 0xbe65b0a7,
                               0x3f0b9d48, 0x3e75bba6, 0xbd896b68, 0x3e070118, 0xbd8bc402,
                               0xbde591ee, 0x3cd03a86, 0x3df35c78, 0xbba292f0, 0x3daf39c8,
                               0xbdce649d, 0x3dee23a3, 0xbe091633, 0xbe3f1fe6, 0x3e62aa45,
                               0x3e4c3677, 0xbe8e1272, 0xbdea1cd7, 0xbeb5df35, 0x3cf6f3f2,
                               0xbf154caa, 0x3e9bc361, 0xbf40c47c, 0xbe407a4f, 0x3ec8e476,
                               0x3e44150c, 0xbec7d8b1, 0xbdbe8bfa, 0x3cabec54, 0x3e950ce1,
                               0xbe0d10bc, 0xbf0aeeb2, 0xbed1262e, 0xbd351a36, 0x3e559f76,
                               0xbdfc356e, 0x3f37489d, 0xbdaa380a, 0x3ee2d7bc, 0xbe5482d4,
                               0x3e82a117, 0xbe68f879, 0x3ea21e4c, 0xbe5cfda3, 0xbf3b5333,
                               0x3e4e643c, 0xbd2a122a, 0x3f27fb1b, 0x3e8b981d, 0x3ea5f073,
                               0xbe79dd0b, 0x3f36adf3, 0xbe9350dc, 0x3c8f550b, 0x3f1bb4ee,
                               0x3ddb3748, 0x3e86b348, 0xbe5b04f0, 0x3e279157, 0x3e461bc1,
                               0xbd24f04f, 0xbcdd7e7e, 0xbeb5e5a7, 0x3b98cd05, 0xbd791327,
                               0xbdf4d068, 0x3df6114d, 0xbe926bd0, 0xbf2629cf, 0x3ed0d2a2,
                               0xbd3f2901, 0xbe964467, 0xbe41c2b0, 0xbf2c4294, 0x3f3be3a0,
                               0x3d50ffe5, 0xbda7dc88, 0xbf914881, 0x3ef8b93b, 0x3facfe0d,
                               0xbf03445b, 0x3f08b4c2, 0x3ec315c1, 0x3f897276, 0xbe82578e,
                               0xbe48f8d5, 0x3e59f41e, 0x3e3ac0e8, 0xbe5721bf, 0xbe9194c2,
                               0x3f2767b5, 0x3ec459e6, 0xbf4b555a, 0xbed8d7c2, 0x3e90a6f0,
                               0x3edf4135, 0x3e1a9dad, 0xbd3f590a, 0xbd4b5ef7, 0x3ef46e96,
                               0x3ec4cfbb, 0x3ec55c8e, 0x3e52150f, 0xbe9d3754, 0xbdc3e6dc,
                               0xbe4bddf4, 0xbd198fe6, 0x3d6baa31, 0xbe942d83, 0xbd938e7f,
                               0x3ef10916, 0xbee036b3, 0x3f0cea05, 0xbe5b27e3, 0xbeb2c44a,
                               0x3e44829e, 0x3f172cf1, 0x3d4fe1ea, 0xbe643283, 0xbcf45426,
                               0x3eaddb73, 0x3da9c641, 0x3e842982, 0x3e909fe5, 0x3f3d1143,
                               0xbe8d6be4, 0x3eaebd6c, 0x3df959cc, 0xbf1c7fd6, 0xbe8db8cd,
                               0xbf00fbf1, 0xbf57b26f, 0xbe503629, 0x3ece5557, 0x3ea73226,
                               0x3ea6f05b, 0xbddbcb2a, 0xbf1d3d1a, 0x3f3792f2, 0x3eb5894a,
                               0x3daa94d5, 0xbdc0b864, 0xbe2b1ae6, 0x3e3211b6, 0xbdb7d971,
                               0xbe73b146, 0x3f0ae890, 0x3d66b8c8, 0x3c6bb7da, 0xbe5e28ce,
                               0x3c80bf93, 0xbe1f1b76, 0xbd98542f, 0x3e2d9639, 0x3dab83f8,
                               0xbebcd311, 0x3d27b42e, 0xbd0865b2, 0xbee6b870, 0xbe807e5b,
                               0xbe93cbef, 0x3e13dd6f, 0xbe77b037, 0x3eaece87, 0x3c6c819c,
                               0xbed417bd, 0x3d86f8f6, 0xbee8dbfb, 0xbe2a7a07, 0xbe0469c6,
                               0xbdc5c1af, 0x3e2e61f9, 0x3e1ccfe9, 0x3eaf794a, 0x3e61d011,
                               0x3dc40034, 0xbe010bcb, 0xbe3e6c3a, 0xbd478243, 0xbef0cbcc,
                               0xbc40b8a6, 0xbd050287, 0xbd91cb94, 0xbe17baab, 0x3e261e9c,
                               0x3e121274, 0xbe8e2db7, 0x3d753d84, 0x3ce0116f, 0xbe060e10,
                               0xbe58af28, 0xbe4c0e66, 0x3e6444af, 0xbe302b3b, 0x3e17f281,
                               0xbe8ef1f0, 0x3e7c88cc, 0xbe154595, 0x3e1cfd1a, 0xbe948607,
                               0x3eda925c, 0xbd6895d1, 0x3bbb74bf, 0xb8ce3418, 0x3e2757c6,
                               0xbe82369c, 0xbe92cd80, 0xbf28323c, 0xbf1fe05e, 0xbed8dfa9,
                               0xbe82ae61, 0xbeb6f41b, 0xbeadbb84, 0x3f90e88b, 0x3da628c8,
                               0x3ea71f32, 0xbe453b31, 0xbe34284c, 0x3f0888ee, 0x3e92476b,
                               0x3edcfe9a, 0xbd9d1643, 0x3eb8fd2f, 0x3eac725c, 0xbeb591cf,
                               0x3c74ebd1, 0x3f429a9f, 0xbe4fa930, 0x3ebc6c35, 0x3f1764b5,
                               0xbd818d26, 0x3f412121, 0x3ed6f632, 0x3ecb107e, 0x3e3b797f,
                               0xbeac12d3, 0xbeb87e25, 0xbe92dcf7, 0x3ddb9f60, 0x3de35317,
                               0xbea6fdd0, 0xbe649e77, 0x3ce3cf9a, 0x3e75f7fe, 0x3de8cb67,
                               0xbeb56080, 0xbd7eda6e, 0x3e72d834, 0x3f04396b, 0xbe7e4321,
                               0xbf00a2bc, 0xbe6acad3, 0xbe7afa76, 0x3e673456, 0xbe2c5c39,
                               0xbea70054, 0x3d6b213a, 0x3d6c27a7, 0x3db32e50, 0xbebb0d80,
                               0x3e37dede, 0xbc894823, 0xbca859e2, 0xbdd747ee, 0x3ec99d6d,
                               0x3e56f31d, 0x3e396bd2, 0xbd50fcfd, 0x3d02450a, 0xbe59a8ff,
                               0x3e58e1a5, 0x3e20958e, 0xbc680e7d, 0xbd0a68a5, 0x3e9e6719,
                               0xbd6102b3, 0x3f0183e2, 0x3e2b5049, 0x3e2a34be, 0xbdbf59d9,
                               0xbdf2ab6c, 0xbf527176, 0xbf35bb71, 0xbd18558c, 0x3f163062,
                               0x3eaf0a85, 0xbd864453, 0xbcecf9e2, 0xbee5f20b, 0x3dbf9265,
                               0xbd666406, 0xbe0ff355, 0xbed7f2c2, 0xbea27ba1, 0x3e23490c,
                               0xbf51e902, 0x3d800d7a, 0xbe835d8b, 0x3ec3a5c4, 0xbd803312,
                               0xbe944f48, 0x3eb86a86, 0x3d835984, 0xbedc42c0, 0xbe7a3faa,
                               0x3e5454d8, 0xbdf5534b, 0x3ed06a25, 0x3e7d6ebd, 0xbe958ad4,
                               0x3d82e042, 0xbd7b9d7b, 0x3eb1eb64, 0x3e48cf34, 0xbde9c5bc,
                               0x3e78b7d2, 0x3ebbd537, 0x3e907dcb, 0x3ea938b4, 0xbe1fea6e,
                               0xbe0ed578, 0x3e2ec9cc, 0x3ea0f303, 0xbe510270, 0xbe57315e,
                               0xbee5e183, 0x3e4e7f7d, 0x3e529695, 0xbf03a12a, 0x3e027b2f,
                               0xbe8fa6a4, 0x3e915d01, 0xbe9d079e, 0x3ee50cce, 0xbdde5a09,
                               0xbd0a7295, 0xbe58706b, 0x3d80c89e, 0x3e522906, 0xbdbe8034,
                               0xbf0d6a89, 0x3f29bb57, 0xbef6f5b4, 0x3e0a7eea, 0xbccdd13a,
                               0xbda1bcaf, 0x3de42a42, 0xbf01be98, 0xbe046277, 0x3ed614ba,
                               0xbd87900b, 0x3e902347, 0x3e46cb88, 0xbe3e1760, 0x3ea20154,
                               0x3ee91fab, 0xbe723c8c, 0x3d0f3356, 0x3eef0b30, 0xbe7e5bc4,
                               0xbd8c2f62, 0xbeafac4d, 0x3ecc775e, 0x3e6612b8, 0xbe363010,
                               0xbeb39fa9, 0x3e6d4bd6, 0xbef68548, 0xbe0f1dc2, 0x3da7e220,
                               0x3dfe9b27, 0xbe9b0ebc, 0x3c63a6d2, 0xbeaf4dd8, 0x3b3f6b76,
                               0xbece77a7, 0xbd310a60, 0x3e478524, 0x3efd43d9, 0xbef89c70,
                               0x3d8bd9fd, 0x3ebd3438, 0x3e5e08a8, 0x3e7fc6a7, 0x3ea80708,
                               0x3ea0faf4, 0xbd8f7e03, 0xbe8c7e6f, 0x3efddd91, 0xbe483e31,
                               0xbc06cd8d, 0xbebb6464, 0x3de32b9d, 0x3da45513, 0x3d2e75f3,
                               0x3e686a90, 0xbde6579d, 0x3e04f485, 0x3e79b007, 0x3f210350,
                               0x3ed35af5, 0xbcdafac0, 0xbce8853c, 0xbe7522f1, 0x3d29ba24,
                               0x3e8caac4, 0xbec5fe71, 0xbf15d362, 0xbe455aa9, 0xbe7fc502,
                               0xbee400fe, 0xbe0a1a64, 0x3cf0c246, 0x3e85759e, 0x3ebb42f9,
                               0xbdfea552, 0xbe22f950, 0x3d89a271, 0xbe0ac5a0, 0x3ec9af6a,
                               0xbeaccb62, 0xbd8e6fcb, 0x3ddceaf9, 0xbe2cd127, 0xbe03cf3e,
                               0x3ef2bb02, 0x3f3a233d, 0xbcf5623a, 0xbecd95f4, 0x3e1102e9,
                               0x3f27a28f, 0xbe8a4b6a, 0xbf2bc9e6, 0x39cdbaf0, 0xbeacbd08,
                               0x3e8ac63e, 0x3dd3e643, 0x3e091694, 0x3d6eb384, 0x3eb6fccf,
                               0xbced3d69, 0xbe4cb4a0, 0xbe1dc39a, 0x3dec424f, 0x3efb026b,
                               0x3dd5a419, 0xbdd99526, 0x3f844629, 0x3ea7ff9e, 0xbefa8acb,
                               0xbe522357, 0xbe645ab1, 0x3cd800e7, 0x3eba4d44, 0xbe1dd32f,
                               0x3edd7d01, 0x3d340ba9, 0xbe04dbf4, 0x3e9c065b, 0xbdb32feb,
                               0xbed20450, 0x3e155c1a, 0xbf05bf44, 0x3ebeb10b, 0x3f34f7b9,
                               0x3e823d15, 0xbd93d53b, 0x3e9b5d42, 0x3f1719ae, 0xbc22d185,
                               0x3d088ca6, 0xbd04f0b6, 0xbf1d42e8, 0xbea13126, 0xbd0eb710,
                               0x3c20842e, 0xbe8e6b3d, 0x3c3f6410, 0xbd58e8bb, 0xbd9ec9bf,
                               0xbe1adc88, 0x3d9ecc2e, 0xbd35271a, 0xbe591fb3, 0x3f2197ee,
                               0x3e623cec, 0xbc0dcf22, 0xbf0f9131, 0xbe222b3d, 0x3a34b796,
                               0x3ce1c1fc, 0xbe38471b, 0xbe4a1d92, 0x3f16bc86, 0xbed05d82,
                               0xbe213254, 0xbde8a982, 0x3b1c8745, 0xbf28d2ac, 0x3f16415f,
                               0xbe99a614, 0xbf3818f5, 0x3e1e0791, 0xbd4e5969, 0x3c7b2519,
                               0x3f16b72e, 0xbee5714b, 0xbe456818, 0xbd021dde, 0x3e373e30,
                               0xbe8edf02, 0x3e3034d3, 0x3e869fe3, 0xbeabdbb1, 0xbe53bd80,
                               0x3f0fb5cf, 0xbefc0bc5, 0xbf2af9d6, 0xbe8047d2, 0xbe96ca58,
                               0x3e2f2c85, 0x3ecc0ee2, 0x3ea629aa, 0x3e9f0ddc, 0xbe83a579,
                               0x3e524004, 0xbf58c31c, 0x3e835c5f, 0xbe3ff5bd, 0xbdb90b13,
                               0x3da622da, 0x3eb9a4ce, 0x3e2c67bb, 0xbe9d2597, 0x3ea0c218,
                               0xbcb6d3ad, 0x3ecd7c8b, 0xbe08cf62, 0xbdfa05ae, 0xbdab911d,
                               0xbf326840, 0x3dabac5e, 0xbe3d6811, 0xbdeae652, 0x3ec0393f,
                               0x3cd05a81, 0xbed3b4bc, 0xbe668e9c, 0x3e0faa22, 0xbda4fa8b,
                               0x3df334fa, 0x3ee2c1cf, 0xbe4f750f, 0x3cc59f78, 0xbe852065,
                               0x3ee36290, 0x3e8d006a, 0xbdec797a, 0xbe7a9310, 0xbe84d059,
                               0xbeb7b985, 0x3d5dd97c, 0xbc678973, 0x3ec14b37, 0xbdb6f5a0,
                               0x3cc01ab9, 0x3e824cbd, 0x3e3b5648, 0xbf1e4cda, 0x3dbbb080,
                               0xbd3f4a09, 0x3e998f33, 0x3e4c1e1d, 0xbd727594, 0xbe8d7643,
                               0xbe144315, 0x3eac35be, 0x3d7a72d2, 0x3eb1fbc3, 0x3f0c2b6c,
                               0xbd0dd8b9, 0xbea9937c, 0x3e8fec97, 0x3e3934f6, 0x3f3364d7,
                               0xbef21088, 0x3ef2f84f, 0xbe7934e9, 0x3d68a53b, 0xbe336c45,
                               0xbea3983e, 0xbe985bb2, 0xbd004968, 0xbe95db64, 0xbf0509ad,
                               0x3e7fe368, 0xbece99aa, 0xbcc54b28, 0x3e204a3e, 0xbe2a6866,
                               0xbe573830, 0xbe73a830, 0xbed57b28, 0xbd952b28, 0x3ea045d6,
                               0xbd577cda, 0x3d1e73f1, 0x3e31de4c, 0x3e97a39f, 0xbd1be80e,
                               0xbf0065bd, 0x3ebb5418, 0x3dc4e77b, 0x3eb1e408, 0x3d8963ec,
                               0xbe20cbb6, 0xbe7be239, 0x3ce41a2d, 0xbd462091, 0x3e158494,
                               0xbef8c0cc, 0x3bcd77ee, 0xbf152817, 0x3ed35913, 0x3e2788df,
                               0x3e907fc6, 0x3d23ff04, 0x3ec59837, 0xbf09b515, 0x3e16cf32,
                               0xbe759629, 0xbea064db, 0x3e1bec35, 0xbe177323, 0x3e306264,
                               0xbf567efd, 0x3ee82569, 0x3f5c8eb7, 0x3e1c0917, 0xbe0710b8,
                               0xbec3d1df, 0xbed08b65, 0x3f696be0, 0xbf23502c, 0xbf66f826,
                               0x3cdca786, 0xbf4fbf90, 0x3ee5786d, 0x3ea129cd, 0x3edfb1a0,
                               0xbf726696, 0x3ec187bb, 0x3f052f99, 0x3f301561, 0xbdd94301,
                               0x3edefea9, 0xbf022583, 0x3e351fb9, 0xbf073491, 0xbd1e669a,
                               0xbdfc9f5d, 0xbe038b83, 0xbdb4d3e0, 0xbe15d124, 0xbdecdd3e,
                               0xbe1bea31, 0x3b2fa8c1, 0xbc24d263, 0xbeca8d84, 0xbd8222fd,
                               0x3f470d32, 0xbe7d1028, 0x3e2eb453, 0x3cf9111b, 0xbebe2733,
                               0xbe74e72d, 0xbedb7929, 0xbf431f89, 0xbf21134b, 0x3d585659,
                               0xbe3f1db3, 0x3e85b6d1, 0x3e83e635, 0x3e44748a, 0xbdbb47a9,
                               0x3dd84d0b, 0xbdfb28b4, 0xbe8df862, 0xbe0e9e6a, 0x3f1e68c6,
                               0x3d735e56, 0xbf14c672, 0x3d34d53b, 0xbf1982ba, 0x3de49ac3,
                               0x3e32c224, 0x3cb30a86, 0x3f144407, 0xbe32cc0b, 0x3ea8e446,
                               0xbe8db6a4, 0xbd50885f, 0xbe9ce2db, 0xbeea1328, 0xbe6fbe6c,
                               0xbd8e1924, 0xbf3f94d7, 0xbe0dca5a, 0xbec183f1, 0x3df85d07,
                               0x3e2b3f1e, 0xbe1f2f33, 0x3dd26a7a, 0xbf019e48, 0x3e2371f4,
                               0xbeabea90, 0xbe2a968b, 0x3ebed9ad, 0xbcc8e8e4, 0xbe702437,
                               0x3ea758b5, 0x3dae14d7, 0x3d95b756, 0xbd38cb30, 0xbe23c542,
                               0xbec7adb6, 0x3f15466d, 0x3e0375db, 0xbddce7c3, 0xbe999237,
                               0x3c7bd7c1, 0xbef90fde, 0x3ede4e02, 0x3e544068, 0x3e73ff53,
                               0x3f4bea77, 0xbea847ad, 0xbefd6bbe, 0x3f3aa2be, 0xbe87737c,
                               0x3c4845b1, 0xbd1daddb, 0xbf0be644, 0x3c50337e, 0xbee312f4,
                               0xbee86cbc, 0x3d4cf5ac, 0xbe79e955, 0x3dcf8e35, 0xbe67cfd8,
                               0xbdccfa60, 0x3b79f0b7, 0x3f2ad98f, 0x3ecebcc8, 0x3d437c37,
                               0xbf0bfe50, 0xbd969b1e, 0xbe8d6082, 0x3db9b2e6, 0x3e51736e,
                               0xbbfb775e, 0xbea2d5bc, 0x3d14eb28, 0x3ebfda14, 0x3de65187,
                               0x3f1a7a7c, 0x3e8f7fa7, 0x3da3a56c, 0x3e0e5e48, 0xbe3ae937,
                               0xbe780be1, 0xbea7725c, 0x3f32c294, 0x3db38f11, 0x3e498b40,
                               0x3eb7b7c6, 0x3dfde925, 0xbe2cc976, 0xbe22bea6, 0x396e706e,
                               0xbe47d1d3, 0xbd92c2fa, 0xbec122dd, 0x3ebdccf3, 0x3f2dfe7e,
                               0xbecc68c1, 0x3e9fdc94, 0xbed871c3, 0xbdd3e8b0, 0xbf284007,
                               0x3d2187a5, 0x3f53608f, 0xbefab12e, 0xbe41e474, 0x3bf3e72a,
                               0x3e78a591, 0x3ece5786, 0xbe59993b, 0xbc940694, 0xbe115fe4,
                               0x3e14d5b7, 0xbe2daac3, 0xbea8d353, 0xbeca91a0, 0x3f115e17,
                               0xbe343f30, 0xbf54b8db, 0xbe11084b, 0xbf27d7ae, 0xbdd12b52,
                               0xbd382c58, 0xbe15cbad, 0x3e8f9024, 0x3d8a8c11, 0x3e870369,
                               0xbe9d9654, 0x3dfca7b5, 0xbe9300da, 0xbe93ebaf, 0x3da14a03,
                               0x3f6386ab, 0x3e63212b, 0xbe264529, 0xbe605263, 0xbe6126fb,
                               0xbea9e152, 0x3eb1a5c9, 0xbe0f2238, 0x3ca8e682, 0x3e18c7a8,
                               0x3e66b3b2, 0xbe8b82ba, 0xbf3f85ce, 0xbe92444d, 0x3ddc5474,
                               0x3e90abdc, 0x3f24e3be, 0xbea75c17, 0xbe3f340c, 0x3d31d57d,
                               0x3f03e565, 0xbe0eda9b, 0xbe1a448c, 0x3ed27910, 0xbecaf5e9,
                               0xbdb0b80f, 0xbd1a782d, 0xb87de190, 0x3e314389, 0x3ea94825,
                               0xbdbc0eb6, 0xbdccf414, 0x3c8ae929, 0x3ea97101, 0x3d84d07b,
                               0x3ea4292a, 0xbe34ec6f, 0x3f1264ea, 0x3ec30623, 0xbbd52d6c,
                               0x3ed9611b, 0xbe1a2890, 0x3e9a0d7f, 0xbf017812, 0xbe47932a,
                               0x3dd47dd4, 0x3e926c43, 0x3dee6987, 0xbe56c5eb, 0xbe07fee9,
                               0x3e201adb, 0xbee3367e, 0x3ecd4483, 0x3ec60e4b, 0xbd834d22,
                               0xbede6ad4, 0xbeb807d8, 0xbcf685f0, 0xbe48885a, 0xbf12f4e6,
                               0x3f2ed6d3, 0x3c5a95c3, 0x3ee3be4f, 0x3df5d16b, 0x3f25cf0c,
                               0xbde11369, 0x3ea0fffc, 0x3e696873, 0xbee78b5c, 0x3e9390b3,
                               0xbe49eb42, 0xbe44fbfe, 0xbf058848, 0xbe097dfc, 0x3e93575d,
                               0xbf6b3de5, 0x3dc6b62d, 0xbeae0bb3, 0xbe98f10f, 0x3ca94642,
                               0xbbf3ad9d, 0xbd21c257, 0x3ed1c3eb, 0x3e58c07e, 0xbd7504bb,
                               0xbe856efa, 0x3dee97ae, 0xbee26958, 0xbeb316ab, 0x3ec10c4d,
                               0x3eea4682, 0x3f321728, 0xbf124330, 0x3e4fa6a2, 0xbee6dc9b,
                               0x3d9085b5, 0x3ebb20ce, 0x3e9db05d, 0x3f4b0ad6, 0xbf232082,
                               0xbf299238, 0xbd35c7da, 0xbe46a273, 0x3e9f1100, 0xbe056191,
                               0x3e99b050, 0x3e9daed6, 0xbea9fdc5, 0xbf074b45, 0x3cbcbc8b,
                               0xbd9e1980, 0x3f999c9d, 0x3e87f9e2, 0xbe8cedbf, 0xbe73e59e,
                               0x3df82990, 0x3f18b823, 0xbe079bfd, 0x3edeed27, 0xbda091c5,
                               0x3ddb1d77, 0x3c2bed56, 0xbec0b7a1, 0x3f4d8b86, 0x3e8762c5,
                               0xbe2c42e6, 0xbe1b77eb, 0x3ed566b1, 0xbcff9061, 0xbcd4a13a,
                               0x3e353b4c, 0x3e7261e1, 0xbeda4c51, 0x3e83fb90, 0xbe0a11cd,
                               0xbefda9dd, 0x3b861097, 0x3d8576ad, 0xbe8dda23, 0xbe9a38a8,
                               0xbc8a8f78, 0x3e1434b2, 0x3e3f55a9, 0xbea7fd41, 0xbe0732ef,
                               0xbeabddc6, 0xbe065d2a, 0x3d85ac97, 0xbdd3012b, 0x3e1a1e28,
                               0xbed222a7, 0x3f0205fa, 0x3e299a03, 0x3ed7a68a, 0xbee7b681,
                               0x3de11dc0, 0x3e9bbce7, 0xbe5d737e, 0xbcc72ca3, 0xbee44490,
                               0xbe39a805, 0x3dc11c06, 0xbf42eed4, 0xbdbec9a9, 0xbe9f9604,
                               0x3f1a5976, 0x3df92286, 0xbd6ca1c4, 0x3f15ac74, 0x3dffb269,
                               0xbe86a49a, 0xbea2a341, 0x3f12bf69, 0x3f0f4b39, 0xbeb3a4c5,
                               0x3e1a4b89, 0x3d93a175, 0x3e92dfac, 0x3e0fc2a8, 0xbeeb0e58,
                               0x3d808987, 0xbfc0d595, 0xbf18b37a, 0x3f8af4ae, 0xbe9b0b02,
                               0x3c91a990, 0xbc012b0d, 0x3e7faad5, 0xbe4ac107, 0xbde43e72,
                               0x3edf4f6f, 0x3eb72bb6, 0xbeaf44e5, 0xbf0ac863, 0x3d4fa337,
                               0x3f1f426f, 0xbe68d7f3, 0x3de95eb6, 0x3e4c8800, 0x3db1517a,
                               0x3e7c305a, 0x3e4b50ab, 0xbf18f34a, 0x3e707dc4, 0x3ee7bc32,
                               0x3d1c33c8, 0x3e9093bc, 0x3ed1a68f, 0xbaa0fcdb, 0x3ed6fef2,
                               0x3e13849e, 0xbe1f6345, 0xbe8d8e16, 0x3e496255, 0x3f137cd0,
                               0x3dd5b519, 0x3e1918b1, 0x3f1986b2, 0x3d6b917f, 0x3f093e93,
                               0x3f091473, 0x3e8bf342, 0x3ec3b210, 0x3e888628, 0x3f40d261,
                               0xbe399a37, 0xbe972689, 0x3cad9098, 0x3e469823, 0xbf271cbc,
                               0x3c9577a5, 0xbde46144, 0x3e5d1200, 0x3f0ad5d7, 0xbcb026bf,
                               0xbf35b885, 0xbeeadd2f, 0xbe302b1c, 0xbd21529c, 0x3e174d2e,
                               0xbdce590d, 0x3c8f0279, 0xbdfd0566, 0x3d45747e, 0x3d97fa19,
                               0xbe937193, 0xbe1df017, 0xbe6e5eaf, 0xbbcf0b4b, 0xbdec14ae,
                               0x3f09833f, 0xbe66edeb, 0xbf10fc52, 0x3ea8e9c9, 0x3d6c3cd6,
                               0x3da12316, 0xbf18305f, 0xbee01b5d, 0xbe94e441, 0xbea885cd,
                               0xbe51f707, 0x3e66e84e, 0xbebef1f3, 0xbf08ec26, 0x3ebd4f81,
                               0x3e844eba, 0x3e3e078d, 0xbe892b90, 0x3e0c3b63, 0x3e672424,
                               0x3dddda90, 0x3e6409b3, 0xbede7d80, 0xbec8b943, 0x3c69ee50,
                               0x3ec66029, 0xbe57f28e, 0x3e4545e2, 0x3ede1021, 0xbcf440cd,
                               0x3e9f7491, 0xbe8424d9, 0x3e2179cb, 0x3f0158d2, 0xbea5c9c7,
                               0xbe73eef4, 0xbd19684c, 0x3ea55774, 0xbe17d49b, 0xbf632bf3,
                               0xbe72c5b6, 0x3f427a62, 0x3e601f80, 0x3ed8fb80, 0x3e739faa,
                               0x3ebd6308, 0xbdac549a, 0x3f2627d1, 0xbc42594b, 0xbf5c4497,
                               0x3f520289, 0xbe77dfd1, 0x3d609483, 0x3e8db551, 0x3eb2a596,
                               0xbf091851, 0x3f138a72, 0x3f0989b8, 0x3ec4ab8f, 0x3dc04666,
                               0xbdc082f9, 0xbf4186a2, 0x3f351269, 0xbf744230, 0xbe94ffa4,
                               0x3ebda631, 0x3f7e950d, 0xbf2827a5, 0xbe0eb384, 0xbf3143db,
                               0x3e24d3be, 0x3f471a13, 0xbe21b961, 0xbf2ae85a, 0x3f976200,
                               0xbe18a9e6, 0x3fa0aed0, 0xbdc42ac4, 0xbd5f4fed, 0xbe04a819,
                               0x3b06cecf, 0x3e259dca, 0x3f020cb7, 0x3e4a09ea, 0x3ef65423,
                               0xbf23f19d, 0xbe19ec0d, 0x3e92b566, 0xbf231b24, 0xbda37b38,
                               0x3e961d8f, 0x3f899591, 0x3dcc3cd4, 0xbe5d4edb, 0x3ea13c9a,
                               0xbf7109c3, 0x3e7586a6, 0xbd4cc2e3, 0x3ec70031, 0xbf95f9d4,
                               0xbe52f79e, 0xbedc177d, 0xbf31e0a3, 0xbe2d9c44, 0xbeef1cc5,
                               0xbea23d62, 0x3f017f43, 0xbc8e8c26, 0x3c9863e4, 0x3e562250,
                               0xbf4dbf11, 0x3e7b3394, 0xbe3013b2, 0x3e2657d9, 0x3e595b57,
                               0x3ca485d5, 0xbe2ba41b, 0x3e35502f, 0xbef1ec71, 0xbd6810e2,
                               0xbe07bbfa, 0xbe8068b0, 0xbe836da9, 0x3d93ca83, 0xbb729ece,
                               0x3e31ad65, 0xbefe8bd3, 0x3f27f60b, 0x3e8b2204, 0xbe69778c,
                               0x3d9c1131, 0xbe32e4dd, 0x3e7b4d15, 0xbd6f9b08, 0x3e55c42e,
                               0xbaf8508f, 0xbe56a043, 0xbd978759, 0xbe0ed611, 0x3e3de059,
                               0xbf1e0f8b, 0xbdbd0e2f, 0xbee089df, 0xbeb1490c, 0xbe65da03,
                               0x3f0443da, 0x3e0c592c, 0x3e12127a, 0xbe317cde, 0xbd8f6566,
                               0x3cea54d1, 0x3daf4825, 0xbe99e596, 0xbeea32bf, 0x3f29de5b,
                               0xbe3370e2, 0x3f3d667f, 0xbe501890, 0x3ea23933, 0x3ea13f7f,
                               0xbe8918e9, 0x3d8b1cfc, 0x3f09352e, 0x3d713f79, 0x3f021f00,
                               0x3e528084, 0xbf47eb05, 0xbd9be0d5, 0x3de2ad74, 0xbea36e8b,
                               0x3e8f7413, 0xbed24854, 0xbf15f56a, 0xbe925cc9, 0xbdd47e7f,
                               0xbe8e83cc, 0x3eac9059, 0x3cf8f4b4, 0xbebfe297, 0x3eafe0a7,
                               0xbe627deb, 0x3edf1abd, 0xbbc9549d, 0xbe3eeee6, 0x3d11dae2,
                               0x3d0d8de7, 0x3f058a89, 0x3f0335f6, 0x3f4cf46f, 0x3d3eeaea,
                               0x3e53272d, 0x3e75e9bb, 0x3e886826, 0x3de54c65, 0xbeb35791,
                               0x3eb9fa8c, 0xbf215a3c, 0xbd833b52, 0x3eb2ef84, 0xbe8cf67b,
                               0xbd51ce10, 0x3e56232c, 0x3ed0a0de, 0x3eefad0d, 0x3eebe7b1,
                               0xbc7ca988, 0xbe04f758, 0x3d06d89b, 0xbcb1840f, 0xbe95d2d1,
                               0xbdd44971, 0xbed0fda6, 0x3e345084, 0x3ebde167, 0x3e4bd9e8,
                               0xbe4c8d19, 0xbe1dda7f, 0xbe296519, 0xbdf28637, 0x3f089cce,
                               0xbdf3f90d, 0xbdf0d08d, 0xbd2fb3dd, 0xbeb1f57c, 0xbe08c2eb,
                               0xbeb6b664, 0x3e1ac40a, 0xbe52b889, 0x3db4cfcc, 0xbd73639d,
                               0x3e53f920, 0x3ed13d0b, 0x3ef347f5, 0x3e8e2bc2, 0x3e308aed,
                               0x3e392fc0, 0xbe83ab83, 0x3d5b7284, 0x3e415962, 0xbf079b85,
                               0xbed94925, 0x3ea782b7, 0xbddf53ab, 0x3e942baf, 0xbe973731,
                               0xbe1d8097, 0xbc98d79d, 0xbdaf3e14, 0xbe42a485, 0xbe7d5feb,
                               0xbe9e3937, 0x3e40ff15, 0x3e8ee2f1, 0xbf2e9c9b, 0xbe26c695,
                               0x3eb57797, 0xbf077e2d, 0x3dfe8595, 0xbe8973d9, 0xbe791140,
                               0xbef253fe, 0xbdf6c564, 0x3ed74954, 0xbe31f491, 0x3e56e685,
                               0xbe1c609a, 0xbda7833e, 0x3d7dc46d, 0xbeda2332, 0xbe13ac7e,
                               0x3f0ebca6, 0x3ecb4b14, 0xbe394242, 0xbe067112, 0x3dd78c5d,
                               0x3e3c6e9e, 0x3e9b43bf, 0x3ccada18, 0x3e40cb0e, 0x3ee1b505,
                               0xbe376f22, 0x3f0180bd, 0xbe2c6d43, 0x3e8c1acc, 0x3e76bb35,
                               0x3e9ab73d, 0x3e1f1639, 0x3e1fa722, 0xbe748278, 0xbcc875e2,
                               0xbeed8d3c, 0xbe526241, 0xbf3b0ac8, 0xbd59b342, 0x3e17ae58,
                               0x3de017b3, 0xbda93746, 0xbf5ae150, 0x3c455fd3, 0x3f1e6458,
                               0x3e5696a0, 0x3f06ce3a, 0x3e8bd2a4, 0xbf0912dd, 0x3e75d2a0,
                               0x3f2731e6, 0x3ec4647b, 0x3f1345ba, 0xbe55397d, 0xbe448a7b,
                               0xbe08a8f6, 0xbf1212fe, 0xbe794b61, 0x3c296ae0, 0x3f2dd948,
                               0x3f006d86, 0x3d5d327e, 0x3bc84bc6, 0xbe02f95e, 0xbe204c8a,
                               0xbc3e842a, 0x3e888697, 0xbc3ae874, 0x3f0e09f0, 0x3eb37c7d,
                               0x3ec9bc7f, 0xbd93c8c5, 0x3f2973a6, 0x3dafd7e7, 0xbf12bb02,
                               0xbbeca563, 0x3da5b086, 0x3ed437a2, 0x3f068525, 0x3e2ced16,
                               0xbeb7d40f, 0x3cacb2a4, 0xbcf3d2f6, 0xbf77a18c, 0x3fb1276d,
                               0xbe6375f6, 0xbe060446, 0xbcf3a87d, 0x3cc00b0d, 0xbee3a6ea,
                               0xbed465f9, 0xbee8171d, 0x3ea67c1a, 0x3cf1109c, 0xbcc86944,
                               0x3fafdc73, 0x3e276a34, 0x3c89568c, 0x3e904f08, 0x3e0ca090,
                               0xbcd98ab6, 0xbf31789f, 0xbf583fa4, 0xbe89c354, 0x3f299e0d,
                               0xbd512eed, 0xbd54ed13, 0x3fc3ea3a, 0x3f025f69, 0xbd45e1f2,
                               0xbeb25e20, 0x3d565b44, 0x3d253981, 0xbe2a0235, 0xbee716a8,
                               0xbdcaca48, 0xbe7d69a5, 0x3e9ee518, 0x3d94ec38, 0x3d993882,
                               0x3e1c5865, 0xbe065927, 0x3e115737, 0xbe1eef4c, 0xbe6c039a,
                               0x3dfe147a, 0xbf3dac45, 0x3f1ef12f, 0x3f13deba, 0xbd827d92,
                               0x3d9977d6, 0x3ea8e821, 0x3d68c521, 0x3f0f97f0, 0xbd4aeb11,
                               0xbb8a8472, 0xbc3e8820, 0xbeef1148, 0xbcaf302b, 0xbe1550b9,
                               0xbd6c9cb1, 0xbd756bad, 0xbdb5a1be, 0x3b3ff8ed, 0x3d767508,
                               0xbf02fd51, 0x3f1e447a, 0x3d0a6244, 0x3b575f51, 0x3db14a8e,
                               0x3e3d7a96, 0x3beac894, 0x3e1e49c2, 0x3c8742fa, 0xbea0d570,
                               0x3ef526fe, 0x3f9dc29d, 0xbd29a39b, 0xbdbf0ccc, 0xbc82c14c,
                               0xbd87a88c, 0xbf7aee46, 0xbcf0d886, 0x3e1c54ff, 0xbc0831b0,
                               0x3e7e26d4, 0x3bc4b45c, 0xbe8edde8, 0x3f240628, 0xbe710589,
                               0x3e0f5571, 0xbdafd80a, 0x3e4e54a8, 0x3ee9fc53, 0x3eed79d9,
                               0xbef5efa1, 0xbe3587d8, 0x3db8d9f1, 0xbcf2db90, 0xbf04c534,
                               0xbe9fad33, 0x3de5de87, 0x3d8553bf, 0x3e4c5774, 0x3c54b5a3,
                               0x3e0bbf06, 0x3efd2c55, 0x3f11fa68, 0x3f0a5540, 0xbc66bf93,
                               0x3c0b0e74, 0xbf10a175, 0x3d628043, 0x3f122202, 0x3e586762,
                               0x3c04ffe0, 0xbd8864c5, 0x3d7a5d64, 0x3ead599b, 0x3c5ad29a,
                               0x3e9265bc, 0x3dad4949, 0x3e3bce65, 0xbf84075e, 0x3eb12e6a,
                               0x3ef38735, 0xbee61212, 0xbd935ea6, 0x3d75325e, 0x3f166aac,
                               0xbf2dc4df, 0x3e041fd1, 0x3ebfb2e7, 0xbd307826, 0xbdec8c59,
                               0x3efb5952, 0x3f93ca73, 0x3cf57767, 0x3f4a9a0c, 0x3d486d29,
                               0xbe18c2ab, 0xbf0fb6df, 0xbf5e0cd4, 0xbe881de9, 0xbe197de4,
                               0xbb877545, 0xbd75b7a2, 0x3f928664, 0x3e74a5ee, 0x3e02d620,
                               0xbebda59c, 0xbca2ef58, 0xbb0d692b, 0xbf45ebf1, 0x3f0f33e3,
                               0x3ed0f11a, 0x3e9b26bf, 0xbd0b25e6, 0xbc34e5f5, 0x3c3feca5,
                               0x3dc6ec17, 0xbd291bdb, 0x3db1d7ce, 0x3f08ac36, 0x3ee39867,
                               0xbed0fb5c, 0xbf2ba9bf, 0x3eaed049, 0xbdf043f0, 0xbd9abfa9,
                               0xbd906c3b, 0xbec1f080, 0xbfc48bdf, 0x3e8b6a09, 0xbd518c9e,
                               0xbcb4c3f2, 0xbd8691e0, 0xbf417802, 0x3dd92e3f, 0xbf052724,
                               0x3e0a5a9e, 0x3e07674a, 0xbd697723};

uint32_t bias_array[102] = {0x3da105c6, 0x3dbd8bef, 0x3e188a4e, 0xbed3b718, 0x3ea6b352,
                            0xbeb452e3, 0x3e70260f, 0xbd6f922b, 0xbec07f18, 0x3df35015,
                            0x3cc8ad65, 0xbe93b4e6, 0x3d95886b, 0x3d818085, 0x3d353588,
                            0xbf13a10d, 0x3dad8e43, 0xbf0ab39b, 0x3e9b77ed, 0xbd7458a3,
                            0xbe66ffd8, 0xbfb0f00b, 0xbd4c9c38, 0xbd436408, 0xbd7cca77,
                            0x3e9b4cea, 0xbca5ffc6, 0xbe448845, 0xbe35a298, 0x3d5d3d93,
                            0xbed2d8e9, 0x3e466395, 0xbda53ac5, 0xbe0db8b4, 0x3e840454,
                            0x3e5ac0a6, 0xbe9e529e, 0xbed230c3, 0xbd35c904, 0xbea134b3,
                            0xbeaef3e4, 0xbe074c0d, 0xbc9b3593, 0x3df09d44, 0x3d589202,
                            0xbd06eae7, 0x3e593cd3, 0x3e1921b9, 0xbdc43dfc, 0xbe57ea20,
                            0xbdf70727, 0xbcbe8ab0, 0xbc550020, 0xbdd6ca9f, 0xbe223b08,
                            0x3eda12d1, 0xbca37149, 0x3ea4f7ba, 0xbdce3ec1, 0xbcfad966,
                            0xbdbb8e98, 0xbf02d2ef, 0xbe2d98ee, 0xbd1e5693, 0xbe502495,
                            0xbe0a99cf, 0xbdcdcb72, 0xbde2b295, 0xbdc660d4, 0xbe71925b,
                            0xbe5ad376, 0x3d51b011, 0x3ec4c9b9, 0xbe073993, 0x3ee525cd,
                            0x3e3313bb, 0xbe4d59b0, 0xbe8ae4ec, 0x3c274fcc, 0xbeac03c1,
                            0x3e97bcac, 0x3e61e492, 0x3be6e32a, 0x3f140d0c, 0xbe392382,
                            0xbec47adc, 0x3e0967fa, 0x3ed14a31, 0x3e66a5b7, 0x3e9d3a2e,
                            0x3d5e317c, 0x3e85ba6f, 0x3eedcb53, 0x3e5ea07e, 0xbe38f13a,
                            0xbd087dbc, 0xbe27bbdb, 0xbda97c95, 0x3e15a33d, 0x3e4c1fa2,
                            0xbdd4dd8e, 0xbdf3862f};