uint32_t weight_array[3328] = {0xbe85a616, 0x3e0cde03, 0xbf33f2d5, 0xbee2ad1d, 0x3e511492,
                               0x3e06779d, 0xbe2ba08a, 0x3e9aa3d4, 0x3ea4325f, 0x3c6fa864,
                               0xbd2add1e, 0xbf6239de, 0xbe5c25ca, 0xbe07e1c1, 0x3f4ce4d9,
                               0xbf24b26c, 0xbb9b169c, 0xbea41f1b, 0x3f410afb, 0x3b9f2849,
                               0x3eb824de, 0x3e5d8cf0, 0x3ef65ad0, 0x3e954003, 0xbf842de4,
                               0xbc9c9a68, 0xbd73f448, 0xbe267281, 0xbdcee2b2, 0x3da82f3d,
                               0x3f0a10d6, 0xbd2b1896, 0x3e8296c5, 0x3dee5fa9, 0xbe59c2d2,
                               0x3ecc641a, 0x3df7dff1, 0xbe8e7ede, 0x3d1a6f7b, 0xbed7f7cf,
                               0xbd9e7c56, 0xbe2ea312, 0x3e69750e, 0x3edf36cf, 0x3defe8a7,
                               0xbeade652, 0xbe113754, 0x3c6f2dc0, 0xbdc96944, 0xbdd914c4,
                               0x3ea9cf75, 0x3d86f89b, 0xbe88823c, 0xbf023722, 0xbeab7875,
                               0xbe021ae8, 0x3dd1436f, 0xbe062e99, 0xbeb41a53, 0xbd9c6e10,
                               0xbd089402, 0xbe1032ab, 0xbe229c0b, 0xbca0027c, 0x3d93dca6,
                               0x3df6dd36, 0x3db1d32c, 0xbd942c2b, 0x3dbeda13, 0xbda361e0,
                               0xbe2d686f, 0xbeb13886, 0x3e42f698, 0xbe479b38, 0x3e7e0a02,
                               0x3c9f271c, 0xbbc117e7, 0xbd8c74a8, 0xbe040ca4, 0x3e93a3d6,
                               0xbc23c297, 0x3e748669, 0xbe9c3c03, 0x3d16ca95, 0xbdcf0888,
                               0x3dac0dcb, 0xbef3c252, 0x3f000ab3, 0xbdbc00f4, 0x3d5997cb,
                               0xbd93106c, 0x3c9509c2, 0x3e522cf3, 0xbbc7f14f, 0xbd25c2ca,
                               0xbe2cc732, 0xbd61cd25, 0xbe774744, 0xbe1c6cac, 0x3ed69bc6,
                               0xbe9d247f, 0x3e23db07, 0x3e30db0c, 0xbe366874, 0xbd1b3a9c,
                               0x3e7a9ae0, 0x3d74d4c1, 0x3eba6d8c, 0xbeb9c8ff, 0xbe9f0b0c,
                               0x3d882a7c, 0x3e9cb993, 0x3dc7d259, 0xbd79ea2e, 0x3d086d1d,
                               0x3cac1f0c, 0xbe57c4f7, 0xbd973ddc, 0xbdf4431f, 0x3da49644,
                               0xbd8131e3, 0xbe465251, 0x3da890f9, 0x3cb2e0cf, 0x3e567c17,
                               0xbdd75496, 0x3d10d1fc, 0x3d5cf522, 0xbdd7686c, 0x3e7e0a4b,
                               0xbcd0a06d, 0xbe8913be, 0x3e8761e8, 0x3e80a908, 0x3cd5c2ca,
                               0x3b98bbff, 0x3c30da29, 0x3cc42bea, 0x3da820d7, 0x3c80dedf,
                               0xbd9397e0, 0x3d273833, 0xbe78361e, 0x3e989f6a, 0xbe8779cf,
                               0x3e2866af, 0x3c9de7f3, 0xbce5c1ad, 0x3e539db2, 0x3d8e7437,
                               0xbdacb375, 0xbe9448ec, 0x3d932086, 0x3ea6743e, 0x3d2d40b2,
                               0xbd533e68, 0xbe22ffde, 0x3ca9ba00, 0x3e2f2674, 0x3e67507c,
                               0x3ddac004, 0xbd43fec6, 0x3dfe3fb5, 0xbecb1048, 0xbe656a08,
                               0x3e1d96bf, 0xbb0c5c27, 0xbded2cce, 0x3db71837, 0xbe77201f,
                               0xbe3b904f, 0x3e3610c1, 0x3ec651ac, 0x3d1cdaee, 0x3c856f2f,
                               0xbcaf52b5, 0x3ca3c211, 0xbe0fbc53, 0xbe705a55, 0xbcdeb9c7,
                               0x3eb3f36d, 0x3da6ebf5, 0x3d76f8b5, 0x3ddf1f0e, 0x3ddaeebe,
                               0xbd57d53e, 0xbca815c2, 0x3cc1e02f, 0x3d6295ad, 0x3d596b94,
                               0xbebb43df, 0x3e18169c, 0xbe767710, 0xbe1c7a07, 0x3e3ad54f,
                               0xbd8c4f1a, 0x3e83796a, 0xbe873bab, 0x3da5dbcb, 0xbd8fa895,
                               0xbeb68e4a, 0xbdbaf202, 0x3cdf301a, 0x3d854775, 0x3d9ce346,
                               0xbc763f2e, 0xbd482d4b, 0x3e2daadc, 0xbe6a93c5, 0xbe5533ee,
                               0xbe4ca69c, 0x3e10febf, 0xbda87300, 0x3e906e7a, 0xbc9a73c8,
                               0xbec54c01, 0xbd368333, 0xbe6ea526, 0x3e1b76bb, 0xbdbaded1,
                               0x3e920615, 0x3c873484, 0xbd55cf2c, 0xbe173039, 0xbd79314e,
                               0xbd8683ca, 0xbe3f01c8, 0x3e5077c8, 0xbe69cfa7, 0x3cfd8354,
                               0xbdfe3ee6, 0xbe093433, 0xbde89e65, 0x3e5432a8, 0x3dc5028c,
                               0xbe9831f4, 0xbdde837a, 0x3ee94ad0, 0xbdf2bccc, 0x3e895b06,
                               0x3e57276d, 0x3d7c1e45, 0xbeaf7e70, 0xbcf2034f, 0x3d9fcb57,
                               0x3e6627ee, 0x3e199a9f, 0x3da80cdc, 0x3d1a8619, 0xbcf926a5,
                               0x3df337bf, 0xbc8f7e32, 0xbdca4851, 0xbdd0c44e, 0x3e44a99c,
                               0x3dcf608a, 0x3d1bcc95, 0x3dd1035f, 0xbd40660a, 0xbe1a499f,
                               0xbdd7073d, 0xbd9244cb, 0x3e808a83, 0xbe034bf2, 0x3c40da96,
                               0xbdc5b5f4, 0x3d20ec9c, 0x3e2b29eb, 0xbe5829a2, 0x3e099d91,
                               0xbde9afc9, 0xbdb767d1, 0xbdbddd7f, 0x3e8b6fea, 0xbe757854,
                               0xbce50185, 0x3ddc3768, 0x3e5f5a14, 0x3daefaf4, 0x3d15d6cb,
                               0x3ea25148, 0x3e8c43a0, 0xbe1590d5, 0x3d64efbd, 0xbecb95e7,
                               0x3dff2a33, 0xbe5192d1, 0xbd9f2855, 0xbe5b79b8, 0xbe2fec4a,
                               0xbcaa1f5e, 0xbe0dbc08, 0xbe527bdf, 0xbe99ec9e, 0xbde2a6b1,
                               0xbdecfa89, 0x3d13bdbb, 0x3ded839e, 0x3ded974e, 0xbe750f17,
                               0xbd8c6b91, 0x3e13e4e8, 0xbd62d21a, 0x3e906982, 0x3d668773,
                               0x3e1e7545, 0x3e06d8bc, 0xbe3e5864, 0xbe5a0874, 0x3e1016e5,
                               0x3eac8c2e, 0xbdd41acf, 0x3e1fdec2, 0x3ed32f3e, 0x3e855db0,
                               0x3dcff4c7, 0x3e6c91c1, 0x3d2d65b7, 0xbeaced38, 0xbe4617e7,
                               0xbe2fc495, 0x3e527bcc, 0x3f55c42c, 0xbd642518, 0xbdd161bb,
                               0x3f00cec2, 0x3a921168, 0x3f538291, 0xbc021a4c, 0x3d5e2541,
                               0xbeb47ad8, 0x3ea2d0ee, 0x3e8d8568, 0xbea322e2, 0x3e3ea22f,
                               0xbebe689c, 0x3e56e5d0, 0xbe19c2eb, 0xbe40c12d, 0xbdc28794,
                               0xbe2185b1, 0xbec6151e, 0xbec713a8, 0x3e144cfa, 0x3d8e8e28,
                               0x3d94e458, 0xbe14ecaf, 0xbe45677a, 0xbf02c18d, 0x3d809690,
                               0x3cd4578e, 0x3e03c51f, 0x3ccc1bac, 0x409731c3, 0x3d3eb0c5,
                               0xbcde3ce9, 0x3de6a3c1, 0xbeb1c7d2, 0xc0998be8, 0xc09172ef,
                               0x3ca0cfc9, 0x402e7e29, 0xbf967da1, 0x3ee42702, 0xbebe97c5,
                               0xc08aefd3, 0x3f5090e3, 0xc090ac30, 0xc067aaaf, 0x3d2c0864,
                               0xc055fff6, 0xc0650842, 0xbf9e0c80, 0xc0421be4, 0x3eec6463,
                               0xc0090488, 0x3f65c4df, 0xc07d9c22, 0x3df946e4, 0x403f288a,
                               0xbfb2d14f, 0xc0804514, 0x3f172359, 0xc01157f0, 0xbf62ff21,
                               0xbfb6315c, 0x40588cac, 0x4019dc24, 0x3fe1841a, 0x401093d6,
                               0xc00c906d, 0xbfa26020, 0xc08def09, 0xbf9cd7d1, 0xbd73a7c6,
                               0x3f8d6d36, 0x40391bc1, 0x3e49faa8, 0x3ede0e2d, 0xbfd9cdbf,
                               0x3f1f8130, 0x40a7792f, 0x3e0fab82, 0xbef3fd8a, 0xc003e84d,
                               0x401f5fde, 0x3f5d20b4, 0xbeb010a0, 0xc0351001, 0x40040952,
                               0x3ffb74fe, 0x4081279a, 0xc09c4469, 0x4055a929, 0x3fe793d4,
                               0xbff85fe4, 0x3db69886, 0xbcf016fd, 0xbf33fb7d, 0xbf0a643f,
                               0xbe903d41, 0x3dfc8743, 0xbe96a070, 0x3d856c88, 0xbebd8e73,
                               0xbf05dc2a, 0xbe064172, 0x3e2f71aa, 0xbe833334, 0xbe14f3d8,
                               0x3de30fd0, 0x3cec1a54, 0xbe59b8dd, 0x3c93fbd7, 0xbc170065,
                               0xbe3bb9f2, 0xbeb68611, 0x3f4157ba, 0x3d86132c, 0xbefc85fa,
                               0x3f0ba1f9, 0xbe758915, 0xbe8bbbe9, 0x3d97dcd7, 0x3d993af9,
                               0x3e8c4a23, 0x3ec49d09, 0x3ae1fab8, 0x3f0fc415, 0x3e48781a,
                               0xbe8a71a8, 0xbfa584b2, 0xbeda0274, 0xbf6aaa02, 0xbe63e5a1,
                               0x3eb6d32d, 0x3dba0064, 0x3e0919d1, 0xbd95149a, 0xbf4a09df,
                               0xbdab24c4, 0xbf201623, 0x3dcc8b4f, 0xbd3e0f43, 0x3ee46572,
                               0xbb0eec7c, 0xbd1e5ad6, 0x3e1c3149, 0x3f566d1a, 0xbf1f3ce4,
                               0x3c6c991b, 0x3e15da27, 0x3e46ee2f, 0xbede50ff, 0xbf3d6d84,
                               0xbf1e5070, 0x3ef3433a, 0xbee2cf76, 0x3dededf5, 0x3d0f7caa,
                               0x3f2d1bc1, 0xbd7de1d4, 0x3e6ed21c, 0xbe95de3b, 0x3cd4dafe,
                               0xbf341bce, 0xbf336075, 0xbf4433b9, 0x3e4c4330, 0xbec2390c,
                               0x3eba67eb, 0xbec87f11, 0x3d9f56e5, 0xbdbc6082, 0xbf0da6fb,
                               0xbe23a510, 0xbf85ad84, 0x3e0a928e, 0xbd3e7c5e, 0xbf06bd5c,
                               0xbf8ad3f4, 0xbf30c428, 0x3d9ed20d, 0xbf0b3e40, 0xbd814dd9,
                               0xbe875f61, 0x3f562c99, 0x3f50ff03, 0xbf15f239, 0xbfa2815a,
                               0xbf6d7e09, 0xbef198e1, 0xbbdc386e, 0x3d4efa40, 0xbd170983,
                               0xbe88d620, 0xbe22401c, 0x3e151592, 0xbd976c72, 0xbd04c0c7,
                               0x3e0af6d9, 0x3e1416b6, 0x3d93880d, 0xbd44cb7a, 0x3ce01f2d,
                               0xbdca0201, 0xbdac4f33, 0x3c9114ee, 0xbb3bedc8, 0xbd0b44c1,
                               0x3e22e4cf, 0x3cb9eac1, 0xbd67cc8f, 0x3df492d9, 0x3d76d336,
                               0x3ddf407e, 0x3dc9f120, 0x3edde5d5, 0x3c7826ea, 0xbe1b38d8,
                               0x3d045648, 0xbd6dda63, 0x3eeff655, 0xbf74f2c1, 0x3ec1861c,
                               0xbf2361fb, 0x3f45a543, 0xbcb6f6ab, 0xbf94a5ff, 0x3f36843b,
                               0x3e92d47f, 0xbe997311, 0x3c815797, 0xbfcdf771, 0x40626fa0,
                               0x3ecdbe13, 0xbee53eb5, 0xbeeef86f, 0xbf09cd89, 0xbe5a450d,
                               0xbf481bfb, 0xbf6f128a, 0x3e4e080c, 0xbee0fc30, 0xbef330e7,
                               0x3f33452c, 0x3d3cd3bd, 0xbf9b7437, 0xbf843e14, 0x3fc21d0c,
                               0x3f057414, 0x3dd2632f, 0x3e8536b6, 0xbedcd970, 0xbd8692f0,
                               0x3ef2fcb5, 0xbf2e8ec9, 0xbfc905d5, 0xbea8c191, 0xbf719c57,
                               0x3de68ec9, 0xbf3ded6a, 0xbe529507, 0xbe6f7b94, 0x3fcb86f0,
                               0xbe17ca78, 0xbde314d2, 0x3e68b20c, 0x3e36d6ea, 0xbefd26ac,
                               0xbe0d34ce, 0x400a33e7, 0xbf45e1c3, 0x3f7a4a3b, 0xbe4eceba,
                               0x3fffa6ce, 0x3f2d7444, 0xbdf31817, 0x3ff8b5b2, 0x3e84715c,
                               0xbe8de689, 0xbf3d8975, 0xbfd19dd1, 0x3eacc5b6, 0x3ec6940d,
                               0xbf19ad3c, 0xbe6ed5ac, 0xbf29eda3, 0xbd42a64d, 0xbc5f1eca,
                               0x3bd79a1a, 0xbe321d21, 0xbe56f258, 0xbdb7cd3e, 0x3b801122,
                               0xbe1d427f, 0x3c8866bc, 0x3d472b5c, 0x3e8f515c, 0xbd51de7f,
                               0x3b07a9f9, 0xbe029acd, 0x3d27ca1f, 0xbcaa2bb6, 0xbd5d278f,
                               0xbe87982c, 0x3ca486b8, 0xbe2f417d, 0x3e34761b, 0x3ae2535b,
                               0x3d0a0963, 0xbe74fec1, 0xbd2e60b2, 0x3e3a7d62, 0x3dc2298f,
                               0x3e326425, 0x3da3318f, 0x3e304e5c, 0x3e3946fb, 0xbc13c3fc,
                               0xbe8fc57d, 0xbdc8ee95, 0x3dd7ba1a, 0x3d0af2f5, 0x3d4af90d,
                               0x3e9ba98e, 0xbd9a731c, 0xbdac63ac, 0x3dd41a1a, 0x3c89103f,
                               0x3ccae18c, 0xbe295736, 0x3d13dc0d, 0x3d310101, 0x3e0070c6,
                               0x3d1dd7e7, 0xbe801268, 0x3e734abf, 0xbd2f71d9, 0x3ea15c33,
                               0x3e3d1639, 0xbe2e0296, 0x3c5b28b4, 0x3dcf7d43, 0x3da50054,
                               0xbdedefec, 0xbddcf09c, 0x3d81cb7d, 0x3d77dac3, 0xbe564dfc,
                               0xbd59753a, 0x3d86d878, 0x3eb7016a, 0x3e337280, 0x3c634d80,
                               0x3f4f9e75, 0xbe9b1cbf, 0xbe89682c, 0xbfb51937, 0x3ea47998,
                               0xbea87674, 0xbfb6dc80, 0xbedaf159, 0x3f026a02, 0xbfabede6,
                               0x3f94ae92, 0x3f0a0334, 0x3e70eb79, 0xbf0564d6, 0xbf8d4ef0,
                               0x3fd48896, 0x3e910b98, 0x3e4a24e8, 0xbf947f38, 0xbf7fbbd4,
                               0x3be1b0f1, 0x3f342cdf, 0x3f62c9d7, 0x3e2f9d14, 0x3f3f1d4b,
                               0x3f1d0bf4, 0xbe52c021, 0xbed06dbf, 0x3d5e0ce1, 0xbe2bcd3a,
                               0xbec18026, 0x3f440b24, 0x3f2ec989, 0xbf2852ae, 0xbea8d21b,
                               0xbfd11f84, 0x3eae75d4, 0xbf920e44, 0xbf89f3c3, 0xbf59abff,
                               0x3e87ebb7, 0xbf8aa297, 0x3f6eaff1, 0x3f656eff, 0x3f77e9ff,
                               0xbe2f4f82, 0xbe3e9d75, 0x4005674c, 0x3d8984f3, 0xbe34e4cd,
                               0xbf2b1c35, 0xbfbe29be, 0xbea7eacc, 0x3f26ea52, 0x3e97389d,
                               0xbd4f30a7, 0x3f7a4dba, 0xbf7ad254, 0x3df321c3, 0xbe7e824d,
                               0xbed0c7fa, 0xbf4b1c6e, 0x3f086805, 0xbe7ad3d1, 0xbed12b63,
                               0x3f48e5d9, 0x3ed8e799, 0xbebff504, 0xbd073064, 0x3ef22e7d,
                               0xbe0891cf, 0x3ed37927, 0x3f9ffe51, 0xbf008120, 0xbf049bba,
                               0xbfd151f1, 0xbb7c913b, 0x3f3f9bc1, 0xbfb32303, 0xbde9f34e,
                               0xbed05921, 0x3e7d417a, 0xbfca8c34, 0xbe67fac4, 0xbd957fa8,
                               0x3ee0c081, 0xbf353b4c, 0xbe9d014f, 0x3f801c44, 0x3dbd6ca9,
                               0x3e9749c2, 0x3e5e9440, 0xbd8788e4, 0xbfbc616d, 0x3ed2b708,
                               0x3e3e0e2c, 0xbe2479d4, 0x3f2d0906, 0xbde22848, 0xbf417b7d,
                               0xbd027194, 0xbf7cbc47, 0xbe777b24, 0x3ebcb31b, 0x3ebd45ec,
                               0xbecec812, 0xbf8e801c, 0xbe9a839d, 0xbf5e23ec, 0x3f15a32b,
                               0xbe376663, 0xbf304cc4, 0x3e9a7c3f, 0x3dce95eb, 0xbec8911d,
                               0x3f10ea9a, 0x3ec031d5, 0x3ec17763, 0xbeb78916, 0xbf411f60,
                               0x3f32f508, 0x3d9694d5, 0xbe533830, 0xbdf678c9, 0xbf398aba,
                               0x3d8ed7c1, 0xbdf6e11e, 0x3d112461, 0xbe06439f, 0x3d8e3f1c,
                               0xbbf8f811, 0x3c013df5, 0x3dcaa342, 0xbd3ab518, 0x3dd181ed,
                               0xbe136360, 0xbdeded54, 0xbd218c4c, 0x3de0eda7, 0xbdbfefd7,
                               0xbdc2b3ea, 0x3dc7dccb, 0x3c3e217c, 0x3da460ab, 0x3d17affe,
                               0xbe0b372d, 0xbdf9a0f3, 0x3d90c013, 0xba8eded3, 0x3de86d01,
                               0xbbfb3837, 0x3e042472, 0x3e1aeb6c, 0xbc20c63c, 0x3c067d2e,
                               0x3d866920, 0x3b93c22f, 0xbab837f8, 0x3c38403e, 0xbd3ce0d3,
                               0x3cf864f6, 0x3c6e3663, 0xbe8fb2fd, 0xbc4b18dc, 0xbb6bc336,
                               0xbe15f9b4, 0xbe131410, 0xbd0cc960, 0x3dd84389, 0xbcd4106a,
                               0x3d833b57, 0x3cb985b1, 0xbce74f85, 0x3d4631dd, 0x3e0bd866,
                               0xbe117e63, 0x3d94f64d, 0xbc2f2c49, 0xbe00dbc0, 0xbd24c6b3,
                               0xbd0f7f6d, 0xbdd1cdc8, 0xbe6bca0f, 0x3cc89035, 0x3d82abf4,
                               0x3d5a9881, 0x3c8d828f, 0xbf07dc67, 0x3f745356, 0x3e2dbdc5,
                               0x3e90edeb, 0x3e66198a, 0x3eb5c695, 0x3e7e5b8a, 0xbf05fbdb,
                               0x3ec88be4, 0x3deb9a74, 0x3f1d703c, 0x3e63211b, 0x3f2db9c2,
                               0xbf3c170f, 0x3f642310, 0xbe10df09, 0x3e63f953, 0xbd2d5abc,
                               0x3cbf0dd7, 0x3e97fbd4, 0x3ec7dcaa, 0xbde006ce, 0xbf5ee1c7,
                               0x3de90d19, 0xbdd44097, 0x3f146407, 0xbdfa52e0, 0x3e7e17c8,
                               0x3e469736, 0xbe970958, 0xbe2d4950, 0x3d935254, 0xbe0d4258,
                               0xbcd40394, 0xbda44a5e, 0x3b889d4a, 0x3c92004b, 0xbd65c85f,
                               0xbd0c64c3, 0xbd989e88, 0x3c5a7c1c, 0xbd397883, 0xbd732d88,
                               0x3d3112e2, 0xbd08d711, 0x3dbbcd5d, 0x3d2c6962, 0xbd87fb4d,
                               0x3bc3fb3c, 0x3d68dc73, 0xbc26074d, 0xbccf4718, 0xbd482f6a,
                               0x3d81324d, 0xbcb91d65, 0x3d96f327, 0xbd8830e3, 0x3b9daca0,
                               0x3bf89162, 0xbaa5ece9, 0x3de9dbd5, 0x3d2cce4e, 0xbd4c8366,
                               0xbcb2d633, 0xbd259532, 0x3c74871f, 0xbd383ccf, 0x3df7a1a4,
                               0xbe0855b0, 0x3c359de4, 0xbbdfc3b4, 0x3ba355c2, 0x3c448b74,
                               0xbab0f36d, 0xbcb96735, 0xbd3ed1fa, 0xbbf87522, 0xbcb28147,
                               0x3cae6317, 0xbc737bca, 0xbd780ac3, 0xbc4c5f1f, 0xbd8118e1,
                               0x3d91fe88, 0xbd0a61a1, 0x3c867db9, 0x3df53bd6, 0x3cdd26a3,
                               0xbdab1edd, 0x3ca99547, 0x3da93e39, 0x3d0a2dc0, 0x3cacf966,
                               0xbd5f4042, 0xbd8e5134, 0x3d30364c, 0xbd58c2e4, 0x3c5906c2,
                               0xbdf95117, 0x3b84d541, 0xbeb7a92d, 0xbcb9359c, 0xbe0085af,
                               0x3d2cd4a7, 0x3bc3b3b7, 0x3dc8f29c, 0xbd2e3458, 0x3d86302f,
                               0xbe29d41d, 0xbe5525f8, 0x3c44e2b2, 0x3c680f96, 0xbe0d2fb3,
                               0xbce35792, 0xbe131b01, 0x3d070f35, 0xbdcf7c7f, 0x3d7d9992,
                               0x3e1e15ac, 0x3ea9402c, 0xbdeda5fa, 0x3e1c33ef, 0xbdddf469,
                               0x3d0d7371, 0x3dcc9601, 0xbba86328, 0x3e4bbe22, 0x3e16144d,
                               0x3e82c27d, 0x3dace871, 0xbe3bceee, 0xbd8c31cc, 0xbe8034e4,
                               0xbb5e0e78, 0xbdd54fcc, 0x3debe329, 0xbc5b0001, 0x3d94fb8e,
                               0xbdca973d, 0x3d1c386d, 0xbd8af944, 0xbd7789ae, 0x3d82404f,
                               0xbbeaca37, 0xbe05848e, 0xbdac79c7, 0xbdf2295e, 0x3e306589,
                               0xbca1bacf, 0x3d013e83, 0x3e5c1863, 0x3e725b17, 0xbe14f499,
                               0x3e5ac909, 0xbc2ce5c2, 0xbcbc51d6, 0x3c8b07c0, 0xbd873357,
                               0x3e9f1ff0, 0x3c8cb13b, 0x3cb723b3, 0xbcb0237c, 0x3c3fb287,
                               0x3b5b79e3, 0x3cd4da3f, 0xbc3b9ad9, 0xbcaa654f, 0x3cf4c058,
                               0x3c8ba30b, 0xbc513529, 0x3cddaee1, 0x3a0c268d, 0xbce5765a,
                               0x3c818c7d, 0xbc00d9ed, 0x3cdd6c1d, 0x3d9c3f01, 0xbc35ea00,
                               0x3b0e359b, 0x3d146cc6, 0x3b11d9a0, 0x3b5df851, 0xbc91785e,
                               0xbc6d68db, 0xbca4b456, 0xbb8c18eb, 0xbbc8ae87, 0x3c61abdc,
                               0x3c730b8d, 0xbc44d629, 0x3ce03112, 0x3a3c0f34, 0xbc616038,
                               0x3bd35414, 0xbbad3a68, 0xb9be5635, 0x3d77e907, 0x3b897b9b,
                               0x3c1f5695, 0x3c3962c9, 0x3c9d6899, 0xbc00c7fb, 0x3d43288a,
                               0x3c54b09c, 0x3b858e72, 0xbd3aedc7, 0xbcdd1c8e, 0x3c3c6121,
                               0x3d9ed9eb, 0xbb8e6c78, 0xbbf376f5, 0x3bb66502, 0x3d5982e2,
                               0xbceecf07, 0xbc831255, 0xbd3c60db, 0xba8801c2, 0xbd5fa136,
                               0x3cb77444, 0xbbc45dde, 0xba8382f0, 0xbaa76641, 0x3c361872,
                               0x3d38ed1b, 0xbd6e3fd9, 0x3c3a837e, 0x3e9b6655, 0xbebf0b84,
                               0xbdce5549, 0x3d71be2b, 0xbebaf981, 0xbec59672, 0xbea9028c,
                               0xba89d7e9, 0x3e387d98, 0x3e6ecbf6, 0x3ed65d0c, 0x3de1d33c,
                               0xbe4ab506, 0x3f166091, 0x3ecd1b51, 0xbdd01311, 0x3bde97f5,
                               0x3ce038ec, 0x3e2bdfcf, 0x3de84df7, 0xbe7ae694, 0x3ecd133a,
                               0xbeb00cc7, 0xbe637bf9, 0x3e128f41, 0xbf014918, 0x3e359cea,
                               0xbe095c0f, 0x3f0d490a, 0xbde6da3d, 0x3d8a48ce, 0xbeb989e3,
                               0x3e43e87f, 0xbc779fe8, 0xbe684d43, 0xbf0acede, 0x3d3498b4,
                               0x3ec1e588, 0xbf318511, 0x3de6c12f, 0x3efdb1c3, 0xbe3382be,
                               0xbcc0cf91, 0xbe750143, 0xbe3afed9, 0xbd4a9b62, 0xbd2e7ef5,
                               0x3ef36c0b, 0xbe9f07c5, 0x3dfad9e0, 0xbe6f4938, 0xbd713a49,
                               0xbf00236d, 0xbe3e078f, 0xbed8ea99, 0xbdb666e4, 0x3e11c2b5,
                               0xbeca11ad, 0xbf0114e8, 0x3ec7f5b2, 0x3bcbeb04, 0x3e76969c,
                               0x3eabe31b, 0x3dcc32a4, 0xbe908f55, 0xbf498608, 0xbf0f74e7,
                               0x3e63e6c5, 0x3cb7a1d6, 0xbd81c0ab, 0x3ec8305d, 0xbd3766fa,
                               0xbe14edd8, 0x3dd8963a, 0xbe78d5d3, 0x3e290e77, 0x3d8e4912,
                               0x3d527cc4, 0xbec32e68, 0xbe7b8b51, 0xbd8a1026, 0x3e1d44d3,
                               0x3e3dd1cf, 0xbe1ace72, 0xbd8caab7, 0xbf05e98a, 0xbdfcfa19,
                               0x3e07520f, 0x3e741368, 0x3d1ef261, 0x3e8cf875, 0xbc8ba363,
                               0xbe1917b6, 0xbec8a8d0, 0x3e2b1f05, 0xbe138e8c, 0xbdf68d24,
                               0xbe8763ce, 0xbf180a0e, 0xbdd49080, 0x3e854789, 0x3ea426bd,
                               0xbc4594cb, 0xbe5661a2, 0x3d9f2564, 0x3da99d78, 0x3cf42bcb,
                               0xbea9e3a5, 0x3cbdd66c, 0xbea525b5, 0x3d7f5eb4, 0x3d6c4371,
                               0xbee4c566, 0xbf19b0fb, 0x3eac6b47, 0xbed05dce, 0xbd85a06d,
                               0xbd9cb2d6, 0x3db42847, 0xbe24c367, 0x3ec4b9ef, 0xbe42cded,
                               0x3df6839e, 0xbdfa4ef1, 0xbdbff879, 0xbec92d47, 0x3e3656a2,
                               0x3e29fab4, 0xbef3e37a, 0xbe80ff86, 0x3e82cccb, 0x3e766197,
                               0x3dd03ba3, 0xbd3a8bb7, 0xbed5a94b, 0xbe647486, 0xbf2d9fe6,
                               0xbdb72ace, 0xbea16261, 0x3d1c0216, 0x3e1c18bc, 0xbef34ba7,
                               0x3f194822, 0x3f25bf87, 0xbe95c2e3, 0x3ec7acbe, 0xbeb40ee3,
                               0x3e525283, 0xbe8c4a1c, 0x3e46bf13, 0xbe22e661, 0x3e94ac69,
                               0xbe045b60, 0xbe15f041, 0x3d8ce7e7, 0x3e9459b0, 0x3d92f9a6,
                               0xbe5941ca, 0xbcd571c3, 0xbe07f9fc, 0xbe2ea5d8, 0x3e96eb06,
                               0x3eace29a, 0x3e0babdd, 0x3e1e82ad, 0x3d93af12, 0xbe6da881,
                               0xbdda5bbd, 0xbe69dca1, 0x3ebfaae7, 0x3f609b58, 0xbdc64a91,
                               0x3d41d9ea, 0x3e939234, 0x3eb22ed1, 0x3ea7a928, 0xbe142166,
                               0xbec75747, 0x3f3c4763, 0x3cfe08f2, 0xbeb4e137, 0x3cf60c80,
                               0x3e8bce96, 0xbe0c4a97, 0xbf3afbe4, 0xbe840c9d, 0xbbf74173,
                               0x3e96c743, 0xbed75c95, 0xbed08cda, 0x3f06f8a0, 0xbdc8de22,
                               0x3e61dd2b, 0x3e4fbd9d, 0xbf973fad, 0xbf2fc3df, 0x3e523128,
                               0x3dac8915, 0x3f79dd72, 0x3f040b8c, 0x3c7fc089, 0x3d93f781,
                               0x3eb34fca, 0x3f021fee, 0x3f1901f7, 0xbd68a926, 0x3ecb7135,
                               0x3dcc0454, 0x3f2f6bf7, 0x3eda5b2c, 0xbda3dadd, 0xbe84c47d,
                               0xbea4bea4, 0xbe424aa3, 0x3c7b1bb1, 0x3f210251, 0xbe152b54,
                               0xbf171f6e, 0x3f3ff45f, 0xbf984c71, 0xbf113e3c, 0x3b397c6f,
                               0xbedbc972, 0xbd7a13eb, 0x3eaf386f, 0xbeb46a71, 0xbe30e195,
                               0xbe61aaa9, 0xbea32b22, 0xbee92555, 0xbe7e333d, 0x3e0bea56,
                               0x3e06874c, 0x3e7252cd, 0xbeba04a4, 0x3e50f425, 0x3d8fb42d,
                               0xbeb1c66b, 0xbf33c3d9, 0x3ea29863, 0x3efcca50, 0xbee0487e,
                               0xbd94b73f, 0xbeb99d2b, 0x3f265a68, 0xbf2c77e4, 0x3e557279,
                               0x3f004f23, 0x3bcbf4d6, 0x3ee234fc, 0x3f0cef03, 0x3d2ce1d6,
                               0x3f3ef9f1, 0xbe67262e, 0xbf3bbda5, 0xbefcc02a, 0xbf29b4cc,
                               0x3eacb0e1, 0xbce26e7b, 0x3d573abf, 0xbb74811c, 0x3ece971e,
                               0x3eb8dd14, 0xbee8650f, 0xbe6c6063, 0xbf241f52, 0x3ed4f4f7,
                               0x3dc21891, 0x3eee6fdb, 0xbe966042, 0xbd50f819, 0xbeb03900,
                               0x3e4de1fd, 0x3ebab542, 0xbea7f1b0, 0x3ed3deef, 0x3e271b91,
                               0xbe8b651e, 0x3e46eccf, 0x3d0d62bc, 0xbd21b805, 0xbe57a599,
                               0xbd9f5846, 0xbf0afeb2, 0xbcc178e1, 0x3f556fd8, 0xbf5212e4,
                               0x3e6356d5, 0x3f0d95d5, 0x3e803045, 0xbf1eb099, 0xbf202c33,
                               0x3f07e1d7, 0x3e817bcb, 0x3ea7f827, 0xbb4ec006, 0x3e1e22d1,
                               0xbed6ce11, 0xbe115060, 0xbed977d9, 0x3f52f8f3, 0xbeff852b,
                               0x3f2c1d8a, 0xbe71af4d, 0x3ef02bd2, 0x3e832238, 0xbf583e12,
                               0xbbae94a3, 0xbfa78c19, 0xbed1b9aa, 0xbe754199, 0xbd35841e,
                               0x3ec9abae, 0xbf099173, 0xbe696cc1, 0x3e80ed56, 0x3ed1658f,
                               0x3f18e693, 0xbefc3f4b, 0xbc0e62c0, 0x3f3c0df7, 0xbe7983de,
                               0xbe53602f, 0xbedb190f, 0xbf1e6bf1, 0x3da26447, 0x3d98d4b5,
                               0x3f10549e, 0x3f06334f, 0xbf1b3c77, 0x3e69aff1, 0xbf4f621e,
                               0x3f4f23b8, 0x3f160810, 0x3e9e93dc, 0xbeab7aa6, 0x3e80b8d1,
                               0xbdec7d6f, 0x3f0868b3, 0x3d6ed43b, 0xbdd50f49, 0x3e27e51e,
                               0x3e08794c, 0x3f2c57bb, 0xbf5cf278, 0xbe35952a, 0x3d9009db,
                               0xbdde3de9, 0xbe840937, 0xbf0c11e5, 0x3e81f402, 0x3e34dc3a,
                               0xbd299eb8, 0xbf21df54, 0xbdb81d66, 0x3e3fb952, 0x3e2eafcb,
                               0x3dc83012, 0xbd6e0892, 0x3ee92099, 0x3e5dc912, 0x3ea98b5d,
                               0xbed15a95, 0xbebeefb9, 0x3ccbec12, 0x3e9a5068, 0x3e232e20,
                               0xbe478c10, 0xbef5596b, 0x3ed2de51, 0xbd9a9673, 0x3ead2957,
                               0x3ebb04ec, 0xbf40433e, 0x3e2eb01d, 0xbbdebbc5, 0xbf8eb93d,
                               0x3ee3bff0, 0x3ead13da, 0xbdcca642, 0x3ec25999, 0x3e6d3edd,
                               0x3e6a0ad9, 0x3eb09008, 0xbdca33dd, 0xbeb0f27c, 0xbdd37e00,
                               0xbf2f0287, 0x3ec1b657, 0x3e62d28f, 0xbe11aea2, 0x3eef9737,
                               0xbce9d224, 0xbf06a04c, 0x3ed8c914, 0xbe3f4bfe, 0x3f276775,
                               0xbf00081a, 0x3f1706ca, 0x3ed31c9c, 0x3f3a3feb, 0x3f1e9c3c,
                               0x3eb80f69, 0x3ea8a004, 0xbed78b49, 0x3e641be1, 0x3e15d0f3,
                               0x3dd53663, 0xbea1a68b, 0xbecfa827, 0x3e776556, 0xbd6280b3,
                               0xbe0d7b19, 0xbc054955, 0x3e159507, 0xbde0fbb5, 0x3ea44909,
                               0x3cd1af06, 0xbed1e137, 0xbda4ace9, 0x3d591095, 0x3e9eb36f,
                               0xbe01d233, 0x3f397f06, 0xbd6d18d9, 0x3ed26cf6, 0xbd8ad39e,
                               0xbd87625a, 0x3e5e2980, 0xbea2891a, 0xbf035272, 0x3e8ca173,
                               0xbedce306, 0x3e2c12ec, 0x3ef02e1d, 0x3ca265ae, 0x3d6e0d28,
                               0xbef80e46, 0xbee7cca7, 0x3e3c9fa7, 0xbe818e6c, 0x3f01d232,
                               0x3e08feff, 0xbe7e723f, 0x3ea7a401, 0x3ee0a340, 0x3ea6a501,
                               0xbe78ba77, 0x3dac8886, 0xbf4b9d14, 0xbe04f6c9, 0x3e365bf5,
                               0x3dc0c147, 0x3e0b5145, 0xbd558052, 0xba97bcd8, 0xbd2c8cc5,
                               0x3eb01032, 0x3bd8dd6a, 0xbf0fa725, 0xbe91e2ac, 0x3ede7000,
                               0xbf1c5d4c, 0xbeb4c29f, 0x3e8878dd, 0x3f0a6ecb, 0x3beadad1,
                               0x3e9b8b5f, 0x3e018734, 0x3f83b745, 0xbf4f24db, 0x3e9aed3b,
                               0x3e9df7cf, 0x3ee2b1cb, 0xbd886b2d, 0x3e714ed2, 0x3dc0faa6,
                               0x3e9e8d6b, 0x3ef736ee, 0xbe3e9fcc, 0xbf465260, 0xbe311641,
                               0x3ecf78a7, 0x3eac99b6, 0xbee165cc, 0x3e0295ae, 0xbdc0404a,
                               0xbf01780c, 0x3f207233, 0x3e4e4180, 0x3e6f5c4f, 0x3eb98ef7,
                               0x3e692b80, 0xbcd9dbf6, 0xbda17ac5, 0x3d9bf2c2, 0x3eb8b99f,
                               0x3e591c6e, 0x3e167be5, 0x3f0a4116, 0xbe83b3a6, 0x3e44d575,
                               0x3eed1a3e, 0x3e2b715f, 0xbf475d4c, 0x3f646c4d, 0x3d6f6267,
                               0xbf1c522b, 0x3eefdec0, 0xbe9a89eb, 0xbf0bdb11, 0x3b6d7eb8,
                               0x3e72bc40, 0x3dfe963e, 0x3f26e475, 0xbf18e78a, 0x3b10d53f,
                               0x3ce78f7e, 0xbeaf4d48, 0x3e2fe103, 0xbeb125e0, 0x3f0fe528,
                               0xbea201cc, 0x3d588676, 0x3e626606, 0xbe936283, 0x3d78f46f,
                               0x3f800baf, 0x3eaba663, 0xbf0c488f, 0x3db649d2, 0xbe4b4c74,
                               0x3f542cd9, 0xbee5aa3b, 0x3da09cc9, 0x3f2e1063, 0xbecaa3ce,
                               0xbf03d91d, 0xbcf8a2d4, 0x3ef0ab65, 0x3da73a94, 0xbe01e351,
                               0xbe62be9d, 0xbde7a149, 0xbe7a3e10, 0x3ea55246, 0xbeb7fee3,
                               0x3df3a280, 0x3ece75ec, 0xbe33737d, 0x3c76c7c3, 0xbf328bb0,
                               0xbe0b6795, 0x3ee7ad16, 0xbe56e82d, 0xbeebe5b4, 0xbca01342,
                               0xbed75a0a, 0xbce83552, 0xbdf2c45c, 0x3eecb43b, 0x3e2a726f,
                               0x3e3bdabf, 0xbddc4309, 0xbf1cf591, 0x3f0afd09, 0x3e0d24fe,
                               0xbd6a6339, 0x3e35f3e1, 0xbe8a9a28, 0x3f1dca47, 0x3ea8a72f,
                               0xbeff463d, 0xbeea0938, 0xbece2ab1, 0xbe5f3acc, 0xbed2106f,
                               0xbef54c07, 0x3ee83161, 0xbecadf85, 0xbecdca90, 0x3dc09e84,
                               0x3e81f640, 0x3dfaa072, 0x3e8102e2, 0x3eb8bcd1, 0x3ebaecda,
                               0x3d3344d4, 0xbf309dc9, 0x3c697d3a, 0x3d336358, 0x3f20e959,
                               0xbe92d697, 0xbe4a9537, 0x3ef9df2d, 0x3f2f39d0, 0x3e9eb1b1,
                               0x3c17dbc5, 0xbf2de039, 0xbdc49229, 0x3eeb1d5f, 0x3f8c434e,
                               0x3dd3e3b6, 0xbec48c8f, 0x3da19b91, 0xbe2444db, 0xbe76a73e,
                               0x3ea18f53, 0xbee66fc5, 0x3eb7deb2, 0xbdd4ab28, 0xbe3c10ad,
                               0x3ee450fe, 0xbe14eff8, 0xbe60adf0, 0x3da53f49, 0x3e493a80,
                               0xbd35c298, 0x3e89f9b1, 0x3e1acab2, 0x3cce3313, 0x3e8b07d9,
                               0xbe5206b1, 0x3e3728d6, 0xbeda0e8e, 0x3ecd0c74, 0x3f1af5d1,
                               0x3e7a159a, 0x3eb09ec8, 0x3e8d36a0, 0xbdc69dab, 0x3f1fc4b7,
                               0x3e8b339f, 0x3e50bcff, 0xbe548313, 0x3e380d88, 0x3d1dd8dd,
                               0x3b9f7718, 0xbe84dfdf, 0xbdf070c0, 0xbe4dbc9d, 0x3eaa7349,
                               0x3e701303, 0x3e848d8c, 0xbe9faec9, 0xbdad23f1, 0xbdbc3bff,
                               0xbd873309, 0x3de53204, 0xbe6d7114, 0x3e684277, 0x3e79c196,
                               0x3e920fea, 0x3e914392, 0x3ea9460d, 0x3cde1a11, 0x3e553bf3,
                               0xbe0cfc0d, 0xbe2fc971, 0xbd5fe8d5, 0x3cd9a4e5, 0x3ebd7c9b,
                               0xbebeb037, 0x3eb4a93a, 0x3df96bd3, 0x3e898318, 0xbe2bf76e,
                               0x3f04e121, 0x3ecaf18d, 0x3e826db6, 0x3db251d9, 0xbcaa6649,
                               0xbeaaef03, 0x3ecc6461, 0xbe9b82eb, 0x3d9129d1, 0xbf18f4fc,
                               0x3d157e56, 0xbf7afa70, 0x3e80ff3d, 0xbe9102ba, 0x3efe4516,
                               0xbe1a92df, 0xbe8a7a47, 0x3d9955d2, 0x3e5ba086, 0xbd728762,
                               0x3eb65821, 0x3eb4f39a, 0xbe17b9e0, 0x3f0167c5, 0x3d6672cb,
                               0x3ed29910, 0x3e7b759b, 0xbe2a112b, 0xbd082303, 0x3d4362f2,
                               0x3b862924, 0x3ea7c2c5, 0xbe2b33ac, 0x3ce2ce15, 0x3d5d85d9,
                               0xbd926e9c, 0x3eeab2f0, 0xbda0b3d5, 0xbe861164, 0xbdf84e34,
                               0x3f2807f9, 0x3e1db5db, 0x3e795020, 0x3dd226e6, 0x3e34dfa6,
                               0x3e438de9, 0xbdd4e8d4, 0xbe90a6e9, 0x3d2dd361, 0x3f0c8b6e,
                               0xbd2f833e, 0x3ebd7725, 0x3ebba258, 0x3e271f7a, 0x3f29b269,
                               0xbdd9d73b, 0xbe5ba4b5, 0xbf12fa84, 0xbdd648fb, 0x3f22db64,
                               0xbe2095ad, 0xbe4968aa, 0xbf0e13fc, 0x3f517791, 0x3f410709,
                               0xbcf014cb, 0x3e8afb48, 0xbeb339df, 0x3f4f5fd8, 0xbdd271d5,
                               0xbf0a38ea, 0xbe9584a5, 0xbe2203c8, 0x3e34c27e, 0x3cc49eed,
                               0x3ecaeb90, 0x3d643f56, 0xbdcc19b4, 0xbe0f9847, 0xbe94cc50,
                               0xbdba544b, 0x3eb91243, 0xbea81506, 0xbe67e359, 0x3eaad020,
                               0xbe50718e, 0x3f2a0785, 0x3ef50c78, 0xbf1c3499, 0xbf18b2ad,
                               0xbe4bff90, 0xbeccae40, 0x3eb9c480, 0x3e35a0f5, 0xbd619bfd,
                               0xbd79c9a7, 0x3da64649, 0x3f1e7836, 0xbe745908, 0xbd968f42,
                               0x3e8ecdf5, 0x3eeaa90a, 0x3e8e030a, 0x3f2182c3, 0x3e801663,
                               0x3ea1ca60, 0x3cc9fffb, 0xbf0c5c2b, 0xbea30c8e, 0x3ce71dc8,
                               0xbc9ea3d9, 0x3dfb710a, 0x3ec8c7cc, 0xbef578ec, 0x3e0b41c3,
                               0xbddbc6e6, 0xbeffc4d9, 0x3d3318bd, 0x3eb0a570, 0x3de47dc3,
                               0x3f3ae3ab, 0xbda2f142, 0xbf51012e, 0xbedcb2b2, 0x3e863d22,
                               0xbec93cc7, 0x3ec505aa, 0xbedc5e21, 0xbe8cbd96, 0x3cf8a7a3,
                               0xbe02f1ed, 0x3edd17e3, 0x3f0f7cca, 0x3bda1a9c, 0xbe80027b,
                               0xbe9a2151, 0xbf001d25, 0xbdbffdc7, 0xbbed203b, 0x3f2dae50,
                               0xbeb60ea5, 0xbf23fc5e, 0x3cfbaae8, 0x3ed992f5, 0x3e302069,
                               0xbd2af3b7, 0x3f0368c6, 0x3de5fa7b, 0xbd76785a, 0xbe89af05,
                               0xbe84e098, 0x3e1450e9, 0x3e3f0cc6, 0xbe19e8dc, 0xbe0e18e7,
                               0xbe58962d, 0x3ea76db0, 0x3e94840e, 0x3e21d3b8, 0x3f4a6345,
                               0xbe2a5a6b, 0x3e0a17a2, 0x3d2aba06, 0x3f3fdc5f, 0xbf0eaad8,
                               0x3d391c00, 0x3d9cad07, 0xbe20bdca, 0xbdb478cb, 0xbe903886,
                               0xbe9ca5c8, 0x3e02fc4b, 0x3eccaba7, 0xbdba3ecf, 0xbeebaa78,
                               0x3dad8a9b, 0xbedd4b89, 0xbe34d988, 0x3ea6a366, 0x3e850472,
                               0x3e4a9f18, 0x3e1d3cd9, 0xbe953864, 0xbec30d69, 0xbe8c3df9,
                               0xbf02e91a, 0xbe8982bc, 0xbe6d50bb, 0xba4b1667, 0xbd86c206,
                               0xbe981578, 0x3ce09484, 0xbe51813b, 0xbefd2990, 0xbf6121a0,
                               0xbd3631d4, 0xbeba5752, 0xbf200589, 0x3ea4936f, 0x3f31a8ad,
                               0x3c1821cb, 0xbc6f7b14, 0xbf8e794f, 0xbe40db23, 0x3d8fe0d5,
                               0x3cb112e5, 0xbf08ddf1, 0xbeb8dd21, 0xbe9bf9ed, 0xbe9e1902,
                               0xbe841d84, 0xbd5d8636, 0x3e2b32ae, 0xbf52ac8d, 0x3bde4d31,
                               0x3e278a2f, 0x3e91b699, 0xbe4768d3, 0xbec87ccd, 0xbe8ccf29,
                               0xbdec03c8, 0xbe42f67d, 0xbca67863, 0xbd6be958, 0x3f797f28,
                               0xbeca285e, 0xbe2d2dfe, 0x3eba72ba, 0x3eed04f9, 0x3d1c28eb,
                               0xbcb8a35b, 0xbd8d5807, 0x3e4c2518, 0x3e7b031c, 0xbe6ed117,
                               0xbd8fbd4e, 0xbead1945, 0xbdb16ce9, 0x3e3281bd, 0xbda66dc3,
                               0x3e8f0ee9, 0x3e0e1b3e, 0x3c82fa1b, 0x3e83416c, 0x3d0b02b0,
                               0x3ece6315, 0xbe79a72e, 0xbe82bbe6, 0xbe6dc066, 0x3eb56973,
                               0xbe665921, 0xbe01f6fe, 0x3e2ba252, 0x3e565b9d, 0x3d9d9bae,
                               0xbe83740d, 0xbec7a958, 0x3c9523f7, 0x3e0b9621, 0x3f27d584,
                               0x3e87a27b, 0xbcee6cc8, 0x3f5379da, 0x3dda87e0, 0xbd723d29,
                               0xbdcc2a29, 0xbf5f52fe, 0xbe5c773c, 0x3ed4b7dd, 0x3e78854a,
                               0x3f5d9d13, 0x3ebd3e60, 0xbf3cb47f, 0x3e1b1f61, 0xbe3a5cfc,
                               0x3ea0ba06, 0x3ef7e2c4, 0x3d5d4385, 0x3dcf7dca, 0x3de55a60,
                               0xbf3a9f1c, 0xbe6ca31c, 0xbd188f05, 0x3f6ed0a7, 0x3e6e09dd,
                               0xbf303752, 0x3e94e154, 0x3e92500a, 0x3e0159a4, 0x3f3459eb,
                               0xbead2d5c, 0x3e720824, 0xbd8c9d29, 0xbde23222, 0x3ed76572,
                               0x3f0af2c6, 0x3e10cd96, 0x3e7204df, 0xbd72561f, 0x3f032504,
                               0x3e1462eb, 0x3ec6bfeb, 0xbc9b4ca2, 0x3f53f4d2, 0xbd986e58,
                               0xbe7e442d, 0x3e2a0f73, 0xbc86e85a, 0x3e031d06, 0x3e68c50e,
                               0xbea28513, 0xbd9c810e, 0x3f2a3396, 0xbe838cee, 0x3d79a6c4,
                               0x3f264ae0, 0x3e2d9760, 0x3e883b1f, 0x3daead2f, 0xbcfb15b0,
                               0x3d652233, 0xbe9236cc, 0x3eef2336, 0x3e7a09c7, 0x3e09df8e,
                               0xbe2ceca1, 0xbd1960a0, 0xbe948a31, 0x3ddb544e, 0xbe936003,
                               0xbeb72470, 0x3efbd24d, 0xbb604a79, 0x3eb3c048, 0x3c2caf6b,
                               0xc00b6295, 0xbec56031, 0x3e063842, 0x3d1a55b9, 0x3ec89c56,
                               0xbeaafb2e, 0xbe744a48, 0xbd984d6d, 0x3f282eed, 0x3c9ca12d,
                               0x3eb22c70, 0xbde52b43, 0x3eaedef2, 0xbd1ba2fc, 0x3ad6970d,
                               0xbe1c6107, 0x3e3bc503, 0xbedb49b6, 0xbdb471d1, 0x3f5666a4,
                               0x3efdda46, 0xbeba2db4, 0xbe8783df, 0x3e231861, 0x3edcaeb0,
                               0xbeb64be2, 0xbdb098be, 0xbef27ca5, 0x3e413c27, 0xbedda59f,
                               0xbef2e41b, 0xbe0d9c7c, 0x3da57148, 0xbee7af67, 0x3e86b34c,
                               0x3d8838db, 0x3e6fff7b, 0xbcee6850, 0xbf04b86d, 0x3e5d2989,
                               0xbea06c43, 0x3ef5e863, 0x3eafd11c, 0x3e43d9e6, 0xbeef2a30,
                               0x3f2152d9, 0x3dffe00c, 0xbd61b446, 0x3effd4a7, 0xbe5af026,
                               0x3ee9d99e, 0xbea20438, 0x3d4c4d3a, 0xbf03b798, 0xbe69ae82,
                               0xbe2ac079, 0xbd3c84f1, 0xbe4342ca, 0x3e53b684, 0x3e843c9c,
                               0x3e62577a, 0xbe659125, 0x3f6e89e4, 0x3eb89a0c, 0xbc1037fd,
                               0xbe9a3e00, 0xbccf0f12, 0xbe597ce9, 0x3ec1c582, 0x3ea34036,
                               0xbcc1b8f5, 0x3da3c825, 0x3d932d30, 0xbe8a231c, 0x3e967b05,
                               0xbe8cac9f, 0x3e66ed52, 0xbebc3b97, 0x3e0f2317, 0x3e791689,
                               0xbdcbf729, 0x3de7b474, 0xbcf3ba3c, 0xbef65848, 0xbebac806,
                               0xbe374235, 0xbd99a2a9, 0x3f401e69, 0x3d57826b, 0x3ed42016,
                               0x3df40c78, 0x3e58ddda, 0x3daf95cd, 0xbec33f7f, 0xbe23f95b,
                               0x3e6959d6, 0x3de2ac2b, 0x3cda42fe, 0x3f160620, 0xbeafd17e,
                               0xbf29a87b, 0x3ec30646, 0xbdad8f1b, 0x3dcfd7bd, 0xbf063909,
                               0x3e0a132b, 0xbe486382, 0xbd84820c, 0x3d6ff858, 0x3e15e060,
                               0xbef4edd7, 0x3ea680d2, 0xbec6f948, 0x3e8427a9, 0x3e9bc8b6,
                               0x3d72c18c, 0x3d889fc0, 0x3ebf0172, 0xbf14a092, 0xbecb13a4,
                               0xbef5f0f4, 0xbe6270d2, 0x3e3356a5, 0x3e9db097, 0xbd848b5f,
                               0xbdf706de, 0x3c6fa8f4, 0xbe9abc2f, 0x3ebd5850, 0xbd46041e,
                               0xbd29346a, 0xbec7ea7d, 0xbcf9cfbc, 0xbe3ae191, 0x3ed1095d,
                               0x3e819d05, 0x3e256338, 0xbf66dd3b, 0xbf4fded6, 0x3eed044f,
                               0xbf25824b, 0xbeb7b396, 0x3eecc120, 0x3f468177, 0xbe115991,
                               0xbdc9323b, 0x3ef95f06, 0xbe8522e5, 0xbf52e35b, 0x3d6b9511,
                               0xbf562e98, 0xbea6b172, 0x3f7a9211, 0x3c5a0316, 0x3e4dae69,
                               0x3e5448e3, 0xbe3774c0, 0x3e0160c8, 0xbe3eed70, 0xbcea554b,
                               0x3eef4632, 0xbd4f9abf, 0xba44dc1a, 0xbe277946, 0xbf0d47bb,
                               0x3e3a4e83, 0xbbd2f14d, 0x3c6f1319, 0x3f2e423e, 0x3e135f41,
                               0x3dda78d5, 0x3f4a9797, 0x3dcf49b5, 0x3ea6de61, 0xbe1fbbe7,
                               0xbf3aa076, 0xbe12fe96, 0xbe305ebc, 0xbdb4c817, 0xbea31464,
                               0xbe107464, 0x3eaf736f, 0x3ccff959, 0xbe3089b2, 0x3d69c5bd,
                               0x3e5d5aa6, 0xbe015cb5, 0xbef7adc3, 0x3cc993bc, 0x3e6136e4,
                               0xbebbde8f, 0x3dcee0e9, 0x3df39ba2, 0xbd2066f3, 0xbddd30ce,
                               0x3e5196bf, 0x3f333c18, 0xbe5f4825, 0x3e4ff3e6, 0xbefb6144,
                               0xbd3ec8b3, 0x3ba8612a, 0xbedecfa4, 0xbe330cb6, 0xbf0b34e5,
                               0x3ce205fb, 0x3ec65e41, 0x3e0ce828, 0xbf34e5da, 0xbe1c8dba,
                               0xbf4ff358, 0x3de101e3, 0x3edf69ce, 0x3e6cb02e, 0xbe3cc785,
                               0x3c3590c0, 0x3e060f8f, 0xbed3dcfd, 0x3deda311, 0xbd8d5669,
                               0x3cee0f52, 0xbe30bb2e, 0x3d25474e, 0xbe4cce01, 0xbe3c10cd,
                               0x3e09b00c, 0x3e90d1e2, 0x3dec7f5a, 0x3f238d6b, 0x3f2b2fa9,
                               0xbdb70500, 0xbd67e7cf, 0xbcf425f8, 0x3e9f37cc, 0x3b98424b,
                               0xbef7c146, 0x3e2e13e7, 0xbeb72bb5, 0x3ac9bd5c, 0xbee5c3c7,
                               0xbdf91abf, 0xbec8d333, 0x3e818ca6, 0xbd3fd661, 0xbe1853e6,
                               0x3d8a2551, 0xbd54298f, 0x3ea52576, 0x3ef94626, 0xbdc4823d,
                               0x3ea349d4, 0xbe9aa56d, 0x3d865b1f, 0x3dc1b655, 0xbe3b319f,
                               0x3dc7ac96, 0xbcccc483, 0xbe2f8605, 0x3f192c7d, 0xbe76512d,
                               0xbf052b86, 0xbe901b4d, 0xbe245545, 0x3e96a7e9, 0x3e7ebf39,
                               0xbe93b27e, 0xbd987d2c, 0x3e337885, 0xbde5a8f2, 0x3cfdb095,
                               0x3e106f70, 0xbea01aa8, 0x3c6931df, 0xbed53326, 0xbec881ed,
                               0x3e9b6674, 0x3e227a76, 0xbe8cbb2a, 0xbe906bab, 0xbe3e2255,
                               0x3d8b3646, 0x3e493f3f, 0x3f239d29, 0x3ed22db3, 0x3d41369d,
                               0x3dd73f94, 0xbda39297, 0x3e1f208f, 0xbea0d01e, 0xbe365a69,
                               0x3f182ce7, 0xbd91d0b3, 0xbe3bb509, 0xbe6630df, 0xbf0334b8,
                               0x3ed2687b, 0xbe856612, 0x3e9a256c, 0x3f193649, 0x3c933ddb,
                               0xbdc027c9, 0x3e743a23, 0x3ec70641, 0x3f271392, 0xbf000e74,
                               0x3ee817dd, 0x3e93665f, 0x3e3acf3e, 0xbf45c5a6, 0xbe3e3657,
                               0xbdde7c5d, 0x3ea06e7c, 0xbd2cb733, 0x3e3db613, 0xbec073f1,
                               0xbe010a6c, 0x3e5d0c1c, 0xbdf46934, 0x3cca703b, 0x3e0dce8b,
                               0x3f3d5b48, 0xbf241717, 0x3eaf3063, 0xbef2c84f, 0x3e82729f,
                               0x3eb08295, 0x3cf3f2b3, 0xbf15d3c4, 0x3d99c8a7, 0xbc918ca2,
                               0xbd88716a, 0x3ea6a40f, 0x3e0b227e, 0xbe06edea, 0xbeb27e69,
                               0x3e354ea8, 0xbe8d723f, 0xbe9365b9, 0xbe912312, 0x3db12378,
                               0x3f04afe8, 0xbf121dbf, 0xbe71d7e8, 0xbdfd3ce3, 0xbf01a538,
                               0x3f07cdb2, 0xbef2694c, 0x3f4595d7, 0x3f17ff97, 0x3f21f5f1,
                               0x3dfa5c25, 0x3e165fd6, 0xbec6eb87, 0xbda40a22, 0xbeb76d8f,
                               0xbd83dc4b, 0xbea3da39, 0xbf4201fc, 0xbef826f6, 0xbe8b1238,
                               0x3ec062c7, 0x3e8f1915, 0xbe264d78, 0x3ae28c53, 0xbe6d8aa2,
                               0x3d872fbb, 0x3f31cb80, 0x3f05506a, 0x3e9c32f6, 0xbee55e37,
                               0xbf3ee4ab, 0x3e8a3efa, 0xbc9e4db9, 0xbf02be38, 0xbcab5419,
                               0xbef9f13e, 0x3ea4d263, 0xbd3ae532, 0x3e503e46, 0x3e048c9a,
                               0xbe2c6734, 0xbec2514e, 0xbd1aadb5, 0xbda4d71a, 0xbe801323,
                               0x3f0b3a7c, 0xbe6aa16a, 0xbf219314, 0x3d4aebaf, 0x3de5e28c,
                               0x3e9964c4, 0x3d6b83cb, 0xbdc1c913, 0xbf1616e8, 0xbe9583ea,
                               0xbd15dcdf, 0xbe2c6b09, 0xbed9f52a, 0x3f0db455, 0xbedbb9ba,
                               0x3e912571, 0xbe1fad84, 0x3d2daba5, 0x3e54abc7, 0xbed67d7e,
                               0xbf4d90ff, 0x3eb7cc22, 0xbea3117b, 0x3eb117e5, 0x3d0ecf8f,
                               0xbe1cca80, 0xbef1579d, 0xbf048da0, 0x3f37eb28, 0xbc9352c8,
                               0x3f6100bd, 0xbdd3beef, 0x3f2cfba3, 0xbe05fa8c, 0x3e957f10,
                               0x3dba6178, 0xbf362870, 0x3eb97200, 0x3e1e9409, 0xbe594b86,
                               0x3ef5eb02, 0x3e4f932f, 0xbe637caa, 0xbbc711ea, 0xbeca313b,
                               0xbea4b086, 0xbcfac854, 0xbefdc4ae, 0x3f06fb12, 0x3e1a9219,
                               0xbd3f7df7, 0x3e634c6d, 0xbd14fdd9, 0x3f327699, 0xbe27e150,
                               0xbeac0825, 0xbe3ce386, 0xbe5b5924, 0xbe52299e, 0x3e4d7342,
                               0x3ec2673e, 0x3e740245, 0xbddaaa66, 0xbf209d89, 0x3dd10d19,
                               0x3db174d4, 0x3e4acbf3, 0xbe66970c, 0x3e7e081d, 0xbe81d8af,
                               0x3cb727b1, 0xbe84add7, 0xbea32d75, 0x3cb1ba76, 0xbee1ecf1,
                               0xbee3db9d, 0xbe905f8c, 0x3db27d24, 0x3e655b57, 0x3e9b4fcf,
                               0xbeb26c6a, 0xbd8f466c, 0xbe2be105, 0xbe43cd2e, 0xbe76d73f,
                               0x3dca1e67, 0x3dcac44f, 0xbe8b0c2e, 0xbf23e186, 0xbda059eb,
                               0xbf175f25, 0xbec05454, 0x3e43cc1b, 0x3eaaf2e2, 0xbf3d8927,
                               0x3df2c388, 0x3dcd56bf, 0xbf0a6624, 0xbdeae0d9, 0xbe8adee9,
                               0xbe1fff02, 0x3cd32912, 0xbf0175d4, 0xbdcf48d9, 0x3ebed133,
                               0x3ef0d7ce, 0xbe8fa254, 0xbee82740, 0x3ee19288, 0xbf387347,
                               0xbe04ca64, 0xbe89c69a, 0x3e8bc6eb, 0xbe02d577, 0xbeadc598,
                               0xbec028ef, 0xbb512b96, 0xbee727d9, 0x3e948ae8, 0x3eb503e2,
                               0x3e94f065, 0xbea900fe, 0xbe368a3d, 0xbe46167b, 0xbf5d99d3,
                               0x3e22faf6, 0xbd68de64, 0x3ea3e319, 0xbe833fa7, 0xbec97c34,
                               0x3e427953, 0x3f532e17, 0x3e5a58ce, 0xbd18bbe3, 0xbec362dd,
                               0x3e2c8a66, 0xbe929fc9, 0x3ed9de1e, 0xbd48b6c8, 0xbe53a7de,
                               0xbdc98811, 0xbf3d641b, 0x3e0da4a3, 0x3e507b00, 0xbf52b2f7,
                               0x3c9c09fc, 0x3e3b61be, 0x3e0fef9f, 0x3f037a72, 0x3eb4c028,
                               0x3de081ab, 0x3e615d55, 0x3d1698e3, 0xbe91f3bc, 0xbd7a2102,
                               0x3e94a3ee, 0xbeb2e974, 0x3e9737a9, 0xbe837f5b, 0x3e67bab4,
                               0x3ccefee4, 0xbdc25b56, 0xbda318e4, 0xbec7bd7e, 0xbf037cac,
                               0x3ea48cee, 0xbe93d41f, 0x3e8fc0ba, 0xbe8d2161, 0x3f30674a,
                               0x3f03fef2, 0xbe853a23, 0x3e06257d, 0xbf1f66ad, 0x3f85caf1,
                               0x3e45cd4c, 0x3ea9e294, 0xbf22f6ac, 0x3ee759fb, 0xbe106fb2,
                               0xbdd0172c, 0xbd42def4, 0xbeab30c6, 0x3e308de0, 0xbec8abef,
                               0xbe91d5f0, 0x3f0bf1b0, 0xbd2cbce9, 0x3e6f1649, 0xbe4696c6,
                               0xbdbba4b3, 0xbf05c58d, 0xbdbb5b4b, 0xbef79fbf, 0xbee832db,
                               0xbf1a5c9f, 0xbf13b6ce, 0x3bf6706c, 0xbeef8f1d, 0xbebb2f22,
                               0xbc8a2d25, 0xbc7d8a66, 0x3eb2d942, 0xbde7b7b9, 0x3ea8d750,
                               0x3d8bb7a8, 0x3e19462b, 0x3e02e265, 0x3eb6e8eb, 0x3ef6ee3e,
                               0x3e998c7f, 0x3c57484a, 0x3e8be642, 0xbe20201a, 0x3eb9c085,
                               0x3e1a5dcd, 0x3eeb2542, 0xbe1c5a81, 0x3e8bd8f7, 0xbf652512,
                               0x3e8c3bbd, 0xbe3e8f85, 0x3d80cfdf, 0xbf4674dd, 0xbdafa3e6,
                               0x3f1c08ed, 0x3e265e3f, 0xbf1bd572, 0x3eadb5aa, 0xbe4bab6a,
                               0xbeb5d01a, 0x3ed18a46, 0xbead65ba, 0x3b4bf4ef, 0x3e8f17c5,
                               0x3ec2e692, 0x3eb02bc4, 0xbe80880f, 0x3f0f3eac, 0xbf140a66,
                               0xbe88b01f, 0x3ea26430, 0xbf031650, 0x3d90b0aa, 0xbd1cfbe8,
                               0xbe20613c, 0x3bf7d9d1, 0xbecb1a8c, 0x3ed30713, 0xbedb8f60,
                               0x3f1f97e1, 0x3a6b64bb, 0xbcd5a2b2, 0xbf35c60e, 0x3e2bf227,
                               0x3e9ef596, 0x3ea071bc, 0x3ee3cf3f, 0x3e563f58, 0x3e825ad6,
                               0x3e0bd6ae, 0x3ecf0036, 0x3e4bf4ec, 0xbf177405, 0xbe2bf027,
                               0xbce3a25a, 0x3e67ccea, 0x3ec076a4, 0x3f1e1290, 0xbefa8208,
                               0xbf312c04, 0xbe249b3e, 0x3cb10072, 0xbe47aac6, 0xbe8a2e83,
                               0xbf0cd06f, 0x3e0ffe9d, 0xbe75d3a8, 0xbe771994, 0x3dcf7e82,
                               0x3efbee37, 0x3e64a08f, 0x3eba091b, 0x3f31d498, 0x3d63e880,
                               0x3f19b2a2, 0xbce83cfe, 0xbeace699, 0xbee0c5fc, 0x3eb1eb29,
                               0x3d8830b3, 0x3dcef995, 0xbe04d57a, 0x3e0cbe22, 0xbebc3ba6,
                               0x3edf8200, 0xbf9d40b8, 0xbe2926f0, 0xbe3c4096, 0x3eb66dde,
                               0xbdaf6c50, 0x3dfaf5ae, 0x3f4179bd, 0x3f36f43c, 0x3d75d714,
                               0x3f19732c, 0x3ed95c27, 0x3e1d62f3, 0xbe14537e, 0x3f11df6a,
                               0xbebe4643, 0xbf279d16, 0x3db92935, 0xbcaf7428, 0xbf12d762,
                               0x3ea01de3, 0x3f1c2daf, 0x3e80b88b, 0x3d33854b, 0xbf0db0c8,
                               0x3e1c130d, 0xbe048b68, 0x3e6d9986, 0x3d27f781, 0x3ea96e47,
                               0x3ba73421, 0x3d57ca16, 0xbeee6650, 0x3ef64242, 0xbeb36e51,
                               0x3efb9f19, 0x3ea78dce, 0x3defc3e2, 0xbe0f29d0, 0x3e94020c,
                               0xbe96428a, 0x3e6dbb51, 0xbec881f7, 0x3ea279b9, 0xbef4f483,
                               0x3e4ce414, 0xbd8bbc1a, 0xbe812893, 0xbf85717f, 0xbf22a1bf,
                               0x3ea8304a, 0xbd310085, 0xbef2e590, 0xbee8766d, 0x3f854e32,
                               0xbedf5020, 0xbf621ec6, 0xbce0f755, 0xbe645973, 0xbe049dd6,
                               0xbe1c6411, 0xbe83b9af, 0x3e1537b2, 0xbe2ab1ea, 0x3e6ac6f0,
                               0x3e27b621, 0x3e526331, 0xbf1d7ed2, 0xbbec32ec, 0xbe98fff4,
                               0x3de11b84, 0x3c87ba64, 0xbdb3567a, 0x3d9182cd, 0xbe0aee96,
                               0xbf683aed, 0x3ea59c6b, 0x3e7834bc, 0xbd0aad8a, 0x3ef2832b,
                               0xbd1edc3e, 0x3eb9c906, 0xbe145818, 0xbd1242db, 0xbcc6b7ac,
                               0x3d8667bf, 0xbd94aeb1, 0x3f10a452, 0x3e4caabf, 0xbe91d00a,
                               0x3eb1df22, 0xbf3c0121, 0x3f10d109, 0xbdc8313a, 0xbe38c918,
                               0xbef3dfb3, 0x3ec44aaf, 0xbd2d2523, 0x3ecdd678, 0x3e333ed8,
                               0x3e050ede, 0xbeecd293, 0x3d9c082e, 0xbeb4930f, 0xbe137a40,
                               0x3ddc2f3c, 0x3f094cfd, 0xbd052a09, 0x3e11a2c1, 0x3b0339f3,
                               0x3bef16d4, 0x3e7f80f0, 0x3e16f562, 0xbf18d2c2, 0x3eb19b5d,
                               0xbd0e6bae, 0x3e8d7c59, 0xbeca4c40, 0x3e9adcbf, 0xbd854603,
                               0x3e5a7150, 0xbd78f5ee, 0x3e11eb11, 0xbf3c35e6, 0x3e6b2ffb,
                               0x3e9bf1e3, 0x3ebbcf04, 0xbc2f6c46, 0x3e400e0a, 0x3e85148e,
                               0x3ddbaa30, 0x3f45c2a9, 0xbd83bfaf, 0xbd166df2, 0x3e2593a6,
                               0x3e2f2b09, 0x3ec3f935, 0x3e256ce6, 0xbea14b75, 0xbed5e89e,
                               0xbe82d4ab, 0xbe846531, 0xbf0bad6b, 0x3ddfce8e, 0xbd51ae5b,
                               0x3e8d60d5, 0x3f6771a1, 0x3f17b271, 0xbd70b406, 0x3e03dac2,
                               0xbeeb1689, 0x3eadcd8a, 0xbe932c5d, 0x3e89d084, 0x3f2da353,
                               0x3dc8e86d, 0x3f03e8f3, 0xbe226669, 0x3e13f17f, 0x3dd939ac,
                               0x3e043073, 0xbdec745d, 0x3de838c4, 0xbf25260c, 0xbd66f8aa,
                               0xbc2999a6, 0xbf28a608, 0xbd9bf747, 0x3e44f7fc, 0x3e116248,
                               0xbeff82cf, 0xbf8d02d8, 0xbdc76b27, 0xbdd3b0f9, 0x3f15bb35,
                               0x3e8a98e3, 0xbeae3c8f, 0x3f193636, 0xbeb9a3c9, 0xbed1944c,
                               0xbe9f3ab2, 0x3ad50a5d, 0xbdc8753b, 0xbe498008, 0xbe94b3fa,
                               0x3ee58f05, 0x3c09046b, 0xbeaca1e4, 0x3db11652, 0x3e8cf6e7,
                               0xbeb1360d, 0xbea47053, 0xbdd1a42a, 0xbed461e6, 0x3f0585f1,
                               0x3e6f9ab7, 0x3f0ba5ab, 0xbf05c642, 0xbea35438, 0x3e445b1f,
                               0xbe778c2a, 0xbf07dcec, 0xbf5eb6a7, 0x3e0c2cf6, 0x3f1f82a4,
                               0x3eec2b4a, 0xbf0480dd, 0xbf1ccc7e, 0xbf0847a3, 0xbeb056c6,
                               0x3df5de15, 0xbd5b82d1, 0xbf03cb95, 0xbe269fbf, 0x3ef82017,
                               0xbe1db8ea, 0x3ece371e, 0xbe02568a, 0xbf373fb8, 0x3f369eee,
                               0xbf80556c, 0x3f3afa2d, 0x3e4f9fb8, 0xbebfe86f, 0x3ef5c91a,
                               0x3ee8fc7d, 0x3edfefc5, 0xbec4ab13, 0xbd48e4ed, 0xbf456004,
                               0xbdd53b3b, 0x3efa90db, 0x3f2e84cb, 0xbe9864f3, 0xbe725616,
                               0xbe986297, 0x3ceb1a3b, 0x3ebb86f5, 0xbe033786, 0xbe888640,
                               0xbebce2ed, 0xbc9158f3, 0x3eaf7094, 0x3edbad5f, 0x3cd59ffe,
                               0xbdfa9ea8, 0xbdb87005, 0x3e3cc693, 0xbe3e21b6, 0xbe1bab4a,
                               0x3d9dfb6a, 0xbe8507f1, 0x3fa5f4e3, 0x3db3277c, 0x3f8ca720,
                               0xbd970b2b, 0xbf05fa80, 0x3e85d281, 0x3e312b03, 0xbdcc1d73,
                               0xbe805c3a, 0x3d8cc75c, 0x3ec0def2, 0x3f2794d6, 0xbb56967c,
                               0xbc81bad2, 0x3ead66ee, 0xbe93a608, 0x3ebd2ceb, 0xbda27b29,
                               0x3e6ddbf4, 0xbde246f9, 0x3f3e4672, 0x3d3c15ae, 0x3eff31b3,
                               0xbde38e2a, 0xbe7e3c84, 0xbe78fdc6, 0x3ebcefe9, 0xbf020dd3,
                               0xbd8df74d, 0x3d200bb1, 0xbe83c52b, 0x3ee527ee, 0xbe838f61,
                               0xbd84cf83, 0x3e5e096c, 0xbe08c8a0, 0xbf6258f2, 0x3d0c9869,
                               0xbdf462e9, 0xbf0ca81d, 0xbea7de87, 0xbec7227a, 0xbe3425f4,
                               0x3eebb70a, 0xbcbf55f1, 0x3e92beb7, 0x3e7ff6e0, 0xbc82d3a8,
                               0x3f00c96f, 0xbeb2446f, 0x3eb113d1, 0xbe0ba194, 0x3e3dae6d,
                               0xbf41d2bf, 0xbd1b72c3, 0x3d69d447, 0xbf01ec42, 0x3e1849a7,
                               0x3ecb6791, 0x3d5948ec, 0xbd64bb85, 0xbe207261, 0x3e858e4c,
                               0x3eb20f4e, 0xbd20fc0f, 0x3c0b5d3d, 0xbe9bb25c, 0x3dd4bfe7,
                               0x3eba7f76, 0x3e6d1506, 0xbe529017, 0xbe9ee56c, 0x3e8c9c46,
                               0xbd088295, 0xbf05b78a, 0xbe896852, 0x3e7b777c, 0xbf1d6333,
                               0xbe201f4a, 0xbde1ddf2, 0xbe3f0aba, 0x3e13ef48, 0x3ef5e52c,
                               0xbdcfd4a9, 0x3d19592f, 0xbe87873b, 0x3ebb44ab, 0xbe3b98d3,
                               0xbd32759f, 0x3f066d41, 0x3ed9dc40, 0xbe3a3dba, 0xbee22454,
                               0x3f22341e, 0x3e6e7fef, 0x3f2f2ca7, 0x3cf57ac5, 0xbcf73813,
                               0xbe3b0b68, 0xbf22290a, 0xbe83b4d6, 0xbf3a9d49, 0x3dabac81,
                               0xbf240e15, 0xbf4465ed, 0xbe9afedd, 0x3e8896f3, 0x3f25bd93,
                               0xbc94c80a, 0x3dd5d5b0, 0x3d13b2ee, 0xbd268ddd, 0x3f30ef05,
                               0x3e89ced9, 0x3e7d4ab7, 0x3d8fcfb1, 0x3e771c24, 0xbe621e4f,
                               0x3f5f5919, 0x3f5bbb50, 0xbef486a3, 0xbeee5fd4, 0x3e6d8746,
                               0xbe6b04f3, 0x3f121369, 0xbd11abef, 0xbcd43b8e, 0xbd58dedb,
                               0x3d255881, 0x3e9ab94c, 0x3dcd76d7, 0x3f08317e, 0xbe6ca29c,
                               0xbbdaf88f, 0x3d0ad0ad, 0x3eb7aae2, 0x3ecb3532, 0xbceaf0e2,
                               0xbc94a3c3, 0xbd9ca118, 0x3e4090f8, 0x3dfd0685, 0xbfa914cb,
                               0x3dc603b5, 0xbe2ca170, 0x3dc4262d, 0xbe4ea232, 0x3eaee6c6,
                               0xbf48f4bd, 0xbe96ede5, 0x3e3cb3e6, 0xbeb6d41c, 0xbdfed3e2,
                               0x3cd8298f, 0xbea0bee1, 0x3f769281, 0x3f089f00, 0x3e3e3648,
                               0xbe6c82b6, 0x3dc907c9, 0x3f9a9013, 0x3e974a9d, 0x3e1cc66d,
                               0xbda54356, 0x3e9619cc, 0x3e89a387, 0xbf6d1e5e, 0xbf57d5a9,
                               0x3da2beac, 0x3d241497, 0x3e5a89f1, 0x3e8f2bc7, 0x3f506fda,
                               0x3f02bdb5, 0xbe899cd8, 0xbe87429f, 0xbf0389b7, 0xbe8355b1,
                               0x3ed6cf9f, 0xbdbf0651, 0x3e444d12, 0x3ecde761, 0xbddb0b3d,
                               0x3dcab6f5, 0x3d0d4b87, 0x3d7fc928, 0x3d9933b7, 0xbeaff0c5,
                               0x3ece9f8f, 0xbdc3b516, 0xbf450141, 0x3a8fc459, 0x3f15df39,
                               0x3f2fd236, 0xbd6ffed0, 0xbe752c62, 0xbdb12db0, 0xbf3fb4cd,
                               0xbe8221f0, 0xbd46c1bb, 0xbe2d259c, 0xbe615c62, 0xbf161941,
                               0xbef8786f, 0xbeb1a708, 0x3e8ae68e, 0x3e6e5036, 0xbe868f38,
                               0xbd3afeab, 0xbf63f847, 0xbeed84cb, 0xbb66a0fc, 0xbdc2439f,
                               0x3dd281cf, 0xbf396d73, 0x3e92c818, 0x3ea9c93b, 0x3ec886a5,
                               0x3d4b2b6f, 0xbe3fee37, 0x3d84cfde, 0x3edc6ad9, 0x3e2f27c2,
                               0xbe835b80, 0xbd53dcac, 0x3eb99bb5, 0x3e3fc31d, 0xbf92b7de,
                               0xbd5e23df, 0x3e4c8ed9, 0x3eec4919, 0x3e84f7c3, 0x3e6a23b4,
                               0x3f02774b, 0x3dfb9473, 0xbe0bae1c, 0x3ee86662, 0x3e67f5b0,
                               0xbcb05eae, 0x3e506be0, 0xbeeaf81f, 0x3df93b9f, 0xbddff146,
                               0x3be3a5b5, 0x3fbca0cb, 0x3f64b02e, 0xbd527036, 0x3e1d4fab,
                               0x3e62c189, 0xbe4bfb1e, 0x3eb7ee47, 0xbe836c7c, 0x3e12874d,
                               0xbc325b54, 0xbed396ef, 0xbecd367b, 0x3f22bd12, 0x3e8737cb,
                               0x3ec62461, 0xbdd8b35d, 0xbdffbcda, 0x3cf5dc96, 0xbf76cc4c,
                               0xbca02686, 0xbe4e5f72, 0xbeb9ba29, 0xbe3bb241, 0xbe075c8b,
                               0xbe5628c0, 0x3f0e782c, 0x3f3910d9, 0xbe820136, 0xbe4c98c7,
                               0x3ca5d513, 0xbf84c376, 0xbeba55c8, 0xbd881b75, 0x3f09b28f,
                               0x3e8a13ba, 0xbda5d522, 0xbebae4c7, 0x3fa026e9, 0xbea29a78,
                               0x3e3e7925, 0x3c4d7893, 0xbeb14c1c, 0xbee8d1e9, 0x3f1f1fbc,
                               0x3dfbffb3, 0xbe98575a, 0xbeb5b361, 0xbe0167ce, 0x3f946823,
                               0x3f969769, 0xbe839538, 0xbee13bb1, 0xbb4031e2, 0xbd97d916,
                               0x3ec7f431, 0x3eb81725, 0xbd385e09, 0x3eccfe5b, 0xbe12b059,
                               0xbd5249e7, 0x3efbdc48, 0xbf73dbed};

uint32_t bias_array[102] = {0xbafdb166, 0x3ec1be5b, 0xbe4cfbeb, 0x3e48e957, 0xbbf41291,
                            0xbe419d49, 0x3e1e3a27, 0x3e8d7b13, 0x3c2ad55c, 0x3ebf119a,
                            0x3e9ca6f9, 0x3d20aef7, 0x3ebb02a7, 0xbe04bef8, 0x3db60f31,
                            0xbe1cd580, 0x3cd10d69, 0xbdbdb2e7, 0xbe7d4465, 0xbd2b7e49,
                            0xbe6af06a, 0xbe697cee, 0x3d947590, 0x3e78d127, 0xbe564b9d,
                            0x3e83bdd5, 0xbdc1b36b, 0xbd3e0b2c, 0x3dc59be4, 0x3d1c2efc,
                            0xbe905b70, 0xbdee320e, 0xbe8aeed1, 0xbdce446b, 0xbeb02a82,
                            0xbe4aeff5, 0xbdcf5454, 0x3c2bf220, 0x3e757023, 0xbc888720,
                            0x3d57d585, 0xbe8f9ae9, 0xbdfd7add, 0x3e3f2a58, 0x3db17551,
                            0x3e546379, 0xbe0923a1, 0x3e83a02a, 0xbe733a4f, 0xbe2b5844,
                            0xbceab988, 0xbebffb79, 0xbe5d841f, 0xbe06144d, 0xbd5b335d,
                            0xbeb3fdb1, 0x3ed5fb1f, 0xbe7cfd23, 0xbdd0e21b, 0x3ea58d71,
                            0x3dcad575, 0x3e8d85e5, 0xbe43c7c5, 0x3f00d844, 0x3da86d8e,
                            0x3d5edd13, 0xbea8bf83, 0xbdf60802, 0x3c8b7e89, 0x3eb68104,
                            0xbc871257, 0xbe776ff5, 0x3eae4ca8, 0xbc9acb22, 0x3e16c506,
                            0xbed246da, 0x3e11ac0f, 0x3e51bcc1, 0x3e9a567b, 0x3e85e6f5,
                            0x3e39b4e2, 0xbe302e34, 0x3e4e46da, 0x3ea38767, 0x3e1b7657,
                            0xbe83049a, 0xbe89bfa5, 0xbf0dd4b8, 0x3b7481a5, 0xbdb7abf6,
                            0x3e48b968, 0x3ddd0ec3, 0xbe13eb1e, 0xbdbbe021, 0x3daca5b6,
                            0x3dc0df58, 0xbe56717b, 0xbac81894, 0xbdad126f, 0xbdeabbfe,
                            0xbf2a9721, 0xbec9ab24};