#include "policy_param.h"

uint32_t hidden_layers_size[3] = {48,32,24};

uint32_t weight_array[4080] = {0x3e14a41b,0x3eef1bda,0x3ebf5ecc,0xbe72cd8e,0x3e8d2379,
0x3ee318dc,0xbda040be,0xbede3510,0x3e9c2498,0x3e713b9f,
0x3cea0740,0x3e0e1e18,0x3dfdbccf,0xbeeb67af,0x3ef3720c,
0xbc5a2a9f,0x3dac5e1e,0x3d82c4d7,0x3d593dde,0xbf1da6de,
0xbef27010,0x3db46be4,0xbf238b0e,0xbe21a2dc,0x3ed2fc43,
0xbeab48dd,0x3e4c7e19,0x3e1347a6,0xbc6ddd80,0xbebaf64d,
0x3f10b659,0xbdbae3cc,0xbea25471,0x3ecce1a7,0xbefa128e,
0x3e97ae70,0x3e5a19c5,0x3c30db1d,0x3d9ed5fa,0x3eec0ee0,
0xbe5a2077,0xbe8783d1,0xbe91a64c,0xbe2daf7e,0x3ecf9885,
0x3d3c3f31,0xbdc8ed25,0xbccb4802,0x3d9b1045,0xbebc4b48,
0x3ef10b5a,0xbdfb520e,0xbda9630c,0xbdda7aed,0xbdfc283a,
0xbe7aa400,0xbdac5367,0x3ef2a32a,0xbe85ec56,0x3e76ddcf,
0xbe247d41,0xbea085dc,0xbe1f3c15,0xbe97c808,0x3e494398,
0x3eb86d05,0x3e19ffee,0xbe31509d,0x3d2cfd2e,0x3f443cc1,
0xbf44d34a,0xbdd35e1e,0x3e2bc608,0x3d44742d,0xbe24143f,
0x3e43e466,0x3eadb435,0xbe89c876,0x3ecd6507,0xbeb16029,
0x3d0e709b,0x3e0860c1,0xbe62ce44,0x3e7f588e,0xbead7d4f,
0xbe520b6d,0xbcbd9e94,0x3e6d9380,0xbe9be849,0x3c89a20b,
0x3eec28fb,0xbeeeb586,0xbc184399,0xbdb11b3a,0xbde34bb4,
0xbe340ecc,0x3dc10676,0x3d8731da,0x3d104a74,0x3e6af549,
0xbe1a1192,0x3e9de160,0x3ec28002,0xbdda30ee,0x3cae87cf,
0xbc436e11,0x3e95a223,0x3e477b1c,0xbe89972f,0x3c76e6e6,
0xbe7edeec,0x3e8fd1ec,0xbc82832b,0x3d0dc790,0x3e99e9c4,
0xbe7de934,0xbe98575e,0x3edebd06,0x3e145411,0xbec63523,
0x3e0ac53e,0x3e62fcaf,0x3de148b7,0x3e9305bd,0x3e01ae28,
0xbe2dec54,0x3ec7aac1,0x3ed4037f,0x3e509f7f,0xbe678c27,
0xbe5c02d7,0x3e505821,0xbdbeca68,0xbd3d2fea,0xbcea9e85,
0x3eb9b002,0x3d11756a,0xbe93d638,0xbd420091,0xbea5fe7f,
0x3eb456e6,0x3ce106e4,0xbde889bf,0x3e625279,0xbed770fc,
0xbe75ef66,0xbe8e6dc4,0x3d89cb35,0x3e86501d,0xbe141ecb,
0xbe2bacb1,0x3db4b05a,0xbc56981a,0x3ea51724,0x3eb16b1b,
0x3e258112,0xbe8b7717,0x3e00d522,0xbc984da3,0x3e559965,
0x3e1b0b1e,0x3e717af9,0x3e3eb8a4,0x3d1c6cda,0x3b5e7447,
0x3f27606d,0x3d1f18c5,0xbd8d7719,0x3dd4e1d9,0x3da94b58,
0x3ee7ff43,0xbe50ee6e,0x3e1d8b0f,0xbc783c4a,0xbe389a93,
0x3d3d5774,0xbebaed02,0xbda7b4f9,0xbddaca58,0x3e8193a0,
0x3d0dd04c,0xbe45d9e0,0x3e432f53,0x3b82ed55,0x3eea8e6c,
0xbd95c224,0xbe734438,0x3d3fc9a0,0x3d86df01,0xbcdd7557,
0x3dd8b3f9,0x3e5aa115,0xbd4d20fa,0x3d296e4a,0xbe05454e,
0x3e67a098,0xbe833060,0xbe314c90,0xbda1b9fe,0x3e99e3f5,
0x3e176168,0x3c84a5f7,0x3ea241b0,0x3eff8042,0x3e2f0aa4,
0x3deeab0b,0xbd8d78c6,0x3ec97ee4,0x3e8b8486,0xbd6e8bdd,
0x3c4b0db4,0x3de12112,0xbdb6e0e5,0x3dcc0c40,0x3ee882b7,
0xbda6b4a0,0x3e0e5f23,0xbe053e65,0xbe5af901,0x3d81ec8c,
0xbdf6fb8c,0xbea2ad01,0x3df562cc,0xbe0fd0af,0x3d8ff7a6,
0x3dfa5689,0x3e9102c6,0xbd9c287e,0x3e54fd6f,0x3dfbd671,
0xbe920173,0x3db78b53,0xbe457822,0x3dd3fb99,0x3d5e4f3e,
0x3cac0289,0xbe4b05ff,0xbd9ab844,0xbd457637,0x3d125660,
0xbe09342a,0x3e45785f,0x3de4f147,0xbeb645b0,0xbe94c3bd,
0xbe9adfcc,0x3c06e27a,0x3c263fa6,0x3e958a5d,0xbd05c7c4,
0xbeb52dcf,0xbe27dca0,0x3e4e9797,0xbe84cd46,0xbe1b30e4,
0xbe6f825b,0xbe2c64ab,0x3eeaa590,0x3ea8d14f,0xbe34e241,
0x3d10cbe4,0x3e06c33b,0xbd7b3db9,0x3ea93960,0x3d855f1f,
0xbd134398,0x3ef065c7,0xbe9a4c62,0xbea96587,0xbc01d051,
0xbe3bbb15,0x3ed071f4,0x3e41cec5,0xbee0bbe8,0xbd496ca6,
0xbe4040ed,0xbe58aa60,0xbc0f137f,0xbe6ebc8d,0xbe8d02ff,
0x3ce6f091,0xbc9754c9,0xbd58b83d,0x3d89e37b,0x3e1083f4,
0xbdb51018,0xbe3ad028,0x3d927c7c,0x3e678be1,0x3e5a58ce,
0x3ea5c173,0xbe4d9d81,0xbe1ecdde,0xbe792f45,0xbe30d6e4,
0x3de3f16e,0x3e49402a,0xbe60650b,0xbe81917d,0x3da6f496,
0xbe4a01b9,0x3e13949a,0xbd410e9e,0xbe8ec247,0xbe29763a,
0x3e33bedc,0x3db90d78,0xbd1d56a1,0xbde820c5,0x3e648240,
0x3df11aab,0xbdd9d81f,0xbeb12cf2,0xbca863ec,0xbdf9f678,
0xbee24edc,0x3d935979,0xbc87529e,0xbea29f21,0xbc679387,
0x3d686ce7,0x3d6b9f86,0x3da238bb,0x3d30f091,0x3e7ccbe7,
0x3e89ca49,0x3edeb63f,0xbe8749a2,0x3e6e3045,0x3dc0dd42,
0x3e8f9bef,0x3dac7d99,0x3f0d2a67,0xbd28d894,0x3e354f9c,
0xbde34b7c,0x3ea634af,0xbe59bb6e,0xbda29591,0xbdefada3,
0x3e58dede,0xbe437ab6,0x3df5a89c,0xbda23fe5,0x3de5d83f,
0xbec50a5e,0xbd0ab5b7,0x3e740f5b,0x3e9a9f83,0x3ebc362b,
0x3d9da114,0xbda82a5d,0xbda894bf,0xbce00a65,0xbed7495e,
0x3e9e2d85,0xbd40341d,0x3dd17295,0xbc665961,0xbd8b476f,
0x3c957b79,0x3e2c55a0,0xbde7cf1a,0xbd7dd37c,0x3e2c1756,
0x3e6d763b,0xbe90be83,0x3b1172af,0xbeab4560,0xbe98940e,
0x3ee3afb9,0xbe40b98c,0x3dbcdd47,0xbe57918a,0x3e310496,
0xbee03ef6,0x3dd9fbd1,0x3d9f5a41,0xbed088ad,0xbd5aea2c,
0x3f1f87a6,0xbbf52a14,0x3e395417,0xbdbc3099,0x3ebb522b,
0xbcbaca15,0x3e807d92,0x3e80674e,0x3e4a6b40,0x3e1651fd,
0x3e5439a6,0x3e23efbb,0x3f1e5a00,0xbebfc4f4,0x3c714405,
0xbdfe0a45,0xbdc07159,0x3ec33e74,0x3d473663,0xbe958a76,
0x3d09533c,0x3e5a8d72,0x3d07558e,0x3f01f13a,0x3d9ac633,
0xbe1be3c3,0x3db1658e,0x3d42ef0b,0xbec91fed,0x3e8d43eb,
0xbe9fac26,0x3c43e20f,0xbe4f22c0,0x3f05af70,0xbc30565c,
0xbedb5714,0x3daf08e5,0x3e44a5f7,0x3c510afd,0x3f0cadcd,
0xbc5444a5,0xbe0fe128,0x3eb58de9,0xbe273b41,0xbe67e64f,
0x3e687062,0xbe381bb3,0x3e81cc7d,0xbe5d3845,0x3e315106,
0xbec8d460,0xbe8173da,0x3d756e19,0xbd80aac2,0xbdad8239,
0x3cae06a9,0x3c3e5195,0x3e8cb025,0x3e45ea60,0x3e7b3722,
0x3e99d94a,0x3d527367,0xbe0fe5a7,0xbe121976,0x3de1d053,
0xbbade84a,0x3da4037a,0xbe84447a,0xbee5901d,0xbed1eb9d,
0x3dd8f72f,0x3ea3c5eb,0x3e071adf,0xbe06b3d0,0x3f2aa955,
0x3e61fa69,0xbcae0ccd,0x3d0391a3,0xbe060886,0x3d8f9526,
0xbf0bb611,0xbc38c52e,0x3dd078cc,0xbdcf3cae,0xbd040343,
0x3d593962,0xbe843907,0xbe5f8e1a,0xbdc82f3a,0x3e02c4bd,
0xbd11f2aa,0xbf40bbae,0xbdeff097,0x3d868206,0x3c8b9dc6,
0xbeb18f30,0x3c46fab4,0x3e89bc00,0xbf1105a7,0xbe6db33a,
0xbe588564,0xbe7bfa92,0xbd980ae0,0x3d15612b,0x3dfc3dc2,
0xbd716c53,0xbe0ceca3,0x3dc7f23f,0xbf072901,0xbebfc12f,
0xbe98b38f,0xbf62185c,0xbe2d1f0b,0xbe820a80,0x3b90a8ce,
0x3f5ff7a9,0x3e55a908,0xbd42e121,0xbfad32e7,0x3f27fab7,
0x3f01766e,0xbf491405,0xbe4c1858,0xbf028fb8,0xbdefef29,
0xbd4527f4,0xbf0e0140,0x3f47d794,0xbe893945,0x3ec1bfae,
0xbeae091d,0x3e364efa,0x3f7c6696,0x3e294334,0x3f117e68,
0x3e6a8265,0xbf32137a,0x3e263189,0xbe7a48a5,0xbd9c0eb7,
0x3f199e06,0xbe50d8b5,0xbdbf32b6,0x3efdd0dd,0x3e32454e,
0xbe2cd0c3,0x3eba2b81,0x3dc30f86,0x3f979434,0xbf6ead42,
0xbf0ffdff,0x3fa46389,0xbfe042bf,0xc027865d,0xbf98267e,
0xc06b3a8a,0x3f4480af,0x401293aa,0x4011bf9d,0x3fc212e9,
0xbe391092,0x3f3a5852,0xc081acd1,0xbe3d21f7,0x3f3402f6,
0xbf030316,0x3f272932,0xbf724e15,0xbecd28b3,0xbf07c641,
0xbf854f09,0x3ee94d79,0x3e3e3f22,0x3e4e26fb,0x3f007f74,
0xbf9d9f8f,0xbd5a7646,0x3fc5a659,0xbf509359,0xbfd3b7c1,
0x3f6d35ea,0x3f4f5d9c,0x3f8d597a,0x3fb97216,0x3e362d28,
0x3db853c9,0x3e36bdc7,0x3f7d495d,0x3f7bcb18,0x40049849,
0xbfc9f270,0xbe1dcccc,0xc0134b3c,0x40720e14,0xbfbbefb0,
0x3e5ebf1f,0xbff97d54,0x3ffeab60,0xbee26e03,0x3f8ea86e,
0x403935ee,0xc029ae5b,0x405c9f82,0xc00d6929,0xbfe33b9b,
0x3edeb123,0xc0578b11,0xbf4bceea,0xbf821def,0x3f92c2b7,
0xbdb43152,0x3e3f3dac,0x40476899,0xbfe8069f,0x3e93d5fa,
0xbeaae8f9,0x3f20d6ed,0x3e45fab0,0x408846d8,0x40371d45,
0x3e953597,0xc00c9bfe,0xc00efa5f,0x3fc0f589,0x3e305125,
0x3e730ca5,0xbe398bbf,0x3e33da42,0xbf9a2efc,0xbf4bfc67,
0x3fb1dc9b,0x4060cbda,0x3e9959db,0x3ef44988,0x3ff07278,
0x3c36d34f,0xbe8bc665,0xc0672100,0xbd7519ba,0x3f9ad223,
0x3fad64c4,0xbfe8f677,0xbf8e628d,0xc04f4fa6,0xbcf0c0af,
0x3e4b5819,0xbeae2ed3,0x3da9d152,0x3e358d95,0x3ec5cb91,
0x3e7cf8f5,0xbe12555d,0x3d955ce9,0x3e2da6d2,0x3ea087c3,
0xbe9a90a6,0x3ec4503f,0xbf18bf01,0x3d674920,0xbecbfb52,
0xbe681b22,0x3d901c40,0x3f0f99b5,0xbf3940b8,0xbe01461c,
0xbe2c0143,0x3e015edc,0xbf0268af,0xbe8dbbe2,0xbee05895,
0xbc9c65ef,0x3e94557a,0x3ef44f41,0x3e363c6c,0x3e9c2b47,
0xbec54b6b,0xbe80e39f,0xbf11c5be,0xbd5d2737,0x3e396850,
0x3f1fc45a,0x3ef354c1,0x3ef70023,0x3e1156ca,0x3f19e483,
0x3ead44f3,0x3eb00d81,0xbeacef3c,0xbe251d76,0xbd70bdcf,
0x3f19e0c0,0x3f0eeb5f,0x3d1e0f60,0xbedc91cb,0xbe148adb,
0xbe074c23,0xbee6087a,0x3f31a54b,0xbf3e01eb,0x3f00af61,
0x3ec0dfea,0xbe1b2625,0x3e18f7b4,0x3ca3d8a2,0x3f012af5,
0xbe8d7e00,0xbe19ce21,0xbc70042b,0xbf8057e0,0x3f0d98cc,
0x3f6b53d7,0x3f70af1c,0x3f249288,0xbf0355a6,0xbe85f459,
0x3ce69ff3,0x3e0ba27e,0x3f157f12,0x3eabd456,0x3ed6ce12,
0xbf1c13dc,0xbe5f9daf,0x3e417d59,0x3e54d6bb,0xbefff17f,
0xbda58c9a,0xbea17f99,0x3effb49e,0x3db30da4,0xbf4d9710,
0x3ec8519f,0xbe984c6d,0xbe407ea2,0x3f2ad794,0xbe84042d,
0xbf1d1a9b,0xbf106b7a,0x3eb0ace2,0x3f01db64,0x3e915522,
0x3ee8149f,0xbf4418b3,0x3e87686d,0x3e34441f,0xbc8c5532,
0xbe577f26,0xbe0a5910,0xbe43b4a0,0x3f0a2144,0x3e93fa5d,
0x3f1b9ef5,0xbe9bad8d,0xbdb9235c,0xbe05ad6c,0xbf9020cc,
0xbec0bd80,0xbbd5aeed,0xbf9e81eb,0x3eb6771f,0xbf5c23ba,
0xbeaea3ce,0xbdc4aa86,0xbeb8d0e8,0xbda83389,0x3e0f5a9b,
0x3e1730a9,0x3e36f772,0x3db3e588,0xbf16fad8,0x3ee6fc08,
0xbf73b891,0xbe2e2340,0x3e83affd,0xbe908b13,0x3d24b7a1,
0x3e9b20ee,0x3f94f65b,0x3efc9679,0x3e9d2c61,0x3f2afcbd,
0x3ec63d0f,0x3ed3fac5,0xbeae18f4,0xbe996884,0xbf27f685,
0x3e9d7ea4,0xbf03dea0,0x3dfed1d1,0xbe0fe1d2,0x3ee9e71c,
0xbed121e6,0x3e90eafb,0x3ed5bb84,0x3e956869,0x3dcaa6d5,
0x3c274017,0x3f31e369,0x3f0c72d7,0xbcf03bdf,0x3ea48bcc,
0xbf6b8074,0xbe44fa07,0xbe292b6a,0x3f51f437,0xbef1ed31,
0xbebe2c42,0xbf25935e,0xbaf8938a,0x3eabcc00,0xbf0af74b,
0xbcbc1d28,0x3ef76504,0xbac9dbd9,0x3e7ddd70,0xbeee1431,
0xbf1fe28a,0x3edcce55,0xbe6b9d81,0x3ec91123,0x3d8e3eab,
0xbbb43b28,0xbe93504a,0xbf118ede,0x3dd38ec7,0xbe41b8e7,
0xbf8424ac,0x3f2a2d13,0xbf89074b,0x3ec3f9ab,0x3e822b4c,
0x3c60c560,0x3ec9b4af,0x3f012aac,0xbe6c253f,0x3ca1eb77,
0x3e9281d3,0x3e227da0,0xbd16be23,0xbf2710df,0x3f623080,
0x3e96b379,0x3e698909,0x3f00f232,0xbea1e5cd,0xbe9c0221,
0xbf3edcf1,0xbf4d1b72,0x3f10fcd3,0xbd8596bd,0x3ebe5533,
0xbe9de871,0x3ee85245,0x3e66d546,0xbe6ee419,0x3ead4d8b,
0xbe2a5cb3,0x3d84cd4d,0xbf38eecd,0x3f5eaecb,0xbf8b6299,
0x403cb898,0x3fd3daea,0xbf0a4cc4,0x3ed9ddd1,0xbf1d72f1,
0x3e9c3745,0xbf2ddfc8,0xbe601804,0xbe31556f,0xbea810a2,
0xbdcd563f,0x3e468886,0xbfe04dc7,0x3f00dce7,0xbc0c7fe9,
0xbeb84f31,0xbd8c376b,0xbe5f81ab,0xbd74d6d1,0xbda86dd4,
0x3c834c8f,0x3e24ad77,0xbe043f68,0xbe551da5,0x4034ad23,
0x3d8f94f3,0xbe971193,0x3fa3b3f2,0x3cfc677a,0xbd231166,
0x3e86c93b,0xbe6e1011,0xbd24401d,0x3f6d9a0e,0xbfa1eff5,
0x3facb410,0x3f52ed25,0x3e9ca04a,0xbd519ca4,0x3f8e1038,
0xbf761099,0x3e58aece,0xbf6b0e0e,0x3fcfbe5a,0x3fb396d3,
0x3e585d8b,0xbf2cf390,0xbeb25bbf,0xbfbbc4e6,0x3f5ac8fb,
0x3ec7a03c,0xbf6f22e4,0xbfb2ebc3,0xc013f9d9,0xbefa28ea,
0xbe30bf95,0x3f848df8,0xbeafb5eb,0xbfc6b3ec,0x3e05fc45,
0xc01e42a3,0xbeaada25,0x3f81b081,0x3bad6fd0,0x3fa4f0f1,
0x394be40c,0xbf17aee7,0x3f8bd94c,0xbed3b45f,0x3fa7b379,
0x3fc86f58,0xbf9b8265,0x3e7370c8,0xbe2e459c,0xbebec5db,
0x3d0ac1ed,0x3e3cc9cc,0xbcb3bdef,0xbe2c47ac,0x3d5c3404,
0xbec96690,0xbe54fad1,0x3d6ebe1d,0x3c13bf07,0xbda5c7fa,
0xbd00844f,0xbe44785f,0x3e830f0b,0x3d71b255,0x3e708e0b,
0x3eae45f5,0xbdd580e7,0x3e130b4c,0x3dd131ae,0xbde88462,
0xbee78d2d,0x3e756328,0x3e112509,0xbe82abfc,0x3e9265fb,
0xbdfcddd0,0xbcd70997,0xbde2c92f,0xbe509ddb,0xbe10d536,
0xbd74932d,0xbe51986f,0x3ddaf773,0x3d1cb3f3,0xbe806e73,
0x3e27f948,0xbe91bc2d,0xbe01c2bc,0xbcd8d69c,0xbdc173cd,
0x3eaabeb2,0x3cd46377,0xbc4ce6f8,0x3d3bcafb,0x3b344790,
0x3e2c221a,0xbdc0f686,0xbe155cdd,0x3cc8a4bb,0xbcac766f,
0xbe411bb5,0x3d91d0dd,0xbcd6ddc4,0xbd24ae97,0x3e090c60,
0xbdc8b9d5,0x3c54574f,0x3c6ffa74,0x3d08f92a,0xbddca4bf,
0x3e05fc0a,0x3b68ac69,0x3b1dd4d1,0xbe7139ac,0x3e99ef05,
0xbdc332fd,0xbecc9bae,0x3ba04247,0x3d25fba7,0xbe1765f0,
0x3ddcaf9d,0x3e48a645,0x3ef1b966,0xbe4746b1,0xbdab779f,
0xbd8430dc,0x3e825ec0,0x3e9e70d5,0x3e17077a,0xbef7a003,
0x3c59b2c8,0xbdc652ea,0xbcb846da,0xbe0b9708,0x3eb515d7,
0x3ea50d34,0xbdbb1b7d,0x3d69c6e2,0x3db4802d,0xbd021307,
0x3e14bca4,0xbd5f7ee8,0xbe852b84,0x3eeef52d,0xbe3a293c,
0x3f87b6ae,0xbebf284f,0x3ea5b576,0x3f4fa16b,0xbdfeecdc,
0xbf936bf7,0x3e1052ae,0x3d97d063,0x3fad9c34,0xbe8b71d1,
0x3f69f721,0xc0064233,0xbe18ffc7,0xbbfba478,0x3e02e1f4,
0xbe034e1a,0xbfd49faf,0x3e658436,0x3f872bb3,0x3dda518b,
0x3f2f4180,0x3db5a2cf,0xbf9032b4,0xbeea1297,0x3eba5fab,
0x3f0daa1b,0x3e3e50df,0x3fa82be8,0x3e6c6429,0x3f7f38e3,
0x3e10091b,0xbfc11825,0x3dfa26fc,0x3f500b60,0x3ee88928,
0xbf25d56a,0xbe8f7626,0xbf398bc9,0xbe8814b3,0x3f60051d,
0x3f938144,0x3e7972f9,0xbe921acb,0xbe9594ad,0x3fa203cc,
0xbb03e2a7,0x3db43fe4,0xbd3501ac,0x3f4f5a7e,0xbdc748b2,
0x3f57cebd,0x3ec0f90d,0xbdbdb671,0xbfcc0bef,0xbf467488,
0x3f521629,0x3f6e9475,0xbdab1abe,0x3e717522,0xc004f7c9,
0x3d2f4fd4,0x3e94e1d9,0x3f77501a,0xbf30f851,0xbf0a17bc,
0xbde6e53b,0x3f3da593,0x3ed1d258,0x3fc5b74d,0x3f95ba8d,
0xbf19e6d8,0xbf5537b1,0xbe2acf07,0x3edfa4e7,0x3f0da18b,
0x3fa64fcb,0x3f22b0b4,0x3fc78b8f,0xbeb62504,0xbffa9327,
0x3ef28a85,0x3fcd5d63,0x3ea73b9a,0xbe2dd027,0x3a3ba800,
0xbf4211a5,0xbf05ae51,0x3f15f82e,0x3f2d3d63,0x3f5c8d35,
0x3ef56a19,0xbd89f21c,0x3fa45cca,0xbee1baca,0x3d79697e,
0xbee1f066,0x3e3113d7,0xbe4787df,0x3ebaeccc,0x3ec0e073,
0xbf4ba0e8,0xbf36512f,0x3f8d3476,0xbf0a7fcb,0x3f9a4ccb,
0xbe03528a,0xbebf28a4,0xbe451eb3,0x3e492b21,0x3f562285,
0x3e91ab3d,0x3ebeb99c,0x3e0a4643,0x3e3cc7c9,0x3fcc34eb,
0x3e24a253,0x3d1e1d4a,0xbed03e7f,0x3d184be2,0xbe89eb3f,
0xbe907780,0x3d871b3b,0xbe27a395,0xbe996aa1,0xbc9f31f5,
0xbf523e7f,0x3f5bf15f,0xbeddb8b9,0xbf866bdd,0xbf29b910,
0xbf29c25a,0xbfadc724,0x3d94836d,0x3edcde68,0xbd89929f,
0xbe332b74,0x3cce88f3,0x3fcc43ff,0xbc5a4695,0xbe873780,
0x3dad1f17,0xbeedf100,0x3f05590f,0xbe435792,0x3e9e80ca,
0xbf0664fd,0x3f22e8a8,0x3f37986f,0x3d86ad8b,0xbe1dd423,
0x3ea58e09,0xbdd09557,0x3ee54330,0x3e125bcd,0x3f01f414,
0xbe5eb28e,0xbe623f8d,0xbe894150,0x3e528f02,0x3f2eb13f,
0xbf4cec23,0xbcabe0f8,0x3f22e211,0xbf35d631,0x3c1ad543,
0xbf1acf72,0x3e97bcd5,0xbe547c9a,0x3e27228b,0x3f3423fc,
0x3e7b4529,0xbe97973f,0xbddd7c9e,0x3e8bb1a6,0xbe6890b3,
0xbe4c8ab1,0xbfb172f1,0xbedcef4f,0xbe0c229f,0x3e82bc6c,
0xbef0215b,0x3f5c7d94,0x3e372a22,0xbebced7f,0x3f2e5757,
0x3fc219e4,0xbdb65d2a,0xbc2ffa82,0xbd8823c1,0x3f1f0d97,
0xbec13ddd,0x3d89ceec,0x3f6f2d03,0x3d6a8c20,0xbd43c4be,
0xbd31e386,0x3e00e847,0xbc7fa06c,0xbe810d69,0xbecbb5af,
0x3e8588c6,0xbf1bd40e,0x3e92a933,0x3b8ce08e,0x3cf256cd,
0x3e7fa7da,0xbc47faf6,0xbf4e4fae,0xbee7c036,0x3e753510,
0x3e48e3a7,0xbfdd2603,0x3c01eb06,0x3f3c52f0,0xbe97aaf6,
0xbe98cdd5,0xbe9ff1ce,0x3cc5e409,0x3f187957,0x3eb6cf9b,
0xbe073fa7,0x3ec8e93e,0x3e1983fe,0xbe71f681,0xbd9f8b5e,
0xbebb034d,0x3d203c6f,0xbc963395,0xbf056598,0xbdc244b8,
0x3f33edbb,0x3bd90cec,0x3cb40c05,0x3f033b16,0xbf0f9c84,
0xbe12a12c,0x3f64f707,0x3eec6a08,0x3dbea181,0xbf40f899,
0xbd51a3b3,0x3d31271d,0xbe4fcd98,0xbe0194aa,0xbe975c6a,
0x3c851cc9,0x3e3d1245,0xbe2da574,0x3cec6125,0xbe804dfe,
0x3f8314cb,0x3d8bfa1b,0x3d53f4db,0xbd97a761,0x3e8fc485,
0x3c7f555b,0x3e7afd6a,0x3d5ca5c1,0xbe070146,0x3e4fa4be,
0xbd05a6ec,0xbe24103f,0x3d0e788b,0x3d3d8eca,0x3e333bac,
0x3de47057,0xbd343a55,0x3dea9fe7,0x3ec955b4,0xbc0bbf10,
0xbdf2510b,0x3e65f66f,0xbd28a105,0x3e2576dd,0xbdbbc3b2,
0x3f3ad0c2,0x3e0cde3a,0xbe202232,0x3e2ce9ff,0xbe381f6a,
0x3e7272b0,0xbf2bc9ce,0xbe8ab383,0xbc8dc695,0x3c9a769c,
0xbd45025b,0xbfa2d0a0,0x3f37b7f5,0x3fa31063,0xbef9ee19,
0xbf71c4c4,0x3e05315d,0xbf5af50d,0x3f37b367,0xbeb1e9ca,
0x3e74dc61,0xbfa0dba1,0xbf9a364b,0x3e9dae0b,0x3fee5494,
0xbe31ad3a,0x3f3ed252,0xbfb25ae4,0xbf253eff,0xbf7dea9d,
0xbdbd9508,0x3f6967d5,0x3ecc653d,0xbfbf84c3,0xbdaaf272,
0x3f99318d,0xbfb4575d,0xc001fb36,0x3f8023f4,0x3ee1704e,
0xbf37cbbe,0x3f9dc861,0xbf3ff1d3,0x3eec263a,0x3fe1cbfd,
0xbf2d70ca,0xbce256e9,0xbfdca94d,0xbf463bea,0xbf651b08,
0x3cb3d563,0xbf0cf81c,0x3f584f60,0x3d9522a5,0x3e21b98d,
0x3e25e827,0xbf16db58,0xbfa1f269,0x3f9d5c08,0x3d3f134e,
0xbd9ae746,0xbd855220,0x3dacfc7f,0x3c1add72,0xb9da8ed7,
0x3e291425,0x3d0ad98d,0x3d011155,0xbca11661,0xba63e374,
0xbd166772,0xbd11f60d,0x3c35c91d,0xbbd53698,0xbe1c3880,
0xbc9f3c88,0xbd885d49,0x3cd77871,0xbda68dc6,0x3b994591,
0xbce1d533,0xbb3371d3,0xbdf1a71a,0xbcef20eb,0x3d12f57d,
0xbd49c39b,0x3e96ce9d,0xbd9848b1,0x3cec3128,0xbe7dfa42,
0x3cf3d9b2,0xbcf3a8b5,0x3e19e1e0,0x3e2f8443,0x3dc13df2,
0xbc522801,0x3db83046,0x3d9238db,0xbe600558,0xbe0b7fe4,
0x3d896feb,0x3a354ceb,0xbdb6a7bf,0xbe96564e,0x3c5f7470,
0xbca663d2,0xbdab0bfb,0xbd94216b,0xbc9fdc06,0xbf038245,
0x3dbdbb4c,0xbd76e72d,0xbb4650a0,0x3aed8165,0xbb845233,
0x3e0f5d67,0x3d29d84c,0x3d10a8df,0xbcbce05e,0xbcea8ce9,
0x3c8bdeb6,0x3c1c7f38,0xbdb9f25a,0x3d21600f,0x3ca7e2b7,
0xbd6ca634,0x3d76e1f4,0xbcf17a74,0xbc874500,0x3d71006c,
0xbc873af6,0xbc0e118c,0xbd953170,0x3be0569a,0xbe46a826,
0xbe067d4a,0xbc9dfcea,0x3dae1b32,0x3d2916e6,0x3cba28d2,
0xbcc91209,0x3cadeb4a,0x3dec7c2b,0x3ce5814b,0x3da1ca49,
0xbd6a40a2,0xbc3b4145,0xbdbe2967,0x3d10d4b8,0xbd434533,
0x3cb9c94a,0xbe8aabce,0x3d46207d,0xbd59006c,0x3c5acd65,
0x3d2fd8d3,0xbc855f2d,0xbe095d95,0x3dd30d00,0xbc83c4f1,
0xbdcec74f,0x3c88a217,0xbc1e359f,0x3e8e1f55,0xbc9c1dc1,
0x3b413b83,0xbd55fb71,0xbc08d2d7,0xbb24af3d,0xbc7fbcb9,
0x3d220601,0x3cbe702f,0xbd8ff8a1,0xbd803478,0x3cede814,
0x3da1f1c4,0x3acbc5ba,0xbcbf5db6,0x3db20075,0xbbf06612,
0x3d9a70c0,0x3c976236,0xbd5d5d35,0xbe0af77c,0xbc9608a6,
0x3d9ded80,0x3bc9671b,0xbcc18a61,0xbcbf3ede,0xbe37c16d,
0xbd3c3cb2,0xbcd92cae,0xbcf74f15,0x3e614847,0xbf03f129,
0x3d2385d1,0x3cb83434,0x3a838eb6,0x3d0d813e,0x3da66a37,
0xbc58bb48,0xbc238f03,0x3c206c28,0x3cac6b07,0xbbd6bac6,
0xbeb7bf2c,0xbcd3a61e,0xbc38c270,0x3da40685,0xbd39914a,
0xbc048218,0x3e17e543,0xbd22e688,0x3b53e647,0x3c9fe6da,
0xbcc0c21f,0x39ded909,0xbb704f42,0xbe636d3b,0x3d749fba,
0x3c9dfbd2,0xbcd55b6d,0xbd0af75d,0xbdde6195,0x3c84654b,
0xbc66c292,0xbd35a142,0x3c7b7fdd,0xbcf8ac3c,0x3b8ffd32,
0xbef3ab48,0x3d8c184c,0x3c695fe5,0xbcfb16da,0xbdcfd61d,
0xbd0b3d2f,0xbbc59697,0xbdac4fa5,0xbcbc8267,0x3d15aab5,
0xbd1e2863,0xbeadaf92,0xbee5a407,0x3d119076,0xbc17d4cc,
0x3d0326cf,0x3cd4a96f,0xbc687a4a,0x3ab348ed,0xbc95b4b2,
0x3c552cb3,0xbca97f03,0x3d0cdc35,0x3d28004a,0x3e09f59e,
0xbcac6f64,0xbdad9acc,0x3d01de06,0x3bb266a8,0x3dcf0747,
0x3ca52f84,0xbc877301,0xbdb30633,0xbbf36fa2,0x3ccbab13,
0xbc077e28,0xbd5820ec,0x3d21f884,0xbcd8d676,0xbaef0b0c,
0xbd32ad97,0xbcb35e88,0x3de906cc,0x3bedcc5c,0x3df67066,
0xba9f9c81,0xbc9a4ca4,0xbc4bb6d6,0x3f01ba7f,0xbe3d0a99,
0x3c432b0f,0x3e137bf2,0x3c67b177,0xbd5b1166,0x3c109f2d,
0xbdbc3b6e,0xbd05f42d,0xbcd42a1c,0x3d6d0a2c,0x3e318f2d,
0x3ebc5c60,0x3c8d9158,0xbd39bb70,0xbcbbe8b6,0x3e090f95,
0xbed2fa0e,0x3cd16ee8,0xbcdc03ae,0x3c87258e,0x3d5be270,
0x3c9f9fdd,0xbf0c5167,0x3d035e8d,0xbce8249c,0x39c5f0fd,
0xbda07331,0x3d1eb580,0x3e4e81e4,0xbcecca23,0x3c994b89,
0xbccb32b2,0xbc75c0e9,0xbb327159,0xbbfb53f8,0xbdca15bc,
0x3a903591,0x3c92697b,0x3cc2c683,0xbcc46fc3,0xbd915183,
0xbbbf5ac9,0xbd18bbb1,0xbc2acc3a,0x3d21a85e,0xbd262841,
0xbcac41f3,0x3e08d681,0x3caa6ad9,0xbc7dc588,0xbe0393f9,
0xbdb98fad,0xbcf14315,0x3cc3e778,0x3b0011c4,0x3d1ad6b2,
0x3d624755,0xbd7c5aad,0xbe51435d,0x3f48b72e,0x3ce25d32,
0x3cce9550,0x3c6fbe27,0xbc8a8c61,0xbe5e9d2d,0xbc845e0d,
0x3cf72a51,0xbd6bb89e,0x3cf80e7b,0x3ee2f5d7,0x3eaf175c,
0xbdf6139b,0xbed37508,0x3ed522d5,0xbe0336b3,0xbf2c3fc8,
0x3f06ea2e,0xbd529fb6,0x3dc5232f,0x3ebd2b73,0xbea7942a,
0xbf0f3749,0xbe07d6b0,0x3dfd7c81,0x3ec4aeff,0x3c0afcff,
0x3ec24c06,0x3d61e61f,0xbeedf1aa,0x3da36133,0x3df42cb8,
0x3d4369df,0x3f01fc20,0xbf0fd2b7,0x3d920e94,0x3f2c22d3,
0xbe2c5258,0x3e9bfcc7,0x3d9fc55d,0x3f2c2c7c,0xbd9e2a67,
0xbecc388f,0xbe82e4e3,0xbe219a98,0x3fabe87d,0x3eceb7da,
0xbe585375,0x3e5a45da,0xbf152884,0xbdf577bb,0x3e941df4,
0x3d1f96e7,0xbe5dba3f,0x3d5e2eae,0xbe4d3a48,0x3e416d72,
0xbd5a77c7,0x3dbefd06,0x3d55e484,0x3ea53768,0xbeaefc1f,
0x3e1682df,0x3d02b19b,0xbe1bdf7b,0xbdd85c20,0xbe9941aa,
0xbdd991c2,0xbd942951,0xbe7c2d9d,0xbe19718d,0xbd9d1b59,
0x3e1eaf9a,0xbdd2986c,0x3d5ea3a2,0x3e498acd,0xbdaab3fb,
0xbdcd9ce8,0xbe94d44a,0x3d7d96d5,0x3c3c9645,0x3e5290d9,
0x3d010e5a,0xbe517e1e,0x3d8234ac,0xbe87ec0d,0x3dc53191,
0x3ddbdc90,0x3cb0d1bd,0x3c30f283,0x3df1318b,0xbc686ca2,
0xbca1507d,0xbd93c2a7,0xbd5ee18c,0x3df265e9,0xbd13ebf4,
0x3dd13549,0xbdbefb05,0xbe3b23ec,0x3e1966c8,0x3e08830f,
0xbdea3933,0x3d745145,0xbb05bffb,0x3d94bc2d,0xbeab7dee,
0xbe0a0829,0x3ea10b6b,0x3cd277d3,0x3e1da3de,0xbd791b26,
0xbe9ed993,0x3eb5cafa,0x3e995cc6,0x3e1723f5,0xbebe058e,
0xbcb0a321,0xbedb20e1,0xbefeb000,0x3ed8d45e,0x3d9dcff6,
0x3d2acb39,0xbd8179ef,0xbeea2676,0xbe0fa037,0x3ea8ae2d,
0xbf00b610,0xbe483d51,0xbe78cae1,0xbd71d422,0x3c933c24,
0xbf1000b2,0xbdb3f2a9,0x3f0a4516,0x3e22d443,0x3d21051d,
0x3f0c5771,0x3dca5346,0xbf338022,0x3e97f63e,0x3f332e83,
0xbce7ccc5,0x3e664203,0xbea69767,0x3d6ad925,0xbe03ac66,
0x3e789aa6,0xbe18ece6,0xbdd1ad79,0xbe8ff0fb,0xbe60b329,
0x3ec9288f,0xbe899b34,0xbc7fc08d,0x3e8253d5,0xbca664c3,
0xbe6ef71b,0x3e68b556,0x3dc0bfcf,0xbe80807c,0x3e476fb2,
0x3f22045b,0x3f0c7357,0xbf1028c0,0x3dd7cab8,0xbd56d2b9,
0xbc9e022c,0x3e7d5f26,0x3e6a67a1,0xbdc25bf2,0xbe8c4d14,
0x3d496f65,0x3eda7301,0x3f229436,0x3ef31607,0x3e9ef11e,
0xbee679d7,0xbeb1cddb,0x3e7cc7f8,0x3e2191fc,0x3f06fd69,
0xbeaace94,0xbbcb8df9,0xbe398788,0x3e4e4d17,0x3bfba909,
0xbdfe9d44,0x3e749018,0x3dc4527d,0xbde52630,0xbf054040,
0x3ea0165c,0xbea46eb7,0xbf4b5578,0xbe6c2f69,0xbe7fb4dd,
0x3eb48d80,0x3c30d596,0x3dd968c4,0x3f16f716,0xbea13d7f,
0xbea6686c,0xbe8feec0,0xbca54063,0x3f169523,0xbeca7551,
0xbe22113e,0xbe5c0569,0xbebe2ecb,0xbe128e50,0x3edc9b37,
0xbe54adf8,0x3ead9f35,0xbe3fe18b,0xbd3a4ef9,0xbed6952a,
0xbe25102e,0xbe4438a7,0xbc1fc83a,0xbe0b93a6,0xbecb4e79,
0x3ef27687,0xbeb677df,0x3e1809a9,0xbe631286,0x3e60ce0c,
0xbdb31513,0xbf2c26f1,0xbe64d5a3,0xbc45a596,0x3e729532,
0x3ee1725c,0xbd340fff,0xbe83cd4d,0xbefbc764,0xbf593b34,
0xbc72801d,0x3f4ad21d,0x3eb224eb,0xbe41ab8f,0xbe7d08e7,
0xbd1a1e1c,0xbf116762,0x3f65a7c0,0x3ed240fc,0x3e461523,
0xbe13640e,0x3d4350bd,0x3f803749,0xbf269fa8,0xbea48600,
0xbda75d00,0x3e50e548,0x3f5bb797,0x3d707d8d,0xbf1258c1,
0xbf5e5ace,0x3e921ced,0xbf11dd86,0xbea98e45,0x3fb2afd8,
0x3ec4928e,0xbe2a87fe,0x3d014794,0xbe929664,0xbe09ed2c,
0x3dc010bf,0x3e16254a,0x3d11e0dd,0x3da79dae,0x3d1b9c41,
0x3ead5eed,0x3edc2f2e,0xbe68eb44,0x3d844731,0x3d97a9d9,
0xbed492d1,0xbeaf9edf,0x3f2741f2,0x3df581aa,0xbdd118be,
0xbe857ee8,0xbd1bf728,0x3e8dd8cf,0x3e5b4053,0x3e4d208c,
0xbc2f7242,0x3d55e9ad,0xba28bf85,0xbd1dd779,0x3b031e07,
0xbdf03b96,0x3cc83147,0xbe44dd42,0xbdc98ba7,0x3dec31f2,
0xbc42e009,0x3ed4c97d,0x3e840ddd,0xbf0e98ad,0x3dd304e4,
0x3d4ff566,0xbec7b7c3,0x3e092543,0xbee7e3eb,0x3e7f7afa,
0xbe45ce0d,0xbe99a9c8,0xbf21c951,0xbd01c49d,0x3e22723b,
0x3d2fb45e,0xbf18986a,0xbe80485d,0xbe358bcb,0x3f3ce500,
0xbef839a7,0x3d15a6c0,0x3ec47250,0x3d8e2d4d,0x3ec94d8c,
0x3d4b4faa,0xbd0de209,0x3db3d8cd,0xbe4bfc2a,0x3d1b1bdd,
0xbe6e25b8,0x3e6c2ce0,0x3f052e90,0x3eb2126b,0x3f274dc9,
0xbea1c14d,0xbd1a9fce,0xbd978546,0xbecb627d,0x3e2f5923,
0xbe00627e,0x3dca3cab,0x3f5e96c8,0xbe981907,0xbe12ce49,
0x3f04dd16,0x3e2547fa,0x3f461a5b,0x3f022cc8,0x3e9e16a7,
0xbdd792e4,0xbea84fca,0x3ecb5a29,0xbec454c5,0xbf36b60b,
0x3ec07fdf,0x3e6423f8,0x3e83d5be,0xbda5fc5e,0x3e594d70,
0x3c1a4ab9,0x3f46e5dc,0xbdc18deb,0x3dcbada5,0xbec5b41b,
0x3e9436b9,0x3ee4ff70,0xbc8637cf,0x3ebffdc1,0x3cbbb688,
0xbf1b5833,0xbefc2a60,0x3e93a443,0x3f09896d,0xbea20992,
0xbd20ca8c,0xbeb45023,0xbf313e12,0x3d9084a0,0x3e2f2b75,
0xbdb2a608,0x3d27327b,0xbe2b8858,0x3ecb26a7,0xbead0cf9,
0xbe886160,0x3e67fb7b,0x3e924d51,0x3ea0e53e,0x3db39599,
0x3efac8ab,0xbf18fff8,0xbe829abb,0x3e5e6407,0xbecb6006,
0x3de9e8de,0x3ef34305,0xbde414a0,0xbe83c0d1,0xbc21f92a,
0xbfe87d94,0xbe5744c1,0xbd8f6641,0xbceb10aa,0x3c22c3b2,
0x3ecbe3e2,0x3ec5d354,0xbda339a1,0x3d9fb36d,0xbe1128a3,
0xbc8773fa,0xbedce985,0x3ef5a1aa,0x3e472476,0xbd7eebee,
0x3ed243f0,0xbea2f436,0x3f04def4,0x3d94357a,0x3d2c7bac,
0x3e2958ab,0xbf1a030c,0xbea55c50,0xbe7eb8dc,0x3e895d0e,
0xbdbf123c,0xbcebf4c1,0x3d2911c2,0xbf494c1c,0xbf43d573,
0xbf119e6b,0x3de9a495,0xbe488a05,0x3ec3dcb1,0xbef8d087,
0xbd59e93f,0xbc61ae0a,0x3e74f95c,0xbe8d710e,0x3f19d05e,
0x3f05d291,0xbed603f8,0xbe505138,0x3dbb870a,0xbcb6bd45,
0x3e21c098,0xbf9915d7,0xbf0bd533,0x3f033034,0x3c807a9d,
0xbe89961d,0xbf699bbb,0xbf126c43,0xbefaed8d,0xbdd0f0fc,
0x3fbac483,0x3e1b2f2f,0xbf9afa8c,0x3db31339,0xbf5a15f4,
0xbf1128b4,0x3fce6eef,0xbf9efd33,0xbf8dca02,0xbf397ba9,
0x3f0f819f,0x3fac86d0,0xbe100752,0x3cd6141c,0xbf8e33d0,
0xbfaeb087,0x3e530a55,0xbf060381,0xbebc5906,0x3e443651,
0x3de2c31e,0x3e39df6c,0xbf34c937,0x3f54c535,0x3e1d3e8e,
0xbf2e674a,0xbdd356a7,0xbe41ac1c,0xbf8eb102,0xbf13421e,
0x3ef6819f,0x3f293299,0xbf59de93,0x3d31e37a,0x3ecb273e,
0xbeccf88c,0x3f5c37dc,0xbea8cecd,0x3dcd93c9,0x3e29062f,
0xbd913a99,0x3da9b5b8,0x3da3a315,0x3e1b0843,0x3e3c3eca,
0x3e9fdf1e,0xbe32c03a,0x3d004c26,0x3e207a6b,0x3e2e790f,
0xbd5a9d78,0xbe5f4508,0xbe53e7e0,0x3e68b89f,0xbde175fc,
0x3dccafae,0xbde65c7b,0x3d974ab9,0x3f127f7b,0x3d99658e,
0x3e8b0dde,0xbe3a3a63,0xbeb340fe,0xbce05fe8,0xbc80825c,
0x3e9ea170,0xbe2984cb,0x3e2123fe,0x3d6662de,0xbe9c579b,
0x3db77406,0x3dc3b1a1,0x3cf8f09f,0xbf33274d,0xbef6e09e,
0xbda93823,0x3f04e1d7,0x3efad835,0x3e8a60ca,0x3d50a272,
0xbeff12ba,0x3ba1a493,0xbdd2b8eb,0xbeda132c,0x3e09f549,
0xbf084aa3,0x3d1dccfd,0x3edd54d3,0xbecc55e7,0x3e793a3b,
0x3ec22a70,0xbe6be08a,0x3e5454e6,0x3dc349e2,0xbd9efe54,
0x3e97197b,0xbe123ce9,0x3f0445c4,0x3e1780d8,0x3da58a3d,
0x3e03c7b8,0xbe9bf40c,0x3c9f6c7b,0xbd466638,0x3eb2ebb6,
0x3d41384b,0x3e8a2e06,0x3e513aa9,0xbd9679cd,0x3ead3d51,
0xbddcb0e0,0x3eb9f4fd,0x3e1e0af2,0xbc316455,0xbd9776a3,
0xbec41232,0xbd9fa7cf,0x3e3c471d,0x3e7efd05,0xbe11f924,
0x3f2af25e,0xbe99cfa6,0xbe504824,0xbf117029,0x3e054b56,
0xbd938835,0x3e847460,0xbd9ce7aa,0xbd6749cd,0xbde7d43e,
0x3e86eb8f,0xbb8a62c1,0xbe683618,0xbe02b058,0x3defeec8,
0x3e388e42,0x3ec42cdf,0xbdf9102d,0x3ec64f89,0xbd8bb540,
0xbe560d2a,0xbe70b60e,0xbea2aeb2,0x3d95eb00,0xbd968d0a,
0x3e9c142f,0xbe07be3b,0xbed3e805,0x3ec0a19d,0x3e9b4c4f,
0x3e8b0c4a,0xbc807e3d,0x3dcae339,0xbe86f773,0xbf6b849d,
0x3e02e172,0x3caa463a,0xbeee3777,0x3f48b1d7,0x3d7d0ef0,
0xbefea115,0xbe66fd8a,0x3e3c0dc9,0x3dd845d0,0xbf0e2566,
0x3d65cf02,0x3e9b8ae1,0xbe1cec6d,0xbe215fa2,0x3d82010e,
0xbde652b5,0x3d4c463f,0x3e13c49f,0x3ed41132,0xbd1af70c,
0xbe9f177a,0xbd9b3ce7,0xbf19e4c6,0xbd9d28d8,0xbdd4d667,
0x3d91f463,0x3e003496,0x3df3ec91,0x3d0d8009,0xbe003f73,
0x3ec3883a,0xbd1117e2,0xbf3e6cdc,0x3e1460c1,0x3eb03330,
0x3e73a917,0xbe806e09,0xbd9c9666,0x3f2d3fe8,0xbe15cc0a,
0x3ea0f921,0x3ca372b0,0xbd5a2f91,0xbc5cae37,0x3d2ffa5a,
0x3d8d0503,0xbe0b31e3,0xbe6ddc2b,0x3d97530c,0x3db11f3d,
0x3e189126,0xbe657c95,0xbe7e1a7b,0x3e212c94,0xbe66b538,
0x3d9f37c1,0xbe0838cd,0x3ea48108,0x3e4874fc,0x3d9db8c6,
0xbdf5ee21,0xbc9f85e9,0x3de415bb,0xbf04ea82,0xbe20b7e2,
0xbef3278c,0x3ccdf787,0xbe299a88,0xbe17f4f5,0xbe55d589,
0xbf00024a,0x3e9cb70f,0x3e17d0ae,0xbe35ddce,0xbd31ab0b,
0xbe695813,0xbd820ffa,0xbccadba3,0xbe1d001e,0x3e929c98,
0x3d5ab6d3,0xbdb83042,0x3af3a6e9,0x3d723ac5,0xbe2aa3fb,
0x3db036f8,0xbf2e281b,0xbe1ff04a,0xbe28c7c4,0x3db6bce0,
0xbdab5a10,0xbda19423,0xbe28959a,0x3eee4beb,0xbe05232e,
0xbce11250,0xbe9504b7,0xbb2a1f8d,0x3e0ddedd,0xbc1dfbb8,
0xbb99825e,0xbed249c2,0xbea7c787,0x3da73e6d,0x3caa3288,
0x3eeac687,0xbe79dcd1,0x3e98c584,0xbd4dbb1e,0x3ed1d9a5,
0x3e4777e2,0xbf345734,0xbc8e4bd2,0xbeedf3a3,0xbee6fd13,
0x3ea9e8c7,0x3eed50a1,0xbf56afbf,0xbf08898e,0xbf0643ac,
0xbf45b732,0xbe38a585,0x3c9ebbed,0xbebd5a27,0x3f365a45,
0x3ed44bce,0xbec657af,0xbf495ac1,0xbef64c03,0x3e7d02a1,
0x3d8ee122,0x3db626c4,0x3f3dfd76,0xbf0a6fda,0xbdff2c94,
0x3eb5b118,0xbee6fa1d,0x3f139e40,0xbe2b9375,0x3cc2af26,
0xbe12830e,0xbc916475,0x3e28537b,0xbe4011b6,0xbce466cb,
0xbeafd8bf,0xbe5e8795,0x3e53ccc4,0xbe3c179d,0xbed9740f,
0xbe243e47,0x3e1f9c49,0xbdef342e,0xbe26fc8d,0xbf027833,
0xbd4345df,0xbe2e938e,0xbe37abbb,0xbd6cb175,0xbed22565,
0xbefe1cd8,0xbe0fee95,0x3dfd5b45,0x3d675515,0x3c97da3a,
0x3deca74a,0x3e5d889b,0x3df28dcf,0x3eb6552e,0xbecd4195,
0xbf176f8d,0x3f00e2f7,0x3d41678d,0x3eea409e,0xbe00213b,
0xbf1e2aad,0xbea9bc0e,0xbfb84d47,0x3d42c7d0,0xbf03da7d,
0xbe0872b6,0x3f576821,0x3f01c034,0x3e9bc07c,0x3dd31ab5,
0xbf2e5ac3,0xbee29990,0x3dfdc4c0,0xbf0bd687,0xbeaef31e,
0x3eacf308,0x3f6955a3,0xbed99549,0x3db8a3f8,0xbf4d70a3,
0xbfa74b84,0x3ecec04d,0x3e93a117,0xbcc1096e,0xbeece86d,
0xbf7e9a4b,0x3f7e4b08,0xbee476c2,0x3e7bc01d,0x3d83a69b,
0x3dad286e,0x3c2dc3dd,0x3e15edcf,0xbe35bc9d,0xbf2396fc,
0x3ea6b360,0x3e3acebd,0x3b396b2b,0xbec6077a,0xbe467f27,
0xbb6c7bee,0x3dedee0f,0xbdd92f09,0x3eaf47c7,0xbd7093a2,
0x3ded37ff,0x3d5b1252,0xbe1e1238,0x3e3423e9,0xbde20ffc,
0x3d4b943c,0x3e8496ab,0x3e8fae29,0x3e3d7abf,0xbcc95ee8,
0xbf0076f2,0x3ea042a1,0xbeda058d,0x3f19f5c3,0xbdd41955,
0x3e224001,0x3db43a8e,0xbef38676,0xbf207053,0x3eafeeba,
0xbea5f455,0x3e6f5997,0x3f53d2d9,0xbe65d983,0xbd868109,
0xbd049c53,0xbed4d4cf,0xbe99f515,0x3e8c6968,0x3f08ef98,
0x3e253742,0xbe3b29a5,0x3d80bc97,0x3e48fb5b,0xbf25b53d,
0x3da69a65,0xbe3c990c,0x3eb1e724,0x3c1a5fcb,0xbee843f9,
0x3d6a96d2,0xbf2cf28f,0x3e9e145a,0xbc591424,0xbec0c811,
0x3f0ab78d,0xbe86c94e,0x3e063025,0xbb13c1bc,0xbc97571b,
0xbde8afad,0xbccd6789,0xbd08ab91,0xbd546a31,0x3e6890c8,
0x3c2558d5,0xbe16355c,0xbdf6b8ba,0x3ee092dc,0xbd12980d,
0x3e1e9db8,0x3e6f76b0,0x3d5be192,0xbd2bfd5d,0xbd90703f,
0xbdaf8881,0xbe06cf35,0xbe2fa9c1,0x3d468be2,0xbe07b19e,
0x3d41ac1e,0x3c95085d,0xbd7c59b4,0x3e497b84,0xbe114f91,
0xbbbc0a78,0xbcd25ab9,0x3db1a4d9,0xbdc0b4fd,0x3dcf7811,
0xbe7d4b67,0x3d2683b7,0xbeb5e14b,0xbe36a6be,0xbdf8696f,
0x3eb1182b,0x3f15980c,0xbcf58d38,0xbe0b146e,0xbe97a1af,
0x3e348767,0x3e127609,0xbe0d1fe7,0xbe5f019e,0x3c8a669c,
0x3e441058,0x3cc925c8,0xbf2ee2fc,0x3eff4b01,0x3eeb2108,
0x3cba7b60,0xbe3bd84c,0x3e800eaa,0x3eb05318,0x3e87f133,
0x3d5b4a58,0x3ec1bbec,0x3da824b4,0x3d3b9f7d,0x3cd88e89,
0x3e8f1fc2,0x3f415a99,0x3f6ba439,0x3ed55614,0xbe88c073,
0xbf1b0217,0x3e8e673a,0x3ef12c6c,0x3d8ba292,0xbedce117,
0x3f42c835,0xbd48ece6,0xbdd8cc56,0x3f6d4d03,0x3f767ef7,
0xbdcab802,0xbe91e859,0xbcfa9fbd,0x3e8391af,0xbf0de489,
0x3f060202,0x3cf7af5e,0xbefcf734,0x3e2474f3,0xbe283ece,
0xbf23aac0,0x3f0b8219,0x3ee46f9c,0x3e89e06f,0x3e9845e3,
0xbe99fbea,0xbdbbc239,0x3ccf5cff,0xbebb3189,0xbe2a2bf5,
0xbe050bff,0xbe878929,0xbc812cd4,0xbdb4ee38,0x3e504531,
0x3e36685a,0xbdf98412,0xbe9dd2da,0x3ea06b04,0xbefbf5d8,
0x3df6ae6e,0xbe1ee6e6,0x3d4490a8,0x3e987c11,0xbb366cbf,
0xbd610129,0x3de1202b,0xbe7bfe9a,0xbda390dc,0xbe7affbe,
0x3ad11c03,0x3d06725b,0xbdc947ed,0x3d74d487,0xbddcfab6,
0xbe4b8245,0x3d21dc31,0xbe74b643,0xbd694106,0x3dbe7991,
0xbe8dfadc,0x3ead893b,0x3e359429,0x3d02cc6c,0x3ec1ce7d,
0x3db2a975,0x3edb6ad1,0xbeadba08,0xbec44969,0xbe6d6b7a,
0x3f39191c,0x3df9d3a4,0xbe7f4ada,0xbdbed6b5,0xbece2b52,
0xbc08c8c5,0xbe9b9e6e,0x3ea1b5f2,0xbf0e9afc,0xbefed9d7,
0xbf0bbe09,0xbd879b73,0x3ca5ec8a,0xbc26d567,0xbe5b4e44,
0xbf33075d,0x3e8b90d2,0xbe4e19f4,0x3e37604c,0xbeda324c,
0x3f42108c,0x3de59e70,0x3e5ccabe,0xbe4980da,0xbe5f995b,
0x3dcda9dd,0xbd526849,0x3e2940c6,0xbd3430fd,0xbda2ee5d,
0x3f47e4e9,0xbf02a918,0xbec579cb,0xbef03ff1,0x3e2833ce,
0xbeabf558,0x3e2b6ef6,0x3e246270,0x3ed810d8,0xbe2fd03b,
0xbdae8f2b,0xbdd804cd,0x3e02c6cc,0x3e6d3efe,0xbe85b877,
0xbdb23152,0xbe9fb5ef,0x3ec9a00c,0x3e434b94,0xbd6bb729,
0x3cab88fb,0xbdc27310,0xbe934966,0xbe103f19,0xbdc00dae,
0x3d5f4128,0xbcc96377,0xbe6c13fd,0x3d6fe6f6,0xbe8b8ea6,
0x3e77020c,0xbe9091c3,0x3dab8caf,0xbecb984b,0xbe424866,
0xbf13a548,0xbb9f159b,0xbe4ee341,0xbe6ac596,0xbea55d75,
0xbd11a614,0xbee4a834,0x3e8dece4,0x3f010f73,0x3d337ae0,
0xbe3f98b9,0xbe229e30,0x3e076af0,0xbe5aa01b,0x3daad671,
0x3ec70607,0x3ed93b5f,0x3d275df0,0xbea93d15,0xbe6269ce,
0xbe97e094,0xbe2aca85,0x3ddb48a8,0xbc16c9c5,0xbdc64789,
0xbe59aff3,0x3c020241,0x3e6eb284,0x3e3cc957,0xbe028b6b,
0x3da4e506,0x3eb95d89,0xbed0e10b,0xbcd4b1f1,0xbe28e300,
0x3e5bed8e,0xbf1af42a,0x3edf2d92,0x3de8fff7,0x3c929fa2,
0x3e917280,0xbd8f75c6,0xbd64ace3,0x3e6f612c,0x3d1c6a94,
0x3a64af57,0x3eb1bed5,0xbe0720d0,0x3e57fa24,0xbe0d7144,
0xbe11fe31,0xbe1bfd1e,0xbdad2a86,0x3daf86f8,0x3e8f9b90,
0x3dc15d4e,0xbe87b172,0xbcc56d55,0x3c4aedaf,0x3bb79575,
0xbdc17424,0x3e8365a8,0x3c649a25,0xbe5a4ecc,0xbe7b45d2,
0xbdaf1921,0xbdbb4230,0x3da62631,0xbccc784a,0x3cdebd9b,
0x3dc0711b,0x3f013625,0x3e8681fa,0x3de2dc52,0xbda37bb7,
0x3db592bf,0x3d324cdc,0x3e9b4bf3,0xbd4a23a2,0x3e8fdb08,
0xbecaa9af,0xbecfcc7c,0xbe348670,0xbe946a2e,0x3eb69a78,
0x3e81fa7b,0x3e80bde8,0x3e530acb,0x3db391d8,0xbe3ccf44,
0x3e926316,0xbdb71341,0xbf11caed,0xbed6baaa,0xbe8f3cf0,
0xbd0022af,0xbdd430de,0xbe5a724e,0x3e014ef7,0x3e86f664,
0x3d0485a2,0x3d67b531,0xbcbf7d4e,0x3ee587ad,0x3e8a577d,
0x3d119326,0x3d7d1946,0x3b88663d,0x3e3f1846,0x3f38c53e,
0x3dc4e565,0x3c4a27bf,0xbd33c275,0xbe02e350,0xbf06b961,
0xbee72d4a,0x3e439301,0xbe80ada7,0xbd419093,0xbcefaba5,
0xbefa9aa2,0xbcae00f4,0xbdf690c0,0xbe5ef373,0x3eeeb28e,
0x3e946361,0xbd95d08f,0xbe76faf9,0x3ed352d4,0x3e169870,
0x3d255309,0x3e8d213d,0x3e5e27f9,0xbe2d4beb,0x3d17668f,
0xbe972703,0x3d9b8ec4,0x3ee6b815,0x3e22f84c,0x3d95403e,
0x3e18853d,0x3da3c459,0xbda2f44f,0xbf685973,0x3da763e4,
0xbe3e7812,0xbe6585f8,0x3ec6a22c,0xbd80b0a8,0x3e5a5869,
0xbca9392b,0xbdbdd72b,0xbd058899,0xbeb049fb,0x3d719b41,
0x3eb9224f,0x3db07265,0xbd5014f5,0xbafac486,0xbe9b7057,
0xbd426247,0x3dbf7408,0xbcdcd5bb,0x3eea2c0a,0xbddd87de,
0x3ead865a,0x3d2df445,0x3d62e4d6,0x3d7375e0,0x3eb789e8,
0x3e0e2a11,0xbdcd4790,0x3a1223fc,0x3df95bd6,0xbe5c5d35,
0xbe3978c4,0x3e3060a4,0xbe29aacb,0x3c788211,0x3e86e11a,
0x3df573aa,0x3ce7d441,0xbcc4b8cb,0xbdcded3d,0xbd82a4c2,
0xbce56d39,0xbc3ef193,0x3cbdff4e,0xbcefdee7,0xbea3ad9c,
0xbe82b5a3,0x3c8dbf79,0xbe24e522,0x3d9957ba,0x3dd9e766,
0xbda9ed69,0x3de5a58b,0xbdac07ec,0x3d620824,0xbd850cfc,
0x3d06b2a9,0x3dc6f4b9,0x3d825151,0x3db11f34,0xbcdb92f8,
0x3c948092,0xbf29b851,0xbd3fe31a,0xbe99ef92,0xbde1460c,
0x3b6d8b66,0x3d8f0791,0x3ea3f867,0x3c6aa86c,0x3eb3f0dc,
0xbe923fdf,0x3d81ccfe,0x3bd9b718,0xbd311e42,0xbe81c4db,
0x3d3da60a,0xbe1ef056,0x3dace289,0x3b5a8a89,0x3f164175,
0xbcea8ceb,0xbc940b03,0x3d645cee,0xbe6c5128,0x3e72f942,
0x3d29fa2b,0x3cfec374,0xbe91ea22,0xbea75de9,0x3eb79044,
0x3a8a4b1b,0xbeafa91b,0x3e486b0b,0xbd0eac62,0x3ecbe129,
0x3e633052,0x3e071b3b,0x3d951b26,0x3a049be8,0xbe563580,
0x3e14b01c,0x3f23ffab,0xbd76bec4,0x3f071c81,0xbe94c06b,
0xbe05db18,0x3e72c81f,0x3d0caec0,0xbd5a28f8,0x3d55bbb0,
0x3df09fa6,0xbe37cb31,0x3eeccfbe,0x3d312cde,0x3eff7785,
0x3d28932b,0x3da768cf,0xbed4d5b4,0x3f000c73,0xbe6150cc,
0x3e33bb54,0x3ee20dc2,0x3ea84cba,0x3db268ed,0xbe660adb,
0xbe134d11,0x3e2f0202,0x3b62e2f4,0x3e2b4a29,0xbe5613c5,
0xbc040ed9,0x3e87cd0a,0xbf32659d,0x3d271bf9,0x3ed6edfa,
0xbe86f8ab,0x3dfd147e,0x3ebbd3b3,0x3d936277,0x3e761b70,
0xbeac27bc,0x3f020d16,0x3cc7d7ea,0xbea9fd91,0xbdee11bc,
0xbdd18026,0x3e814b86,0x3e546f08,0xbeb0afa1,0xbe8c605f,
0xbec7be2f,0xbf628b8a,0xbe378477,0xbea1573f,0xbd8c464c,
0xbe4f6f2c,0xbe01b676,0x3e8099a6,0x3ea7b1ea,0xbf12a6d3,
0x3d22945e,0x3f0182a9,0x3eb72021,0xbe1f0cc5,0x3e2ce504,
0x3b618fff,0x3e370b96,0x3eed5b60,0x3db2d217,0x3eb5c40d,
0x3b4f005d,0xbf091936,0x3c8ad42a,0x3e17ea3d,0xbde4bdcf,
0x3d819d45,0xbd630979,0x3d24b684,0xbda88b1e,0xbe2ee25e,
0xbdf9a414,0xbe470a68,0xbed7012d,0x3e4fae00,0x3ca3cb97,
0xbdb96726,0xbd50f65b,0x3ed63362,0xbdf2cfdb,0x3eb91f4f,
0x3edc7195,0x3e9de463,0x3d8cc886,0x3db3e6ea,0xbdc2f7b0,
0xbc68e9fb,0xbe14c4e8,0xbe1bb997,0x3e9aae9f,0x3c8a2961,
0x3d721762,0x3d9268aa,0xbe119bf8,0xbe732553,0xbe2811f0,
0xbe054790,0xbd975558,0xbeab6fbf,0xbd9c1e86,0xbcba4003,
0x3e0d6d14,0x3e3700bf,0x3e0a9bb3,0xbd6613e7,0xbe679dc9,
0x3dbfd95c,0x3c1cf7fe,0x3d86d0be,0xbdb192fb,0x3b131c00,
0xbb833256,0xbd7b0ff8,0x3e259485,0x3dbb6573,0x3e858293,
0xbda0e12b,0xbee1e2a9,0x3e0286f8,0xbeb78b47,0x3ea83323,
0x3df8d1c0,0x3d8bd00e,0x3ee42e37,0xbed44a66,0xbbc3521e,
0x3f1adf82,0x3e98c800,0x3c43ebd4,0xbed82ab0,0x3ea8f836,
0xbe3d7c41,0xbd76c505,0x3f15506d,0x3eb6c97c,0x3f726cee,
0xbe756175,0x3efb8468,0xbe61d1da,0x3dd38425,0x3f085e91,
0x3f46d680,0x3f03fbd3,0x3e451088,0xbe95734d,0xbe1aac66,
0xbe32fb45,0x3e95c16d,0xbd19e27a,0xbe0ef1ea,0xbee938eb,
0xbe134ec6,0xbf32a59a,0x3e146096,0xbd198c19,0xbdd0a1b5,
0x3eec25fc,0x3e18c011,0xbd366cdf,0xbf31dd97,0x3ebd7428,
0xbeb6fc49,0x3f024149,0x3e23ae2b,0xbe5bcd12,0x3f2d114f,
0x3f421a54,0x3e341b9a,0x3e44ac2f,0xbf3e4530,0xbf051b86,
0x3df11806,0x3da8e1e3,0x3d971c57,0x3e06bb40,0xbe034dde,
0xbe647321,0x3ec8c777,0x3e3fe16b,0x3eb65b6f,0x3d9f76e8,
0x3e578093,0xbf09d0b2,0x3e21abb8,0x3e376e00,0xbea70dea,
0x3e3771e1,0x3dd8ad2c,0x3d9c531b,0x3d4e4bc6,0xbec5f7eb,
0xbc89324e,0x3def8f49,0xbe0de7e7,0x3f0aadad,0x3e3848cd,
0x3e99d591,0xbeb5941b,0x3f1ff065,0x3c7344b7,0xbe709b25,
0x3e4e1378,0x3e52e263,0x3e440e29,0xbebac5ec,0xbe0eda3f,
0xbe37bc5c,0xbeded6c4,0x3b043f11,0xbe8c4a3f,0x3edcda4b,
0xbe28f704,0x3e40ba85,0x3e8938c9,0x3d30baaf,0x3cf4cb53,
0x3ddd75cf,0x3e5bbd02,0x3e814abc,0x3d72300d,0xbe8eac86,
0x3d1ed1ff,0xbf478cc1,0x3ee6def6,0x3d6f3814,0x3dcb7670,
0x3ee7e713,0x3edebca1,0x3ed7238c,0xbe8876f7,0x3dd81a84,
0x3e6c1245,0x3d52c9de,0xbd386e58,0xbe520699,0x3df6b91d,
0x3ed705fc,0xbddde244,0xbe0b06ca,0x3e2b9fef,0x3e119b87,
0x3cbf398f,0x3ec04afa,0xbf2a588f,0xbf26c9ff,0xbe4721a4,
0x3f055777,0x3effda54,0xbe840c67,0x3c93b41d,0x3ebbf25a,
0x3ecca78a,0xbe06e2fc,0x3eb933d8,0x3df88f95,0xbefa4537,
0xbced1411,0xbe358d54,0xbdefd9a2,0xbe370b52,0xbe3212ec,
0xbe131c26,0xbe8d6101,0xbd8ae2af,0xbced7d14,0x3ed2a317,
0x3e7aa5be,0x3d8ad2e4,0xbe570de2,0xbe5de89e,0xbe460683,
0xbe6e3efe,0xbec78662,0xbe8cbab2,0xbda5462e,0xbf0c13f6,
0xbcdb12ae,0xbf1a8345,0x3e94e10a,0xbf14e6dc,0x3f631a1d,
0x3ebff1ac,0xbe7bbd72,0xbebbbca9,0xbe865c73,0x3d9b6ca4,
0xbe1641c5,0x3e3b5c95,0xbf3ad830,0xbed4eb67,0xbe898322,
0xbe984149,0xbaf7ae68,0xbd245b6c,0xbd9fe078,0xbf3aa26e,
0x3e20a801,0xbca5db08,0xbedeeadd,0x3f33610d,0xbde07559,
0x3f0123c8,0x3c23d5ce,0x3f0fe221,0xbd3d0e60,0x3f3494f1,
0xbd1408bb,0x3ecf4247,0xbe77834a,0x3ea31397,0x3ee268c4,
0x3f930f64,0xbce64fe5,0x3e941a18,0x3e1be91d,0x3f1abfb1,
0x3eddea72,0xbebd86ec,0xbd8c2361,0xbddad3be,0x3da9259a,
0xbe7af9ee,0xbe5f58f2,0xbf21198f,0xbebced2e,0xbcb44bb6,
0xbfa3795a,0x3f041d7d,0x3ef1bdae,0xbeb1755b,0x3b5fd92a,
0x3f20dbf9,0xbe979fc9,0x3e82906b,0x3cc23c1f,0x3de6a8c3,
0x3e7302bd,0x3f8acadd,0xbe9ecb12,0xbb0fca6c,0x3ed1d5b9,
0xbe9704b1,0x3e7e8a77,0xbd082d0f,0xbf344b23,0x3e4218ee,
0x3e783884,0x3d7858d2,0xbcc7ff7a,0xbddbe6d5,0x3dc880ca,
0xbeeaa551,0x3f206a91,0xbef8a245,0x3ea47ba7,0x3e37b1f2,
0xbcbafb92,0xbdcc7128,0xbe3d447c,0x3e5ac461,0xbea56fca,
0xbe0e6f9a,0xbd04b471,0x3de61a3c,0xbf3f448b,0x3ebdf80b,
0x3f04045b,0x3eeae103,0x3ede404f,0x3e3adbe5,0x3e9a4777,
0x3d96c775,0x3f107390,0x3eba310f,0xbdd4f43b,0xbeb0f3e2,
0xbf0b8f7d,0x3da40fa4,0x3ed3758b,0x3e7269d9,0xbe2533b8,
0xbe9a8f44,0x3f2097a7,0x3ecd33d9,0xbe92813f,0xbeeabbe4,
0x3e30b8f3,0xbe8d7014,0x3ecba73f,0x3e322d27,0xbeb9f439,
0x3e4be6e9,0xbbcfeb86,0xbd91c200,0x3da6e662,0xbe8789ee,
0xbe28d6db,0xbe247ef1,0x3daf76ee,0xbd38fe62,0xbcb7e172,
0xbc6dff11,0xb90ed73c,0xbc7dc1cc,0xbe3371c6,0xbdbeb8e8,
0x3ce86d39,0x3e66abcc,0xbdc6b2f3,0xbe913ec7,0x3e06f3eb,
0x3df9a2b5,0x3ec8a646,0xbd27440d,0xbd84c981,0x3e915eaf,
0x3e52976d,0x3d1b2199,0xbe1bf40c,0xbe9e72eb,0xbe999fd0,
0xbb14d9e1,0xbe6783ae,0xbdcb2784,0x3d2e0b24,0xbe4b3861,
0xbec01025,0x3ef3a812,0x3d28dad8,0x3cc8c1b3,0x3e985e27,
0xbf337eb8,0xbd6265de,0xbeb3902b,0x3c0b41a0,0x3d72793d,
0x3f1d6d83,0x3d17879e,0x3e8cc805,0xbecfdb13,0x3eace04b,
0x3e43317c,0xbcd1235e,0xbf293a3a,0xbe2f255e,0xbc44b068,
0x3ed21319,0x3e809ad0,0x3e0aeb12,0x3ea38420,0x3dce5a50,
0x3e50da61,0x3ecf8c42,0xbddb8272,0x3e8d7e1a,0x3e2f2f3e,
0xbef4d5da,0x3e6f1285,0x3ed840e6,0xbeafbd93,0x3b9de44b,
0xbe565de9,0xbd82ba80,0xbea9bce3,0x3f11eb48,0x3f0e3630,
0xbe92824b,0xbccaade5,0x3c23aaa4,0x3e37bf27,0x3e978f63,
0x3de35537,0x3d7b33ad,0x3e91a8f5,0xbe2f88a8,0x3dec1744,
0x3e23fbf3,0xbdaef644,0x3ccb6b04,0xbe57a2df,0xbe215b18,
0xbdc11fc7,0xbda553e8,0x3e9d9293,0xbf7f2f16,0xbf4508b2,
0xbed84470,0x3e12b0ed,0xbe98f82a,0x3d115620,0xbe4d6c80,
0x3e8e4a9b,0x3eca714c,0x3eca45d7,0xbcf6f2b3,0xbd823a53,
0xbcbb57f8,0xbebdd866,0xbeb55191,0x3ebae411,0x3d9305af,
0xbf1181bd,0xbe016403,0xbdb6c951,0x3df0e983,0x3f2635a6,
0xbee1cdc8,0xbdc4401f,0x3e77e21e,0xbe8224dd,0x3e32da51,
0x3e712046,0xbf909d19,0xbd3a5515,0x3d422244,0xbe5bd468,
0x3cccba29,0x3e2e41c6,0x3eb9e6bd,0x3e509845,0xbe16e3db,
0x3df4c2e2,0xbec8c1ec,0x3f29b0d1,0x3e1bc223,0x3e370cd7,
0xbe31bff2,0x3f0863fd,0xbf36898e,0x3f30e8a8,0xbe5511c8,
0x3dd46074,0x3f55c619,0xbe6c7508,0x3e9a7d74,0xbf84ce2d,
0xbcadb11f,0xbea2877e,0x3d3b3d79,0xbe2cf01f,0xbc34d3aa,
0x3bae626a,0x3d77c8c7,0xbed662f2,0x3e291ccb,0x3d040786,
0xbf0c6748,0x3d9729c1,0xbf3acedb,0xbea24b6a,0x3e1395d0,
0xbd103b7d,0x3f02c80e,0x3f0482c2,0x3d003e0a,0xbf2d9998,
0x3c558d97,0xbe08c212,0x3c0b2e35,0xbe9121b5,0x3ee83fa5,
0xbd2f86ce,0xbd94433a,0x3e035d93,0x3e48b989,0xbea70f28,
0xbe783e63,0xbf08dc7a,0x3d34991f,0x3f1458d7,0xbe362b6c,
0xbeb79880,0xbde59f40,0xbe4fff46,0xbcd01c96,0x3e00f6e9,
0x3ec32d67,0x3eacbbc7,0x3ebb9fe5,0xbe152f7e,0x3f336568,
0xbe3ed91c,0xbe0fa0fd,0x3c96522b,0x3ec8b6cd,0x3e90989e,
0xbde79096,0x3c926146,0x3d301f45,0xbe8af9c5,0x3c007771,
0xbe5991a8,0xbe1e78fc,0xbf03145c,0xbeb02040,0xbe05d85a,
0xbe0ccc1e,0x3d7cbed2,0xbd82e7f2,0x3ee6c830,0x3d76413b,
0xbebb572b,0x3e44051a,0x3ec2323c,0x3e69340e,0xbe6b4817,
0x3eaf4347,0xbe44d9c3,0x3e0593b2,0xbeed8b8a,0x3ea957c7,
0x3dfd9f9d,0xbe214b2b,0x3e180501,0xbea05001,0xbde2f46e,
0x3f31b6fd,0xbe9deca8,0xbe8acff9,0x3ed03df9,0x3e71b20f,
0xbd45a27e,0xbebff807,0x3dcff744,0xbe6d74b7,0xbd01d32a,
0x3e35de02,0xbce4ad8d,0xbe9be680,0x3c542a80,0xbe5b0e18,
0xbe68fd31,0x3d9cb75e,0x3c8454af,0x3cb8c44e,0xbeb174f1,
0xbf14589e,0xbedde9e5,0xbeb61475,0x3ecb4b7a,0xbd5c2ce5,
0x3da89c51,0x3ddf8cd2,0x3e28721e,0x3f14641f,0x3e59fe78,
0x3d8b8fbb,0x3f1440e1,0xbf1aac9c,0xbd4d0ef0,0x3eeaa40a,
0xbd5af610,0xbe85e842,0xbdc0a507,0x3e24ad87,0x3def3c66,
0x3f1cdc6f,0x3f4eaa8e,0x3e8893e9,0x3f1e6177,0x3e3149f4,
0xbe7076f0,0xbe946f38,0xbde2699e,0xbe6e3b8b,0x3f0cab66,
0x3f3e2172,0x3dc4562c,0xbf229ec0,0x3efec55f,0xbe88bd26,
0xbe4f84f6,0x3eea5f15,0x3efb26bb,0xbe17e6ba,0x3f084b15,
0xbc265459,0xbe5fd087,0x3ebea913,0xbe93231d,0x3e9621d9,
0xbe7d7802,0xbbd9f40b,0x3e2d5257,0x3d97ef95,0xbe080d53,
0xbd32e6fb,0xbed3b343,0xbe9d68de,0x3eb7d67c,0xbe0c3b53,
0x3e7b086b,0x3ebca41a,0x3eb2dfd0,0x3dafccb4,0xbdefce31,
0x3e97cc74,0xbf44e41d,0x3db78249,0x3c6589be,0xbd93a713,
0xbe01db0c,0x3e7ea3e9,0xbe75d63d,0xbee82d70,0x3e0fdf3d,
0xbec029dd,0xbd736bdc,0xbdc33675,0x3e831d2d,0x3e206394,
0xbcc96ef2,0x3e950156,0xbe6c5b60,0xbf0c00d5,0xbf7544c2,
0x3de98ad4,0x3df722ac,0xbeacf6ab,0xbef99d20,0x3eaed94c,
0x3e583740,0xbe84855b,0xbda39633,0xbea03d02,0x3dbaf13a,
0x3c73f414,0x3c1e3106,0x3e301044,0xbe9a06c8,0xbd9ddf60,
0x3de79a78,0xbe63c6ed,0xbed4350f,0xbdcbddd9,0x3eb546ee,
0xbe1471f8,0xbe00c029,0xbddbabc3,0x3d915216,0xbc1de389,
0xbd9e166b,0x3e90cfaa,0x3e1f008c,0xbdc72b4f,0xbdb1ed84,
0xbc211020,0x3e91f1ce,0xbe1da666,0xbf07f7e2,0x3e8f0a2d,
0x3e06aae0,0xbe7ae927,0xbf2ff82f,0x3e51b797,0x3dc06647,
0xbd7725cb,0x3e339390,0xbcfe60fb,0x3e2be75c,0xbde1a28f,
0x3e947bff,0x3ec330d5,0x3e0b4638,0x3e455bab,0xbdd720e4,
0x3e2b5c58,0xbf133daa,0x3de77610,0x3d957b6f,0x3e2506d9,
0xbf04777a,0xbfbed654,0xbe9c11ae,0xbdae047c,0x3dcb5608,
0x3ef2155d,0x3ec85258,0x3cb8de5d,0x3ed2f659,0xbe7ec6a9,
0xbf1d5dd5,0x3e43be5a,0x3e754651,0xbe8cfefd,0x3f0b2b05,
0xbec1137e,0xbc87b733,0x3e4ce176,0x3e74fcc8,0x3f195d7f,
0x3e4d6d6f,0xbe4554ee,0xbecfb901,0x3e868909,0x3d5dec39,
0x3e49533f,0xbeb20506,0x3e56db4f,0xbdacd223,0x3eb308fa,
0xbe8fc674,0x3eddd012,0x3b9a79ef,0xbead5062,0xbe47d1e7,
0xbf28aed7,0xbdacba87,0x3dab595a,0x3ef3fdc7,0x3d656518,
0x3f3433e0,0x3e9e9318,0x3ec39a1c,0xbe7f7196,0x3e081bb9,
0xbe075d7c,0x3c0f0e62,0xbda7d14c,0x3b41eee4,0xbd8e8077,
0x3db9125b,0x3eecdabe,0x3f1f6e1f,0xbea20668,0x3ee45ea9,
0x3ef03003,0x3f06f9fa,0x3e17fc5a,0x3eaef824,0xbe22307f,
0xbc8c25d6,0xbe8b5a74,0xbe04a46f,0xbf025ff9,0x3dc63f34,
0x3f362115,0x3dd343cc,0xbdbd40ba,0x3e080b32,0x3cd9bdc4,
0x3e4478a1,0xbdfc4004,0xbef393c5,0xbe80ecfb,0x3d0c411d,
0xbd82f145,0x3d17c85d,0x3edfa32e,0xbcb84da2,0xbda00304,
0x3f04843f,0x3e153361,0x3dfe7e15,0xbe2cd223,0x3d955df8,
0x3e326260,0x3e167af2,0x3d8252d8,0xbe0c9a72,0xbd27dde0,
0xbdc5cb23,0xbdfc15b4,0xbf4bd96f,0xbd9a748f,0x3e204fd0,
0xbdec64ef,0xbe8821b6,0x3e713bb9,0xbee6bd87,0xbef67901,
0x3ddfd333,0xbd1430fe,0xbe96f320,0x3ea83deb,0xbe3ffbb8,
0xbe8ba61e,0x3dc665cf,0x3e88dddb,0xbec1cc68,0x3d265724,
0x3e6176f6,0x3d973cbc,0xbe75b18d,0x3e9501eb,0x3f111a9c,
0xbe45d9d4,0xbe727bb6,0x3e394230,0xbe70c709,0xbdd4dcad,
0x3ec51e5c,0x3e1dd8e2,0x3dc58b6b,0x3e97eb15,0x3e197e39,
0xbc4cc529,0xbe693624,0x3eb65a30,0xbde2fd71,0xbba86918,
0x3d5a316a,0x3e3c2e3c,0x3e2a2835,0x3dbd89ca,0xbe86c0b9,
0xbe8a3471,0xbe9386fb,0xbe0972bb,0xbf31079e,0x3d804139,
0xbce540aa,0xbd15e9b8,0x3acd88dc,0x3f40e370,0xbef2e016,
0xbf5d65f7,0xbea9320d,0xbc1b9276,0x3ebae056,0x3ee7f527,
0xbee31fe5,0x3ecd2ae3,0x3e0e55e8,0xbe2feffb,0xbee3683b,
0x3cdd1ac7,0xbee2a3bf,0x3de7a7ef,0x3e89c0d6,0x3d780ad6,
0x3e3e189c,0xbe26d4a4,0xbf28be97,0x3edda321,0xbd9ecab1,
0x3e25740f,0x3f03571e,0xbe92b09a,0xbe91be6d,0x3f835144,
0x3d8cb14d,0xbeae3f0d,0xbd1f36bf,0x3da8a31b,0x3e03405c,
0xbeca2d10,0xbe99f7a0,0x3ee9162d,0xbf1b1b7e,0xbe2876c3,
0xbe3c742f,0x3e1117ae,0x3daa5d90,0xbdf7516c,0xbe9e35f5,
0x3c9d1e01,0x3e68cc37,0xbe2e3a76,0x3e199840,0xbef3a65a,
0xbf05378f,0x3e8b5011,0xbee2f0f6,0x3e28b918,0xbed5c39f,
0x3ec300ab,0x3e3eeb62,0x3e273e8b,0xbf0d8ed4,0xbf173898,
0x3e8c9509,0x3e933498,0x3e69a6d4,0x3e33b467,0xbd51a8a8,
0x3da1b5d1,0xbe626588,0x3cf28a01,0x3cc5a13c,0x3d32a676,
0x3e1e8ae4,0xbf1c7996,0x3f45a334,0x3fd89747,0x3e88aff3,
0x3f9e5f85,0xbfa17215,0x3e2ffedd,0xbe8c3329,0x3f91878e,
0xbf3f6292,0xbf277de3,0xbe936157,0xbe519f6c,0x3e7238d5,
0xbe45fe45,0x3e6bf0f0,0x3e430119,0x3faa33cf,0xbdcf3fc2,
0x3cb11773,0x3f07690d,0x3f1f9b11,0xbed0a755,0x3fa041bc,
0xbe1f7088,0xbe699412,0x3f9d8e2c,0xbeb63542,0xc0020ed7,
0xbf070b07,0xbdbad83a,0xbce563bf,0xbecf0b83,0xc0148938,
0x3f086600,0x3e92c28f,0xbdc09e1f,0xbccf1994,0x3f98bb99,
0xbdfd6f63,0x3f8ef842,0x3e683203,0xbf17f0fc,0xbe3475d6,
0xbefa1acb,0x3f555c7d,0x3fb31b20,0xbf89928e,0xbe4c3cfc,
0xbf35da5a,0xbf9bd8be,0xbfb9a4b1,0xbfbb6988,0xbefe67e3,
0xbee8328a,0x3ef8e2b0,0xbfc3dd65,0xbf2dee6d,0xbf9489e2,
0x3dac1193,0xbe42d04a,0xbc321040,0xbdcfa1a1,0x3e17c5ab,
0xbf1c0005,0xbfa1298d,0xbecb84c4,0x3e3156f6,0xbed52a55,
0x3f9a0a0c,0x3f207e7f,0xbf9a9f2d,0xbf1a78f9,0x3e34c79a,
0xbcfedae3,0xbe0efb2c,0xbfc0d151,0x3eb96f6f,0x3e37e8f7,
0xbeaf605e,0xbf82ae6b,0x3f1a2399,0xbf835d5b,0xbf4cedfe,
0xbf3e32a2,0xbf429534,0xbe30995b,0x3f660570,0x3f3cdc34,
0x3d63dc76,0x3e5f5c14,0xbf0a26d8,0xbfd84e18,0xbf87081e,
0x3ead3f9a,0xbe933147,0xbdd14b81,0x3e7ae580,0xbf6f3406,
0x40196270,0xbc6207e5,0x3f298939,0x3ef94273,0x3eb59933,
0xbfacade5,0x3ea95aa6,0x3efbd89e,0xbf947087,0x3ed44b0e,
0x3eb279f3,0x3fe1413a,0x3ed5de75,0xbd9a5510,0x3f280ca0,
0x3ee28992,0x3ea3c6d7,0xbc40bf45,0x3fa9f97e,0xbe971186,
0xbf917836,0xbf0ca0ab,0x3e1cb8ee,0xbe6665c7,0xbf99a07c,
0x3e8b86b1,0xbf60633f,0x3ee44270,0x3eeb9981,0xbe5bf60d,
0xbfb6e60e,0xbeb25d50,0xbfb23504,0xbd9099fc,0x3f7f7df4,
0xbfff13d7,0xbe3d26a7,0xbf43fb02,0x3ed2c1bb,0x3e74bff6,
0x3e87a510,0xbef548d3,0xbf9244be,0x3ec7d3d8,0xbfb460c8};

uint32_t bias_array[110] = {0x3eb9e2e5,0xbdcb1f28,0x3ee51d14,0xbd94d6c6,0xbddc4469,
0x3ba3b48c,0xbec82e2e,0x3dabfb88,0x3d37c874,0x3f2071f1,
0xbd2e73db,0x3df1dc69,0xbc467f7b,0x3d30951e,0x3dba9360,
0x3d1c602b,0xbdbbd539,0x3e54da90,0xbeaad7ae,0x3e9dab6b,
0x3ebd0a88,0x3e6670f9,0xbda14a00,0x3e8b9556,0x3e816032,
0x3ea3a901,0xbe3e88e7,0x3d867d6f,0x3e549936,0xbdd66564,
0xbdfdac29,0x3ec48458,0x3d4b85ec,0x3e8412e8,0x3e399288,
0x3e73ccfa,0xbf585598,0xbf0f1636,0xbe6caf55,0xbebfbfff,
0xbec5547f,0x3e119621,0xbf32857b,0x3ed98a22,0x3d0dc3c9,
0xbe3ea976,0xbe4212b0,0xbe43f067,0x3db4f8d1,0x3dad57de,
0x3ef15ca6,0xbd299ed2,0xbe32cfab,0xbcf53201,0x3e507232,
0x3dd93637,0xbe8cbd95,0xbe312ec5,0xbe179349,0x3e819ea4,
0xbd88b206,0xbec9d789,0xbeb94ef4,0xbcea1a7a,0x3d1863b8,
0x3e854c00,0xbe1fe307,0x3b1cea3a,0xbd502e9f,0xbe42d96a,
0xbcd6a79d,0x3eae8caa,0x3e2be442,0x3d73e7a0,0x3ec6c30d,
0x3e96c375,0x3dab914b,0x3e9aca28,0xbd8b91e8,0xbf05e0b3,
0xbe9963e8,0xbe678c31,0x3ec89b68,0x3cf3d74c,0xbe45b9a7,
0xbeaddf2f,0xbf1f73cd,0x3e2bd7a4,0x3e761d7e,0x3e836512,
0xbe8d4770,0xbeec3cff,0x3e50e75c,0x3e2161b4,0x3d3d864a,
0x3e85438d,0xbeac58cc,0xbda0b126,0xbe7d0dbb,0xbd886621,
0xbe076fd1,0x3e0a87a4,0x3e2ccfc0,0x3e87ade3,0xbd8ce5a2,
0xbd9dbdbb,0xbef9b4a8,0xbe7d861a,0xbf47dc03,0xbe1df6ab};extern uint32_t bias_array[110];extern uint32_t weight_array[4080];