#include "policy_param.h"

uint32_t hidden_layers_size[3] = {32,32,32};

uint32_t weight_array[3328] = {0xbd00c202,0x3e1fb1e3,0xbbc1f4a6,0xbe50fe19,0xbee5d3ad,
0xba7cef59,0xbedd02fe,0x3de7863f,0x3e5e7ad3,0xbf1eeeee,
0xbe0eb3fe,0xbe9990ad,0xbdf9588a,0xbe0bd973,0x3f9a3378,
0x3e35b6ec,0x3e8948c9,0xbe4639b2,0x3f074490,0xbef5174b,
0x3e4e6666,0x3ec9b6d7,0x3f1cd7a1,0xbe0f2c5f,0xbe546294,
0xbe13577f,0xbf75c359,0xbedbb4e6,0xbd967c19,0x3ec51335,
0x3e775489,0x3ef0f599,0x3db1c94e,0x3e47a5da,0x3dce370e,
0x3e561580,0xbd24c42a,0xbe86fba0,0x3eaa3033,0x3e66a525,
0xbe5fb47d,0xbeb6d0f7,0x3e7be471,0x3e80bf91,0x3db9525a,
0x3d402077,0x3ee8fb17,0x3e38b143,0xbea6d98c,0xbe0bbe6b,
0x3eddd379,0xbd0b89a1,0xbdb0da06,0xbeb88297,0xbd6547d3,
0xbe934f59,0xbde672f9,0x3e6d6c16,0xbf91bd59,0xbf336443,
0x3c98e0f4,0x3edd32d5,0xbd659f26,0x3ec4da42,0x3ea45e63,
0x3ed10255,0xbd83357a,0xbe92c89b,0x3e02cbab,0xbd14f04c,
0xbea99987,0xbe53ffeb,0x3e37cd4e,0xbe728829,0x3e5728ac,
0xbd5ed081,0x3e4a1bf1,0xbcde3457,0xbd11ee6c,0x3dd310be,
0xbd5a2335,0x3eeb6133,0xbe524ca2,0xbe2329b5,0xbe8b9757,
0x3df03ca9,0xbe852cc8,0x3ef21f25,0xbe1e5ad5,0x3ba66314,
0xbef65fb5,0xbe80b3df,0x3e613269,0x3e49acd9,0x3eaf5ffd,
0x3d44fc03,0xbec97624,0xbdf2621a,0x3e32b984,0x3eb73f63,
0xbdfd4688,0x3d53ab9b,0xbd9e42b1,0xbe30cff5,0x3e56e157,
0x3d86ff11,0x3e6b388b,0x3e855655,0x3d7b2d7c,0xbecb6b13,
0xbe189c77,0xbe17c70e,0xbdcbd115,0x3db70f37,0xbd8536c8,
0xbea4fe34,0xbea80d90,0xbdc3f61c,0x3d145cbe,0x3d90ccb8,
0x3ca4a99a,0x3dc7bc49,0x3d53672e,0xbdbe653b,0xbc8e3de8,
0xbce9eadb,0xbebba5a1,0x3e2e9597,0xbe6a420f,0x3e6f497a,
0x3e13e9d9,0x3d1a3386,0x3e55f91a,0x3ea62a28,0x3c5435c0,
0x3de2d0a7,0x3dcb7291,0x3f01963f,0x3e8bced1,0x3c788000,
0x3dfac4f5,0xbe5b9e21,0xbee64a82,0x3e85cc3d,0xbdce62a5,
0x3e2ed2e9,0xbba04e76,0x3d45d48f,0xbeb3a58b,0x3e0ebf21,
0x3d39b024,0xbec08c82,0x3ca77eb4,0x3e90965f,0xbc94bfd9,
0x3e3fe33d,0xbe3c8c24,0x3e3fd3da,0x3e612ec9,0x3ea8c57b,
0xbe1e664f,0xbf038aa2,0x3e6fca59,0x3de971b2,0xbe81d223,
0x3e84a8bc,0xbeb2d3c4,0xbe941134,0xbdefb152,0xbef2eabb,
0xbe910d4d,0x3e65bf36,0x3e774f60,0x3c1137f9,0xbec3256d,
0xbe822395,0x3d436548,0xbe003997,0xbf08734c,0xbe3d7c83,
0x3e3495ac,0x3d8cf12f,0xbe03fb1c,0x3e5a5d8e,0x3ed580ab,
0x3e12103d,0xbf343bc2,0xbdc88f56,0x3dd94c70,0xbe8a3836,
0xbe300f54,0xbdd36c3f,0xbebc4ccc,0xbe99ae8a,0xbe04b043,
0xbe3bf3e5,0x3e98fc0b,0xbe0dbad9,0x3dce9be5,0x3d7c4d65,
0xbf1408c7,0xbe693ad4,0xbed07b91,0xbe66d561,0x3cf4d7ab,
0x3d75b41c,0xbdf50576,0x3cc6bb13,0xbc7d499c,0xbcc63c87,
0xbe693d34,0x3e72c4b9,0x3dfbfc8c,0x3eb1655d,0xbd89751d,
0xbd464594,0xbe446478,0xbeb45cfe,0xbf44bacf,0xbe5206e4,
0x3e933bb7,0x3e1a92fe,0x3e3dddf2,0xbf2f2240,0xbe6596b0,
0xbf0716c7,0xbdb3bcb5,0x3eb1169e,0x3e8f1f07,0xbe9ed28e,
0xbee14a86,0x3e9bbd1e,0xbdc1dcc7,0x3e7a408e,0x3da668b8,
0xbeac58d8,0xbf343454,0x3e6a2145,0xbe45edab,0x3d98b08f,
0x3e0baf1f,0x3d8183a6,0xbd928cf4,0xbc6fb4f3,0x3edfd144,
0x3d9d9974,0xbd7805e4,0x3e8f70e1,0x3cb5530f,0xbba12520,
0xbf27f4eb,0x3e3ebe51,0x3e1837ad,0xbec1513e,0xbdf04533,
0xbf01b224,0x3e8eeea7,0xbcec6d2b,0x3e68f029,0x3e9747ce,
0x3d97b66a,0xbdb34f3b,0x3f10e267,0xbeafa2b3,0x3ddedb01,
0xbf24203e,0x3ed1b44d,0x3df7e267,0xbecbc103,0x3d9db615,
0xbeb592df,0xbea02cef,0xbd3c30b9,0xbe394ca3,0x3c35b6f5,
0x3e8c9652,0x3f0dbdcc,0x3e8ccb89,0x3c000d0d,0x3e69f3d8,
0x3d03e5a0,0xbe2131c9,0xbf659a17,0xbc6221e3,0xbca8213b,
0x3e95dc9a,0xbdc67205,0xbbbc7f10,0xbe04dc0f,0xbded84e9,
0xbdcbdc19,0xbeb8b434,0xbe891d79,0x3e03df17,0x3e7ad36a,
0xbd1e5ea4,0xbe20d6e5,0xbd276d50,0x3c35b601,0xbdce7749,
0x3c9e55ba,0x3dae29e5,0xbe876a62,0x3d55f7dc,0x3df19732,
0xbb2422c2,0xbc169b60,0xbdf61a7b,0x3e6b4065,0xbe50a3ce,
0x3c3e3aa3,0x3e489672,0x3bd4d693,0x3f1dfd77,0xbd150734,
0x3e985b83,0x3e0973cb,0xbf146abb,0xbd914ca8,0x3d87676b,
0x3ea51a22,0x3f09ce3a,0xbda77de7,0xbd97791e,0x3e0ed3e8,
0xbeae4867,0x3f7a07df,0x3ec08e68,0x3e8c77d1,0x3eb6e99e,
0xbf20df67,0x3dd7f404,0xbf478638,0xbe8f73a9,0x3f0556e2,
0xbeb97811,0x3c6918e2,0x3e4eab93,0x3beb7077,0x3eecc199,
0x3e9e8a0f,0xbf4c011a,0x3cd3d336,0xbe1e3e8b,0xbd6586bb,
0xbf1cd41c,0xbe7a34c2,0x3f98ca68,0xbd512f00,0xbc204fa2,
0xbc916f29,0xbb017fcf,0xbb99f87b,0xbee82c08,0x40185676,
0xbfb2f681,0x3f241731,0xbf761dea,0xbf8d50ea,0xbd8a70b4,
0xbf9ec5f5,0xbfa7e3d3,0x3fd263a8,0xbf0bb5c2,0xbf07fbac,
0xbfc45645,0x3c8cb4bb,0x403cb116,0xc0a1ec7a,0xc00664d6,
0x40241e9b,0xc0981723,0xbd0c9f09,0x3ff122e6,0xc09aa8ea,
0x3d051a43,0x3f96c624,0x3ebdb0b1,0xbf4c5a27,0xbf73a720,
0xbfea4e00,0xbfcdb7bb,0xbf89bc4f,0xbff0e952,0xbf0313b8,
0xc029abd9,0x400340dd,0x3fd72678,0xc0097331,0x3f41a80a,
0x3f791df4,0x3f98a49d,0xbe886003,0xbf16a313,0x3e0013f9,
0xbf8a0f38,0x3f7fd366,0x3e9c9053,0xbfbf2c2d,0x406588f1,
0x3fe9844a,0x3f32d1ec,0x401c8188,0x3f4b5cde,0xc0504646,
0xbfa6132e,0xbe498965,0x3f1c6e1e,0xc013c4d9,0x3fc8faa0,
0x3f4c9350,0x3fd31663,0xc0381c5b,0x3ea78a54,0x3fa553a4,
0xc089632f,0x3e3942f2,0xbea98a40,0xbf29abf7,0x3e7eaf22,
0x3cc803c5,0x3fa5cb31,0xbe84c262,0x3f2d497e,0xbe96a90c,
0x3c8ab1cd,0xbe856296,0x3f02baeb,0x3ea3242a,0xbe35dd9a,
0xbe1ce272,0xbe33d6f4,0xbe14503e,0x3e8d2b1d,0x3e0ee415,
0xbe1ecf7e,0xbf38c5f3,0x3f6a20d4,0xbdd43a45,0xbe893a73,
0x3f1dde7f,0x3d82bd50,0xbdd0e30b,0xbeb04b8f,0x3e89bbd6,
0xbe2e4ffe,0xbe8c8d88,0xbee4e0ef,0x3e0ad0ed,0x3de1138d,
0xbe8a92fe,0x3ec6f3aa,0x3f2ac7ce,0x3f6065ed,0x3e80dc52,
0x3f19b8ea,0xbe6d9cfc,0x3de7b661,0x3e9cc457,0x3e382f5b,
0xbf27d705,0xbe322712,0xbded9307,0xbf476947,0xbe694a9d,
0xbdaff600,0xbe4ee243,0x3f101ff4,0x3e690b5d,0xbdea0903,
0x3ccdc847,0xbe865871,0xbea5be3a,0xbeb9314d,0xbe0eb7e0,
0xbebc9de2,0x3e3d398d,0xbf6061b8,0x3d197cfc,0x3fb0e2db,
0xbf399c5e,0xbebfb284,0x3e418586,0x3df0db8c,0xbe0b83e5,
0xbf1434a1,0xbe45fc08,0xbf0ed72e,0x3ef34697,0xbde702c7,
0x3f004df3,0x3e3aaf08,0xbf830b88,0xbf525e8f,0x3d000919,
0x3f08018d,0xbf818c60,0x3f14d691,0x3f1fc98f,0xbe9f9146,
0xbe112ebf,0xbcc0624c,0xbf845261,0xbe403744,0x3f1e1494,
0x3ecf7c99,0xbcf09886,0xbf20ca59,0x3ef99432,0xbf0a091e,
0xbf346915,0x3d8f75a4,0xbf79892d,0x3f07c431,0x3e4b2b67,
0xbee3d807,0xbf29fbaa,0xbe9aa88f,0x3d655159,0xbee7203b,
0x3f013069,0xbe2b263f,0x3eb9e0e1,0x3e714c58,0xbe845df1,
0x3dc811cc,0xbe5aab38,0xbea29e83,0x3d76103f,0x3e257c59,
0xbce4483a,0x3ded23b5,0x3f0250cd,0x3ee99ebf,0x3d730c89,
0x3e49993c,0x3ee853a8,0x3f20cbb5,0xbf9229ff,0xbeaf5f7c,
0xbe0d2049,0xbf08c72a,0xbefdbeeb,0xbe11c481,0xbf9cc785,
0xbfce6002,0x40226d18,0xbf21108f,0xbf977e32,0xbeafe43b,
0xbef074da,0x3f5c0de3,0xc03d68dc,0xbae657bd,0x4008bb84,
0xbe84fdfc,0x3ea56da1,0xbe839d4f,0x3f7424f7,0xbf812e34,
0x3e7f1a76,0x3dbb9551,0xbf90ff68,0xbf12bc60,0x3d069c78,
0xbf2a4bde,0x3e5024ef,0xbf599bbd,0xbf8a5f1f,0x3fad936a,
0x3f131770,0x3f095c1a,0xbd8548ba,0x3eb93845,0x406ec005,
0xbfc7d9c9,0xbf0a02c1,0x3e0ab9e7,0xbf441bed,0x3ed2ce36,
0x3c64ab6f,0x3e17edd4,0xbfbf8991,0x3eaad76f,0x4004adee,
0xbf065ac0,0x3e90ed8a,0xbe9a2101,0x3ed66d0c,0xbe862f76,
0xbf6d80da,0x3fbf58db,0xbf363c21,0x3d196a1f,0xbf87cffe,
0x3fb59af8,0x3d9b9914,0xbff94141,0x3f310b39,0xbf30dd5d,
0xc038c6e7,0xbfac18d8,0xbe018a61,0xbf766715,0x3ff37d78,
0xbf632503,0xbf46684a,0xbf39ae29,0xbdd89432,0xbdd1018f,
0x3e54ea29,0xbebda736,0xbf083f54,0xbf214853,0x3e2208aa,
0x3d6fc810,0xbe0afd4f,0x3dc77069,0xbd0a3fd0,0x3bbbb6dc,
0x3dac0ca7,0xbe959791,0x3e1405bb,0xbdbdbad6,0xbdd1032f,
0xbc4e75d9,0xbe3655cc,0xbdea640e,0xbd6c03ee,0xbdf56368,
0xbde317b3,0xbf1920ad,0xbd05a628,0x3e8e3787,0xbe2520c5,
0x3c2419f4,0x3e056332,0x3e3a3597,0x3e159a43,0xbce59ffa,
0xbd923388,0x3e088d5f,0x3dbd2fd0,0x3e10f0c2,0x3e90a163,
0x3f2e8bb2,0xbbbdce72,0xbad90848,0x3d52a961,0x3c5f57ed,
0x3e1f02a1,0x3b93605c,0x3ccc6b2c,0xbe92db16,0x3e2bb52e,
0x3e5847ea,0xbe408db4,0x3e5715bd,0x3d871ed0,0x3ea36065,
0x3cf255b5,0x3d5f848f,0xbda10f15,0xbcb0afa5,0x3d149ec8,
0x3e371538,0xbd951e5a,0xbe8f5079,0x3e8880ad,0xbdd6d40f,
0xbe41dfd4,0xbcfdd93a,0x3e8d1536,0x3f7522a8,0xbf86e0bc,
0x3ec1799a,0x3f618d4d,0xbf997bc4,0xbeec7044,0xbee39481,
0xbe215394,0x3e83574e,0xbf9b4395,0x401d6080,0x3fa4a71e,
0x3f1f3c7d,0xbc75657a,0x3cd76cc9,0xbe782a30,0xbf1d669d,
0x3fb02ed9,0xbe735356,0x3b5c81e3,0xbed47f98,0xbed4fc09,
0x3feae780,0x3eaf1cb0,0xbf9782b8,0xbe62eff1,0x3ec13af1,
0x400d2776,0x3e943a50,0xbe22ef7c,0x3e83e513,0xbe421b56,
0x3e4d964b,0x3db08fcb,0x3f044a1c,0x3d4d1841,0xbf069078,
0xbe6b887e,0x3e8541ba,0xbf2dac86,0x3f20699e,0xbf7b5e81,
0x3ffc9ef3,0x3fa0f07b,0x3f0461cd,0x3e952dc6,0x3f723cbf,
0x3e16e6d8,0xbeb7c347,0x3fe21912,0xbeb879f1,0xbf0eeb12,
0xbebc9209,0xbf9d247e,0x3fd4711e,0x3e48e3ca,0xbf794217,
0xbf23ea78,0x3ebbf2d4,0x3f1b90e4,0x3f0628f7,0x3ea2bfe9,
0xbeac178a,0xbe34a878,0xbf00b4aa,0xbe8035c1,0xbfa4f3f6,
0x3f3a70d8,0x3fbad381,0xbef63195,0xbe4035c4,0x3e3d88e0,
0x3d685c0c,0x3d9e41f2,0xbdb72173,0xbf33233e,0xbf2cc021,
0x3d3c70f6,0x3f5e5cbb,0x3dedbec2,0xbfa78f1a,0x3f34f070,
0xbed17644,0x3d175229,0xbe847435,0x3d958466,0xbf857272,
0xbe69b501,0xbf2b8071,0xbe790bcc,0x3e159b5a,0x3f297f13,
0x3de73aa6,0x3ef669cd,0xbe22e624,0xbf0f6450,0xbf8734af,
0x3ebfe102,0xbf9e06da,0x3f5d3ba4,0xbf031fb4,0xbf0b44f6,
0x3d6d4f34,0x3c3be592,0x3d6ea641,0x3e41edec,0x3e85f770,
0xbe79c963,0xbf7bc204,0x3f143973,0x3e988892,0x3c24de66,
0xbf96177d,0x3f03f330,0x3f3ec7fb,0x3f29da10,0xbf63cc58,
0xbca69d25,0x3dc99160,0x3eee1486,0xbd926a04,0x3e0e8ce4,
0xbe44e33a,0xbea91254,0xbe945dd9,0x3eb38346,0xbdaec63a,
0x3f0e0bfa,0x3c228a97,0xbeac5ef3,0xbec0b44b,0x3e93c77d,
0x3e86048d,0xbd484e2c,0x3eb3dd0c,0x3e824df9,0x3fd6d447,
0xbe3db920,0x3e190e11,0xbe78ea70,0x3ea0d6be,0x3dd06495,
0xbcd285e0,0x3b936c68,0xbdf013b7,0x3e45d47d,0x3f18b0a2,
0xbf23ea60,0xbebb8942,0xbdf9d117,0xbf3702c0,0x3e5253bb,
0xbed4c9f7,0xbe854bef,0x3f07af67,0xbee15bb0,0xbe864a83,
0xbe0ee775,0xbde50731,0x3f85bc7b,0x3e2af837,0x3ea6806c,
0x3ef12c57,0x3e131de6,0x3d1641be,0x3dd4235d,0x3e182310,
0x3c3cee50,0x3e31eff6,0xbd214e7f,0xbd393b69,0xbd450dee,
0xbd105f87,0x3e1e1d6e,0x3e0827b8,0x3cfb0b9f,0xbd974c09,
0xbcf196d0,0xbe19f6c5,0xbe865a01,0x3cd27bef,0x3d19ef8b,
0xbdc0e90e,0xbdd49513,0xbddc9026,0x3e08c8d2,0x3eb90ddd,
0x3d327e95,0x3de4c0cc,0x3e88a3d0,0x3e0772a1,0xbed48f2b,
0x3f62b933,0x3d0a4889,0x3f60de63,0x3ebcd05e,0xbf497f26,
0x3f93fdcd,0x3eddddd9,0x3fc6fc3d,0xbf382dca,0x3fa4ef6b,
0xc00d218c,0x3f21167d,0xbe9d6eea,0xbf9901ec,0xbeb85ae0,
0xbe720d91,0x3fa066f0,0xbea6cbe6,0x3e80048d,0xbf8bd223,
0xbf2b9490,0x3f704b05,0x3f35a64c,0x3fbba6cc,0xbed7502c,
0xbd83be5d,0x3f017e44,0xbf817c91,0x3f4797dd,0xbe4f03a2,
0x3e0e0b30,0xbca58a06,0xbd6b6145,0xbce898fe,0xbd227458,
0xbe01da14,0xbec94a02,0x3e297336,0x3d1016f4,0xbd26ff0c,
0x3d02f245,0xbd842151,0xbb0fbd00,0xbd821551,0xbdafd11f,
0x3d2781dd,0x3d0207eb,0xbc8f0ea9,0x3c9d5371,0xbc2db114,
0xbcdd4288,0xbdb810c2,0x3e156ced,0xbcd636ec,0x3c7aca99,
0x3d8131fb,0xbceb0509,0xbd2b9ba9,0xbd8948fd,0x3d61e09a,
0xbde022f1,0xbcbf9a90,0xbaa2e750,0x3c930d8e,0xbddad6b8,
0xbd061c45,0xbcf9f37c,0x3d8970ad,0x3d85d279,0xbe54606e,
0x3de354bc,0xbd6383c8,0xbcf330ff,0xbd3ed814,0xbc8d4304,
0x3d2c7276,0xbc5c4a33,0x3c68dd99,0x3c92454d,0xbbe6b557,
0x3d85ef4a,0x3d3200d2,0x3cca6e97,0xbda9c9a8,0x3c7ebb62,
0xbd30d6af,0x3d9820fe,0x3d612cde,0x3cc6ee94,0x3e46e9b6,
0xbe2a4040,0x3d561105,0x3d0af137,0xbd1bc296,0x3d598483,
0xbc18484d,0xbd2d5620,0x3cccdb7d,0x3e43332a,0x3cc1bb2d,
0x3dbd337e,0xbd595ca1,0x3b9f7fa4,0x3d0111a2,0x3c6c298f,
0xbc84dc35,0x3b051601,0xbbe910b0,0xbbadb8f0,0xbdb47129,
0xbad7d303,0xba36a256,0xbb5b44bf,0xbca4a776,0x3cfdabae,
0xbd8d5e80,0x3d9de669,0xbcc79b8a,0xbdb64fde,0x3ab9e63b,
0x3cd5f382,0xbc89944b,0xbd3b5afc,0x3bcf0e5a,0xbddcfa07,
0x3c31770f,0x3c803b9b,0xba289b3a,0xbb055ea4,0xbc47c10f,
0xbdd4d7f1,0xbc97d48c,0xbda904cd,0x3c09db6b,0xbd22c930,
0xbb7b60e6,0x3c317112,0x3c7fec33,0xbb0cfcaf,0x3cf099d8,
0x3d31df09,0xbd09841e,0xbc9f518f,0xbc370985,0xbb3ef808,
0x3cc706b2,0xbcb229f4,0x3c5d1448,0xbd1510da,0xba37b3f2,
0x3db1c8e5,0xbd13b690,0xbbc99fdf,0x3ec189a0,0x3cbeb9fc,
0xbc37e366,0x3de4a2d6,0x3c09fb3c,0xbcb2d32d,0xbbd04a2c,
0xbd265350,0xbc717d44,0xbb5c3c24,0x3c20d9aa,0x3e1df2f7,
0xbd84fe71,0x3d3ea86d,0xbc581927,0x3bce0b98,0xbd96985e,
0xbd0122b2,0x3d8bd75e,0xbcb250b4,0xbddd9c4c,0x3bccbe81,
0x3c045520,0x3d15b93f,0x3cc19290,0x3c61df4a,0xbdaaf7da,
0x3dd2c481,0xbcede74f,0x3b54c66c,0x3bfb121d,0x3d6fc784,
0xbf84ec5f,0xbd450c8e,0x3cb279a6,0xbcd31f1f,0xbbe9b1ed,
0xbc029766,0x3ca4e2b8,0x3caec1ed,0x3cf5a4c5,0xbd3b47fe,
0xbd70ec8d,0x3db075db,0x3c66b2f5,0x3d2040f3,0xbc4c88b2,
0x3c9c0341,0xbcc502ec,0xbc7dc392,0x3c9ca849,0x3dc6ab1f,
0x3d10dc05,0xbbf187a6,0x38452164,0x3ccbc3c4,0xbd2a0a47,
0xbcd4ba58,0x3ba4aba7,0xbde1d2e9,0x3a66cec2,0xbd9c76a9,
0xbc837f0f,0xbd29ddf1,0x3f217274,0xbc161fea,0x3beb0e74,
0x3d793df3,0xbcb46851,0x3cb137dc,0x3df34c01,0xbebb8aa2,
0x3dec50b4,0x3cd414bd,0xbe0d1ac4,0xbdf60e77,0xbea6af35,
0x3f484d24,0xbdc2f016,0x3e41939c,0x3e98f5f8,0x3f48d73a,
0xbef02d26,0x3eff1b2c,0xbc2cb82e,0x3f065f7a,0x3e8055ff,
0xbe5cbe25,0xbd17e9bf,0x3e5bab12,0xbe503eeb,0x3f0cc631,
0xbe83213f,0x3ea1a7eb,0x3d48e76c,0xbf594487,0xbe676f74,
0xbe6b5a1f,0x3da468df,0xbe3f983a,0xbd2cc317,0xbec066a2,
0x3d4507bc,0x3de7ce06,0xbe03bc24,0x3e3f36e2,0x3e083b66,
0x3f47aa20,0xbd41a7d7,0x3e6a1b96,0x3dee1bcd,0x3db7170b,
0xbe71a092,0xbe79f5df,0xbd97f826,0x3ecf439a,0xbe243ad7,
0x3ea85fe5,0xbf012abe,0x3f08f2c1,0xbd88f495,0x3e99bf52,
0xbdf8bda1,0xbe277911,0xbebc0578,0x3c98bbc9,0xbf12663c,
0xbdfbce5b,0xbd934dfb,0xbe238843,0x3e8beb54,0x3f381a2c,
0x3e8dd726,0xbe3ddc21,0x3ed63134,0xbf2b743c,0xbe44b3c4,
0xbeea088b,0xbf0236aa,0xbe8d3e39,0x3d737dcc,0xbf212e04,
0xbda223a4,0xbd95a233,0xbf47318b,0xbf1e34ab,0xbc798bd8,
0xbf1fddb5,0xbd03c04e,0x3e96147b,0x3ed0c325,0xbe469c86,
0x3f1d03b8,0x3ddeaada,0xbe9e7856,0x3eb01cf7,0xbe9758fc,
0x3e82ec58,0xbe6a9f15,0x3e495739,0x3d5a84be,0x3ebf539f,
0xbf347537,0xbd7dfc3a,0x3f73917a,0x3e6ff6c2,0xbee0bee8,
0xbee140ee,0xbed60bf6,0x3d12a0df,0x3e6d54ca,0x3e8152e9,
0x3deb6aa2,0x3e6dd68c,0x3e02bc1e,0x3e3f92f6,0xbdc4b1cc,
0xbe946ccb,0x3ebb3106,0xbdc42e77,0x3929023c,0x3d085099,
0xbef0e2eb,0xbed41a67,0x3ea81bec,0x3dfacd50,0xbdbdec5d,
0x3df668de,0x3defc73f,0xbe46109c,0x3e0f331b,0xbe700e1b,
0x3eccad19,0x3e1e7334,0x3d8a2431,0x3daa4f36,0x3ec63cf7,
0x3e11d76d,0xbe8366f6,0xbe1ef496,0x3eebb0c1,0x3d4c9166,
0xbe4bebbe,0xbe9bf746,0x3e776120,0xbe9f0ab4,0xbe58c210,
0xbec6c3dc,0x3dc80952,0x3eb60ffd,0x3e861b89,0x3da35c0c,
0x3dacbf01,0x3e47ee35,0xbf604cd7,0x3eb2bbaf,0xbdeb0ae9,
0xbf0e1b29,0xbe9c0818,0xbe4fc766,0xbe4c6ab6,0xba62cab1,
0x3e5f8121,0x3d7f13df,0xbbca577f,0x3e59cb8c,0x3ec5da5b,
0xbdbfb6c3,0xbe86d604,0x3eb8ff89,0x3c982eb5,0xbceaea0d,
0xbecd50f7,0x3e0e6a37,0x3eb4a91c,0x3e070031,0xbe441840,
0x3d6d4962,0xbe95316f,0x3eac9fb2,0x3f8bfead,0xbdf83ea0,
0xbcd7f5ec,0xbe66b24c,0x3e1e6449,0x3e5d3c40,0x3d046792,
0x3e4a39e9,0x3eb1ad21,0x3eacf1b1,0xbdd99b26,0x3ccb818f,
0xbdc7c1d3,0xbe20789c,0x3df0957f,0x3d988614,0xbe08c8e7,
0x3e52a9fb,0xbd45cd3d,0xbecc531e,0xbf365bad,0xbf35b548,
0xbe8b789f,0x3e1ffc35,0xbcc14f36,0xbf1d3abc,0xbc2e1dea,
0x3dc677f7,0x3eb65e93,0x3eda93d2,0x3da30a9d,0x3eb85032,
0x3f039ca2,0x3f29fd49,0x3e95fe3a,0x3ddbedcd,0x3e9b1d01,
0x3eee0089,0x3e4ba6b5,0xbef45cd6,0xbf34fc3e,0xbea78d0c,
0x3dd367f5,0x3eefb237,0x3dd6a2ac,0x3eadeb0b,0x3e87269d,
0xbe214dc6,0x3f604854,0xbef89970,0x3c8a4ca2,0xbea5d5aa,
0x3e28210c,0x3eabc572,0x3e41f539,0x3d631808,0xbed807d6,
0xbe3270da,0xbee44705,0x3e8b0fb5,0x3e7046ae,0xbe511400,
0x3ebe41bd,0x3e9da580,0x3e927789,0x3d95b460,0x3dfd2b09,
0x3dc7e07e,0x3ccee2fe,0x3f49d7c4,0x3f1b6256,0x3e30e67b,
0xbe49099f,0xbf33c5a8,0x3f315c2a,0xbe583c6e,0x3eea200a,
0x3ed77b58,0x3e1de52f,0x3e8a92d6,0x3efa4c5b,0xbe466fdf,
0x3d87e2ea,0xbec025c5,0xbd38b44c,0xbe0b8108,0x3e3e327c,
0x3e5e0462,0x3ced19af,0xbd3d95a0,0x3d23be2e,0x3ee49a05,
0xbdd93533,0xbf3852e0,0xbee72706,0xbee94f9c,0x3e381609,
0xbf421dc2,0x3ec7ae4b,0x3ef3c887,0xbece6fdf,0x3d7a8322,
0x3bbe703f,0x3e427e56,0xbf12de69,0x3f8043fa,0x3eddaec5,
0x3eae56c0,0x3daa91e6,0x3e32aec8,0x3db16b2b,0xbe66a23e,
0x3d78e19b,0xbecd6ff0,0x3dbec279,0x3e031361,0xbd44b748,
0xbec2fc8b,0xbe7779a2,0xbd5f454f,0x3f0a81a9,0xbe8e6fac,
0x3e505272,0xbe08685d,0x3eeab16f,0xbe87dba3,0x3f4f0d1c,
0x3e3ab562,0x3f6851cf,0xbf85840b,0x3efc5379,0xbdfacae2,
0x3ec1a027,0xbe588b5a,0xbf29c6bb,0x3dffccb6,0xbf2294b0,
0x3f123f84,0x3e7c656b,0xbe50a01d,0xbd127c93,0x3d09f45a,
0x3ef09fd1,0xbf3c3a6b,0xbe2bf5e4,0xbf316c1e,0x3f230bc9,
0xbe999345,0xbf2c4b4f,0x3e7013e4,0x3f3ff853,0x3d3a9501,
0x3dfa8c16,0xbdd9bbe7,0xbf0f2364,0xbdca40b4,0x3f0b4594,
0xbeb84947,0x3e73636a,0x3da3df67,0x3e464704,0xbf1e80e0,
0xbe2bde44,0x3e85e51f,0xbf01206d,0xbd415d96,0x3d876af7,
0xbe090b72,0xbea7f2a7,0xbe435e9b,0xbdd2d9a3,0x3f05f4ef,
0x3ea42753,0x3e8b44b3,0x3d7f21d1,0x3ee546e7,0x3e6000d0,
0xbe183001,0xbd5e7bde,0xbee2c55d,0xbdf29031,0xbe8afd1a,
0xbee8a17a,0xbf9dca79,0xbd533c5f,0x3da6ff85,0x3eff6ef5,
0xbf9ca392,0x3f59d596,0xbd9cf846,0xbf1c8846,0x3f7054bc,
0xbe787c48,0xbf7085fa,0x3f0e802d,0x3e61a4be,0x3fa9efcf,
0xbe2f15dc,0xbe260132,0x3f3c1d70,0x3f41d2c7,0x3ba36369,
0x3f4ea5b1,0xbf158b68,0x3eab2379,0x3e8e3c2e,0xbff6bc9f,
0x3d9bdd42,0xbee0da08,0xbf1ac198,0x3f121f55,0x3f574761,
0xbe60d1ae,0x3ed35518,0xbdef722a,0xbedb0ce1,0xbeb47869,
0xbefb3efd,0x3e086de6,0xbd8cbde6,0x3dc90a80,0x3e23d951,
0xbdff83d3,0x3d3bf06e,0x3e5d8e2c,0xbe0b7801,0xbdc92dbd,
0x3d7e34f3,0x3e7e5735,0x3d5106df,0x3eb31233,0x3f30f4e5,
0x3e8fdfbc,0x3de07eb2,0x3cc21f3e,0x3eb9e10b,0x3f17711d,
0xbe8932bd,0xbe11071b,0x3e0b8b4e,0x3ee276dd,0xbdad6a98,
0x3de170b9,0xbe46abc9,0x3f70a46b,0x3e84b354,0xbdc80da8,
0xbd8d38f5,0xbe9131ce,0xbe7a1548,0x3cd0d996,0x3d1942a6,
0x3e32f587,0x3f3dd950,0x3e298a56,0x3e3a5475,0x3a805f3b,
0x3d179a18,0x3cb72e43,0xbe94a3d5,0x3f0863bf,0x3f177228,
0xbea2c29e,0xbe8abedc,0xbf472dda,0xbd00aa43,0x3f0569d3,
0x3d8c8d56,0xbda83b69,0x3e4ebfa3,0xbd97970d,0xbe90eb5b,
0x3eb6bce5,0xbf5a9a82,0x3ec5e749,0xbe849820,0x3e9bbbe4,
0xbe82b2d7,0xbe91c7de,0x3cc9b572,0xbe33b4bb,0xbd0f55f4,
0x3eb904db,0xbd4cb581,0x3ea77bf8,0xbdaffdab,0xbe57214c,
0x3ecb10f8,0xbe54f855,0xbec60d6d,0x3ef3fd4e,0xbe0282c1,
0xbe930200,0x3bb9a8a0,0x3e089eb8,0x3e4b9c40,0xbe5a45c8,
0x3eddbaaa,0xbe3eb961,0xbd1e68fa,0xbeae4d16,0x3e3a65d8,
0x3d27b3c6,0x3d51a30b,0xbd3b52eb,0x3e599dbc,0x3e9637a5,
0xbe3b3266,0x3eba0a32,0xbe41adc7,0xbf07b800,0xbee225f8,
0x3e138c50,0x3d954698,0xbe632e7f,0x3eb993aa,0x3e09863b,
0xbe38f5b2,0x3ed2684d,0xbe1adfa8,0xbda1220e,0x3eaf1cfe,
0x3f3aa7e7,0xbe467ec7,0xbee460be,0x3ed78e5f,0xbd34d3aa,
0xbeda5d9e,0x3e4a4cf4,0x3f015cbd,0x3f1da341,0x3e2c6a32,
0x3f12c43f,0xbdb35019,0xbf521155,0x3e9d690f,0xbf337fac,
0xbf394ff2,0x3e93c061,0xbecb0331,0xbeda4879,0x3f97ca7d,
0x3f2eabe5,0x3e97fa90,0x3f91d253,0xbfcd7dc3,0x3f853d1b,
0xbd919abf,0xbf58b192,0xbeb032e1,0xbf2b59e5,0x3f74e645,
0xbf87176e,0xbe49e96c,0x3f3f2f37,0xbf81175a,0xbefb6fc6,
0xbfd11581,0xbf05e87f,0x3f57f827,0x3f611396,0xbf0caf05,
0xbe914784,0xbe9026cc,0x3f9084a5,0x3f8b0836,0xbf4c0a43,
0xbf9175da,0x3f1bf6b4,0x3e8952c6,0xbe60ca44,0x3f11ec12,
0xbeb21e84,0xbeaf4f51,0x3ed71f20,0x3e0b509f,0xbebb4984,
0x3d204a64,0x3cb97163,0x3ec65606,0xbe89bc90,0xbf54d549,
0x3f01623c,0xbe65fa2b,0xbee29084,0xbeffd100,0xbdc2433b,
0xbea41ce6,0xbef3dccf,0xbe854542,0x3f12cea7,0x3e2fd866,
0xbf00607d,0x3e96c5c9,0xbf10a36d,0x3e0b7b9a,0xbc4e34f9,
0xbdb700f0,0xbe476e55,0xbe819a64,0x3f2dbb10,0x3ee6c6c7,
0xbebeffec,0xbef8ee8e,0xbf4359de,0xbf5c0fd4,0x3e126b39,
0xbe079b4a,0x3f1565a0,0xbedcd71c,0xbd678702,0x3e380ab3,
0x3eed7341,0xbedf3a0e,0xbe5925f5,0x3eba9591,0xbf4a21e4,
0xbe38a185,0xbe5f281d,0x3eab53d9,0x3e569831,0x3de10eb3,
0x3f2dc82d,0xbeb66204,0x3f97842a,0x3eac839a,0x3ef0da0c,
0xbebb5062,0xbe0dd150,0xbe8bfaf5,0x3d39cd78,0xbea1c5d5,
0xbda4d221,0xbf1b6411,0x3d65ae2d,0x3bf9936a,0xbee70298,
0x3f44e430,0x3ea7c0ee,0x3f4b7d94,0x3d230a76,0xbe5d6f1d,
0x3f1a7025,0x3e828049,0xbe6bbfa1,0xbea9e6fc,0x3f5aeec3,
0x3d8a393b,0x3e79823a,0xbe0d76ab,0x3e11e12a,0x3f038823,
0x3db9f045,0x3d6449f0,0xbf14cc48,0x3e9d6593,0x3f265d6d,
0xbcd75063,0x3eba1702,0xbe7a9d61,0x3d09994f,0xbeabf159,
0xbd2c9cbc,0xbf0ac410,0x3ed71a70,0xbf2a4be1,0xbf4e7ced,
0x3e7360c1,0xbe9fad1e,0xbe23f289,0xbead6f3c,0x3da816e2,
0x3efdeb4e,0x3df90ceb,0xbe8488a3,0xbd98793c,0xbe23f0b6,
0x3f125123,0x3bd9f9b3,0x3d96e96f,0x3dadabb5,0xbd2ec95e,
0x3f8a8232,0x3f1a5b7b,0xbc0e93b1,0xbf266ad6,0xbeb86305,
0x3e2e783f,0x3e017697,0x3f6705ca,0x3e184b70,0xbee0c612,
0xbe7a15ce,0x3dc65d4e,0xbe853602,0x3e8d9c9b,0x3dcfd62c,
0x3ed18e29,0x3e235c33,0xbe2cf5d1,0xbec2a079,0xbbd5c722,
0xbee03c08,0x3e6bce63,0xbecafd7f,0xbca18cbd,0x3e7cfac7,
0xbd2d8688,0x3e8a78fa,0x3e8733c9,0xbe3afc73,0x3eb4a763,
0xbe34a34a,0x3e0af4ce,0x3e34a3e9,0x3c1e1382,0xbe5c8596,
0x3ec3f2b2,0x3db6c876,0xbe551419,0x3dedc3e8,0x3e79a0f9,
0xbd8d4b28,0xbe5b1e94,0xbee9030a,0x3f096102,0x3cc0948a,
0x3c580234,0x3dbab4d5,0x3e96df25,0x3e8dad1f,0x3edfaf49,
0xbdbc8c6d,0x3ed8bc28,0x3ecdb3d0,0x3ec56c8c,0xbeb0614d,
0x3edfffa3,0x3f9ad4b5,0x3e89ff1f,0xbf614876,0x3f0d29b2,
0xbd70d828,0x3dd3d10e,0xbdca0773,0x3ea7db3c,0x3eb91d28,
0xbeab9c84,0x3ed080ed,0x3f518612,0xbd32475a,0x3ecc76cd,
0xbe4283c1,0x3c843495,0xbf84360b,0x3d3108f0,0x3fc2cc70,
0x3ebc4526,0x3f38b59e,0xbf4fcdba,0x3f8e2f3c,0x3f34a8a4,
0xbd4a3170,0x3e4f583f,0xbe4fa7dc,0xbf5cf1d6,0xbedac2c4,
0xbeb00d11,0xbf1295a4,0x3c212fbf,0x3c719f26,0xbe0ce784,
0x3f3102a0,0xbe635e86,0x3ea54792,0xbdcd371a,0xbd9b5904,
0xbe5a1852,0x3e9c71b7,0xbe92bc7a,0xbe111aa0,0x3e88dc49,
0xbd566521,0x3eafa5ec,0x3eefb278,0xbed09f0b,0x3d0d001f,
0xbe235803,0xbde2655e,0x3d002ef4,0x3e444bce,0xbe3b3442,
0x3e9c747f,0x3e193811,0x3e936f4d,0xbe4f8e08,0xbe00c1cc,
0x3f0f7aac,0x3f1000a7,0x3e100870,0xbe102258,0xbdbfa2bb,
0x3e4c7afe,0x3d56d0ee,0xbe87c315,0x3ef79b62,0x3f4768f0,
0xbe03073c,0x3f02b82c,0x3e304363,0xbf598dc4,0xbe85717a,
0xbeb12015,0xbf0d0059,0xbd3c5cb4,0xbdd67b36,0xbe113299,
0x3ebe719f,0xbee33473,0xbf3654e5,0xbf20858f,0x3d8be420,
0x3eed0e1d,0xbe49a641,0xbdfb954f,0xbe92bdcf,0x3ecc33c0,
0xbf550297,0x3e726143,0x3e0cf0d3,0xbeb077dc,0x3c82248a,
0x3cef5941,0xbe80f9c0,0x3d20dc98,0x3e1cbc62,0x3e94ba0c,
0x3e950311,0x3ec8e2ac,0x3bf9256b,0xbe56a5df,0x3eccc8e5,
0x3dc823a1,0x3e5911e6,0xbe67cec4,0x3ebe4700,0xbe9886b7,
0xbe110216,0xbd995db4,0xbeac1483,0x3e35a580,0x3eac2830,
0xbe34477a,0x3f5a0edd,0xbe4c88a6,0x3d4e458d,0xbdc3dfb6,
0x3f01c9d6,0xbe8d9611,0xbee8f412,0x3e1de559,0xbec5c4d3,
0xbe96ef5b,0x3d8ec98e,0xbd1609b5,0x3e30fb61,0x3c2f4047,
0x3dce5b61,0xbd33e843,0xbab9d501,0x3d94254a,0xbdbf7515,
0xbd7adcf1,0xbda8003f,0xbe1247f8,0xbdab4f04,0x3d83a24f,
0xbd068c77,0x3e23c8dc,0xbd78f816,0x3dfa01dc,0xbeb2324a,
0xbd928b44,0xbe244e53,0x3cf58f7c,0x3d92bffe,0x3ce01d61,
0xbddd67dc,0xbe3c5ad1,0xbdb06690,0xbec960e5,0xbe3bbc70,
0xbc890874,0xbe2c0692,0xbcd1034b,0xbea68d83,0x3f10f6b6,
0xbd5d96fb,0x3bc4b260,0x3c70ddab,0x3eb967b6,0x3cbd12d5,
0x3eef7b8c,0xbc854546,0x3da1bcb8,0xbf1939fb,0xbeebbd01,
0xbef734d1,0xbd1a7b36,0xbe9ad459,0xbea87590,0x3d901fa9,
0x3d9e8497,0x3f1bf99c,0x3e051d32,0x3e78cb6b,0xbd074d65,
0xbe82db32,0x3cfc499e,0xbf15b0ab,0x3e516993,0xbe2542d1,
0xbec84f4d,0xbe71309f,0x3dfce67e,0x3e2a7bd2,0x3e434717,
0xbf2f7175,0x3de7cf6e,0x3e7c7242,0x3f6964f0,0xbf7eadbf,
0x3ce992bf,0x3dc60147,0x3e6653c2,0xbd6d3ef9,0xbedde7bb,
0xbe940e51,0xbe3a648e,0x3e8c4d1f,0x3f600bac,0x3f0ed1cf,
0x3e530005,0xbdce989e,0xbe8bd900,0xbf115201,0xbd10e42a,
0x3e818f84,0x3f1a0536,0x3d4f6ab5,0xbc0942e2,0x3b8be45b,
0xbd535216,0x3d4dd161,0x3e5af137,0x3e4ae114,0x3f066dc9,
0xbdfe11ea,0xbe74e75c,0x3e75052f,0xbe1db067,0xbe6ec008,
0x3e4debe4,0xbec20590,0xbe6680a2,0x3f1c5812,0x3ecca5d8,
0x3cd433fc,0x3e9c40db,0xbea4eaad,0x3dd2582d,0x3df9b5a0,
0xbe620510,0x3da63620,0xbe9b445d,0xbe34c289,0xbdc5c370,
0xbe5661b3,0x3dea1492,0xbdea46d7,0x3de948d2,0x3d2c768d,
0x3e73ed50,0x3cd22b46,0xbe9273f5,0xbd38d0f4,0x3e362472,
0xbec36d3f,0xbe43393f,0x3f0cf488,0x3e5b9882,0xbe8b46c1,
0x3e99996d,0x3e24e96b,0xbdbf44fe,0xbeaefda1,0xbee43648,
0x3eddff74,0x3ea761ee,0x3f227897,0x3f67f0ab,0xbf1548fe,
0xbf18a00a,0xbefc19f0,0xbec62da2,0xbea90370,0x3ec3ace8,
0xbf246c2c,0x3f3562bd,0xbf23fca7,0xbf75d552,0xbe800949,
0xbe0e6d13,0x3ea68da7,0x3e3ab073,0x3f21e5c8,0x3f2cc695,
0xbf1c9f66,0xbef45b95,0x3e409cda,0x3e015e7a,0x3e3b8ddb,
0xbef3aec3,0x3f4910f1,0x3e5e441f,0x3e70b1a2,0xbf35195e,
0xbeb24a14,0x3e41d5e7,0xbe23725b,0x3ed1613e,0x3ddd32d8,
0x3b9e126e,0x3e7e040a,0x3d9859c5,0xbec3d9de,0x3e9fe015,
0x3c81c7eb,0xbf2863ea,0x3e6754dd,0x3d463b48,0x3f2966bc,
0xbe35356f,0xbe16239c,0x3e000750,0x3e01daed,0x3d1cf618,
0x3ce7eaaa,0x3e7d9833,0xbe5c7a59,0x3eea8778,0x3e720c71,
0x3f359a95,0x3c558aad,0x3f80e33a,0xbed70635,0xbdcdbce0,
0xbd29e8c2,0x3d96bc17,0xbe52d6b2,0x3de3c93e,0xbee2d138,
0xbe801e1e,0x3d88c975,0x3d3a8e79,0x3d882284,0xbe086b62,
0x3f76ae94,0xbe99e16c,0x3ca67e79,0x3eae37a0,0x3ee41d49,
0x3e134c43,0x3d7a7f6c,0x3ee579a8,0x3f0db73d,0xbed4c6d0,
0x3e79f9c1,0x3df10ca9,0x3d2258ba,0x3f816351,0xbe6daf6b,
0x3ea235f2,0x3e4ce344,0x3d72116f,0xbe6982cb,0xbedf7097,
0x3d6d4a59,0xbd538d6f,0xbefddd40,0xbec2b1e5,0x3f33f007,
0x3eca20c3,0xbeb48a4e,0xbc8cd599,0xbc46804c,0xbd46812b,
0x3e9e299d,0xbdba23a4,0xbf28f4ec,0xbeb4f37f,0xbe87354d,
0x3d7ecc0d,0x3a976b14,0xbe801d5f,0xbfb56767,0x3ec7a409,
0xbf8b3730,0x3ecdff1a,0xbfacac9e,0x3ddfed49,0x3dfd1b56,
0x3f1637af,0x3e2674e1,0xbfd61fbb,0xbeafa1e0,0x3e4b05b9,
0xbda6b671,0x3e873eec,0x3e22c615,0x3ef613a6,0x3f36fbe7,
0xbdc3d2a7,0xbd8c2b21,0x3b98c71e,0xbf234760,0x3e891c71,
0x3e719c2d,0x3eb5a8af,0xbf0eb558,0x3f72865d,0xbed016a3,
0xbf32f7eb,0x3f0d0847,0xbde1ec82,0xbc172d7f,0xbf0ad18b,
0x3f561bb9,0xbebafb32,0x3ea0c069,0xbf29ded1,0x3d514de8,
0x3e1f3982,0xbe80aaac,0x3f35459a,0x3e18bcd8,0x3ee0ca5d,
0xbe97be8b,0x3ea2cc35,0x3eabc114,0x3eabc497,0xbf4cdac9,
0xbf924aee,0xbeaef394,0x3f337898,0xbf09cbd2,0xbf26b78b,
0x3e93f1dc,0x3e41516f,0x3e48d5c4,0x3e9fda71,0xbed5feb8,
0xbf36db62,0x3ee4e0a4,0xbeaa5249,0xbf3b9e63,0x3f50790e,
0x3f75e539,0xbf9c774b,0xbf8a225b,0xba9ad3f6,0x3e0557ed,
0xbf3ce237,0xbe5c4c2c,0xbf02be6e,0x3ea9afd3,0x3e72de3f,
0xbe425f22,0x3f224636,0xbd983357,0x3ed3e0d1,0xbd3187cf,
0xbe3b3358,0xbea8142a,0x3e546a88,0xbcc5aa6d,0x3ea265a0,
0xbf1e3d40,0xbf66af9c,0xbe4cda77,0x3eef57da,0x3e444afc,
0xbe52bd4e,0xbf104430,0x3f33f14b,0x3dc41ff0,0xbd552856,
0xbcfe23ee,0xbedc6136,0xbe4e3cd0,0xbe211e3d,0x3e43bdc9,
0xbee16ed7,0xbd1f08b0,0xbeed83a8,0x3f2339ab,0xbc0372bb,
0xbef1d009,0xbf930a1c,0x3f62b6f7,0xbef0b30c,0xbf3415d6,
0xbdc71e7f,0x3e6ec1d9,0x3e87c9ab,0xbf073238,0x3e2b8151,
0xbddae669,0xbea23b80,0xbf36d9e4,0x3f00dc1c,0x3d3990b1,
0xbe1d0f96,0xbec8a144,0xbefa206d,0x3f0d27f2,0x3e1a42f1,
0xbe9e8e7a,0xbd9b9db1,0xbe692807,0xbe3990b0,0xbd19c31e,
0x3f537b9a,0xbd40bf6d,0x3eefdc1b,0xbeb03475,0xbd37ff37,
0x3d50c9de,0x3d8c86d5,0x3ea82f88,0xbf5f6ba0,0xbf18111b,
0xbf378761,0xbda84d51,0xbebbd8fe,0x3f660a45,0x3ea704dc,
0xbedc90a9,0xbd5d94a7,0x3ecf14a7,0x3e47809a,0x3dba136e,
0x3de40808,0xbdc96572,0x3db118bb,0x3dfa0a44,0xbd1974ce,
0xbe5bace8,0x3f5d9a6f,0x3ef0ed73,0x3ecaedd3,0x3f8d4f9c,
0x3ec83dbf,0x3e3f7904,0xbe74d0fe,0x3de88fa2,0x3db1124d,
0xbf47fe42,0x3e1a05e1,0x3d9f3245,0xbe475fb4,0x3db5837c,
0xbf053446,0xbedc689e,0xbe7116bd,0x3e530577,0xbf143648,
0xbe40b871,0x3ecb28f0,0x3db6e731,0xbe951f23,0x3b8862b0,
0xbc138804,0x3e655021,0xbe4850d5,0xbe81a2dd,0xbe805a00,
0x3e220a91,0xbee84b7e,0xbde785e7,0x3ee7a0ed,0xbe59a734,
0x3e6fe983,0x3d829335,0xbe93d177,0xbed178a6,0xbd4a54a7,
0xbf40591e,0x3d2cca68,0x3f020a88,0xbe6f4d62,0x3e98e37f,
0xbeca2cb8,0x3e3a639d,0xbee35a43,0xbe1ea405,0x3eb1ff1f,
0x3e6edfa7,0x3e219fb8,0xbe5a5739,0x3e7d734c,0x3dc789c8,
0xbe1ce188,0x3f01c213,0x3e96377e,0xbd8164b4,0xbda67649,
0x3e07ded5,0xbe6f464a,0x3f0ee7bb,0xbe305216,0x3b2ca000,
0xbeec5a9b,0xbf2f1541,0x3e86b425,0xbed0531b,0xbf2bb824,
0xbe1583a1,0xbf39e61a,0xbd0e33c4,0xbda3e123,0x3eb45f62,
0xbd44cbda,0x3e372f86,0xbda67abb,0x3f08e3da,0xbef91fd6,
0x3f275b22,0x3e9aa9ec,0xbe83ad46,0x3e595326,0x3e406e83,
0xbe288c73,0x3ea613b5,0x3dec740f,0x3ecf0a69,0xbf87cdcc,
0x3dcf9508,0x3e68d9f5,0x3d454947,0xbdaf2f99,0x3f41628c,
0x3ecad0be,0xbf3c0b8e,0x3e49880b,0x3cb4e730,0xbe9c5ca1,
0x3c861e9e,0x3ec2919a,0xbec39fa0,0x3dd2afc7,0x3e5cd978,
0xbf54d4bd,0x3e3fea14,0xbeb3a6e2,0x3edd7b0b,0xbe365aa9,
0x3e73c7af,0xbec45e3c,0x3e7b8754,0x3ec2191d,0x3ed2f771,
0x3eaf0372,0xbf2adc39,0x3eecffa0,0x3ea09a2a,0xbe9d6e14,
0xbea7637d,0xbea51c9b,0x3f2ef932,0xbed7adec,0xbe5f7a40,
0x3de30021,0xbe618866,0x3d90efa9,0x3dd95b1e,0xbe33cc7a,
0x3f2c11c8,0xbee18864,0x3e69c158,0xbe987ac2,0x3f10747b,
0xbf2174bd,0xbf370995,0xbe1afa60,0xbf0bab41,0x3e7c9791,
0xbef9ea34,0x3d7d57ac,0x3ebf5a03,0xbf01f70a,0xbec6f709,
0xbf07cee8,0x3f06cddf,0x3e495852,0xbf415863,0x3ba6cf69,
0xbe078c80,0xbec56871,0x3dcb3639,0x3ee7a32f,0xbe5065b1,
0xbd7b0789,0xbf12a3fe,0x3e7c3ec4,0x3e2274c4,0x3e0b1215,
0x3eee179a,0x3db32c8f,0xbc229f68,0xbe13061c,0x3dcafc38,
0xbc970b65,0xbe8cba8b,0x3d1dabb9,0x3e23184b,0xbe0a85e2,
0x3bde42a9,0xbded8b36,0xbee1d64d,0xbe96e805,0xbed5e05b,
0x3e90ea28,0xbe8a6069,0x3f646fd0,0x3ea8fcd8,0xbeae1ed4,
0xbeaaa852,0xbf3be532,0x3e3ba877,0xbcfc1d83,0x3dc46fa5,
0xbedfc3cd,0xbf71253c,0xbf0774c1,0x3e5b94c3,0x3ebf4596,
0x3f225232,0xbedb31d3,0x3e196330,0xbea98135,0xbc54d26c,
0xbe3fc6db,0xbe0b82b1,0x3e86d2d9,0x3e2de701,0x3e9e9241,
0x3ea1409c,0xbe039258,0x3dcb4246,0x3e8c5354,0xbf171588,
0xbec95360,0x3e71b5ff,0xbe9a3701,0x3e6fc55a,0x3e10fe34,
0xbd8847fd,0x3e61246b,0x3ea01747,0xbe8ebc65,0xbb7638dc,
0xbe905725,0x3e05927e,0x3d671b19,0xbe8727a8,0x3d5350ce,
0x3f09b41a,0x3f8011ce,0x3e8125d0,0xbcc092e6,0xbe590f0c,
0x3ea72d57,0x3e268e9d,0xbdb8ec28,0x3cd11260,0xbf3f95b8,
0x3e4069b3,0xbea7dcb2,0x3d9249a6,0x3d4db342,0x3f35324e,
0xbf170c46,0xbeb4eb78,0x3e0f14f6,0x3e90941c,0x3e4dd099,
0x3d12035c,0x3e89bfb0,0xbf3dea5a,0xbe7b3e13,0x3d201e59,
0x3e7f2a5a,0xbe3fdb4d,0x3e313e1c,0xbe05ccca,0x3ef1319e,
0xbf24f709,0xbefbf83b,0xbe73d720,0x3ec695f4,0x3e979f68,
0x3f0e45ac,0xbf4cc03b,0xbedc3707,0x3d122361,0xbe7db3a6,
0xbf015cc6,0x3f44ba68,0xbcdaac6e,0xbcaa0a9e,0xbc352c45,
0x3d3d8ed9,0xbf7fd1f6,0xbf4d6c2c,0x3eb1e5c0,0xbf3b7a5a,
0xbe606c5c,0x3d1f2159,0x3dafd2ab,0xbebcf75f,0xbea5d5d3,
0x3e3c54f7,0xbf18f9ac,0xbed48693,0x3e10a382,0xbe418601,
0x3dc4876e,0x3d2c9cd3,0xbf3139d3,0xbeac165c,0x3e0efbb8,
0xbd0a054b,0x3e6eeb72,0xbecdde38,0xbe6b6224,0xbf8ba953,
0xbe948a2a,0x3e9e08d1,0xbe8d8aaa,0xbe42fc56,0x3e89dd03,
0xbe7def24,0xbe835df8,0x3f057298,0x3c3df904,0xbe719da4,
0xbe364bb9,0xbee3d681,0xbeaf4735,0x3e777b0b,0xbec0b917,
0x3f01a9cf,0xbe69ef1e,0xbd69443f,0x3e039d24,0xbe47cc3a,
0xbd97861b,0xbe7e862b,0x3e4da2c1,0xbdcac76b,0x3da33f0b,
0xbd2130bd,0xbe4c0fe9,0xbf681b88,0xbea63e0a,0xbd05f95a,
0xbe5c4c0f,0xbed1a04a,0x3e40fc3e,0x3c8e2576,0x3d8b5152,
0x3e1a2531,0x3df25e0f,0x3ef39f0d,0x3f327976,0x3efb5e7c,
0x3f0d50fc,0xbd992fd4,0xbe4d24bf,0xbe2055f0,0x3f1e3412,
0xbc3b4e32,0x3ecc6191,0x3dd70764,0x3e813d88,0xbe987a69,
0x3e974769,0xbebd24ce,0xbf492b49,0x3f08a235,0xbf5720ca,
0xbefa4e0f,0xbecc5b74,0xbee68d6f,0x3edc9548,0x3e3c91ec,
0x3e169308,0xbefcff49,0xbeeac838,0xbebda762,0xbd1b7dc7,
0xbf14642b,0xbdee87bb,0x3e85681f,0x3e5e69c9,0xbe801f19,
0xbef302ec,0xbd58b207,0x3eac86e0,0x3e8484b6,0xbeaf0d26,
0xbd556b5d,0xbbadb613,0x3f430046,0x3e16e5ac,0xbe9a1810,
0xbeb72411,0x3e39aef6,0x3e70f096,0xbc5f68b5,0x3e1fb126,
0x3c5bf15e,0x3e40803c,0xbed899e3,0xbcc82b7d,0xbe35d271,
0x3e7ae896,0xbec46f3f,0xbec771bb,0xbf19d85b,0xbc71545c,
0xbe8d687c,0xbd691e28,0x3e8819e1,0xbd2920b3,0x3e652a19,
0xbee22b88,0x3f8a094d,0x3e66df98,0x3e1f1442,0xbd971c3e,
0xbe73db46,0x3ad2172c,0xbe15f630,0xbd589bca,0xbf053bf1,
0xbe218522,0x3e34c625,0x3cf24974,0xbd8dd0b8,0xbeaada29,
0x3e840a7d,0x3f4021a8,0xbe959700,0xbdb17b82,0xbe651290,
0x3ee2b1a4,0x3de6638e,0xbe8ae864,0x3e3eb983,0xbd110f5d,
0x3d47a2a8,0x3fa4c400,0x3dcddbfa,0x3b889032,0x3eb70ec4,
0x3d9fcab8,0x3def6a14,0xbe3164f2,0xbea8422f,0xbeeec060,
0x3ed2bee1,0xbe8882f1,0xbe8022ae,0x3e60443b,0xbe93b997,
0xbeb0d5b4,0x3f6ea983,0xbe87a713,0xbce39c07,0x3d5b2307,
0xbdfc49e3,0x3e8108bc,0xbe9870f5,0xbf6daa62,0x3f55e091,
0x3dec1ef2,0x3eb08c74,0xbe49090e,0x3e550374,0x3ea0d119,
0x3f8c4b4c,0xbd990e31,0xbf1c678a,0xbeb00f4a,0x3f223cc2,
0x3f09a58a,0x3e7c2c7f,0xbd9dd9db,0x3eebe25d,0xbcafe500,
0x3e9a4213,0xbf32b744,0xbef4f312,0xbe89f52f,0x3f26196b,
0x3e602930,0xbeefe485,0x3ecd350d,0xbd1b9f7a,0x3d7c190d,
0xbeef9f6e,0x3e8584f3,0x3dd78e1d,0x3eb30eaa,0x3d9c1ddc,
0xbe1473e1,0xbe82cd62,0x3e21a87a,0x3edee6eb,0xbf28c379,
0xbe5874d4,0xbe7ca8be,0xbe401934,0x3e95c42f,0xbd6306d3,
0xbdced53c,0xbe801e17,0x3f861bc5,0xbe1e86a8,0x3f43761c,
0xbeff3171,0x3e2a1f35,0xbf0f6c5e,0x3eae919d,0x3e51ca1a,
0x3e65595b,0xbdddb0b1,0xbdf7a792,0x3ebb92be,0x3d0ce003,
0x3e4ba20e,0x3e08361b,0xbd9033d1,0xbe5c5112,0x3d596bb7,
0x3e8fc72d,0xbf42b477,0xbeb58eac,0xbe9a6dc5,0xbf0db557,
0xbe896a8e,0xbf6228a9,0xbe279557,0xbdbdb50e,0x3e99e9c5,
0x3f1ff40a,0xbedd511a,0xbeb7e941,0x3ea65f57,0x3f0a7628,
0xbe838704,0x3c2f3dfe,0xbe612911,0xbdf41beb,0x3e6a93b7,
0x3ed09999,0xbe3f8f4b,0x3d1ac6e7,0x3e007680,0x3c3b70fd,
0x3e687edd,0xbf0b0479,0xbee8dd66,0x3f1ae4df,0xbe141400,
0xbf60be3a,0x3ef3ea74,0x3f604f7b,0xbf055064,0x3f012820,
0xbdcd3ef1,0x3dd68bbc,0xbcc6f288,0x3f13e15a,0xbdcc8e4a,
0xbc4cc589,0xbe984819,0x3f443683,0xbf46d77d,0xbf35c681,
0x3e91af47,0xbe0077ea,0xbf0333bb,0x3ce5be40,0xbe0f36f4,
0xbe3c529d,0xbebb2dba,0xbd0ea895,0xbeb76d34,0x3f24d585,
0x3c9a9641,0xbeb55375,0x3eaa7c73,0xbed8f353,0xbef60e63,
0x3e313a2c,0x3e88956c,0xbe70d408,0x3d4323bd,0xbd4b4c83,
0x3f0f78e2,0x3f759af9,0xbca116a0,0xbf81097b,0x3f2c7817,
0x3cc301ab,0x3f0f8fbb,0xbf00883e,0xbe8de5b2,0xbf0402eb,
0x3edb255a,0x3eecd9f9,0xbf69f0b1,0xbd4e576b,0xbebe7dc0,
0x3eebc6cf,0x3e9e895a,0x3ea1f4eb,0xbeb21a70,0xbf2b5fd5,
0x3f18a590,0x3f00264f,0x3ea51296,0xbeeaa0ef,0x3eaabc61,
0xbead903e,0x3e21d107,0xbe4175da,0xbc177cf2,0xbf19ddfc,
0xbf2a2310,0xbe0b7945,0xbf0fa4cf,0xbf5428df,0xbf11957c,
0x3e3552c9,0x3e945fe4,0xbdaccb09,0x3f1bc2f3,0x3f2c5e09,
0xbec92019,0xbda64291,0x3e6b015c,0xbd6082fe,0x3c9dd427,
0xbe11bb4a,0x3f2af9f7,0xbf9cac40,0x3ddd5c09,0x3e7bb97d,
0xbf171668,0x3d8c3574,0x3e16af25,0xbf26b1c4,0x3eb28721,
0xbdd50eeb,0xbf6dacce,0x3e7577e6,0x3ee843c3,0x3dbe3db0,
0xbe8f879f,0x3d367b2f,0xbe919f33,0x3ef9ec21,0x3f2e1430,
0x3db9fe62,0xbe79b49d,0x3eb1f7ab,0xbe808f55,0x3ef16a59,
0xbe9b579b,0xbeab1eeb,0xbeab4c4b,0x3e092edd,0x3f80d03e,
0x3ea56a26,0x3e73916d,0xbdd78442,0xbf2a1763,0x3e493d10,
0xbd7f0b10,0x3ea0aa0a,0xbf2528d0,0xbee6129a,0x3f12c548,
0xbdbb723c,0x3f1cf7e5,0xbe985f63,0x3ee76b12,0x3f2dd30f,
0xbe84e41e,0xbea709da,0xbefdac29,0xbd47506b,0x3f4e00dd,
0x3ec3fccd,0xbf19b433,0xbc957409,0xbef0d2e7,0xbf05e0e2,
0xbdc09b6f,0xbeeab3e4,0x3e530b59,0xbeb42f23,0xbe3bef3c,
0xbe1582cf,0xbf2758aa,0xbf416bc8,0xbc8e1abc,0xbf0c131e,
0xbef36079,0x3dcf7030,0x3edfa33f,0x3e7377c8,0x3eccb31f,
0x3e25a3f0,0x3f0d21e2,0xbea8d6c8,0x3ea7e869,0xbed8be5a,
0x3f13b101,0x3dbcad9d,0xbed27d69,0x3f242043,0xbd23bcb1,
0x3dba28ac,0xbecabbb0,0x3ef277e3,0x3ebc7ca2,0xbe09a7ba,
0xbe38e565,0xbecfd04e,0x3d26b45f,0x3f193d02,0xbef27b50,
0xbee88b49,0x3e77848e,0xbea41d75,0xbe473c6d,0x3e25d1d3,
0x3eb04089,0xbf6a3425,0x3ebbc0dd,0x3e8fec84,0x3f2ccc38,
0x3efeb527,0xbbc24cc5,0xbe6611a1,0x3d2b9f7e,0x3d85e74d,
0xbf28e5f0,0xbe093619,0xbe96f935,0x3ed94e6b,0x3cee109d,
0xbea5e841,0xbf26d8b9,0x3e40511c,0x3e79ef96,0xbe0b395e,
0xbd992aaa,0xbf512d32,0x3eaa051e,0x3f35b11e,0xbea359e3,
0xbdbafbe1,0x3e3487f3,0x3e568f82,0x3e0ff118,0xbcd1fbb3,
0x3e13227e,0xbe636cb0,0x3e6fe3de,0x3e93e961,0x3c9fafb1,
0xbf240821,0x3ed39e43,0x3f058cc1,0xbf06658f,0xbe4d925f,
0xbf143c78,0xbee6c139,0xbd2919ba,0xbd18b0a4,0xbe8b8b99,
0xbe5322a5,0xbfaac81e,0x3ebe6951,0xbee12550,0xbf0e061b,
0x3ea87512,0xbe3a118a,0x3f1c1c5b,0xbc892992,0xbe845e5d,
0xbe39a264,0x3e7b2c95,0x3f26e520,0xbf013165,0x3d61a415,
0x3ea73ac8,0x3f0c86ed,0x3e439123,0xbeee1349,0xbea565e8,
0xbf39e903,0xbee1c935,0xbf9cce74,0xbc871146,0x3e712f93,
0xbe9f78e3,0xbd88385b,0x3e41c8f3,0xbe7c9886,0x3f09f0f6,
0xbe70897c,0xbe8b641e,0xbb958cb1,0x3e2ebdf7,0x3e26e154,
0xbe2debde,0x3ece3cac,0xbe85bb7c,0x3eaff9ff,0xbe9495c5,
0x3cc65d90,0xbd6967b3,0x3cdf8394,0xbb7da01a,0x3ee15602,
0x3ece3965,0x3ee05477,0x3ed74773,0x3ce938f0,0xbe0a6e5d,
0x3f5ecd29,0x3ee25a06,0xbe52246f,0x3e43e7cc,0x3f0be9f6,
0xbe6c0f61,0xbf3b7019,0xbf0b1dc9,0x3e982877,0xbd21dfc7,
0x3e166a30,0xbf23969b,0x3edbadf4,0xbd36e568,0x3e9939be,
0xbce670ca,0xbdd9cb2c,0x3ec6d1a4,0x3e60849d,0x3f09ad02,
0x3ee8d469,0xbda325a0,0xbdc06c47,0x3eb9ad67,0x3fb695cb,
0x3e171e7d,0x400030cf,0x3a4c82aa,0xbe27ecba,0xbf4d18c4,
0x3f28ed9a,0x3ed914c1,0x3f2594ce,0xbe9b9596,0xbe481571,
0x3f949815,0x3e796b86,0x3f673bbf,0xbf6f2932,0x3e7c860a,
0x3d5f7392,0xbe659864,0x3e56e7a7,0x3e18beb1,0xbf98d8e3,
0x3e3dfb14,0x3e94fce9,0x3ea32ddb,0x3f9c9da0,0xbed54519,
0x3f9df50b,0x3e53e73a,0xbf2e9a23,0x3f342c77,0x3ee33e1f,
0xbeaaf75e,0x3f157421,0x3ea8b09a,0x3e143a26,0x3f631a1e,
0x3ed67353,0x3fb8d24a,0xbe4f3e88,0x3ec1d51e,0x3eec9474,
0x3f396d13,0xbef68ca1,0xbf054865,0xbf52d00b,0xbf17d881,
0x3e2bcf86,0x3f861c3b,0x3e77f79d,0xbf5d2c1c,0xbe4da156,
0xbd126aec,0x3d469c43,0xbfb154c2,0xbf992b71,0xbf288ede,
0xbf031cc4,0x3f06f810,0xbe46e37f,0xbe2aa28f,0x3eec4432,
0xbf65a608,0x3f77dfd7,0xbef13985,0x3ec3eceb,0x3f7a3c2d,
0x3fbcbb14,0x40157f39,0x3f27cf09,0xbda05638,0xbe3bb886,
0x3efca049,0xbe01b856,0xbeaed7e5,0xbf5eb42f,0x3f32b4a1,
0x3e3e7ab4,0xbd87d5a3,0xbe2fa98b,0x3d9fb2d8,0xbe0409a7,
0x3cf62440,0x3eb5fcf4,0x3f63afd3,0x3f7f106b,0x3f1aee57,
0xbeb0ca5d,0xbe8f21b6,0x3dcf6485,0xbf15ea1e,0x3f91f791,
0x3e6be176,0xbe052ee2,0xbddeaa37,0xbea59120,0x3f6f5d61,
0xbe248a56,0xbef95102,0xbd7c20b6,0x3e1f7831,0x3eb814f3,
0x3edfb3d8,0xbf526de2,0xbe95ccdd,0x3f8ca263,0xbd8e3cd2,
0xbee0ed31,0x3f602ec6,0xbe2a6fa1,0x3f3bb919,0xbeb48cc1,
0x3e279a07,0x3d15e3ca,0xbf63db60,0x3f3a5842,0xbd210711,
0xbf822f33,0xbd96838e,0x3e27834b,0xbea20e4f,0xbd922bef,
0x3faa39b8,0x3f974516,0xbe45e6e8,0x3dcd3eaf,0xc000927e,
0x3f19c207,0xbe86e7cf,0x3c1816d9,0x3dbd6b16,0xbe9410b4,
0x3f18af85,0xbf884d8b,0x3fcc17cb,0x3e2e302e,0x3dd9aab2,
0x3e168c2d,0x3dbc8fc0,0x3f8798b0,0xbe75c154,0xbf0dfe9e,
0xbebbf644,0xbe50c8c4,0xbfe71356,0xbea9491a,0x3f55a994,
0xbea3618a,0x3f2ea39b,0x3e3e65c8,0x3dcbe3a5,0xbe0ace35,
0x3dbec5a4,0x3df97dd4,0x3e17db2b,0x3d7cd6a5,0xbea874e5,
0x3f2ee2d8,0x3d854dba,0x3f695e17,0x3e903833,0xbecad5c3,
0xbf82f0a2,0xbfeee26d,0xbebaeb51,0xbf03f20e,0xbc048871,
0x3e97e624,0xbfbb1ec9,0x3fb9f962,0xbf6519f3,0xbf308908,
0x3eb396c1,0xbebff9e0,0x3f56fe61,0x3fbebec3,0x3e82de2b,
0xbe19e452,0xbede0c77,0xbefba160,0xbf55b68c,0xbecd4a9e,
0xbf3ba748,0x3e2cec24,0xbd923a3a,0x3ec431a3,0xbeaa0e4b,
0xbfd617eb,0x3f374489,0xbf811923};

uint32_t bias_array[102] = {0xbd8f86e6,0x3f303f67,0xbd0af6fd,0xbe85af7c,0xbd99fc72,
0xbf837b9d,0x3e949e7a,0xbec9ee9c,0xbe9a31d3,0xbdf2e70b,
0x3ebe6aa7,0xbe594244,0xbe8330e5,0xbcc9327e,0x3e372786,
0x3dc0ee02,0xbe5d060e,0x3d8d0ef1,0xbec04957,0xbc533f1f,
0x3df94763,0xbe99e843,0x3dda5449,0x3e858a0a,0x3e16e5ff,
0x3c043358,0xbed786b0,0xbca639ec,0xbe23bdca,0x3f1571f8,
0x3ec50e9b,0x3e73ff0d,0xbe913ef4,0x3d184628,0xbc97d88f,
0x3e187bd1,0x3de833a4,0x3e009055,0xbe2fd40e,0x3eb9aa88,
0x3edcadc7,0x3e98355f,0xbe832793,0xbee150ab,0x3ee48db5,
0x3e25c332,0x3d575ba1,0x3eb54a2f,0xbd5dd750,0x3df53d30,
0x3eead7ad,0xbd706fce,0xbda2f6d4,0xbd43fd8a,0xbe8d4ded,
0x3d1d7614,0xbdac72cd,0x3e804281,0xbad4c388,0x3e9d3db9,
0xbd2db998,0x3e3ca7f4,0x3e4c6b87,0x3e4f8d45,0xbf3ce85e,
0xbed7031f,0x3da66fc3,0x3e71da43,0xbeac6c40,0xbe042afb,
0xbdb6a1d0,0x3eaa081e,0xbf172131,0xbd1ae764,0x3e2fd74d,
0xbf2d12e4,0xbcc5e888,0xbecb824c,0x3cdd9001,0xbf02c61f,
0xbf1386f7,0xbf59dd62,0x3d81e3e6,0xbeba4d90,0x3ecd93f3,
0x3e15d6fa,0x3e14fa65,0xbeadc094,0x3db6657b,0xbe9b5954,
0x3d32997a,0x3f1ddaa4,0xbd766bbd,0xbf034604,0x3ec79bcb,
0x3e5328d4,0x3dfaeb12,0xbb4fc0af,0xbeffcf0c,0xbf127374,
0x3d9903bc,0xbe175a24};extern uint32_t bias_array[102];extern uint32_t weight_array[3328];