uint32_t weight_array[3328] = {0x3ec28b5a, 0x3e39f987, 0x3ea69c3b, 0xbdf2f85f, 0xbb069005,
                               0x3f3e69ac, 0xbe3173ce, 0x3e87adfa, 0x3f3f2ce1, 0x3dedbe23,
                               0xbdb4a198, 0x3e5280ab, 0x3c9c4eac, 0x3e6415c5, 0x3f104ded,
                               0xbebf97df, 0x3e1a2686, 0xbe2e23c0, 0x3d828260, 0xbe98050a,
                               0x3eaf3806, 0x3efaa67f, 0x3eb94e7b, 0x3d137f14, 0xbec79073,
                               0x3e7cd4b5, 0x3eb87d6c, 0xbe9ec345, 0xbea160b8, 0xbdf2e8ec,
                               0xbc5303f7, 0xbcd554d0, 0xbe1ca138, 0x3e2427b1, 0xbd9022a1,
                               0x3e9d8169, 0x3de921e6, 0xbe358cc1, 0xb915c3df, 0xbe2cad65,
                               0x3e354ae8, 0x3da25da4, 0x3db58931, 0x3e147b82, 0xbca3d829,
                               0xbd31256e, 0xbc8e2cc5, 0xbda87bd0, 0xbcdea651, 0xbeb53ada,
                               0x3c949628, 0x3e463c94, 0xbe67c8ad, 0xbef51379, 0xbe63d952,
                               0xbe509f81, 0xbaa17333, 0xbb269456, 0xbe800597, 0xbee1efc5,
                               0x3e496577, 0x3e383545, 0xbf0892a1, 0xbe5b3df1, 0xbd51db17,
                               0x3e1a9b50, 0x3c1ee687, 0x3aebc312, 0x3e159bb4, 0x3e6a5400,
                               0xbd9328c9, 0xbe0c770c, 0xbd623719, 0x3e891cbf, 0x3d97ab4b,
                               0xbbbfe8b8, 0xbd07e166, 0x3d3a96d2, 0xbd8fc879, 0x3dbf869a,
                               0x3d88fb24, 0x3e0f5779, 0xbdef8d5f, 0xbce2e69c, 0xbe571731,
                               0x3ead476c, 0xbe23d660, 0x3ed78029, 0xbe5c0a7b, 0xbd910d31,
                               0x3dddf88f, 0xbe0b6d1d, 0xbc581f07, 0x3e43f13a, 0x3e5c5e55,
                               0xbe423933, 0xbf0d98d8, 0xbe789d1d, 0x3da417c1, 0x3e892b48,
                               0xbe39652a, 0x3e4895cc, 0x3daaa9aa, 0xbe898050, 0x3d84a7a7,
                               0x3e38d08e, 0xbddd6d74, 0x3e5fa5ec, 0xbed56322, 0xbe379ca9,
                               0x3d8328cf, 0xbe4875ba, 0x3e3b3b45, 0xbc263173, 0xbe50e700,
                               0xbdc43ba5, 0xbebe03db, 0xbc8a9e9a, 0xbdfba22a, 0x3bc741a6,
                               0xbe03be64, 0xbcf9a58e, 0x3e242ce7, 0x3d2312dd, 0x3e3068db,
                               0xbd3f402c, 0x3e27b3db, 0xbd048a0c, 0xbeafebc1, 0x3ef51843,
                               0xbdeae615, 0xbd5f5d0f, 0x3eca6643, 0x3d92320b, 0xbd977080,
                               0x3d51d311, 0x3d899358, 0x3d9c7425, 0x3e631158, 0xbdcb5782,
                               0xbe727a6e, 0x3db69813, 0xbd2a5b19, 0x3e07ddcd, 0xbe877e12,
                               0x3e62079e, 0x3d9073e7, 0x3e515c92, 0xbd85508a, 0x3d142253,
                               0x3e9c6a79, 0xbed141a3, 0xbe737b63, 0x3df8cd40, 0x3e475a13,
                               0xbe0396ab, 0xbe352629, 0x3d93dfda, 0x3dd3b73f, 0x3ea4409d,
                               0x3dbadafa, 0xbf02c355, 0x3e4e679f, 0xbd349096, 0xbd84f28f,
                               0x3ded7c35, 0xbdb55652, 0xbc9968da, 0x3dc10602, 0xbef95e2d,
                               0x3db21b43, 0x3d7e8f75, 0xbdb4a87c, 0x3ccef5fc, 0x3c4105c3,
                               0xbdde37b0, 0x3da93ff7, 0x3d8b4489, 0xbe901cd6, 0xbc65d413,
                               0xbc6e46e4, 0x3ca0cd56, 0xbca5953a, 0x3ce1f330, 0x3e4cb5b2,
                               0xbd948ac7, 0xbec4b896, 0xbb241a63, 0x3e5f2ba2, 0xbea36877,
                               0xbd4f68bd, 0x3d171cc0, 0xbed65156, 0xbee79214, 0xbd86dffb,
                               0xbef2a054, 0x3e8adf45, 0xbdab74dc, 0x3df594ea, 0x3de07851,
                               0xbdca0e3f, 0xbe3e5017, 0xbdfd3aa4, 0x3ca1c8f7, 0xbdb0bbcd,
                               0xbd265d55, 0x3d906d3a, 0x3d4c92c7, 0xbd0a7ac6, 0xbe52dc98,
                               0xbc829043, 0x3ce7d8ea, 0x3b7eb925, 0xbddcff00, 0xbd11a3ed,
                               0xbe624fbc, 0x3de8efa6, 0xbebccd29, 0xbc557182, 0xbdc7cf6a,
                               0x3eaa6e78, 0x3d9b3309, 0x3d5b5aab, 0x3db94e74, 0xbf4faf72,
                               0xbf3758ca, 0xbb9c7d1c, 0xbe8bc811, 0x3ba7eaef, 0x3e6261ca,
                               0xbe9a9627, 0x3e1831dc, 0xbe6ce099, 0x3e80cd84, 0xbdb96f33,
                               0xbebb7e00, 0xbe07b827, 0x3e31651a, 0xbe871a64, 0xbd3aa928,
                               0x3c8c7f56, 0xbd875f38, 0xbe861d56, 0xbe953861, 0x3e84d89f,
                               0xbe55c4ba, 0x3d5ec1c8, 0xbdefea76, 0x3e83076c, 0x3d449924,
                               0xbdd8d4ff, 0x3e95eca8, 0xbd8c19a2, 0x3c59be2f, 0x3ea1aee5,
                               0xbe2a86ec, 0xbe3e61ea, 0x3cadb1d6, 0xbdb3ba54, 0x3ce4f5cf,
                               0xbcf38f15, 0x3e070d66, 0x3d955a89, 0xbda79cb7, 0xbe4899c3,
                               0xbec832e3, 0x3e329450, 0xbd8f744a, 0xbea926fb, 0x3d3cda8e,
                               0xbe060915, 0x3dad5c86, 0xbe174228, 0x3eb39c5b, 0xbd3fec40,
                               0x3e2917aa, 0x3dd8eb11, 0x3e1dfa57, 0x3d8d658c, 0x3d9ed334,
                               0x3dc53fea, 0xbdfc4123, 0xbda58f57, 0xbcd1cc88, 0xbe4ea84a,
                               0x3e44f856, 0xbe86d194, 0x3d40c300, 0x3ea79906, 0xbe34650d,
                               0x3d1c6e38, 0xbe89b298, 0xbe969c8e, 0xbe015789, 0xbd517b90,
                               0xbdba5420, 0xbe72ed09, 0xbd0726fc, 0x3de55b63, 0xbe30e387,
                               0xbd926e3c, 0xbdbd8936, 0xbdc2e286, 0x3e8cb6bd, 0x3defcb29,
                               0xbdf78a66, 0x3e1f2f8b, 0x3ca57fbf, 0xbef364b5, 0xbe2efcfe,
                               0xbe178c53, 0xbd298e81, 0xbdbfbcc6, 0x3e4b4f3a, 0xbecbf693,
                               0xbe073ce8, 0x3ea54e06, 0xbd8dfb64, 0x3c75612b, 0x3e0d6d81,
                               0x3e7e5a07, 0x3f05357f, 0x3ebed289, 0xbd0d9e3d, 0xbf18a38c,
                               0xbf6329a8, 0x3f3d5ecb, 0x3e58bc59, 0x3df56825, 0x3cc92858,
                               0xbe83f472, 0xbd931fde, 0xbeb2318b, 0xbe392ea8, 0xbea7fcc8,
                               0x3dacba55, 0x3c5550e4, 0xbd0647c9, 0xbe8b0263, 0xbd00f845,
                               0x3db125a2, 0xbfa7319d, 0x3e7f5567, 0x3c972f9e, 0x3e238c11,
                               0xbe878205, 0x3ed2b3a9, 0xbca2280f, 0xbea61d87, 0x3dd4dfb7,
                               0x3e7c4bfb, 0x3e5d7adf, 0x3f4b8d00, 0x3ea0aeb1, 0x3fa9eac1,
                               0xbf0296bd, 0x3ffaf01f, 0xbe5d52d3, 0xc05cfbde, 0xc05b884d,
                               0xbe546d4f, 0x3df26315, 0xbfc182c8, 0xbf978a76, 0xbf750e2a,
                               0xc06c46a6, 0x3fa9f390, 0x3f81785b, 0xc08ad334, 0x3eee5459,
                               0xbe03df85, 0xc04ae284, 0x3fb2f035, 0xbfc31d2a, 0xc065b831,
                               0xbfa2f20c, 0xbde61716, 0x3f54fb08, 0xbfed9933, 0xbf916636,
                               0x3fd0d2c9, 0xc034f813, 0xbf9d6ccd, 0xbfe9d695, 0xbd0081bb,
                               0xbe8d4a26, 0xbf03c97e, 0xbc16cef8, 0x3fe12e6d, 0xbf9ba9d2,
                               0xbea94f3f, 0x400a57cc, 0xbee8de1a, 0x3e3fea5c, 0x3f9bb576,
                               0x3efccd88, 0xbf5846a8, 0xc03235a8, 0xbf8ff2c7, 0x3f7de9fe,
                               0x3f96a1e2, 0x40051068, 0x3f929a14, 0xbe4583ad, 0x3f8e1db7,
                               0xbe98eb25, 0x3eeebfd2, 0x3fd8f6ff, 0xbf523d79, 0xc0043c3a,
                               0xbff5afba, 0xbfa8a147, 0xbf337480, 0xc00a3d6e, 0x3fdde8bf,
                               0x3ebb7bdc, 0xbf047a04, 0x3e0a4262, 0xbf58c129, 0xbe752c2e,
                               0xbf2e57d2, 0xbe586aa3, 0xbe48a719, 0x3e9c6cd8, 0xbec2a469,
                               0x3b5cfe4b, 0x3e366286, 0x3e3f325b, 0x3ec56448, 0xbdf46ea1,
                               0xbd718e9c, 0xbd33ad93, 0xbe17c211, 0x3e1e3df1, 0xbf408d93,
                               0xbe0ec028, 0xbf291a66, 0xbe0ff3fd, 0x3e369fd6, 0xbebcec85,
                               0x3eefe39b, 0xbec8c105, 0xbf1ddf8c, 0x3dc24a78, 0x3d831d0b,
                               0x3edd90ea, 0xbf154830, 0xbcf4f348, 0x3dfa38a7, 0x3e8ad14e,
                               0xbf1a71df, 0xbf6582d1, 0xbf153e7b, 0xbd379738, 0xbeb6fd91,
                               0x3f0449a1, 0x3e122fdc, 0x3efe43b5, 0x3e27aeb2, 0x3e05c480,
                               0xbd4f9bd6, 0xbefd7165, 0xbf94dc12, 0xbdaab318, 0x3dba50dd,
                               0xbf065094, 0x3f15881d, 0xbd954d47, 0x3ea9375e, 0x3d69a3c0,
                               0xbb9b3705, 0x3f44ad23, 0xbe21762f, 0xbe28f23c, 0xbf1b01c4,
                               0xbfb4eaf0, 0xbe8e2a64, 0xbf591308, 0xbe5e599d, 0x3ee9eecc,
                               0x3c961bb1, 0x3f09630c, 0x3f21e8b3, 0x3ea32063, 0xbedd3ea5,
                               0xbe06ebf1, 0xbf12ce78, 0xbe94af76, 0x3ec35208, 0xbed49e51,
                               0x3e557a68, 0xbea78350, 0xbe8a9757, 0xbeef49ff, 0x3d7b3b51,
                               0x3da72b76, 0xbf749adf, 0x3e18d156, 0xbe255834, 0xbdcd2b83,
                               0x3ed149ee, 0x3e9f6bd7, 0xbf2a6ea6, 0xbe3843ea, 0x39bae341,
                               0x3e986559, 0xbf4b1fad, 0x3f010448, 0x3ec888bb, 0xbeadc060,
                               0xbe26d4a7, 0xbefdecd2, 0x3dc85cad, 0x3cbac9aa, 0x3d684014,
                               0xbeb15d07, 0xbe7c426f, 0x3e876006, 0x3e3c7272, 0xbeb7c184,
                               0x3ec1a37d, 0xbe137637, 0x3d1b9cd4, 0x3f1021b7, 0x3ef34e30,
                               0x3e060e86, 0xbefbcd70, 0x3f5f6b5a, 0x3db675d7, 0x3ea8bd98,
                               0xbc8f4bab, 0xbc316b9b, 0x3e9e67d9, 0xbd3bf473, 0xbd35e895,
                               0xbf318e09, 0x3e581669, 0x3e826753, 0xbe8e2c40, 0xbe34ccbe,
                               0x3e84adcf, 0xbe20e116, 0x3f42dee7, 0xbf2ca1db, 0xbe76f157,
                               0xbd68068b, 0x3f75dfea, 0xbe1dae70, 0xbfc3d1e8, 0xbf0e1383,
                               0x3e200191, 0x3e84a41a, 0x3fa725e1, 0x3d0bdc75, 0x4029a206,
                               0x3d87a3a2, 0x3f78b29d, 0x3f4b4932, 0xbd2e4ca4, 0xbd9f9557,
                               0xbe589ece, 0xbfed06d9, 0xbf7c5674, 0xbf510955, 0xbc8841fd,
                               0xbf6b5808, 0xbf323bfb, 0xbeeeccab, 0xbf269d89, 0xbfc29a97,
                               0x3ea59050, 0x3fab0e5e, 0xbf076368, 0x3e29a16e, 0x3ec58448,
                               0x3f20a32d, 0x3de75257, 0xbf63c167, 0x3ff0eb86, 0xbdab42e1,
                               0xbfaef388, 0x3f45bf8d, 0xbdaf3619, 0x3d27716b, 0x3ec1cba8,
                               0x3fb31e4a, 0xbe07e296, 0xbfa86d7d, 0x3ecc6ba5, 0xbf0a053c,
                               0xbfb9abe8, 0x3df22f31, 0xbe764bf0, 0x3fb6cdbd, 0xbe8ed200,
                               0x401295d8, 0xbf8ed75e, 0x3f4ae8a4, 0x3fb7dc0b, 0x3e27af08,
                               0xbf16909f, 0xbff18438, 0x3d2fd2bb, 0x3f2ac055, 0x3f57df50,
                               0xbf53196c, 0xbeb13f4f, 0xbf9dada5, 0xbe69df49, 0x3e378e51,
                               0x3c2c0ba7, 0xbeac0886, 0xbe8b51f2, 0xbdd68df1, 0x3db9c5d1,
                               0xbdad0b21, 0xbe3972fa, 0x3d93214d, 0x3e7bbdf7, 0x3d9ed756,
                               0xbd00e75f, 0x3bca12b4, 0xbd8be7f1, 0x3cdcb35a, 0xbe186702,
                               0xbe0bee47, 0xbd054414, 0x3c366420, 0x3cb3ea38, 0xbc0991c8,
                               0xbdaa8ab9, 0xbe11a93c, 0xbe0c14a5, 0xbddcac22, 0x3d46d46c,
                               0xbd4f5ead, 0x3e6f5fd1, 0x3cb120cd, 0x3ef456ad, 0x3dba667b,
                               0x3d840bd0, 0x3d5a1298, 0x3d0acc9b, 0x3d0865cd, 0x3d590b28,
                               0x3c3a7c0c, 0x3d8d5f6e, 0xbce87d61, 0xbd330ba1, 0xbe41f7f3,
                               0x3d93feb0, 0xbe880152, 0x3dddd7f8, 0xbca5bb8e, 0x3da2d80d,
                               0x3c022c82, 0xbd06d436, 0x3d8b329c, 0xbe4130bd, 0x3e6c85ea,
                               0xbdf00a91, 0xbc8ed942, 0x3db1b86e, 0x3d1440b2, 0xbcdaa025,
                               0xbd305d73, 0xbebf6fb0, 0xbdab139f, 0x3ea52b84, 0xbdc5a609,
                               0x3d39fec7, 0xbe1b9981, 0x3ee23cb1, 0x3ebedb29, 0xbe9c5232,
                               0x3f147375, 0xbdd357c7, 0x3f4a7aa7, 0xbddf98eb, 0xbda7e83f,
                               0x3f49fe09, 0xbf366ea1, 0xbe9893c1, 0x3f39b7f2, 0xbe856e29,
                               0x3f1b984b, 0x3d0e2fec, 0xbe98ac8b, 0xbdadb31f, 0xbeae7f7a,
                               0x3f434912, 0xbe437251, 0x3d6bcd15, 0x3e425531, 0x3f2a564c,
                               0x3dbd54c6, 0x3f3bdbbb, 0x3eae7c0c, 0x3f5658a9, 0x3f52ad3a,
                               0x3eb5208f, 0x3f5bc055, 0x3f73d916, 0x3db3053a, 0x3e980187,
                               0x3d1fe65c, 0xbdee65e4, 0x3cb5878c, 0xbe9d9c24, 0x3f25e293,
                               0xbde0dc93, 0x3eebde48, 0x3db0988e, 0x3ac89b95, 0x3e1969d8,
                               0x3eaf29b5, 0xbed0ad03, 0x3be44aa7, 0xbe1213a0, 0x3ed17dc4,
                               0x3e846031, 0x3e274e75, 0x3f921fe2, 0xbe873c54, 0x3df8e6f0,
                               0x3e37cb5b, 0xbb7cb194, 0x3e4ad469, 0x3f2ed826, 0xbf2ef576,
                               0xbe87f439, 0x3d19eac5, 0xbf472790, 0x3f141cd1, 0x3f867015,
                               0x3ea2ed71, 0x3d78ff1b, 0x3eacf5f7, 0x3dbc84aa, 0xbdfb647d,
                               0x3f383744, 0x3ea6041d, 0xbe96f6f5, 0xbefb64b2, 0x3d87cc5d,
                               0x3e0caaa3, 0x3ea9acae, 0xbc1ceddc, 0x3ed98230, 0xbe5893d6,
                               0xbc98a536, 0x3deb5e75, 0x3dd9bee3, 0xbeb631dc, 0xbdfcc3ec,
                               0xbf02e3c2, 0xbd0735c6, 0xbec004d3, 0x3e60c247, 0x3c931e6d,
                               0x3f25669d, 0xbef40aaf, 0x3c39e884, 0x3f1b32b7, 0x3d82b70d,
                               0x3ec778e2, 0x3f39ec58, 0xbeacc930, 0x3e02b503, 0xbdf2e04f,
                               0xbf013515, 0xbe92aaa5, 0x3f3fbf35, 0x3dfbc366, 0xbe7d8226,
                               0xbe6cf7a9, 0xbe8fb7d9, 0x3e84adcf, 0x3dc91a89, 0x3d5844c4,
                               0x3c24b593, 0xbe7937f3, 0x3e7331c2, 0x3e5ae593, 0x3d8e5fe1,
                               0x3eee8789, 0xbeed84e0, 0x3ef2582d, 0xbe5417eb, 0xbeb4b079,
                               0x3cb143e9, 0x3e6a4d3b, 0x3f34a9d0, 0xbea64976, 0xbe324ffa,
                               0x3d37aea1, 0xbe75ad99, 0xbd8eb4c3, 0x3f08ca63, 0x3e753cde,
                               0x3f20d14a, 0x3f3585c3, 0xbd53c7ec, 0xbf4319af, 0x3b11b2dc,
                               0xbf394e8c, 0x3e030ebd, 0xbe87f34d, 0xbcbf52a7, 0x3d2bad33,
                               0xbe4e6e48, 0x3e7d9a9b, 0x3ed6f590, 0xbd6cf15b, 0x3ea490f5,
                               0x3e14bf32, 0xbcb97291, 0xbda190e0, 0xbe8ec289, 0x3e32db00,
                               0x3eaf1b05, 0x3cfb7f1c, 0xbd7c0bac, 0x3ee00760, 0x3ec879c6,
                               0x3e0c7efb, 0xbe53ddd5, 0x3f24c81f, 0xbe6f499b, 0xbe2a17da,
                               0xbd19204a, 0x3ca28e23, 0xbeaa52d0, 0x3d09c451, 0x3ea0b09f,
                               0x3eda32e8, 0x3e8f3046, 0xbe431e97, 0xbe8b12f8, 0x3e103577,
                               0xbf108bb7, 0xbe52728d, 0x3c5df496, 0xbf11ef12, 0xbebea189,
                               0x3dae71aa, 0x3eec196c, 0xbf7f1771, 0xbd6de36c, 0xbd92a7e4,
                               0x3f0f8cb6, 0xbdb23e07, 0xbe6eb46e, 0xbe3ebd96, 0xba6d1e30,
                               0x3f20c9ab, 0xbe392f30, 0xbea0e2eb, 0xbe6d46e6, 0x3e86df68,
                               0xbe676fd5, 0x3dfbfc03, 0xbed433f6, 0x3f13a2a7, 0x3edf050c,
                               0x3ed1201d, 0x3f6370bc, 0xbe832931, 0x3e44de02, 0x3e8bf4bc,
                               0xbf1ca3ae, 0xbec4db99, 0x3f11363e, 0xbe62c284, 0x3f3e37a4,
                               0xbeddec87, 0x3bb81b57, 0xbf321837, 0xbe071a41, 0xbd89f8ca,
                               0xbebff402, 0xbf147e82, 0x3f5d2792, 0xbe7ec629, 0xbf739303,
                               0x3e7ffe60, 0xbe5ecb81, 0x3d2d6fad, 0x3fb7dcc0, 0xbedc04a2,
                               0x3e89b430, 0x3eb2d7b1, 0xbe0eafdb, 0x3e96c78f, 0x3f3fffec,
                               0xbec622e2, 0xbb222c25, 0x39ed53df, 0xbc9ad9b1, 0x3cd8a06d,
                               0xbbdbc50a, 0xbb63c965, 0x3bf7f4c7, 0xbd440685, 0xbc8ebed0,
                               0x3d9efe33, 0xbd08306f, 0x3c1b16b2, 0xbccce376, 0xba74e3fb,
                               0xbcb1cee0, 0x3d32bf8d, 0xbc81a4a3, 0xbc973474, 0xbcb86fdf,
                               0x3c2208f6, 0xbca2d156, 0x3cb25d10, 0xbcd7c78c, 0x3d87e34d,
                               0xbc0907cc, 0xbcca14b9, 0xbd36bd68, 0x3c2815bb, 0x3d7c04bf,
                               0x3d6b0412, 0x3b9f4e3c, 0x3cbd5443, 0x3e0268b8, 0x3b8b631c,
                               0x39de5374, 0xbd9169fe, 0x3c95ecac, 0xbb481528, 0x3d20e543,
                               0x3d095892, 0xbca0a454, 0x3d900b3e, 0x3d023117, 0x3d1076d4,
                               0xbb894a07, 0x3b62431f, 0x3d06d6ba, 0xbc61df20, 0x3b273bf3,
                               0xbd0dea68, 0x3ce5c2a3, 0x3b8332c1, 0xbd71e167, 0xbca2e288,
                               0xbc345298, 0xbd23b728, 0xbc8ccf2f, 0x3d0bfb6c, 0xbdb48352,
                               0x3ddaee10, 0x3d6b1ff4, 0xbd1790b0, 0x3cbf6d27, 0xbbac90e0,
                               0xbd83379e, 0xbd1f053c, 0x3d8c4b17, 0xbecad0b2, 0xbda4806a,
                               0x3e16ea8e, 0x3c81d6e1, 0x3d9793b6, 0xbcd8e245, 0x3e24ab78,
                               0xbd348370, 0x3d05d95e, 0xbdadf21b, 0x3cd3be46, 0x3b5c117c,
                               0x3ca7a038, 0x3ccb047d, 0xbbc47857, 0x3c8e5a6c, 0xbdcca5e4,
                               0xbc859444, 0x3e22f277, 0x3cb1499d, 0x3da5d688, 0xbdb81a99,
                               0xbcda9bf0, 0x3d8b9e1f, 0x3e47192c, 0x3c69a12c, 0xbdb34279,
                               0x3e4eb9aa, 0x3db12592, 0xbd6a6777, 0x3e036729, 0x3d69ecdc,
                               0xbd966e14, 0x3c9466b8, 0x3e0ceb28, 0x3d96897d, 0xbbf77c22,
                               0x3cd4ebcb, 0x3e73480f, 0xbd46c75d, 0xbdb50d3d, 0xbd901df3,
                               0x3e2daba2, 0xbd4e19bf, 0x3d593579, 0xbb366b1e, 0x3dd5ab05,
                               0xbd9d4d86, 0xbd97815e, 0x3a25fbf9, 0x3d835af9, 0xbc87bb03,
                               0x3db14aa2, 0x3ca614d5, 0xbce1ef0c, 0x3d82dcaf, 0xbd80f9b5,
                               0x3cca02df, 0x3da5c7a3, 0x3caac19a, 0xbb84ce8a, 0x3e77b030,
                               0xbd73b948, 0x3b6e9419, 0x3d36d8b3, 0x3f201863, 0x3a811f68,
                               0xbb99005e, 0x3e904e8a, 0x3d131bb0, 0x3e65ccf1, 0xbdc6bf70,
                               0x3caa91f9, 0xbe842c43, 0x3d9b1a45, 0x3dd786b8, 0x3dc359b7,
                               0x3baa724f, 0x3e6f26f9, 0x3dff412e, 0xbe041284, 0xbd213a57,
                               0x3e13ca26, 0x3c95b883, 0xbde587c9, 0xbec2d486, 0x3e904233,
                               0xbe25d56b, 0x3d142ddd, 0x3ddac38d, 0xbd654077, 0x3ec39aee,
                               0x3e30aa93, 0xbe8c31f2, 0xbd46d86e, 0x3d9b118b, 0xbf2534d1,
                               0xba84f001, 0xbd576e34, 0x3e0ab600, 0x3eb134c1, 0xbdea847e,
                               0xbeb59cb3, 0xbd0d4da9, 0x3cb8cd89, 0xbcc80af3, 0x3e53027e,
                               0x3de52ab9, 0xbcb108d8, 0xbe23804b, 0x3ec7307c, 0x3e5ea534,
                               0xbdd86108, 0x3e1b1ec6, 0xbc70d680, 0xbc6e8499, 0xbeaafb6d,
                               0xbe76c28f, 0x3ea95c46, 0xbbd4087d, 0xbefd9fdc, 0xbd2bcddb,
                               0xbe036742, 0x3d55501b, 0x3e504d9c, 0xbeb81d10, 0xbe0ecee2,
                               0xbc361062, 0x3e38e4ff, 0xbcb639ab, 0xbe86abe6, 0xbf012bab,
                               0x3e13e806, 0xbeb5710a, 0x3ec28e9b, 0x3d998057, 0x3d14762c,
                               0xbe7b2125, 0x3e0402f2, 0x3e0c51ad, 0x3d9dbf7f, 0xbe216670,
                               0x3e49b4a0, 0x3b753164, 0x3e321b42, 0xbe9262e9, 0x3dadd252,
                               0xbe0df733, 0xbddf23d1, 0x3e504492, 0xbf16d81b, 0x3e1d3363,
                               0xbe3823a1, 0x3e2af82d, 0xbe4d0ab0, 0x3e06f0e9, 0x3de96353,
                               0x3e5e4a9e, 0xbd674734, 0xbe02eed2, 0x3a965251, 0x3da22fcd,
                               0x3eef2aac, 0xbe8742e0, 0xbe553f01, 0xbd3f9397, 0xbea5e8d5,
                               0x3d534f9c, 0x3eb745eb, 0xbe08733f, 0xbe5168f5, 0x3e1a359e,
                               0x3f088d7a, 0xbe490ceb, 0xbce5f57b, 0x3ccd60f4, 0xbe1c22c3,
                               0x3d251bd1, 0xbe99e152, 0xbeca4b58, 0xbd77907d, 0xbe9e23dd,
                               0xbe301280, 0xbf030c05, 0x3d9f886c, 0x3da9c1dd, 0x3e152326,
                               0x3ef9b4fe, 0x3dac6f78, 0xbe52ee12, 0xbf87009b, 0xbe47f9ef,
                               0xbc701de9, 0xbf32fc62, 0xbeef6648, 0xbf385bfd, 0xbeb4ab6a,
                               0xbf3bb0b2, 0xbe6d1364, 0x3e4f2112, 0xbe48cf66, 0x3dedac36,
                               0xbf20783b, 0xbf2d26a8, 0x3d74e1f5, 0xbed9b19b, 0xbda9ac23,
                               0xbe29a754, 0x3ef68246, 0xbe6c70cb, 0x3cdcd796, 0x3e35cf82,
                               0x3e94180f, 0x3e47972e, 0xbeb3d438, 0x3e086510, 0xbecda7a9,
                               0xbeae8e12, 0xbe10eebf, 0xbe04e3c9, 0x3ee35ae8, 0xbee7dfcb,
                               0xbe2cc76e, 0xbe4499b2, 0x3d59e34a, 0xbc0a6ccf, 0x3e9494ba,
                               0xbdfb6f3e, 0xbbaf5f6a, 0xbf14f252, 0x3c5fcb4b, 0xbd8c054c,
                               0xbe948368, 0xbc54db5a, 0xbe7672a8, 0xbe7944ec, 0xbe46eef3,
                               0xbe54bdc6, 0xbf54b118, 0xbca65f83, 0x3e3c5b23, 0x3e5bff71,
                               0xbdf5bf1c, 0xbdbc425a, 0x3d785c29, 0x3caacafc, 0xbe5ad6aa,
                               0x3caa611e, 0x3d9dcad4, 0xbcef6221, 0x3b4bae1e, 0x3de0cac0,
                               0x3da78efd, 0xbe9d69b8, 0x3c86535d, 0x3e9e33bd, 0x3e4f9a7c,
                               0xbed4f1ad, 0x3ddb7996, 0x3daa2fb7, 0xbe2b6df9, 0xbe53b7e7,
                               0xbf026362, 0xbe0ed6d4, 0xbef6c8ec, 0xbd94b9ff, 0x3c0583d1,
                               0x3e53006f, 0x3e5b3254, 0xbf210f3b, 0x3f2b440a, 0x3d92269c,
                               0xbec26d11, 0xbe80068f, 0xbd216eb8, 0xbe0aa2ee, 0x3ec4f77f,
                               0xbe577a64, 0x3f09a195, 0xbe7f721f, 0x3c7ca04a, 0x3e1edda4,
                               0x3de44f8d, 0x3d2d3c96, 0x3d24ae3b, 0xbc1b5e55, 0x3d1126f4,
                               0xbe23f73b, 0x3e0ed571, 0x3dfcd957, 0x3ec513a4, 0xbd39b12f,
                               0x3afe2f81, 0xbe8cc366, 0x3e1a60e6, 0x3f7f2813, 0xbe85aa27,
                               0xbdfa92f2, 0x3e8096b7, 0xbebf5fc6, 0x3e81e852, 0x3e02a28f,
                               0xbda64617, 0xbe80cc8c, 0x3d4f23f6, 0x3e1f7301, 0xbd53e911,
                               0x3e9a2bb5, 0x3e1b02bf, 0x3e43654e, 0x3f0aae33, 0xbee22901,
                               0x3d31b2d4, 0xbe816340, 0x3e6ccf36, 0xbe2ce9c3, 0x3e6d6917,
                               0xbe8265a4, 0xbc88fbfc, 0xbed79e77, 0xbf15bb53, 0x3e52b9ae,
                               0x3e76713b, 0x3ebe5e48, 0x3db3814e, 0xbdeec496, 0x3e8f15e8,
                               0x3eb304ca, 0x3e920fa7, 0x3ecde198, 0xbe826cf1, 0x3e800767,
                               0x3d09d891, 0x3d410ae0, 0xbe9e5b20, 0xbe04f920, 0xbe574403,
                               0x3e48001b, 0xba403624, 0x3cfe7c81, 0x3f23dfec, 0xbee1041a,
                               0xbe6e773a, 0x3e597fd3, 0xbf1c86ce, 0xbde9dee5, 0x3d1f7456,
                               0xbe9e6435, 0x3f382fa2, 0x3e3254a2, 0xbe5a7ca6, 0x3c478675,
                               0x3e8c0d59, 0xbe85e2ba, 0xbe2341bb, 0xbddd2a5d, 0x3e605f86,
                               0x3c096f70, 0xbe1f5842, 0xbe88db72, 0x3cd58d72, 0x3de91a36,
                               0xbef4b279, 0xbea195ab, 0xbca330b8, 0xbc7fc930, 0x3c22c8e8,
                               0xbd610052, 0xbd986723, 0x3f14372d, 0xbe1c9833, 0x3ec79c3c,
                               0x3e71c352, 0xbe46378d, 0x3dd779d1, 0x3e6cd491, 0xbe8f1dfd,
                               0x3e9a9e2f, 0xbe95be10, 0x3d81595e, 0xbe764fe4, 0x3d9cf272,
                               0xbe8c97fd, 0xbd51b63f, 0x3e2cb648, 0xbe5d8912, 0x3ee6e7c6,
                               0xbdcf6903, 0xbc9a2be6, 0xbf362cd1, 0xbeca2ded, 0x3e831d1a,
                               0xbeca0871, 0xbd8d45c2, 0x3e9e259f, 0xbdafaf8b, 0x3ce0fd89,
                               0x3e497aee, 0xbdd702c4, 0xbed21e81, 0xbe80cc88, 0xbd69542f,
                               0xbe6eb76c, 0x3df709b6, 0xbdadc581, 0xbdc778b9, 0xbe81ef56,
                               0x3e77a6d8, 0xbe4823fc, 0x3e877289, 0xbe45a74f, 0x3e4daa6a,
                               0xbdd539a8, 0x3e549245, 0xbe3ea62f, 0xbe43c726, 0xbdeed999,
                               0xbe1aa5d6, 0xbdf84993, 0x3df4836a, 0xbe41c5b2, 0xbcab216f,
                               0x3e7195c1, 0x3dbd42d3, 0xbf099503, 0x3e2b200f, 0xbe2a759a,
                               0x3ee97da0, 0xbd8f6ba8, 0x3e9e5474, 0xbe89a1d6, 0x3cd9f241,
                               0x3c1e45a8, 0xbe972d5d, 0xbe486ada, 0x3e02b422, 0x3c61f4be,
                               0x3edabfec, 0xbd33141c, 0xbd5ddd83, 0x3e0b5490, 0x3e84ec9c,
                               0x3df39bcf, 0xbea05320, 0xbe46a66d, 0x3f12898a, 0x3dd34cd4,
                               0xbee43bde, 0x3ebef0a3, 0xbf257485, 0xbef76130, 0x3e928ac2,
                               0x3f533fca, 0x3f149e6d, 0x3ef3f6d0, 0x3f7a2155, 0xbf237338,
                               0x3f3a1a0d, 0x3f1fed72, 0xbe13b498, 0x3e08621a, 0x3ecc926a,
                               0xbe66e1a8, 0xbe8c2aee, 0xbee0caa7, 0x3e44e82d, 0xbe9d0a3e,
                               0x3f64a61d, 0x3f046ed7, 0xbe52e078, 0xbc3f71c6, 0xbead0756,
                               0x3d9958d6, 0xbe80fa7b, 0xbe8df15e, 0x3e6e5a65, 0x3db44336,
                               0x3e2773a2, 0xbe730699, 0xbe6883b8, 0x3db05ce9, 0x3ea7e60d,
                               0xbe5af045, 0xbcf6b30f, 0x3eb8000d, 0x3ebc6cd5, 0x3e463709,
                               0x3c9a301f, 0xbd9528bc, 0xbe48c273, 0x3e1d2fcf, 0x3e85708f,
                               0x3ef7cb47, 0xbe7ab670, 0x3efa3135, 0xbf4903dc, 0xbed3dfd9,
                               0x3d14e12d, 0xbef3cbe9, 0x3ee24962, 0xbc0fb6cf, 0xbf06a9a3,
                               0x3ea1a288, 0x3eac4d19, 0xbccb95cf, 0x3e9c38d7, 0xbf19457c,
                               0xbd9197c4, 0xbe93a7b1, 0x3d849213, 0xbe17f588, 0x3e03d074,
                               0xbf02986d, 0xbe433df0, 0xbe2e6539, 0xbecba8e7, 0x3e215a60,
                               0x3da61f20, 0xbe945eb3, 0x3e265833, 0xbdb0b451, 0x3e670418,
                               0xbed3cb85, 0x3d56a837, 0xbebcc217, 0x3e7c7d88, 0x3eea97ba,
                               0x3dcad70f, 0x3d872efb, 0x3d0b8c5c, 0xbc634e90, 0x3ee24b6c,
                               0xbc8478cc, 0xbe664e5d, 0x3e3a1c85, 0x3e8e7887, 0x3e872d28,
                               0xbc7834e7, 0xbe21b554, 0x3e209dfc, 0x3e1e94fb, 0x3efccf16,
                               0x3e84fcde, 0x3d8cb652, 0xbd23e55b, 0x3d60554c, 0xbe927175,
                               0xbea737b8, 0x3f7b1466, 0xbd835817, 0x3dfc2fc1, 0xbebe4725,
                               0xbdcede58, 0x3f37bcd1, 0xbf1ab25d, 0xbf13ebdd, 0x3f33f772,
                               0xbee72733, 0xbe3b3400, 0xbd92e29c, 0x3f22be2a, 0x3c968a65,
                               0xbe5ba1c1, 0x3c23fab6, 0x3effdb80, 0xbdc99ca7, 0x3e875e04,
                               0x3ee7b922, 0xbf603d68, 0xbe919f5a, 0xbd86a9f5, 0x3e93cf16,
                               0xbe45c539, 0x3dc53277, 0x3b84168a, 0x3e0404cf, 0xbd84952a,
                               0xbdc50672, 0x3dbf96a4, 0x3d86104b, 0xbdae2104, 0xbee74bfb,
                               0x3edbd71b, 0x3d78ba2a, 0xbe9cee0a, 0xbe44b836, 0x3ea3ef07,
                               0xbe8a9f25, 0xbea61917, 0x3e2362cd, 0x3f0f7dbb, 0x3eb31f2b,
                               0xbbdc53e1, 0xbe6e2fb9, 0xbe15f2d7, 0xbf0162c7, 0x3e01f6de,
                               0x3e55b05c, 0x3f297caf, 0xbbcce2be, 0x3e065d07, 0xbf2cdf08,
                               0xbee2f9b0, 0x3f249bc0, 0x3e6823f4, 0xbf7315d4, 0xbe244d10,
                               0x3eb63f28, 0x3bf9c49d, 0x3edcce32, 0x3e3d7a67, 0xbccade62,
                               0xbd79db96, 0x3f1e8060, 0x3e1dd2a4, 0x3e3beb27, 0x3f235667,
                               0x3e2f3176, 0xbe43b228, 0x3e7cddc8, 0x3f06dd53, 0xbe6b231a,
                               0xbe10f6d6, 0xbf98d666, 0xbdf89f53, 0x3dc124fd, 0x3daba099,
                               0x3f0029d2, 0x3e49ead2, 0x3d6ab802, 0x3df99ee0, 0xbefa5e1c,
                               0xbd312dcb, 0x3e8a6e9c, 0xbe650f8c, 0xbf2bf0cb, 0x3ddd3c6b,
                               0x3f192d39, 0x3e868674, 0x3f96e762, 0xbf59ec58, 0x3ed17379,
                               0x3ea3b755, 0xbf23a8cb, 0xbdfe1ec7, 0xbf4a1690, 0x3f206712,
                               0xbf72df52, 0xbdd724a3, 0x3ef9d765, 0xbeed37f9, 0x3d95db68,
                               0x3f107a14, 0x3f33abef, 0x3e93fef5, 0x3e9e0de5, 0x3ddae362,
                               0x3f891bef, 0xbf1d05df, 0x3ec6979a, 0x3f4b37aa, 0xbf607ca9,
                               0x3dd4757d, 0x3ad08e43, 0x3dea4fcb, 0x3ebf2185, 0x3ef2c097,
                               0xbf098d94, 0xbeef1611, 0x3e661ebb, 0x3e62e3a0, 0xbdb5e8c6,
                               0x3e3a03e4, 0x3eaf578b, 0xbdf29755, 0xbe1d018d, 0xbf0822f4,
                               0x3e296f36, 0xbe2fbc63, 0xbead86be, 0xbea9e0cf, 0xbe3bf4a5,
                               0xbd5a9332, 0x3e688506, 0x3f06989f, 0x3dbd0154, 0x3d4e1a7d,
                               0x3e0df7b9, 0xbe822624, 0xbe488853, 0xbc618545, 0xbd14d7f7,
                               0xbc90b326, 0x3ea35a65, 0xbe63e348, 0x3e82432f, 0x3ed1891c,
                               0x3e21a099, 0xbe19ce47, 0xbf0065e5, 0xbf140678, 0x3e9679d8,
                               0xbe29d3a8, 0x3f1c3743, 0x3e048e89, 0xbe8ba244, 0x3f0086b2,
                               0x3e85fb65, 0x3e3ec0cc, 0xbd4b0959, 0xbde011bd, 0x3eac4134,
                               0x3dad1c00, 0x3e843387, 0x3f178931, 0x3ee0e0d1, 0x3e6ca71c,
                               0x3ecc133a, 0xbd66f8d9, 0x3e91466d, 0x3ea04cbc, 0x3ec459c9,
                               0xbe32f843, 0xbd02a511, 0xbe2f2578, 0x3e58fd98, 0x3e97db3a,
                               0xbe31a973, 0xbf2e221b, 0x3eb69982, 0xbca8a9ce, 0xbcdc573a,
                               0x3e17904d, 0xbcaa905a, 0xbbb05dd5, 0xbd00f45b, 0xbedcb18e,
                               0x3e5bd53b, 0xbe9621e8, 0x3d3b25f0, 0xbe9885b8, 0x3e4546e3,
                               0xbe9f2c95, 0x3ed4c088, 0xbd4b07f3, 0xbde5684d, 0x3dd37a58,
                               0xbe74c8f6, 0x3e9ccbb0, 0xbea80485, 0xbc0d097a, 0x3efec3f1,
                               0x3ef17eec, 0x3f3671a9, 0x3e356f3b, 0x3e8a6e41, 0x3ed8c684,
                               0x3f06b2dd, 0x3c4d878f, 0x3e765a46, 0x3e7edaa7, 0xbf07d617,
                               0x3eec930f, 0xbf481759, 0x3e8ff5fc, 0xbf108652, 0x3e64b405,
                               0x3e02a7e8, 0x3d5c58c8, 0xbd3147dc, 0xbe302420, 0x3e17efa7,
                               0xbea27393, 0xbdeca2c3, 0x3d8278e7, 0x3ed88cbc, 0x3ed4edbf,
                               0x3e11a4dd, 0x3f13ccf9, 0xbcedc233, 0xbe994ad4, 0x3aec7d25,
                               0xbe34a085, 0xbec18ea2, 0x3e9c0ff3, 0x3e3d44f9, 0xbec12960,
                               0xbf14c84f, 0x3d80bc7d, 0xbe005f64, 0x3e27b83f, 0x3d662ee7,
                               0x3d3bd23c, 0xbdaf6c04, 0xbe23b172, 0xbe083457, 0xbe4631c8,
                               0xbe27a754, 0x3e8eac69, 0xbe898880, 0xbe54cd42, 0xbe7afcae,
                               0x3d971f4d, 0xbeb7ef25, 0x3e0f40bf, 0xbd4613e0, 0x3bed7720,
                               0xbd669ebb, 0xbe93c501, 0xbe83c24f, 0x3e90ccf4, 0xbe9d7027,
                               0x3edb806b, 0x3f04fb13, 0x3e8298be, 0x3d726c16, 0xbe0f29de,
                               0xbe1673f2, 0xbe6bbd7a, 0xbe607051, 0x3e8af0bd, 0x3e12c68a,
                               0x3e85b228, 0xbe1367bf, 0xbcbf54d2, 0x3e19a549, 0xbe394428,
                               0xbe62ebe7, 0x3e3a2db1, 0x3ed9a57a, 0x3d4eb5a0, 0x3dcfe7be,
                               0xbec9f952, 0x3ef87258, 0x3f0da5d2, 0xbf4281d8, 0x3d8b5f3e,
                               0xbe5270a1, 0xbc6e5a5d, 0xbe6837fc, 0x3e196112, 0x3e0472b9,
                               0xbea72dd7, 0xbbeadebc, 0x3f002254, 0x3ea8b561, 0x3ec20813,
                               0x3e2f691b, 0xbdf014fc, 0x3ec4a7ab, 0xbef1a0ff, 0x3f63055d,
                               0x3dc80aa9, 0x3ee16108, 0xbf818505, 0x3f474e7f, 0x3f65fbb8,
                               0xbd218011, 0x3ea351f0, 0xbe95d07f, 0x3f1f5dd0, 0x3e8761fb,
                               0xbe7466d2, 0x3e17f78e, 0xbe163474, 0xbe3d7dd7, 0x3da084b6,
                               0x3ee402db, 0xbe4fbac1, 0xbf579712, 0xbe9d8447, 0x3ea06fcc,
                               0x3d321e8a, 0x3e6682ab, 0x3e52f17e, 0xbe93b45b, 0x3e8f5d5b,
                               0x3db39fa9, 0x3de2794d, 0x3f69b969, 0xbe071973, 0xbd4a264a,
                               0xbc6f7bc2, 0xbdf2ac43, 0x3f466ff2, 0x3e1c8929, 0xbdca8d5e,
                               0x3e994a68, 0xbeb88a0e, 0x3f06a6b7, 0x3eb8bebb, 0xbd289b4f,
                               0x3e954935, 0x3e0081c8, 0x3e284019, 0x3cf75481, 0x3e533b29,
                               0x3ec101e1, 0xbe0f4e5e, 0xbdc45670, 0x3e17a8a6, 0x3efe16d7,
                               0xbddf9bf5, 0x3e8d050f, 0x3eea1a6d, 0xbf02645e, 0xbd5d69c8,
                               0x3ef4ed3b, 0xbeeb96ba, 0xbe32a462, 0x3ebab33a, 0x3e10cbd4,
                               0x3cd15761, 0xbdb5627d, 0xbf1838f1, 0x3efb617d, 0x3e4de7d6,
                               0x3e4c2326, 0xbd7aa33b, 0xbe8602ed, 0x3f1920c5, 0x3e11e1ba,
                               0x3d3bbbd1, 0x3eb7d7b8, 0x3ed8d28e, 0xbf1aa356, 0x3d6349f7,
                               0xbe530821, 0xbf4f1804, 0x3e60d43f, 0xbc5f7747, 0x3ea31370,
                               0xbdd522ac, 0xbebb70db, 0x3e817778, 0x3ed0d5a2, 0x3e8fa9fc,
                               0xbf1b7bf7, 0x3f157eea, 0xbe6ad988, 0x3c091584, 0x3da1b757,
                               0x3d3c62e1, 0xbe8cc905, 0x3dd55948, 0xbe965971, 0xbea9a985,
                               0xbef90c14, 0x3e661343, 0x3dcf25e2, 0x3f25967b, 0x3e323739,
                               0xbedc884b, 0xbcc64d79, 0xbe551692, 0x3e70e155, 0xbe34a94d,
                               0xbf2cddf1, 0xbeffab28, 0x3b5b37e2, 0xbd5621c5, 0xbdc69179,
                               0xbe8fa2ea, 0x3c8cf150, 0x3d9ff2de, 0xbe35a819, 0xbe912a1b,
                               0x3e2284fc, 0xbe20c934, 0x3c25161f, 0xbea6e7f4, 0x3dda0907,
                               0x3e7749f3, 0xbe3247e5, 0xbe531b0d, 0xbd8b73d2, 0xbd633562,
                               0x3c819a74, 0xbe446568, 0x3d2d8c5c, 0x3df9c80d, 0x3c1973b1,
                               0xbea2ca21, 0xbd943d99, 0xbeb3e44e, 0xbf2c271b, 0xbe8dd307,
                               0xbe116f82, 0x3d0fda71, 0x3c830764, 0x3eac9bb3, 0x3df4c24d,
                               0xbac68840, 0xbe27cdbd, 0xbddf99da, 0x3d5ad5b6, 0xbeffbdd7,
                               0x3dff97ce, 0xbe0e607d, 0x3e6d4e95, 0x3e33565d, 0xbe36b93d,
                               0x3d9c90d2, 0x3d0252d0, 0x3efd87d3, 0xbe9533a2, 0xbe883867,
                               0xbd2a7b04, 0x3e8d552a, 0x3d13dbf4, 0x3d0e221f, 0x3bc29e30,
                               0xbbb01fb9, 0xbecb5c1c, 0xbf0b498c, 0x3dd5c5f5, 0x3ef27fd1,
                               0x3c8f5a8c, 0xbee046c1, 0x3e4c995c, 0x3f0dfd86, 0xbe2f6116,
                               0x3c986203, 0x3c6df532, 0x3eb79814, 0x3e19b37b, 0xbe1b4309,
                               0xbe93af58, 0xbe66e645, 0xbdb4d332, 0x3e06ad0b, 0xbdd9aa47,
                               0xbe47651d, 0xbe6749e6, 0x3d8b3b55, 0x3ced7cc8, 0xbe586f97,
                               0x3eca022b, 0xbefaf192, 0xbea481b5, 0x3d1f483f, 0x3ea0ffa0,
                               0x3d0a7067, 0xbe0275f1, 0x3de6105c, 0x3eadb9a5, 0x3d47c2e5,
                               0xbea90af6, 0xbe9bd484, 0xbe7b458e, 0x3d9359c1, 0x3e86f5f0,
                               0x3e202df4, 0x3eac0c65, 0x3e457726, 0x3e138a10, 0xbea71041,
                               0xbd991b8f, 0xbf5bb25b, 0xbf0e05a8, 0x3e921217, 0x3e1e9f5e,
                               0x3eabaeff, 0xbdcb7bb3, 0xbe8c56c5, 0x3e5fdf61, 0xbdac229b,
                               0xbed299af, 0x3ebd0780, 0xbe992f54, 0xbc83d5ef, 0x3e72a3f9,
                               0xbe318700, 0xbda6f2bf, 0xbeb881cb, 0x3eb33c25, 0xbe97974b,
                               0xbe851ed4, 0xbd856244, 0x3d97d4d7, 0xbe8aa636, 0x3d125395,
                               0x3cb876f6, 0x3e802ef7, 0x3e6e7371, 0xbe8393bd, 0xbec9cc3c,
                               0x3e9a2009, 0x3cb29a21, 0x3ec2ec75, 0xbe4c42fb, 0xbdff32a2,
                               0x3e30e3b6, 0xbc996174, 0x3e004750, 0x3e86fea3, 0xbe3526d2,
                               0xbec6a94e, 0xbe0b9230, 0x3e827b31, 0x3e421a0e, 0x3d877501,
                               0xbed369e3, 0xbd6c9557, 0x3de90f63, 0xbd8f4776, 0xbd41962b,
                               0xbe51f208, 0x3f0432b2, 0xbe40216d, 0x3eacfda2, 0x3e9c8f6a,
                               0xbf14cf4e, 0xbdbf00e1, 0x3e80cf9e, 0xbeae7cdb, 0x3e0071ee,
                               0xbe48c432, 0x3f3c8e94, 0xbdb26996, 0x3ea58c09, 0xbeccb699,
                               0xbe48e396, 0x3e5187e6, 0xbcddb401, 0xbd863251, 0x3e6b4e96,
                               0xbd5c9a4e, 0x3eb048f8, 0x3eb34420, 0xbe67ff13, 0x3edf296b,
                               0x3da5ea1f, 0xbe451d6a, 0xbec0f9bd, 0x3f817dd5, 0x3e8633c0,
                               0xbdb65401, 0xbebb19aa, 0x3e4d5b21, 0x3b79bc40, 0xbecabf86,
                               0x3a2b359a, 0xbdecc8ec, 0xbf29a6ee, 0x3ef5605c, 0x3e6789ce,
                               0x3e07c7de, 0xbe76e68c, 0x3c8b9eda, 0xbf07dc1a, 0x3ef5dd07,
                               0xbebd1bb7, 0x3e02168e, 0xbe3d03f1, 0x3d1f7d64, 0xbf0d1d58,
                               0x3eccb0cc, 0x3dcb51eb, 0xbe99207a, 0xbe837a59, 0x3de9dcc0,
                               0x3f14d13c, 0xbe6ba35d, 0xbe5198f8, 0x3e034caa, 0xbe56019b,
                               0x3b22b5b2, 0xbe9c8167, 0x3ea6dcad, 0xbd64be5d, 0xbe568380,
                               0x3eecbcda, 0xbefc768a, 0x3ee3d13c, 0x3c66a277, 0x3eb1253f,
                               0x3e7845b8, 0x3e33d2e6, 0x3d923822, 0xbe8b0a0b, 0x3d4fd4d6,
                               0xbe08b220, 0x3ea2fa76, 0xbc7e57fb, 0xbd314af2, 0x3ea16a4e,
                               0x3e4e760f, 0xbe0e1101, 0x3e49a153, 0x3e3f44b4, 0xbe4fe48f,
                               0x3c4a1e23, 0x3dab370e, 0xbead9fd8, 0xbda1ec58, 0x3f1682ef,
                               0xbe671b26, 0xbe915b2d, 0x3e77d4db, 0xbe895f25, 0xbe851ae0,
                               0xbdfbc37b, 0xbddda1ec, 0xbf178538, 0xbd8a0166, 0x3de342eb,
                               0xbdcb9d11, 0xbdc81c1f, 0xbe3643a2, 0xbeab331f, 0xbe861b8e,
                               0xbdff0aa8, 0x3eb1163b, 0xb9df572f, 0x3e2deaaa, 0x3e897fb0,
                               0x3d581d89, 0xbc5097f5, 0x3e60b7c9, 0xbe11e464, 0xbdb1de46,
                               0xbd5de140, 0x3e93fd30, 0x3da58c1e, 0x3c609207, 0xbe5ef349,
                               0xbe752a13, 0xbe386902, 0x3e94456a, 0xbdd3603a, 0xbdcc5233,
                               0x3ded7880, 0xbe8f4673, 0xbcc7a4a4, 0x3b43761f, 0x3e094ede,
                               0xbefaad40, 0xbe9b5262, 0xbeb93b46, 0x3c9aba58, 0x3edab83a,
                               0xbe1bfbdf, 0xbdd48143, 0x3f148ecd, 0xbdcf024d, 0xbb2f5f67,
                               0xbef2cbd7, 0x3e51de36, 0xbdd584b7, 0xbeab051a, 0x3d455ef0,
                               0x3e7a5713, 0xbe63d1fd, 0xbe81db0b, 0x3eae7acc, 0xbf010403,
                               0xbe56beaf, 0x3f094e3b, 0xbe3602a9, 0xbeda7b96, 0xbd6e9763,
                               0xbd2d1f7a, 0xbeecade4, 0xbd3025fc, 0xbe0b2c25, 0x3f2b845c,
                               0xbecbf8a6, 0xbe18a480, 0xbe9c0c6f, 0x3ebec820, 0xbeba88db,
                               0xbe9c83d7, 0x3dcbaba9, 0x3f0823fb, 0xbea5dd09, 0x3c461e1a,
                               0xbec7ea83, 0xbf19c031, 0x3e808ae4, 0xbdb72dfa, 0x3dccef0f,
                               0x3e4b9e74, 0xbe5adc43, 0xbc8d1cc2, 0x3e165f89, 0xbe818245,
                               0x3de09dc5, 0x3cc56347, 0x3e68da14, 0xbd38017d, 0xbe5f076a,
                               0x3f1ec0e8, 0xbdefaae1, 0xbee2ecff, 0xbd8874ab, 0x3e257e6a,
                               0x3ed905c3, 0x3e9d343a, 0x3c8e4f71, 0x3e653dba, 0xbd973d21,
                               0xbf2bdbdf, 0xbe00b616, 0x3e7a3dc2, 0xbdb1a2be, 0xbea0bd41,
                               0xbdfc0034, 0xbdc809bb, 0x3e97875b, 0xbe5fbb70, 0x3ec2ddbd,
                               0x3eb89c21, 0x3e9cdde7, 0xbe70683b, 0x3e21abfb, 0xbf04a16d,
                               0xbecf32d0, 0x3d0ae189, 0x3d91ad1f, 0x3e1ce19e, 0xbebdd980,
                               0xbd4a1042, 0x3d362257, 0xbe13f122, 0x3e890e18, 0xbe902c92,
                               0x3dabe7d5, 0xbcdb3b97, 0x3ea67ba4, 0xbeadf5dd, 0xbe1208ce,
                               0xbbf24a5d, 0xbd418d36, 0xbd7b04e7, 0xbec1e82a, 0x3db1d172,
                               0xbf0c43b6, 0x3e8edc2e, 0xbcb5abc6, 0x3e98706d, 0x3e50300f,
                               0xbe2f6406, 0xbdcbaa53, 0x3e020e2b, 0xbe8d549f, 0xbe831606,
                               0x3e398149, 0x3ebebe70, 0x3df34b45, 0x3df1e1c6, 0xbe9e9547,
                               0xbd8adff7, 0x3f0ad2e5, 0x3e9d1814, 0x3eaa9d41, 0x3ebc3bc6,
                               0x3da03345, 0xbd8dec45, 0xbdd4c799, 0x3eedfb03, 0x3e7aaa92,
                               0xbf4d7eaf, 0x3d8f7e77, 0xbde9fcf7, 0xbdf59917, 0x3e6a1ed5,
                               0xbed637d4, 0xbe439f58, 0x3e5252d6, 0x3e0ad4a3, 0x3dd66fee,
                               0xbeaec10f, 0xbe4c8709, 0x3e70d225, 0x3ccc258c, 0xbe58604f,
                               0x3e55df24, 0xbe8d1d2d, 0xbf4d8c06, 0xbe08d5e4, 0x3e115578,
                               0x3de0f4ed, 0xbeceda86, 0xbeb08c61, 0x3f1a71a4, 0xbe06cdf0,
                               0xbeb1969d, 0xbecb4fea, 0x3ccd9314, 0xbd7aeaa0, 0x3e2cbab3,
                               0xbed31991, 0x3d7ce53e, 0x3ef12f25, 0x3e0dba77, 0x3c8eb992,
                               0xbe809771, 0xbe0b750c, 0xbe5b89f1, 0x3d165482, 0x3d8712d3,
                               0x3ee3b15c, 0x3e03603a, 0xbe5924da, 0xbe28ed18, 0x3dd719ed,
                               0x3d2019d8, 0xbec8c0e9, 0xbdae82ee, 0xbdcc60dc, 0x3db5b84d,
                               0x3d12ef39, 0x3eea746e, 0x3e81a075, 0xbce8cf06, 0xbe5a233b,
                               0x3ea77758, 0xbefd338e, 0x3e28dbd7, 0xbdecdbf3, 0xbf32ede6,
                               0x3e87ed04, 0xbe7c6bae, 0xbe55cecc, 0x3e5579f2, 0x3e99208d,
                               0xbcf6296c, 0xbde27785, 0x3c88ec74, 0x3ef41274, 0xbe4c590c,
                               0x3e85851e, 0x3e06f6d3, 0x3e63a6c2, 0x3cf38e39, 0xbdcb81ec,
                               0x3ddc36d8, 0xbea623a8, 0xbddd6713, 0x3d621c96, 0xbf1656d3,
                               0x3dc94a90, 0xbe3e7742, 0xbdc22817, 0xbdbce555, 0x3e5b8f14,
                               0x3f0ae2d4, 0xbe6f5581, 0x3e1c7b02, 0xbe080b26, 0xbe19340f,
                               0x3e208f81, 0x3e21505d, 0xbdb55e11, 0xbe847533, 0x3c2b6ca3,
                               0xbeb4d35d, 0x3edf8314, 0x3ed170e6, 0x3db7a1a3, 0x3e8da3b6,
                               0x3d0ddd99, 0xbe5020bd, 0xbed03136, 0xbd9a8fc2, 0x3e3a1701,
                               0x3dada64d, 0xbe34a2c5, 0x3e6de23a, 0x3ee8405c, 0xbf163072,
                               0xbdf23116, 0x3d52d703, 0xbe825fe3, 0x3e981f61, 0x3e8569e5,
                               0x3e5835d7, 0x3db0bf7d, 0xbedc23cc, 0xbe913e01, 0x3e5938a8,
                               0xbea7ede6, 0xbf433e28, 0x3b56ca44, 0xbef341b1, 0xbe5cc7ed,
                               0xbf294341, 0x3f0eb4f4, 0x3eafaf37, 0xbdfc5b73, 0xbe4c8291,
                               0xbdc75826, 0xbd7afd47, 0x3ebc310d, 0x3d3be704, 0xbee08046,
                               0x3cde7c32, 0x3f2e3543, 0xbe8fa125, 0xbec5123a, 0xbcb5e8c9,
                               0xbf193910, 0x3e656845, 0x3eb318bc, 0x3dee6858, 0x3c3cd996,
                               0xbec4ec1e, 0xbe56e9eb, 0xbf0962b9, 0x3c86faa7, 0x3e9d8224,
                               0x3f0e8645, 0xbe957fd1, 0xbdb3d876, 0x3f1d2d1d, 0x37c1125a,
                               0x3e9f8fa2, 0x3d0f5a62, 0x3dd93c22, 0xbdf08bf8, 0xbe0beff1,
                               0xbd276c6b, 0x3e16aa7d, 0x3e45ca61, 0x3dc2c9ba, 0xbeed44d0,
                               0x3eafb810, 0x3e2b84a2, 0x3f2641c9, 0x3e8dbb21, 0x3e1b78a6,
                               0x3a920027, 0x3e3ea09f, 0xbeef7263, 0x3ead5070, 0xbe2846d5,
                               0x3d22bcac, 0xbe20f055, 0xbe9673ce, 0x3e08abb8, 0xbd1154f7,
                               0x3f5b9e50, 0xbdd1373e, 0x3e361b2d, 0xbd1118f4, 0x3e0a01eb,
                               0xbb30ce1e, 0x3d67ed8b, 0xbc97ec0a, 0x3e649a83, 0x3e6be2ab,
                               0x3d860582, 0xbe89aec8, 0x3c2dc516, 0x3d923d75, 0xbd9711c3,
                               0xbef52118, 0x3e5ff60b, 0xbef353f2, 0x3e5a478e, 0xbc713b2c,
                               0xbe951206, 0x3e7ee295, 0xbd9b1259, 0x3e886218, 0xbe777944,
                               0x3e95adef, 0x3ebc8197, 0xbe98d044, 0xbeebcb99, 0x3eac7094,
                               0x3ea94fe9, 0x3dae381d, 0xbe74b14c, 0xbe9afd68, 0xbe89d13b,
                               0xbd1c420a, 0xbeb36189, 0xbd6c6315, 0xbec6773e, 0xbe5a3ab7,
                               0xbea18e6b, 0xbe566460, 0x3e47ef7d, 0x3e7c65c4, 0xbbf8503d,
                               0xbcf60347, 0xbe5b4ac0, 0x3e32e466, 0xbe527305, 0x3e85c0cf,
                               0xbf4785b0, 0xbeb05152, 0xbdc80c73, 0xbed463df, 0xbd4e52f0,
                               0x3bf77207, 0x3cbaf7eb, 0x3e515a05, 0xbd47e85b, 0x3dcff805,
                               0xbe6cf0f7, 0xbcdc08ae, 0x3eb07a85, 0xbe4235a0, 0xbeb4e8c0,
                               0x3e503c00, 0xbf18ca09, 0xbd7ddd79, 0xbe867d51, 0x3bbbd77e,
                               0x3e43ac2e, 0xbed4afcc, 0xbedd7502, 0x3ec239a5, 0xbe257d05,
                               0x3e395a5f, 0xbeefb755, 0xbc66ea86, 0x3eb1446c, 0xbd62e8e9,
                               0xbdda79a0, 0xbcf65754, 0xbdc95675, 0x3ebff76a, 0xbe4d13ea,
                               0x3e05bae1, 0xbc44a727, 0xbe468df2, 0x3bf48a6f, 0x3f0dae36,
                               0x3ecca353, 0xbd2e89aa, 0x3e9792c9, 0xbd71c7a3, 0xbe135f25,
                               0x3e8a6d8f, 0x3eedc4c2, 0x3db25131, 0xbf200003, 0xbeeea291,
                               0x3da93979, 0x3df57bfe, 0xbe3f9964, 0x3dad2bfb, 0xbe91d29d,
                               0x3d5cab78, 0xbe45cb8a, 0x3e90f362, 0x3f1f6111, 0xbdefb004,
                               0xbe544e19, 0xbea2f059, 0xbeaaad90, 0x3db4abbb, 0xbef03b42,
                               0x3d5ff4a2, 0xbe1fb0b8, 0x3cd81ea3, 0x3dead05c, 0x3e4b2d77,
                               0x3e4dbf34, 0xbd9937c8, 0xbe21c6cd, 0xbe79ac30, 0x3e69f9a5,
                               0x3bc097fe, 0xbda7ad3f, 0x3dd9cf09, 0x3e1a332e, 0x3d9b29a4,
                               0x3e519ae0, 0xbe85f327, 0xbec11bf6, 0xbe7d987e, 0xbe42d0f1,
                               0xbe3fa16a, 0xbe16d050, 0x3eb75d6b, 0xbd8dee04, 0x3eab83b2,
                               0x3cf6e08a, 0xbca6b127, 0xbd80014e, 0xbefdd10c, 0xbc6c1089,
                               0xbe6c1805, 0x3e737f0a, 0xbf0c6165, 0x3e468d54, 0xbe3b0e79,
                               0xbe6de3dc, 0xbf2a7bf4, 0xbb90a420, 0x3f157eff, 0xbd2c5de0,
                               0xbec98151, 0x3ce4ac7b, 0xbbe89f08, 0x3e02d550, 0xbee774dd,
                               0xbe1bd9f7, 0xbe4d7e2e, 0x3d33cdbf, 0xbef3266d, 0x3ba7db3d,
                               0x3deb71b8, 0x3dd39955, 0x3ed155ea, 0xbe36cb73, 0xbe2bb5d9,
                               0x3d0c9ed1, 0x3eac5c12, 0xbcc0a324, 0x3e694a76, 0x3e933446,
                               0x3e6b0616, 0xbea5b582, 0x3e056abd, 0xbca2b6d2, 0x3ed16f96,
                               0x3d4541ef, 0xbe369fbd, 0x3f1d295e, 0xbe8afcfd, 0x3f5f64df,
                               0xbe12241e, 0x3e56360e, 0xbf3ea10c, 0x3e992bd3, 0xbf19cade,
                               0x3e6425c1, 0x3ec340a1, 0x3e3b9fb0, 0xbdea0152, 0x3e108939,
                               0xbe1d88b0, 0x3f558f95, 0xbe008246, 0xbe0de89b, 0xbd1f971e,
                               0xbeeec109, 0x3e0ead8c, 0xbc271a14, 0xbf42a875, 0xbdf6b20d,
                               0x3c6cfdd9, 0x3f0d8a89, 0xbd9c67da, 0x3f5980b0, 0xbe675464,
                               0xbcbdfc93, 0x3d159103, 0xbe01c8d3, 0xbe199fd6, 0xbe904dbb,
                               0xbc05bdef, 0x3dd4d264, 0xbe44f2c0, 0x3e1b55d5, 0xbe44149b,
                               0x3c9e346a, 0x3d6cfb42, 0x3e6342c9, 0x3e4429f2, 0x3eac5ac9,
                               0x3ee276e0, 0x3e1b431f, 0x3e4ffc81, 0xbd258802, 0xbe52ca9e,
                               0xbef449f1, 0x3f068445, 0xbe74bc07, 0xbe9a87a1, 0xbef6907e,
                               0x3e437aec, 0xbef1f434, 0xbc77c650, 0x3f31ef9c, 0xbe5920a5,
                               0xbed40863, 0x3d7c8f64, 0xbcb6618a, 0xbebe084b, 0x3da10f6f,
                               0xbeb5055c, 0x3e1660c2, 0x3f02e2a8, 0xbe7f3a68, 0xbd440efa,
                               0x3e8fa22b, 0x3bbf4729, 0x3e0c02fe, 0x3ea5cfc8, 0xbe87f1b7,
                               0x3f24da4d, 0x3e9dc3bf, 0xbe2ddf7d, 0xbdcf8a96, 0x3e81ed62,
                               0x3e29fe16, 0x3c2db801, 0xbdf085a0, 0x3dd6bdca, 0xbf02a8ff,
                               0xbe8e27d3, 0xbeed9fc8, 0x3d6037a3, 0x3e5583e2, 0x3f448167,
                               0x3e5c8b37, 0xbe486793, 0x3cd7e549, 0xbe551040, 0x3f3521e3,
                               0x3da1b944, 0x3e0559c0, 0xbeec1304, 0xbcdcfb1e, 0x3f36fc67,
                               0xba98677f, 0xbf23c16f, 0x3b0d6b76, 0x3ebeceb5, 0xbf07cd3a,
                               0x3e91bc41, 0x3f368710, 0x3ed0f3f6, 0x3e8fb0bb, 0xbf4caf58,
                               0x3cd55438, 0x3df76538, 0x3ef415ca, 0x3e4995a7, 0x3f5da2d3,
                               0xbe496a13, 0x3d1d0a33, 0xbf7134ca, 0x3dd25d7c, 0xbd83181b,
                               0x3e9a73ba, 0xbeecadfa, 0xbf0aa35e, 0xbdf2d99b, 0xbd2d37b2,
                               0xbdd45d7d, 0x3e6f4e8f, 0xbe9cfcdb, 0x3e947b84, 0xbdb7feda,
                               0xbdc966d1, 0xbeb5ee38, 0x3d148ecf, 0xbf07cb17, 0xbf8c8e4e,
                               0xbe993691, 0x3ea3f1b2, 0xbee6af4f, 0xbf5326f2, 0x3f882060,
                               0xbe7d3a8c, 0xbe16ac78, 0xbe2f2886, 0x3e9767ff, 0xbeae96f0,
                               0xbe029823, 0xbeb08e0c, 0xbe008c88, 0xbe924b77, 0xbe905b7a,
                               0x3e550045, 0x3e1316a8, 0xbcff64be, 0x3eff9c42, 0xbe7e8065,
                               0x3eeda5e3, 0xbeaf92d3, 0x3e35d5d8, 0x3ecaa478, 0xbdeed3da,
                               0xbe6f0755, 0x3ed0dc01, 0x3ea6f0ce, 0x3e50b6f7, 0xbd9f7c43,
                               0xbe5435ec, 0x3ead387f, 0x3e46ab72, 0x3e6c1ef7, 0x3c06cc71,
                               0x3ecc049b, 0xbf258c8f, 0x3f44fb67, 0xbcd16a00, 0xbef7c956,
                               0x3edd299f, 0xbe89e1cf, 0xbe9c4ad0, 0xbc6ce7b9, 0x3e439d6f,
                               0xbf2bd1c8, 0x3dc29605, 0xbd22819b, 0x3eacc5f9, 0x3e1bc28d,
                               0x3e85fd87, 0xbedbaa81, 0x3eb2e619, 0xbef1259b, 0x3d3397a9,
                               0x3f0bc000, 0x3ea36774, 0xbe7b3003, 0xbeb9e119, 0xbeb3047c,
                               0x3e951523, 0x3f4c4263, 0x3e71dbd0, 0xbe9231f0, 0x3f2e091d,
                               0xbea6c560, 0x3f4c1797, 0xbefeaaf7, 0x3d20f415, 0xbd172c76,
                               0xbe1e6622, 0x3eb60869, 0xbeec1691, 0x3e360b82, 0x3e15dcb1,
                               0xbe278c42, 0x3f027f6b, 0xbe54b4e3, 0xbe846351, 0x3ead16f4,
                               0x3eb02117, 0x3f1a6c6a, 0x3d814397, 0x3dc00947, 0xbd5a4fb3,
                               0x3e129b38, 0x3d0f26a4, 0x3c9fef3c, 0xbeab7b1e, 0xbecc2691,
                               0xbf0e6c08, 0x3cc2581b, 0xbf55dffe, 0xbda864dc, 0xbe80903c,
                               0x3eb21070, 0x3e925679, 0xbeb112df, 0x3e8ea2a0, 0x3e64d612,
                               0xbf1e7c5b, 0x3e10a43e, 0xbe467cdb, 0xbe19c6f4, 0x3db18f61,
                               0xbe3b040e, 0x3d852c97, 0xbeafb339, 0x3e407047, 0xbc810fd8,
                               0xbe99365b, 0x3ef1377b, 0xbed3e8e1, 0xbe0ed6ae, 0xbcbe84ad,
                               0x3e7235ad, 0xbed12a2c, 0xbd821fdc, 0x3f09939b, 0xbe959fa0,
                               0xbd006269, 0xbe21f1df, 0xbe3270b3, 0x3e22db76, 0x3df36d2d,
                               0xbbd05db5, 0x3d8d7299, 0x3db205a1, 0xbcb4bf0f, 0xbdcc6280,
                               0xbe772ac8, 0xbe42846e, 0x3cf24cc6, 0x3de45a19, 0xbbfb49b7,
                               0x3f000622, 0xbd1a23cd, 0x3dabdab4, 0x3e34ebcb, 0x3ef327e1,
                               0xbddda66c, 0x3d57e68a, 0xbc9745af, 0xbea3a118, 0x3d97c513,
                               0xbcc61e3b, 0x3ed52f47, 0xbd528f10, 0x3e74d263, 0x3e7c697b,
                               0xbc89bb9f, 0xbeae751f, 0x3c134600, 0xbea096c9, 0x3f0005d1,
                               0x3efcd328, 0xbf111646, 0xbd5854e6, 0xbe6f1695, 0x3dc4f43c,
                               0x3e523643, 0xbe27876e, 0xbeaa3264, 0xbf2d7138, 0x3f06430f,
                               0xbf18233a, 0x3d89691c, 0xbe2724e6, 0xbe5c754f, 0xbec13fbc,
                               0xbeba775e, 0x3e3e92ee, 0x3f36b4d6, 0xbe881826, 0x3e02189b,
                               0x3ecbdc64, 0x3f0fdd9d, 0xbd97fee7, 0x3e8b4496, 0x3e065cb4,
                               0x3eb290eb, 0x3e9300f7, 0x3f17067e, 0x3e307ece, 0xbe8b6a47,
                               0x3e5e4bf2, 0xbe92fee9, 0x3e4d993a, 0xbd99ca9e, 0xbec143d7,
                               0x3e0f50b6, 0x3d80fed4, 0x3ad94976, 0x3ed6102c, 0xbe0563e1,
                               0xbdb2596b, 0xbd814acf, 0x3c9caee3, 0xbe319ab1, 0xbe2dfc43,
                               0xbcff031a, 0xbe1348ba, 0x3f00e43d, 0x3e52f6c3, 0x3ed8285c,
                               0xbe9f90dd, 0x3dcb7517, 0xbe969f28, 0x3e400078, 0xb9d7a5fb,
                               0xbf0d8822, 0x3eebba6b, 0xbd852817, 0x3e381409, 0x3d27003e,
                               0xbd6d207b, 0x3e5588bd, 0x3e9983ab, 0x3ef1f6a8, 0x3d108e7a,
                               0x3dc12b05, 0x3ddde3f5, 0xbc624860, 0x3e8dd59e, 0x3ea78228,
                               0xbd1355e2, 0xbdb7256c, 0x3dbee5c7, 0x3e16dfc9, 0xbe3961b8,
                               0xbe139be7, 0xbd7f6895, 0xbdf317e4, 0x3f0286eb, 0xbdd07b01,
                               0xbdad2d25, 0x3ed87ad2, 0xbd28f29d, 0xbf253407, 0xbe1c699a,
                               0xbe0d6fcb, 0xbeac9f9d, 0x3de11855, 0xbe7b51ff, 0xbc5b03fa,
                               0xbe873fa7, 0xbe86c411, 0x3e88d773, 0x3d9bd3fb, 0xbe355e28,
                               0x3e68bc2c, 0xbd24ac8b, 0x3ec0e232, 0xbe60d9e0, 0x3e5f42dc,
                               0xbe944636, 0x3e7399b8, 0x3ebdf217, 0xbe7db121, 0x3d81cfa8,
                               0x3ea5ad0a, 0xbd8cad13, 0x3e823433, 0xbe181c71, 0xbe52f042,
                               0x3f1a3d7f, 0xbe1bd95b, 0xbe6dd548, 0xbea5b0fe, 0x3cad5c9c,
                               0x3d026bcf, 0x3e6f6433, 0xbf110dcd, 0xbe0083cb, 0x3e1213ff,
                               0x3e40c0f0, 0xbe041f61, 0xbc7b0ec1, 0x3eb11a6d, 0xbe94012c,
                               0xbee8acd6, 0xbc91cf27, 0xbedc6fee, 0x3ef080e4, 0xbcfd9976,
                               0x3efd0b24, 0xbcf942fe, 0xbf229eda, 0x3e984e3e, 0x3e3f1b7d,
                               0x3dd613d7, 0x3e87a108, 0x3eae4076, 0xbe581a8f, 0x3c8cf5b0,
                               0x3dcf62be, 0x3da31f64, 0x3e2d9bc2, 0x3e4a1eb2, 0x3e13b28f,
                               0x3e89387b, 0xbee515d3, 0xbf109807, 0xbe38b7eb, 0xbd5d42ad,
                               0xbd37743a, 0xbe08db95, 0xbe6cbf62, 0x3e8d52fb, 0x3f29c9ab,
                               0x3ed48fb0, 0x3ea575e3, 0x3e97120c, 0x3e14de39, 0x3e7a24f6,
                               0x3ec46486, 0x3e0042c4, 0x3f3be45c, 0x3dc0d966, 0x3e067441,
                               0xbd111657, 0x3cff7f89, 0x3d0887a4, 0x3ee5ef1c, 0x3e2e74e7,
                               0xbe9ace3f, 0x3c8dcc38, 0xbd567cd1, 0xbf85572e, 0xbee2b562,
                               0xbd482c79, 0x3d13e79a, 0xbc3c645a, 0x3d3fd9de, 0xbee2af3c,
                               0xbe214d98, 0xbf014091, 0x3c81b628, 0x3bb1657e, 0x3d0099c1,
                               0xbe5c90be, 0x3ecee444, 0xbeca7f51, 0x3e1c1422, 0xbc30b6fa,
                               0xbc9947ff, 0xbf367090, 0xbe4ffa59, 0x3eb21c17, 0x3e682e49,
                               0x3c5530f8, 0xbd7e8cf0, 0x3e4d1377, 0x3f640a8a, 0xbe5030d4,
                               0xba634c60, 0x3d8702cb, 0xbc91caba, 0x3f3e17cc, 0x3de5cd0e,
                               0x3e10e2bf, 0xbeab9996, 0x3d73492c, 0x3d9c7bb4, 0x3ef564b2,
                               0x3f095e96, 0x3e23ecc7, 0x3e26be2a, 0xbe039d27, 0xbde88d6f,
                               0x3d466450, 0x3ce4e0e5, 0x3ead19f9, 0x3e7184d8, 0x3e075494,
                               0x3e1b1ab1, 0xbebb975f, 0xbf35f01b, 0xbdd1b57c, 0xbc4076cf,
                               0x3cd865cb, 0xbd3b740c, 0xbf0476c3, 0x3ea470d9, 0x3cff8bd0,
                               0xbd960262, 0x3c831dfd, 0x3cb9e15f, 0x3f378830, 0xbe78e6e0,
                               0x3e3e930a, 0x3e8d1a1a, 0x3ca8f5f9, 0xbc7608c9, 0xbeb6de27,
                               0x3ef6a754, 0x3efdec24, 0xbf0178d9, 0xbc1380ef, 0x3bc06792,
                               0xbf0e377e, 0x3e076eda, 0xbe0134d8, 0xbe1151d8, 0x3d7f669b,
                               0x3d95cdeb, 0x3dbecb04, 0x3e996dae, 0xbd659bff, 0x3cee5808,
                               0x3de97489, 0xbcbf8479, 0xbf416681, 0x3e12ef9e, 0x3c421e6b,
                               0x3e3b9511, 0xbc699274, 0x3afc3532, 0x3e68afe8, 0xbe93291f,
                               0xbd334dd9, 0xbe4b1e6f, 0x3d5bc56c, 0xbb83929b, 0xbea8c6a7,
                               0xbf2ca154, 0x3e1f4162, 0xbc459610, 0x3c3574b5, 0xbc8867a9,
                               0x3e12234f, 0x3e2d04bf, 0xbe9a5044, 0xbe9adcd1, 0xbd1f81d5,
                               0xbd9c8708, 0x3ea35e8a, 0x3eeba31b, 0xbedea36c, 0x3f020ea2,
                               0xbc989ffd, 0x3b7a4214, 0x3eb7c8c3, 0x3e02a3b7, 0x3d42ecdf,
                               0x3eb9eaab, 0x3d22c6ca, 0xbce31310, 0xbe86ef5f, 0xbe897616,
                               0x3ec3faa8, 0x3ee45f51, 0x3bd262ec, 0xbca847df, 0xbef56ed8,
                               0xbec1a432, 0x3d82f9b1, 0xbde4c802, 0xbd782263, 0x3c68838a,
                               0x3e139bf2, 0x3cce7e1c, 0xbe459179, 0x3bb60900, 0x3d63ae85,
                               0xbd1372d9, 0x3f0470f0, 0x3e6806c4, 0x3e7b5ff0, 0xbe998d26,
                               0xbdc423c5, 0x3dc147b9, 0x3e3bd9f9, 0xba4e9bbf, 0xbeaf5fca,
                               0xbe2c52ae, 0xbb8f1f05, 0xbd41c3e2, 0xbe18b827, 0x3eb70c3a,
                               0x3e3aff7d, 0x3ee2141d, 0xbcb71182, 0xbb1fce46, 0xbebb2ed3,
                               0xbf3fe8dd, 0xbe1e30fd, 0xbcc239a3, 0xbd325e56, 0xbd32e767,
                               0x3f6b47c9, 0xbee41f96, 0xbe72ce8a, 0xbdfb76d2, 0xbd2b74a6,
                               0x3ce50260, 0xbe5d2f43, 0xbf092fc8, 0x3d359166, 0x3e871bcc,
                               0x3c15e523, 0xbd0b6ccb, 0xbefbdb33, 0x3db34fca, 0xbe846a96,
                               0xbe2945f0, 0xbbad9b57, 0x3c16b940};

uint32_t bias_array[102] = {0x3f0240dc, 0x3d4c18c0, 0x3dcca6ba, 0x3cae794c, 0x3ee0b405,
                            0x3e0e7e5f, 0x3d406da3, 0x3de87769, 0xbb918c0e, 0xbe9196c1,
                            0x3dad0b8b, 0xbd0b1745, 0xbed780d5, 0xbdfa87de, 0x3e178cc1,
                            0x3d1c1541, 0xbe00584d, 0xbe0d9f73, 0x3ef065f1, 0xbd8f74e1,
                            0x3db15968, 0x3ec8845d, 0xbdfd3a5e, 0x3dcca751, 0xbd62efb3,
                            0x3ee5193a, 0x3e433b50, 0xbdc79800, 0x3d86960e, 0xbe119215,
                            0x3f1d1618, 0xbe0065d2, 0xbe9a8b1e, 0xbe0f068d, 0x3e02dbe3,
                            0xbd051d4f, 0xbe1d01fc, 0xbdf8ee94, 0xbb1f537b, 0x3d39fe64,
                            0xbe12bff3, 0xbdd0b5c9, 0x3cb9810d, 0xbdde791e, 0x3ead3ec1,
                            0xbc4ef9e7, 0xbeca9c94, 0x3e08eb10, 0x3e00ea40, 0xbe19b085,
                            0x3c902d77, 0x3e03a6c7, 0x3e8df56a, 0x3e08d96f, 0xbea0ff77,
                            0x3f058ab8, 0xbccc0beb, 0x3e251a1f, 0x3b79b983, 0xbf4c6739,
                            0xbd914774, 0x3d0358c6, 0xbe89b323, 0xbe8fd5fb, 0x3e06b8bc,
                            0x3d468813, 0xbe8cd55e, 0xbcd8ec33, 0xbe0df61a, 0xbe41febd,
                            0x3df7d2ac, 0xbd865abe, 0xbeeec3dc, 0x3ec1da36, 0xbe06d0c6,
                            0x3d8ddbb8, 0x3d4d39ef, 0x3e8322df, 0x3df14b59, 0xbddbbcf1,
                            0x3d48409e, 0xbd163c83, 0x3d81bcc1, 0xbe758b0a, 0xbe78b314,
                            0x3dafc71d, 0x3e78793f, 0x3e169643, 0x3e79d269, 0x3c118107,
                            0xbda6d915, 0x3eb531f0, 0xbd0692a3, 0x3d5ae156, 0x3cf875e6,
                            0x3d4cbacc, 0x3d8cb82f, 0xbd9d40ce, 0x3e61db10, 0x3ea92b26,
                            0xbdb04d37, 0xbe09ec88};