#include "policy_param.h"

uint32_t hidden_layers_size[3] = {48,32,24};

uint32_t weight_array[4080] = {0xbe304f4d,0x3e8ea62c,0xbe21801e,0x3e9b4239,0x3eb110f6,
0x3e337898,0x3eae19f3,0xbf5b5ca5,0x3e99ee84,0xbe464158,
0x3ee28260,0x3e0f8903,0x3f03d163,0xbd3bf9d3,0xbecdaca7,
0x3e4b33c8,0x3f148709,0x3e690d6d,0x3e8e022a,0xbe86c488,
0xbdcf284b,0xbc3cfe43,0x3e7896b9,0xbf2cdbf2,0xbafc7459,
0xbebe4d06,0xbd81e710,0xbebb6462,0xbeb551eb,0x3e8ffe12,
0x3ee54e80,0x3f197c51,0xbda138df,0x3d144289,0xbebf965e,
0xbdadb26b,0x3f09a74f,0xbce717d8,0xbe38e0d4,0x3e3a38f1,
0xbca348e1,0xbe5957f2,0xbe7895cc,0x3e77e804,0xbd97b76b,
0x3edbf649,0xbf5b4432,0x3deaa6c9,0x3e72b58f,0xbd78bfed,
0x3d8ec757,0x3e97ff38,0x3e5ada31,0x3d0327aa,0x3eb288d4,
0xbe882490,0x3e0c4690,0x3d907444,0xbd8ddbf2,0x3e15b447,
0x3cb451d7,0x3d178493,0xbdaee719,0xbe200555,0x3eb36b9d,
0x3f4ff493,0x3eaf9600,0x3da5b31a,0x3e13c48f,0x3e854033,
0xbd9d407c,0xbe4eabe3,0x3ec538e1,0x3ee9bb80,0xbdcec89f,
0x3f0cdd3d,0x3df95049,0xbe5b1255,0x3db57a38,0x3cc32dd4,
0xbc9accc8,0xbdea6f3d,0xbe931762,0xbe457f0e,0xbf045ab0,
0x3d72b7b7,0xbe713876,0xbdb44684,0xbea62a8b,0xbe8fdee5,
0x3efcaef2,0xbebfb769,0xbe303b9e,0x3d82819d,0xbe2270ce,
0x3e65ddc3,0x3d9e4aa6,0xbd49d660,0xbe279304,0x3e832fef,
0xbe129701,0x3e140669,0x3f4379a6,0xbc893707,0x3d1b1c2f,
0xbf061030,0x3ec31cec,0xbde69b17,0xbec41068,0x3d44cec0,
0xbdc5fc0f,0x3e056b1a,0x3dcb563a,0x3f242e5a,0xbe5cf524,
0xbed0015f,0xbf3b5a56,0xbbd4cd60,0x3e54bf48,0xbe213181,
0x3e5c6f8b,0x3e99e2d3,0x3ebe8147,0x3e43a1ef,0xbebd705a,
0xbd3d6734,0x3d937171,0x3ecc6a50,0x3e4ffdf7,0xbe00b470,
0x3deab8f8,0x3ec95c72,0xbe7d5f17,0xbde18bbb,0x3d754840,
0x3ef3bd35,0x3eb8c701,0xbeb60ac3,0xbd89141c,0xbd6136be,
0xbea8480a,0x3e43ead0,0xbeb083d3,0x3e647257,0xbf2d25ef,
0xbe91fbb1,0xbf0e586e,0x3db3b5fd,0x3d9f0283,0xbea06504,
0x3ef7efcd,0xbea1adc7,0xbddb774e,0x3df57710,0x3eee88dd,
0xbe2e6eb4,0xbec256a7,0x3d61740d,0x3cd47b6a,0xbbd9368e,
0x3d73a7d0,0x3e48e93e,0xbd9241e5,0x3da7953c,0xbe5c80a3,
0x3e6eda90,0xbdd616af,0x3e4beba0,0xbe756bdd,0xbe6beae8,
0x3e9b9d7a,0xbde3a560,0x3efc390e,0x3e05f9f0,0xbf1afeb7,
0xbe359ec7,0x3d999e46,0x3e93de68,0x3db2bbfe,0x3e0e54ec,
0xbe797810,0xbda92668,0xbd1f4b22,0x3dd90e4e,0x3f04be9f,
0xbdd8429a,0xbb060209,0x3e3b842a,0xbe748894,0xbe9ac5f5,
0xbe0d231e,0x3e8802e7,0xbdd435f8,0x3f09fb94,0xbd852a43,
0x3e0aebcf,0xbeee69d6,0xbe224500,0x3f4f43bb,0x3ec5db6b,
0xbeec0923,0x3db34563,0x3e81a32a,0x3ed34e7d,0x3e59ecbd,
0xbde79e53,0x3caa9136,0x3b55b7ee,0x3e5cc17f,0xbecb65a6,
0xbc8d706f,0xbd47166e,0xbee5e387,0xbd7ed688,0x3e8d353b,
0x3dbb43a8,0xbd3853db,0x3e06d7f5,0xbd2eb013,0x3e914a6c,
0xbc4f3ac1,0xbd79c9de,0xbde56a37,0xbed94072,0x3e86bd37,
0xbe462363,0x3e4f8a00,0xbeb165d3,0x3dcc2004,0x3e4c9034,
0xbe82f480,0x3f07cc72,0x3e2ef000,0xbd5f01cd,0x3e17f36c,
0xbde6180e,0xbea3c478,0xbea72882,0x3ec46475,0xbec91790,
0xbea2755b,0x3e5588dd,0xbe2444bd,0xbf1ea1b3,0xbe83627b,
0x3cfdffae,0x3e9aee02,0xbe8d9f05,0xbe0bb5cd,0xbd8f8793,
0xbee193a1,0xbf047c1c,0x3da0247c,0xbeaa943c,0x3ddba4d0,
0xbe9e53c7,0xbdca7f55,0xbccd1132,0x3cd126a5,0xbd9378c2,
0xbeeb734a,0x3e6f6c4e,0xbd550a84,0x3e9a11d6,0xbea17df3,
0xbe33643f,0x3f07b1c6,0x3de51fc6,0x3d264556,0x3e1baffc,
0xbe02a619,0x3e4c42c0,0xbdcde925,0xbeb35beb,0x3dad20ee,
0x3ca20b89,0xbe9ec621,0xbdb57c34,0xbe0ace39,0x3ce70df5,
0xbe4851be,0xbd47c0a7,0xbe9719db,0x3e3fdaa4,0xbe285123,
0xbed35de5,0x3a039bfd,0xbe0375ad,0xbd8d0ef8,0x3ed74bcb,
0x3e174f39,0xbef6f15e,0xbe2ff75d,0x3e831ee1,0x3eab88c0,
0xbe191bcf,0xbd3a6b8d,0x3e408ad3,0xbe31b329,0xbead7859,
0xbe78aad3,0x3e1d0a21,0xbdec0833,0xbe17f3b8,0xbee66cce,
0x3ed62f71,0xbdc68fd5,0xbeb28589,0xbe927274,0x3f0983f0,
0x3e14c55d,0xbe4692f6,0xbdc33a6b,0xbe50bfcd,0xbe7d8167,
0xbd771b64,0x3e9a589d,0xbe9ad318,0xbe43435f,0xbe283e3b,
0xbd2db863,0x3bbff203,0xbde85709,0xbd135c97,0x3e9ab2bf,
0x3e770df2,0x3f181ece,0xbe0da865,0x3da69a63,0x3eb9aa17,
0xbe20169d,0xbe4b2889,0x3ecd4d75,0xbf00efc4,0x3ee323d6,
0xbe5bf5c2,0xbced469f,0xbe57c7e7,0xbe91ad1b,0x3e029ce9,
0x3deb5e7d,0x3ea6af30,0x3f146584,0xbf26cc8e,0xbd248708,
0xbe070e25,0x3d3b3404,0x3dd119ac,0x3df84112,0x3ee50fd8,
0x3e573b8e,0x3deabf58,0xbe86668c,0x3ed1664d,0x3ebcea62,
0xbebd0e9e,0xbdab6e36,0x3ea7ae2f,0xbeb0f5b1,0x3d868370,
0xbcd61ffd,0x3e8ad592,0xbe8a46ac,0x3ea428b7,0x3e1b5f49,
0x3d027e26,0x3a55a6a0,0x3e08c87f,0xbea3785d,0xbee80690,
0x3c4c232c,0xbf3557ae,0x3e94584e,0xbe298f6d,0xbc98b2c1,
0xbee4eaca,0x3eb08c4f,0xbd82b992,0xbde806cc,0xbd96aca2,
0x3edeed0a,0xbf09bdee,0x3d8639b5,0xbe756e46,0x3dc8660a,
0xbdcdd61f,0x3e1a1304,0x3e52ea89,0x3e67d423,0x3ea502e5,
0x3e5d8431,0xbe474884,0x3ec7da01,0x3e170907,0xbf00591c,
0xbed112f9,0xbd94c0ea,0x3e508e61,0x3e4307f2,0xbec1e8bc,
0xbd9da155,0x3f3169e1,0x3e739e9c,0xbdfe5f5d,0x3e0ff1c4,
0xbe2463d4,0x3d878a8d,0x3e37e40d,0xbebaa572,0x3e3afd4e,
0xbf08b805,0xbc4e1785,0xbdf56581,0x3eabc924,0xbb0419b0,
0xbe96ba09,0x3dabaf81,0x3f0484f3,0x3cc835f7,0x3ea08a75,
0x3dc11f21,0x3e04effa,0x3e15f8d5,0x3d8cc81e,0x3e05e1b9,
0x3e6847eb,0xbe99cfb5,0x3e1fd1ef,0x3dd65777,0x3e6592df,
0xbe70f7a5,0xbee5888d,0x3cea7599,0xbef321b9,0xbf1386dc,
0xbdb58bf8,0x3e16c619,0x3f141cfd,0xbd5af91f,0xbbe93c78,
0xbd593482,0x3ef0c73b,0xbeb561b6,0xbf0fd510,0xbd1cfe02,
0xbe5b3031,0xbca00403,0xbe3352ca,0xbf4f46a4,0xbe56fa45,
0x3eb0082e,0x3e3cceb1,0x3e8819c8,0xbe0aebb6,0xbd05368c,
0x3dfd80ab,0x3e179c22,0x3c934584,0xbe971f35,0xbd91679f,
0xbd52f87a,0xbec9ccd6,0xbeafe2d3,0xbe95f195,0xbe4b9595,
0x3ef674fd,0x3e3e5442,0xbacc7be9,0xbdad98cb,0xbb16135e,
0x3db2e445,0xbef18225,0x3e58c0df,0x3e850eef,0x3e002039,
0xbe24ce01,0x3f0ab729,0x3dcf823d,0xbeaff10b,0xbee5d7b7,
0xbd62bfd6,0xbefc0200,0x3ec45bc8,0x3cbb3485,0xbec11c19,
0x3da647ee,0xbe8bdf61,0xbd0684ff,0xbca8ec41,0x3e88b1b8,
0xbd073b3b,0x3ee9a968,0x3d6332d4,0xbe98b12f,0x3dcaf0f2,
0x3eae82af,0x3e1de11b,0xbf2ebcfd,0xbfcda577,0x3f61d75e,
0x3e6e3902,0xbe0817dd,0xbedf8cda,0xbe2aa8cc,0x3ee4ca69,
0x3f64a36a,0xba40e18c,0xbe07dfb3,0xbcb93031,0xbcd104a1,
0x3ebe2236,0xbe998f28,0xbec9bb21,0xbe121113,0xbd9a4cee,
0x3ee884c0,0xbd94d3aa,0xbf25dc63,0x3ecf9b95,0xbebfe40e,
0xbeebc8d0,0x3dc03b79,0x3bfee694,0x3db8b63a,0xbd5a0ef4,
0x3f248910,0x3f122d04,0x3f2debe1,0x3ea63070,0x3e64ae86,
0x3f017e81,0x3de87261,0xbee14050,0x3f546ae9,0xbe3ad86d,
0xbe910640,0x3f8b2828,0x3ec95f94,0x3ec04b91,0xbd0d8a2b,
0xbf890f4d,0x3dd64a3b,0xc097d731,0x3dd61e15,0x3f63cb05,
0x3f4c8648,0x3e33f8ac,0x3f7faade,0x3dd55aff,0xbe9ec3d5,
0xbe503fa1,0x3f64c7f1,0x3fde325f,0x3e183cd1,0x3f45fd14,
0x3e92601c,0x3e09a40f,0xbefc91e9,0xbea74107,0xbf3a5a75,
0xbf08b70b,0xc01e313e,0xbf81565b,0xbf653ba1,0xbcf11df8,
0x3f547e8a,0x3f9e37ab,0xbf0729c8,0xbdeb7818,0x3edacba8,
0xbda3bb1a,0xbf735c9f,0xc076ca26,0xbf040781,0xbf3c2a86,
0x3df86a42,0x3f5a8239,0xbf50b7b2,0xc0660fcd,0xbfaf3f2b,
0xbedf39af,0xbf9b1f23,0x3f10ec1d,0x3f82f161,0xbfde36de,
0xbefb1e56,0xc08d7308,0xbfb88d32,0xbf1f8a7b,0x3f787508,
0x3f842ed4,0x40164709,0xbe8ba498,0x3eb3b9a2,0x3f1963bc,
0xbf49b156,0xbff7bd3e,0x3fa0c847,0x403838ee,0xbbae7a3a,
0x3f64ab7b,0xbf3dbf7e,0xc00591d7,0x3f3df5c9,0x3faa2397,
0xc05218b5,0xbd92ba32,0xbeb485d4,0xbe435fdf,0xc04d8f10,
0x4032783f,0x3bbde735,0xbfb3304d,0xbf048c1b,0xbf25d677,
0x3ee3a84b,0xbf2ce1af,0x3fca6d20,0xbf40efb1,0x4004fe3b,
0xbf11a7e7,0x3fe9c3bc,0xc0a20e19,0x3eb45144,0xbedc8dc3,
0xbbbf59f3,0xbe0d1ca6,0x3ec404a2,0x3da8bfa2,0x3e97eb75,
0xbe37742b,0x3e6cf45e,0x3c128221,0xbddb4b96,0xbdd41cbb,
0xbe33862e,0xbdd37217,0xbef75a04,0x3e33d96f,0x3d22965f,
0xbb52cce5,0x3d8f3254,0xbe00302b,0x3e9228d3,0xbf02e62c,
0xbf116a53,0xbe91f854,0xbe9694b5,0xbe1129f4,0xbf66268a,
0x3e9682fe,0x3f4fc094,0x3e2e23e0,0x3e15fecb,0xbeb101dc,
0xbdc01339,0xbee38bb0,0xbee37a79,0xbe5f5ea5,0x3e88b1ba,
0xbf244279,0xbc1562d3,0xbec995d1,0xbec35083,0x3ed8178d,
0x3f3eb56b,0xbea0b1b5,0x3e9cde7e,0xbdf76626,0x3dfb19a6,
0x3e8e2bee,0x3f107084,0xbf838a9e,0xbe70b390,0x3d79b378,
0x3f3ea5f8,0xbe9636e7,0x3f85b68c,0xbee1d5eb,0x3d11498f,
0xbd16874a,0xbc92dbf6,0x3f366183,0xbde6e9e7,0x3f0e9e3b,
0xbd70cbf2,0x3d1dfddf,0xbf143035,0x3e8415fe,0xbf5f4322,
0xbeaeb8d6,0x3cda2c83,0xbe202e97,0xbf37c8e1,0xbec42def,
0x3f3a3bf8,0x3e5f621e,0xbbc482d6,0xbe62e385,0xbf866f3a,
0x3e25f928,0x3e443156,0xbdab262b,0x3d9c2257,0xbd7fa7b3,
0x3ebb51bf,0xbf0fda88,0x3f84f7b9,0x3d8bbf58,0x3d9f5eb3,
0xbd1e7902,0x3ec3d233,0x3f657bc8,0xbea113f3,0x3f87925c,
0xbe04a449,0x3ebf0054,0x3f34288e,0x3edc8a43,0x3f81ded4,
0x3dda6ca9,0xbd4c9040,0xbdabf424,0x3da73e04,0x3e871621,
0x3c11383f,0xbf916fb8,0xbe906deb,0x3ca18519,0x3da0178b,
0x3eaa4ebe,0x3f20cd2f,0xbe8555f3,0xbc4a8969,0xbf5f163d,
0x3ebe3628,0xbe439103,0xbd90453e,0x3e96171b,0x3e6f675d,
0xbd8179ae,0x3eae4586,0xbe7eebf1,0x3e932034,0x3d711df6,
0xbf0fe573,0x3f4478e8,0xbd0244d0,0xbefef129,0x3e939d6f,
0xbf2a7d2d,0x3d9bac02,0x3d83b347,0xbf8fe428,0xbea33911,
0xbf17ac52,0x3f332a9e,0x3e4ea07e,0x3f266be1,0xbd724b70,
0x3ccf7476,0x3f0a5d5d,0xbe682f49,0xbf03a421,0xbe9ab916,
0x3e80b555,0x3deafd39,0xbe800c3f,0xbf49865c,0x3c707f47,
0x3cffd3db,0x3f8cc461,0xbef59147,0x3f327d13,0x3f5ba16a,
0xbde095a6,0x3de0a4c8,0xbefee4ed,0xbd48b63f,0x3edfbdc3,
0xbfa7ec31,0xbd6b6144,0x3af4f82c,0x3eb4322f,0xbc81222f,
0x3d95539a,0xbdc56fc0,0x3f73d4f1,0xbf41f548,0xbd0dd484,
0xbf290b7c,0x3d6a05bc,0xbf08366b,0xbeaeaab4,0xbefa2354,
0xbeb78cc0,0x3bd8e228,0x3ca09846,0x3d56d058,0xbed2b62f,
0xbe7427da,0x3d73f76e,0xbe29b96d,0xbe297f0f,0x3f3541c6,
0xbecd3c7e,0x3eaea697,0xbe3cbc4d,0xbe6c5b25,0x3d276f30,
0xbe1aff4c,0xbec8e489,0xbc955852,0xbea8520f,0xbdd83987,
0x3df15713,0xc002a4f7,0xbeb0b7c7,0xbfbc6542,0x3f3e9851,
0xbecc26fd,0x3e7413c7,0xbfa4b436,0xbe80ae67,0xbfa8564d,
0xc004e3cf,0xc006aca1,0xbcc5a7b7,0xbf0c117f,0x3febfe3f,
0xbee8a129,0xbe9ecdbd,0xbf477c2d,0x3f593e17,0x3fd48009,
0xbeeec427,0x3cbd81fc,0x3f0172ad,0x3f5b035a,0xbfceaa95,
0x3f078df3,0x3f64ae63,0xbed5ca55,0x3ed40e36,0xbfc1c34a,
0x3ff3e1c9,0x3e21267c,0x3f76425c,0x3fb000d3,0x3e21625f,
0xbf2eba04,0x3f399173,0xbf60f164,0xbfb96a22,0xbfa1332d,
0xbe9c0c29,0xbf8a3ec8,0xbfd0b9e3,0xbf0fffa8,0x3f4fa747,
0x3f0f44f7,0xbec67fb9,0xbeda6bbc,0xbda92e92,0x3d61d181,
0xbf4dad7a,0xbe84c23a,0x3f1f615b,0x3ebe4571,0xbf1d3f7b,
0x3f2f3e17,0x3ea11a1c,0x3fa1de85,0x3e0dff0b,0x3fd1c94f,
0xbf27c88a,0xbeee5b94,0x3e2cae39,0xbe1b27db,0xbfab3e34,
0xbf27114d,0xbe9901eb,0x3ff66dcb,0x3f15dc93,0xbfa85fbf,
0xbe3f1634,0xbf2af9e6,0xbf564eb2,0xbf3755da,0x3ee90b3e,
0x3f06d4e6,0x3cac0d7e,0xbf2479a0,0xc0513643,0xbe93303b,
0xbf7a7975,0x3f4ba189,0x3ff0641a,0xbfd884ea,0x3f0db3ec,
0x3f45736d,0x3e3f4475,0xbe5d4b45,0x3f40955e,0x3f14a175,
0xbf0bb1aa,0xbf7819c9,0xbf5f8e87,0x3f6e9437,0x3f825e59,
0x3dbc2669,0xbef3c955,0xbe12f943,0x3dc09ae1,0x3e45f2dc,
0x3e0c099d,0xbf25cc27,0xbefddbd6,0xbe841090,0x3ec7f5ef,
0xbdc576ad,0xbee9003f,0xbd9b7912,0xbde4daa0,0xbdccdfd5,
0x3e4c11dc,0xbdb22d51,0xbd59f53b,0xbc85b773,0xbe80e2a5,
0x3e057cb1,0xbf1f49a8,0x3d6c1ccb,0x3e955408,0x3c2b694a,
0xbccaea8d,0x3e8a5161,0x3d048643,0xbe809c47,0x3ef38154,
0x3da73a9a,0x3df0887f,0xbe4dd4fa,0xbe0a0363,0x3e3982aa,
0x3d687604,0xbdc2e8c3,0xbdd8eb7a,0xbcad71c4,0xbeac9327,
0xbe332cf6,0xbe15a992,0xbd21b381,0xbdf76101,0x3d7f466b,
0x3d927312,0x3ce9a050,0x3da4dcf0,0x3d14e46a,0x3b053c9e,
0x3e059f66,0xbf21f4cc,0x3db3489d,0xbe6149f9,0x3e96b8c4,
0xbf212926,0xbe299215,0x3f0b554f,0x3e75b9d4,0x3ed66053,
0x3cfac823,0x3f5049b6,0x3cf683c0,0xbc55d786,0xbdea80c3,
0xbd258464,0xbd8b636e,0x3cffc9c6,0x3de62614,0x3d28b5e2,
0xbe94dbcd,0xbe83b846,0xbd69376c,0xbe7b52af,0x3e9c4aa2,
0x3e1e7489,0xbdb8f260,0xbbcc3660,0xbe421082,0xbe5103d9,
0xbe73a0a7,0xbe85a155,0xbdb00ace,0x3df9ea0b,0xbe1b8bc1,
0xbe4f2e31,0xbe7e0e89,0x3e20f09d,0x394aaa39,0xbd9f6629,
0x3ee024a6,0x3d80174d,0x3e94ab95,0x3bc9bc63,0xbd531c3f,
0x3e0bfb3b,0x3d2072d7,0xbd4a8bd7,0x3e3b6f25,0xbf15f92e,
0xbe15a746,0xbf382c78,0x3f9c06b9,0x3f0e9f49,0xbd98a4e5,
0x3f57c5f8,0x3f80b369,0xbf7b5f07,0x3f93e10d,0x3e943bfc,
0xbf6da35a,0xbf911661,0xbe6288ec,0x3e83415c,0x3f9742f6,
0x3ea435b2,0x3f0691be,0xbf0d7fbb,0x3f39e5d0,0xbe32a7b7,
0xbf64fe93,0xc004528b,0xbff071af,0xbc49ef65,0x3eb7fdf8,
0x3eeeef58,0xbee91ea1,0x3ef325fa,0x3ea8d1a6,0xbf372113,
0x3e4a249d,0xbf561778,0x3fb38f31,0x3f531a73,0x3dde507f,
0xbf887661,0xbf688784,0xbfaa21c2,0x3fa28122,0x3fe5e3e5,
0x3fe602c4,0x3efa0de3,0x3f5ebe7c,0xbf2f93b7,0x3f76a91f,
0x3f41e1c8,0x3d9c0d6e,0xbf20d538,0xbf73fe9d,0xbf7bcd02,
0x3f53bc58,0x3ebd3696,0xbec37f0b,0x3f329a35,0x3c3284eb,
0xbf6b0644,0x3e92689a,0x3f0e152c,0xbf50f63a,0xbf779397,
0x3dbf6565,0x3f899c47,0x3fbae384,0x3f1afd13,0x3f3d3531,
0xbf361444,0x3e6a20dc,0xbe0730e7,0xbdf91216,0xbfacacf4,
0xbf69ff8c,0xbe1decb8,0xbee2105c,0x3ec269cc,0xbd8a2b24,
0x3e89d5ad,0x3fa7a08a,0xbda01398,0xbd8cdbbe,0xbf9ecd77,
0x40020dde,0x3f59557f,0xbf161f06,0xbf6af634,0xbf98d722,
0xbf508ba1,0x3f0d5ec2,0x400b8210,0x3f9a9f8e,0x3fba8d81,
0x3f966db0,0x3c8f28d0,0x3ecdc6c1,0x3f5dedc0,0x3f367024,
0xbf40f1db,0x3e0af18a,0x3e494b21,0x3f3d2e06,0xbf2179ad,
0x3e5d3ab6,0x3eea4c5e,0x3ed4ceae,0xbf2a3f57,0x3eae4986,
0x3f1b2ee5,0xbf081ff9,0xbe8dec87,0x3cb72057,0xbf483010,
0x3eac4183,0x3f8fead9,0x3e584385,0xbe066370,0x3f266bb4,
0xbee93510,0x3f2c036c,0xbedd2746,0x3e082626,0x3dad96ec,
0xbe4d1f9d,0x3cbc7db0,0x3e2b6d9a,0xbe0238e4,0x3ecc0024,
0x3e54a63b,0x3dab0553,0x3ef5925a,0x3f8553ab,0xbe410d21,
0xbde0ae6f,0xbf6fefbc,0x3b722d7f,0xbe4156df,0x3f80cb21,
0xbcdf8add,0xbe40063a,0x3e8e1a37,0xbeab2172,0xbe207bc6,
0x3e8d05dc,0x3e5d2f3f,0x3f816f4a,0xbd810ad7,0xbdcd6822,
0xbe907e3d,0x3e15c6d6,0x3cb275d7,0x3f98e13c,0x3f67fe44,
0x3c321fc7,0xbeeb6b88,0xbeaf4331,0x3efa75f9,0x3f020dfa,
0xbdd018b8,0xbe5952e0,0xbf42a605,0x3f344c58,0x3fd0d00a,
0xbf6f9104,0xbeaa70e5,0x3f13450c,0xbf4243ab,0x3f24c4e2,
0x3d2181e2,0x3f25973c,0x3eec6099,0xbd422591,0xbd94406f,
0x3f8a12f7,0x3d3b56ba,0x3badafb5,0x3ba8be2e,0x3e7fab81,
0x3d2eb6d7,0xbd9fef14,0xbf287e6d,0xbe897503,0xbd8719c9,
0x3ed66c6b,0xbf7b446b,0xbfa01ece,0x3f3a366e,0x3ec1a86e,
0x3edb1fa2,0xbe48c4e1,0x3f2b08b0,0xbe5971cc,0x3e14a59f,
0x3d9950dd,0xbe68a514,0x3fa78710,0x3ed56719,0x3e06b5f9,
0xbe81860a,0xbdfa2ffd,0xbd8612c5,0xbcaf395c,0x3e142f7b,
0xbe800d17,0x3e915154,0x3da699a3,0xbe019dc6,0x3e143cb7,
0x3ea17dbf,0x3e7d2eda,0xbea12d60,0xbeb714cf,0x3f0e9336,
0x3e8193fa,0xbe6c4949,0x3df012d0,0x3edba1a2,0x3cea3cb5,
0xbe6dc718,0xbcbda6e4,0xbab13fcf,0x3e81ed58,0x3d97991f,
0xbe824039,0x3e366836,0x3e3dfca8,0xbdae0a8b,0xbe7989e2,
0xbe928a39,0xbd09fcc6,0x3e241cf1,0xbde2aa32,0xbd9fa814,
0xbf59efa0,0x3e767fca,0x3df45f7a,0x3e128cb6,0xbc7c9542,
0x3f2f5ceb,0x3f596c30,0x3e59d258,0x3e901fe3,0xbee4238b,
0x3d717676,0xbf1e1529,0xbf1e6418,0x3e24773b,0xbde66b05,
0xbc5a794a,0x3d7b3c11,0xbe48d55c,0x3e5236d7,0xbf1653b9,
0x3fb6f402,0x3de17507,0x3d02fe80,0x3e451f45,0x3c9cedfe,
0x3e8f7fc5,0x3d51a6f8,0xbe1a1419,0xbe25f56f,0x3ed451c8,
0xbcee6642,0xbce8bcb5,0xbcb5301a,0xbddc59bb,0x3e27267f,
0xbe347639,0xbce111ef,0x3ced3e6a,0x3eb7db1f,0x3dd2c73c,
0x3d7d1699,0xbd26a109,0x3ce5469c,0xbdae1dbc,0xbe1f3d6d,
0x3e21af8b,0xbd25ee3c,0x3d962b24,0x3ca4f87e,0x3b392e3f,
0x3d25c4cb,0x3e65134b,0x3c314d42,0x3c965b47,0x3ce3bd8d,
0xbee4da65,0x3f75d76c,0x3f61d432,0x3f57451a,0xbed2ba07,
0xbd66c1ff,0xbe0d551b,0x3e843756,0xbe650162,0xbf2d422b,
0x3efb7b3d,0xbde58bac,0xbeca8673,0x3f699bfc,0x3f00a671,
0x3ee99e9e,0x3eed653a,0xc00bf746,0xbf813210,0xbf9fff4b,
0x3f14f813,0x3d6a7d97,0x3f3812c6,0x3a8f1782,0x3fb5a33f,
0xbe75bde9,0xbd8304c1,0xbf87b50e,0xbf243e8c,0x3f6220ab,
0xbe43d20b,0x3e3ec125,0xbca1ae60,0x3d2b4b71,0x3f9a8c22,
0xbd494566,0x3f0abf9c,0x3daa637b,0x3f4c955c,0x3eb66ee3,
0x3fbdb802,0xbf0539dc,0xbe805cfb,0xbf61f47e,0xbf576607,
0xbfa08482,0x3ecd223a,0xbeb096b1,0xbe77f6ef,0x3f297efd,
0x3c622619,0xbd080eb4,0x3a9814b1,0xbe96500f,0xbd107902,
0xbdaa714b,0xbea14de0,0xbd05676a,0x3dac71fb,0xbcc2660d,
0xbdf91e3c,0xbc9c0876,0x3bb65645,0xba8a6d08,0xbe0cd0ac,
0x3cc36c85,0xbcb2d58a,0x3d98cd4e,0xbe338f5d,0x3cf60d60,
0x3e7ea12e,0xba7c5146,0x3cb09dfd,0xbd97661d,0x3d216d78,
0xbd165b13,0x3f8a5bf0,0x3b8c5fd2,0x38d14b20,0xbf45d952,
0x3e77712a,0x3d865faf,0x3d24df0b,0xbcf9242f,0x3dbe1be9,
0xbcbbfe07,0xbd444d5c,0x3d778903,0xbbc3be00,0xbf21ae7d,
0x3d8f05bf,0x3d0760b8,0xbc7987e8,0xbd11630f,0x3c4b6e3d,
0x37bbf20d,0xbc3f9253,0x3ea3f33d,0x3e53d330,0xbd6ee0f4,
0xbd98f763,0xbdde9793,0xbd4f851d,0xbe17776b,0xbd7af380,
0x3cfba1b9,0x3e3e8633,0xbbba56a6,0x3ddf5aec,0xbc70eb21,
0xbb531769,0x3c9b38ae,0x3da0bb4f,0x3be366c6,0xbe0cbb32,
0x3d8f458a,0xbdd0ab33,0x3c43bd99,0x3e3447ea,0xbe0b67fa,
0xbc8614c5,0xbd9c2b25,0x3d080302,0x3d26e73c,0x3dc16aeb,
0xbd2a0b5c,0x3cfc70c1,0xbb9fc5e2,0x3dc75c98,0x3cb3d79e,
0xbb9a4d17,0xbd1f93a2,0x3e69c726,0x3c87d9b5,0x3d6e94ce,
0x3dbfcd30,0x3d13bb87,0xbe84efce,0x3ce5cc14,0x3c667be8,
0xbd0e1eae,0xbd21f20b,0x3c9f4132,0xbba2442a,0xbc2a9f47,
0xbeb95de2,0x3eca8821,0x3bebb934,0x3ef05691,0x3de1b0cc,
0xbc7b854c,0xbec654b2,0xbe1d0553,0x3d1a48b3,0xbc7d23e0,
0xbc8a4980,0xbeb254f2,0xbb808b0a,0x3c26682a,0x3b5b5aa3,
0x3db164af,0x3b6aa663,0xbe58657c,0xbd04243b,0x3e5859e4,
0xbdd5b9a1,0xbf24a534,0xbe522b1a,0xbb2cfdbf,0x3dbd9978,
0xbcb46c99,0x3dd9ac1a,0xbee5fcfe,0xbd944886,0x3c1302d1,
0x3ee3965a,0xbdee6ab4,0x3d0fb534,0xbcc0bdaf,0xbae064ba,
0xbedaa72f,0x3d342245,0x3b5900b3,0x3dc755fe,0x3d02691e,
0xbd194eb3,0xbc76c559,0x3d16b0cf,0x3bc32352,0xbc5b0561,
0xbd0ea39d,0xba890554,0x3e4e1f06,0xbdc7f94e,0xbe087004,
0x39c9fddd,0x3e3bbf92,0x3ee95daa,0x3def1393,0xbdf183e1,
0xbe9d9d9f,0xbd5dd07e,0x3c9a98d1,0x3b8047db,0x3ed1d574,
0xbb2951c3,0xbd14ea1d,0xbb7b5a25,0x3caae1ed,0x3c312d65,
0xbda54f44,0xbc015ac0,0xbd11fccd,0x3ca83b95,0x3e6170c1,
0x3e28b72d,0xbc2b7d8f,0x3cfef48f,0xbc2ea8ae,0x3de103b7,
0xbed9247e,0xbb8b2431,0xbc160922,0x3ef1d903,0xbd3aecd8,
0xbbac54f9,0xbd0d3d82,0x3ba63f2b,0xbed3b1a3,0x3d241080,
0x3cb0c957,0xbccebb08,0xbc5b9ff3,0x3e061554,0xbd16a272,
0xbda5bba1,0x3d5a46fa,0xbc681ae5,0x3d2c87a3,0x3c1d9344,
0xbba43a83,0x3e32f55d,0x3e8d09d1,0x3c107e4b,0x3ead1b68,
0x3caa6ded,0x3e96da1a,0x3e4b63d2,0xbe4ad9f0,0xbc9cedd6,
0x3a5698fa,0xbc1494de,0xbe98077a,0xbc79a82a,0x3d314cd0,
0x3b6e74a2,0x3d17145f,0xbcaa7495,0x3e01ed13,0x3c878320,
0xbdecb536,0xbe52077f,0x3f0a2b54,0xbe803104,0xbb9197d0,
0xbe3da543,0x3c998c8b,0x3cf7b43b,0x3f24fe84,0xbd4993f0,
0xbcb0bd0d,0xbf0ebf78,0x3d652bea,0x3d849257,0xbc8107f6,
0x3c083be9,0xbef0c3ce,0x3c2490ca,0xba1e92cf,0x3dc6185a,
0x3d7fb86d,0xbd1e0885,0x3bfd17fa,0x3d12fcae,0x3d3e12d7,
0xbc56c6fd,0x3c8a3449,0xba4ad7b3,0xbe0da2c2,0x3e181098,
0xbd836e60,0xbab84eac,0xbe4ff0b0,0x3a843fc0,0x3d836193,
0xbeafb665,0xbed48103,0xbcfcc12d,0xbdb86281,0x3cba79b8,
0xbe56a175,0xbbee5a9e,0xbc92d497,0xbca7431d,0x3d6cfcc2,
0xbd081957,0xbe4d8d10,0xbc45d553,0x3d46b204,0x3db039fd,
0xbcf5ef0a,0x3e57720a,0x3c87d906,0xbcd16627,0xbb7f464a,
0x3da1ecf9,0xbe293cbc,0xbdb3145a,0x3c880305,0x3e732659,
0x3d6ebaf0,0x3c996add,0x3c77eaa0,0xbcb2b9ff,0x3ec42c56,
0x3d236be5,0xbca4be8f,0xbda20175,0x3ce72920,0x3e8a04ea,
0xbc271be1,0x3d3871a7,0xbd63629d,0x3afed13c,0xbd32b15b,
0x3c931a45,0x3d7eb20e,0x3e08d33a,0x3e447a4e,0xbd74b9e6,
0x3e5ec5c7,0xbe261111,0xbd97bb49,0xbeaaf6f5,0xbe2e7d40,
0x3da1b495,0x3dd12889,0xbaac3483,0x3e17669d,0xbe506503,
0xbe3962d5,0x3de8ee8b,0xbe9dd8bc,0x3e1ca630,0x3d056f23,
0x3e15d0b3,0xbe6ba3f5,0x3d9c1f37,0x3dc9d85f,0x3d564e00,
0x3e2723d9,0x3e0d181c,0xbd4a1b15,0xbe32bb4f,0x3c4cdd75,
0x3ee338a2,0xbdcb2e4a,0x3c2f6c68,0xbde39488,0x3c02db94,
0x3d401ac9,0xbdd9e9f9,0xbcffa121,0x3e9862f8,0x3f05d927,
0xbe69f3ca,0xbc0041bb,0x3d4dff3d,0x3e020296,0x3cbe29de,
0x3df818a2,0xbe6fa3b6,0xbd1d10e1,0xbea16c1d,0xbde92262,
0x3e004b2b,0xbe70624a,0x3dc3746b,0x3e2652da,0x3dff6824,
0xbe4a757c,0xbe30d3c0,0x3e3d8cc6,0x3d69301c,0xbe51eed2,
0xbe98b680,0xbe48d952,0xbc7d287f,0x3b1837c6,0x3e3d12e4,
0xbd611ee5,0xbbf6b885,0x3e1174e9,0x3c27a789,0xbd328f31,
0xbecb1fa4,0x3e949a13,0x3f163a32,0x3f067894,0x3d83ed8d,
0xbec1a0ed,0xbd651a35,0x3ea797d3,0x3e05438d,0x3e6625ec,
0x3e0839f7,0xbe391955,0xbf200b90,0xbc1bd436,0xbe079194,
0xbe9177e6,0xbf184e26,0xbe49a931,0x3e97fb90,0xbe5a1c9a,
0xbb5ba11a,0xbe2d2f0d,0xbec7d2ac,0xbc60117e,0x3d332b4a,
0xbdc1e501,0x3eff921d,0xbe650369,0x3d1ed548,0x3e296087,
0xbc18e6dd,0xbd63e4b5,0xbdc0445c,0x3dec8917,0xbd870deb,
0xbecb142e,0xbeb7b8b4,0x3ce41038,0x3d6b11b3,0xbe461135,
0xbcc77508,0xbb1da232,0x3e060b48,0x3d922494,0x3e3c6b8f,
0x3d97cdfb,0xbe8f1b94,0xbe9df8ab,0x3dafde32,0x3ded6cf9,
0xbe1657d6,0xbe31de55,0xbe06c339,0x3c416fbd,0xbd8d0aab,
0xbeb86abe,0xbeb836ab,0xbd31eb47,0x3cbd2c29,0xbdaa181c,
0x3d682180,0x3e912b56,0xbdfb6d41,0xbc6f8247,0xbe11b845,
0x3dfe4466,0xbedbc1f9,0x3e8384fe,0x3dec70ed,0xbc1a97c3,
0x3da4ccde,0x3e18eb1a,0xbe564677,0x3d056943,0x3ed91c96,
0x3a853404,0x3e84088d,0x3dd7005f,0x3ea02af4,0x3eaed008,
0x3e17b71d,0xbd6d599c,0x3e85dc44,0x3af5c750,0xbd8b6631,
0xbccd1e60,0x3cb39d9f,0xbee98b6e,0x3e03e91e,0xbdf2b8da,
0xbc249d33,0xbe48e07b,0xbc88c7b4,0xbe473964,0x3c603467,
0xbda1db44,0x3eae1c6e,0x3e6bd7cc,0x3eaf9096,0x3e6c7f74,
0x3e61270b,0xbd7530b3,0xbe8572d0,0x3e57cbe2,0x3e8250a0,
0xbea22c83,0xbd8f03fa,0xbe5af98f,0x3e49338a,0x3c1d30a2,
0xbeac4fad,0xbe7c5435,0x3eb377cb,0xbe7fe2b9,0xbdda61ae,
0x3d901b5b,0xbc3e05eb,0xbeafe68b,0xbe0f9263,0xbf25b6fe,
0x3da5158a,0x3d582835,0x3e07f7df,0x3d02312a,0xbef0be10,
0xbd516035,0x3eb8a38d,0xbce8a3b3,0x3dcdf257,0xbdf2676e,
0xbf19cefc,0x3ed4ef34,0x3d96eb0a,0x3ce2b118,0x3e4dcd4c,
0xbcc7de69,0xbe916177,0xbd96ae19,0xbd08bef1,0xbd3899b5,
0x3e56ab4a,0xbdb2f640,0x3e55d53e,0xbe0033fd,0x3df2abd7,
0x3cc8b374,0xbdfc7f5c,0x3ebaa417,0x3e51a6a2,0xbe7b3df3,
0x3e07d4d5,0xbf172556,0xbed15a99,0xbd9385e8,0x3db19ffd,
0x3e78f967,0xbe2ce10f,0xbce15ca0,0x3e6c4894,0xbd604032,
0xbbfc9294,0xbe24f57e,0xbc3aa8e0,0x3ec26cb2,0x3c1203e2,
0x3d7a66d6,0x3f10abf1,0x3e1a86ff,0x3e0328f6,0xbe71db0b,
0xbe293abe,0xbe23e8ef,0x3e7f2131,0xbc8c8325,0xbe532021,
0x3deeae14,0xbeb9fac1,0x3ce1cc0f,0xbe08261a,0xbdf3aba9,
0x3c958b4a,0x3f101009,0xbdbee9da,0xbda0a8ce,0x3dfdb8af,
0x3c0f2b4e,0xbe58d6e3,0xbe31eb99,0x3e466f3e,0x3d644bd1,
0x3f3de437,0x3f6be597,0x3f51d371,0x3d969bd7,0xbdb9c2a5,
0x3ea70310,0x3f7156d3,0xbdc80d3b,0xbe8d2c3e,0xbe230a89,
0x3e024e6a,0x3cc08649,0x3ecec96d,0x3e8bbd4b,0x3e9c8d60,
0x3e24e890,0x3dcbe42a,0x3f07a9a0,0x3e2c997f,0xbf1f095a,
0x3ed0e3dc,0x3f003938,0x3d7ab261,0xbe44f2ce,0xbeb6386c,
0xbf74e474,0xbe97ed19,0x3ec97394,0xbf2615c8,0xbe8bdd7a,
0x3e27b019,0xbe2de328,0x3d40fa07,0xbeba066f,0xbe88e535,
0x3d307646,0x3f2f70e3,0x3e05b075,0xb9d29b96,0x3d9e53e3,
0xbd690084,0xbe9cc7b1,0x3badd9fc,0x3eb7d60e,0xbd557dc2,
0xbcf638c5,0xbe3afc6b,0xbe1ab01c,0xbc356ff7,0x3f0517b8,
0xbdd06acc,0xbee90a24,0x3e1c9d4a,0xbe6d81aa,0xbdb26db5,
0x3e13da07,0xbe8dcccc,0xbdabdf32,0x3f417c8f,0x3e3943da,
0x3e160251,0x3c827fd3,0x3db67e74,0x3dec846a,0x3f136caa,
0xbeaf025a,0x3ee3ed43,0x3e28131f,0xbe4d6890,0xbdd394dd,
0x3e624b60,0xbbe2c2e2,0x3ea1a7a2,0xbf397dd1,0xbe3e6a13,
0x3eaaf27e,0x3f031198,0x3f97ca6d,0x3c03cec9,0x3d8efaf5,
0x3f201814,0xbe7126b9,0x3e5dfe55,0xbeb41340,0xbdd524b7,
0xbd31dcd9,0x3ef2b086,0x3d1f3cb8,0xbf2fffc0,0xbf27e43a,
0x3e5baa4f,0x3f95b132,0xbe7dd09e,0xbe8c024e,0xbdb83483,
0xbd127142,0xbe53d301,0x3e2f6e35,0x3e474137,0x3dd0aeb6,
0xbe22e94e,0x3d6860e3,0x3e01c617,0x3d2be77d,0xbd295998,
0x3d813568,0xbe47ec45,0xbe0933e6,0x3e287802,0xbe29c5f5,
0x3d923174,0xbd1ccc94,0xbe16e30c,0x3ce5d5e8,0xbd421b54,
0xbe2432ac,0xbd505eda,0x3bbc09ce,0x3d82b8e7,0xbd77270c,
0xbd2d7672,0xbe3215b4,0xbe8a8e7f,0x3d7ccbd7,0x3e8cc0aa,
0x3d2ba003,0x3ec5e584,0xbf122811,0xbfaab695,0x3eb570eb,
0xbc9d7b00,0xbf3fa1a2,0x3e0762a5,0xbd98aa07,0xbf86e20e,
0xbe325737,0x3d114d5c,0x3f3e19c5,0xbe2b6417,0x3ce9d0fb,
0xbfa8c0c3,0xbf7fd680,0x3e5fafe2,0xbce598e7,0x3eecc850,
0x3f6566f1,0xbf181a08,0x3e47ffbc,0xbec2e97f,0xbe00ca21,
0x3eed52f7,0xbe2614ea,0x3ef61a02,0xbf6d5192,0x3ecc4f62,
0xbdb985ec,0x3f2e9eee,0x3d846b4a,0xbeef7b71,0xbe338f85,
0xbf06f0a5,0xbe67c929,0xbed44cb4,0x3f3eb15e,0xbf0bd048,
0x3ce5eda2,0x3e94f1b0,0x3f16b936,0x3bd7f500,0xbe49f6b9,
0x3d768aac,0xbe9dd619,0x3e0fddcb,0x3da027e2,0x3ead3f12,
0x3ee4b295,0xbee692a7,0xbba67fd4,0x3ed076e7,0xbda545cf,
0xbf21213b,0x3c84d853,0xbf5aed8c,0x3b6fca16,0x3dbb0ed7,
0x3f52ed6e,0xbefb08c6,0xbe8e9801,0x3ec5a61f,0x3f4df7ac,
0xbdfff69c,0x3f96cb36,0xbd403a1f,0xbf28a059,0xbe0d3b09,
0x3fab0910,0x3f91b62b,0xbef1d949,0xbe9696e3,0xbfc451aa,
0xbfe23554,0xbd37c759,0xbfd26fab,0xbfe654a9,0x3f5ddf15,
0x3f3484fb,0xbf941bb1,0xbf7ec6ae,0x3f5a5e00,0xbf49db88,
0x3ea8d209,0x3ecb38fd,0x3fb2c636,0xbf9334c8,0xbf8ae3fa,
0x3f82a0c1,0x3e935532,0x3daf6c27,0x3e34615f,0xbf8766d0,
0xbe3e2cff,0xbf036912,0xbeefbd32,0xbf02658e,0x3ca218c6,
0xbe8968dc,0xbb3b4169,0x3e1c1664,0xbe1e6e6f,0x3e3fafd2,
0x3e0fb673,0xbd7de317,0xbc97e52b,0xbe3aa157,0x3de5cca5,
0x3b6f7f3b,0xbe9c354b,0xbee32aa1,0x3cf10310,0xbea4ec59,
0x3dc8be72,0x3ed0f3d9,0x3d785178,0x3d0b7f77,0xbe285e27,
0x3eb8f149,0xbea4e69f,0xbeb509a7,0xbdcad46f,0xbd05ce84,
0x3e954dc0,0x3b2dcd3f,0xbe18d3dc,0x3de80c11,0xbe5754c9,
0x3e5e4b49,0x3f913fac,0x3f3578ba,0xbd1f31ea,0xbf070946,
0x3f38162c,0xbf0f5a8e,0xbcc61507,0x3f8db9ce,0xbf18d598,
0x3f40e279,0x3e975cb1,0x3f7d4f2f,0xbe836151,0xbd69d9df,
0x3ec18349,0xbebf9b1d,0xbf3ba9e8,0xbf2aeb36,0xbf34ff95,
0x3dfe7074,0x3f10a332,0x3f8d577c,0x3d61bdc1,0xbf8b4acc,
0x3e851d98,0x3e5a61e2,0x3f299392,0x3f27423a,0xbf797ec8,
0xbecfcaff,0xbd4cf618,0xbe6a5e3d,0xbeba526f,0xbe671118,
0x3e25cba3,0x3ea36592,0x3e896998,0xbd4ffa57,0x3c5977ee,
0x3dcaa794,0x3dfe2128,0x3df70852,0x3e806777,0xbce3f575,
0x3de12a7b,0xbc6d7f97,0x3da6e393,0xbdc3dd48,0xbe516e24,
0x3efafa92,0xbe71930e,0x3e1b0c9c,0xbea203a5,0xbe43026a,
0xbe690c73,0x3e6d2741,0xbe0068db,0x3dd5f24f,0x3dee0cee,
0x3e7182e5,0xbe326ffc,0xbe83200f,0x3f2192ad,0xbe23286a,
0xbea8265f,0x3f08f353,0xbe7a8808,0x3ea4ca9e,0x3bb8d0cc,
0xbf056b59,0xbe800c46,0x3eba6872,0xbe401392,0x3d69e4b7,
0x3e875265,0x3ec07218,0xbe85d7ee,0x3d9183a2,0x3eb62086,
0x3eeadbe7,0xbe5813bf,0x3dd010b0,0x3ed6b7d4,0x3f1823d9,
0x3e9e8604,0x3f43dd4d,0xbf1fb541,0x3e705143,0x3edfd642,
0xbe8df439,0x3ee2874e,0xbb434579,0xbe6ac7ba,0xbf0a015a,
0x3e1a4c5c,0x3ee3feb6,0x3c983500,0x3eac9f1f,0xbb8424d0,
0xbdf79345,0x3e71244a,0x3dec0b7e,0x3e1c87e2,0x3d458bfa,
0xbd1fb1be,0xba9f404e,0xbe3f3d8a,0x3e228989,0xbe485998,
0x3e065370,0x3d984075,0x3ccf290d,0xbd640c36,0xbd954dbb,
0xbdc1d56d,0xbe06001b,0xbe613281,0xbdc26469,0x3ebb0df9,
0x3f04223c,0x3e49a725,0x3e9f31a3,0x3e073e34,0xbe985777,
0xbd1b7c41,0xbe138378,0xbe1949cc,0x3d9f77b9,0xbdb93554,
0x3b9e2c01,0xbe70c19b,0x3f0f5a97,0xbd450cc1,0x3e3249cc,
0x3b0bd61e,0xbc658338,0xbe7ce530,0x3d57f40d,0x3e1e3cd6,
0xbeb3bbb7,0x3d9b6f9e,0x3dffa852,0x3eb661e2,0x3d8b1304,
0xbe801e69,0x3e3d1ccf,0x3e88f00e,0xbee09b69,0xbe5a3a16,
0xbdf24a4a,0xbe4cadff,0xbe6da998,0xbdb7ca70,0xbf2ba176,
0x3da44ba5,0x3dc12080,0x3c99158f,0xbd9d3545,0xbd0a5fa1,
0xbc13a81c,0xbdddc544,0x3d929391,0xbcf25873,0xbcf9caf3,
0xbda54329,0x3da82ec9,0xbe214dc0,0xbe5b9657,0x3d4b10b1,
0x3c9731de,0x3eaffcb9,0x3dae909d,0x3d97f50f,0x3d13a21a,
0x3dcef7de,0x3bbab9b4,0xbe04868c,0xbe4fcf91,0x3e788147,
0xbe28aab1,0x3dfa95c3,0xbd8aa18e,0xbde7555f,0xbdef4fbf,
0xbcd863fc,0x3c7e4267,0xbe22a076,0x3e0905a3,0x3d185ae4,
0x3e1c99f7,0xbe88ab85,0xbe7b6f76,0xbdb7c4b9,0xbe03601b,
0x3daa148b,0xbe297611,0x3e130178,0xbccfa58b,0xbce5bfa1,
0x3e63522e,0x3e260f76,0xbe29ef8b,0xbc96e930,0x3d70bb72,
0xbe567b10,0x3d334d16,0xbe1501f6,0xbe305073,0x3ea76afa,
0xbbfe183b,0xbee15624,0xbe11b5a8,0xbd4854f0,0x3dc5b8a5,
0xbe6a7ef2,0xbe5ddbbc,0xbe61e676,0xbe18230e,0x3e4a820f,
0xbe6d5c3c,0xbe86bc36,0x3e68299a,0x3e115176,0xbd4532c7,
0xbf8a5a76,0xbc53eead,0xbf30096b,0x3eff2b9b,0xbf79b632,
0x3e3f4486,0x3eebd1b2,0x3c1b3d16,0x3ef6ff45,0xbee7f221,
0x3ec5b7f7,0x3eadd05d,0xbe48ffe1,0xbc298a4d,0xbf6d84f7,
0x3dfbd614,0x3c6cf068,0xbe2a1d5b,0xbe66cbb6,0xbfa69ed9,
0xbf18fe56,0xbe293f7a,0xbda92c72,0x3e870994,0xbf272cfe,
0xbeafbf2a,0x3e2be5d8,0x3de58773,0x3ec0aa2a,0xbe84e184,
0x3e440431,0x3eaab1dd,0xbc5afdac,0xbd41d56d,0x3d131d1e,
0xbe42cfa4,0x3d5e4055,0xbea53c28,0x3e310547,0xbdce7b6d,
0xbd8b86b5,0x3e7d3d89,0x3e1e2573,0xbe0f9c69,0x3e4c6e0b,
0xbdb30f12,0xbda125ba,0x3dd94ec4,0xbeebc1d3,0xbdcbf7e6,
0x3d1652cb,0x3b84c56a,0xbe7a97d8,0xbde8fd47,0xbdbed158,
0xbe9b7ef0,0xbcaafcc7,0x3d94190c,0x3ef57384,0x3e333438,
0xbe8284c4,0x3f133ca6,0x3e5202aa,0x3f2b59b3,0x3e549332,
0x3f00432f,0xbe9c0c4e,0x3e95e74e,0x3e81567d,0xbe6af40f,
0xbee517cb,0xbe91ec4b,0xbf41d570,0xbe8efcd0,0xbe969c81,
0xbe53d18a,0xbed0611c,0x3eab0b7f,0x3f0d19a5,0x3e75d13c,
0x3cf1403b,0xbed807f5,0xbf136a49,0xbdc15dda,0xbe183e26,
0xbf3ef7ba,0x3ea5933a,0xbd3a999c,0xbec733a5,0xbe249924,
0xbe85c4ca,0x3d27e456,0xbe04ebeb,0xbeab2e94,0x3e236103,
0x3e877937,0xbe419a9e,0x3e5a0672,0x3df0fded,0x3dcdf44d,
0x3d53273f,0x3df1f2f5,0x3e5a0bba,0xbe3d1fa4,0xbed27477,
0xbeb02b9e,0x3e7314ed,0x3da8f2d5,0xbe4427c5,0xbe7130fa,
0x3f09f86e,0xbd4d8be0,0x3cb5bb4c,0x3e3eb987,0xbf0356bf,
0x3ebc4dcd,0xbbe7b4b8,0x3e84537e,0xbd1e4a80,0xbe8620dc,
0x3e823263,0xbe5ff8d9,0xba8f5e56,0x3df9aae6,0x3df1195f,
0x3b36e3aa,0xbdd5716c,0x3e48d048,0x3e7aaf32,0xbe745c36,
0xbe9cd3d0,0xbf0f12cb,0xbdfb14c5,0xbd994926,0x3b3a87d4,
0x3df9382c,0x3e27d816,0xbe2abe89,0xbe379dac,0x39845321,
0xbee0c2b9,0xbe19ecc6,0x3e017f68,0xbe1289e4,0xbdfea2df,
0xbea9d6d8,0x3d74635f,0xbe9364d2,0xbe7f178c,0x3e63885f,
0x3d508974,0x3dbf5590,0xbe149e6e,0xbe20b0f8,0xbc90331b,
0xbc10e4bc,0xbe5923dc,0xbda505e7,0xbdc8da74,0x3e9b644e,
0x3c390bc3,0x3e8d628e,0xbeb6d5aa,0xbde21a49,0x3e993001,
0x3d7bc33d,0x3e7af92f,0xbeb0e395,0xbeb22157,0x3c30cbd5,
0xbd13c4e4,0x3d72c51d,0xbe1bb60a,0xbe15fd46,0xbdb7ca55,
0x3e877785,0xbdb4148c,0xbe43c045,0x3dfcf1e5,0x3e46a29d,
0x3d4f18b7,0xbea61537,0x3d614bfc,0xbe9317ce,0x3deba507,
0xbc95cfb3,0x3dbfc364,0xbde708b0,0xbdda8a43,0x3d8c8f50,
0x3f06baba,0x3ebbb5c2,0xbf10fc57,0xbf4b6afe,0xbe52bd60,
0x3e187bc2,0x3deb115b,0x3fcc5806,0xbf60b8b1,0x3f351d74,
0xbf164d50,0x3ecfeae1,0xbdc72a45,0xbebc6017,0x3f01ca0c,
0x3e06a7aa,0x3d9808e9,0xbdb1da92,0xbea1bd2f,0xbf73d231,
0x3e568dbb,0x3f9d4e39,0xbedc1d62,0xbf1775b9,0xbe887b1a,
0xbed3f3e8,0xbe647102,0x3f3be1ca,0xbf806c3d,0x3d9b7615,
0x3ce75ee7,0xbe0a1967,0xbe13a058,0xbe9aa8a6,0x3e3bec9d,
0xbeeca415,0xbe52c42e,0xbece15e0,0xbe2e342d,0xbe5b671a,
0x3b672405,0x3e3ba7d0,0x3c26d27e,0xbda37e5d,0xbe451904,
0xbd8e011c,0xbe0fb454,0xbd6a278c,0x3e053ff5,0xbe81a918,
0xbe2381b1,0xbd817f52,0x3ca74c04,0xbe9f728b,0xbe9fb3e9,
0x3e0573f8,0xbb825bbb,0x3c05de1a,0xbe6204de,0xbc10891e,
0x3ecc8e39,0xbdc34a81,0xbedf9e0d,0xbe987b75,0xbe161c93,
0xbf0cb07a,0x3ec07c27,0xbdf028f4,0x3eafe6ac,0x3d8edbb3,
0x3d3ec4bd,0x3eec4474,0xbc793d28,0xbd958061,0x3e2fd8da,
0x3da07a07,0x3d15d837,0x3c11906e,0x3caf7ed9,0x3dd4db39,
0xbccb0b24,0xbe8ed583,0xbd4e2796,0x3ea7817f,0xbe5eeb07,
0xbe47948b,0xbeea6d7d,0x3e0aca07,0xbeaf403e,0x3e8c9cfa,
0xbd28f792,0x3e21f0dd,0xbe7e206a,0x3d93da42,0xbdcee139,
0xbca6631f,0x3eeb5418,0x3eac3d3c,0xbebe33b3,0xbe58f2d0,
0xbd9ddc3e,0x3ea5711e,0x3ec6a77c,0x3cab9abd,0x3c1f23b6,
0xbdb54708,0xbe264191,0x3e264308,0xbf063235,0x3e6d2fd8,
0xbdd563b3,0x3d9cfdb2,0xbce12d22,0x3f1846e0,0x3daf8d78,
0xbe27ab5f,0xbe56186e,0xbe9434af,0x3eea2aa0,0x3f02a429,
0xbe8fd1cd,0x3d93754f,0x3eb735de,0x3ec30bd2,0x3edc1771,
0xbe0414df,0xbd7fa365,0xbe8f6c94,0x3f096407,0xbeeb228a,
0xbeecba99,0xbf26d7bd,0x3f36013f,0xbf238ea5,0xbf5d4b9d,
0xbe811605,0x3eb0857d,0xbd479d3a,0xbe0e514d,0xbf2b6c21,
0xbf8c6ce1,0x3dc02186,0xbf4829cd,0xbcc9e409,0xbee25608,
0xbd8c5daf,0x3e368856,0x3f01072c,0xbe9a2e51,0x3e6c7875,
0x3ebc6209,0xbf892d3e,0xbee7b1fe,0x3f0bb1c2,0xbf143d24,
0xbf21c141,0x3eedec8e,0x3e714f06,0x3e34378b,0x3f59daef,
0xbf307f3b,0x3ee007cc,0x3e4d9da4,0x3e8cfd70,0xbf83a93a,
0x3f0683b5,0x3ebfc0c1,0x3e14c10f,0xbd7d28d5,0xbe33fb9c,
0xbeb7ce3e,0x3f5f17a4,0xbeeea220,0x3decd1e1,0x3f198223,
0xbd03c3e7,0xbf11d753,0xbe39f9bc,0x3d4caefd,0x3ddef158,
0x3cfe3145,0xbeae5b73,0x3c65d91c,0xbd04b5fd,0xbe6f56ff,
0xbf9a8c32,0x3ec06328,0x3d986a81,0x3f3dc008,0xbd878ffb,
0xbf5cadbe,0xbe509ea7,0x3d14e58d,0xbd4cc7af,0xbe29da01,
0x3e1c4d72,0x3e0dec5f,0x3e76127c,0x3c56ee5d,0xbe26f58a,
0xbe40090f,0xbb9b9204,0xbe47a81e,0xbe1bf89f,0xbd0c67db,
0x3e6ef7c8,0x3efcce7d,0xbdc86ab7,0x3d2d17f0,0x3d7d93b5,
0x3db3f6c9,0x3d9e5807,0x3dce10ce,0x3cb6f897,0x3dee277b,
0xbe5113c1,0x3db7c644,0x3d7a9a18,0xbd1ba0e9,0x3d0c786d,
0xbda4b16d,0xbe28b83b,0x3d06d001,0xbde0589b,0x3dec26a2,
0x3e396d5a,0x3eba54c3,0x3e9ac12a,0xbe0545bd,0x3e806e97,
0x3e14a80d,0xbeaf73f6,0xbef86c92,0xbe1753bb,0x3e478398,
0x3c79622e,0x3eb3284e,0x3e750e16,0x3e88c844,0x3e936807,
0xbdc24c9c,0x3e6d48e8,0xbdb035e5,0x3e1cdd09,0xbe75d442,
0xbea8a693,0xbea2b47b,0xbe204903,0x3db50813,0xbe3ee167,
0x3db7bd38,0x3e2bff54,0xbf0b3602,0xbdb600ae,0xbe3224c1,
0xbe694ccf,0xbef84f0f,0xbf0b9a18,0xb9fdcdf4,0x3e68f013,
0x3dc25568,0xbebb875a,0x3ec31ab3,0x3e255cd3,0x3ede60ba,
0x3e8d0819,0x3e337ecb,0x3d97acd5,0x3e3af055,0xbd22a1eb,
0xbc734c83,0x3f3997e8,0xbeba7f85,0x3e157c35,0x3f094ce6,
0xbd89ef4f,0xbe0b0093,0xbf006a3b,0xbe284e4f,0xbdf75f01,
0x3e47a9be,0x3e00312d,0xbe9d0f76,0xbecb6d0b,0x3e313832,
0x3d493e72,0x3e6050f7,0x3e1b0749,0xbc999d6e,0x3ea472a6,
0xbe7c20c0,0x3f06c6ee,0xbe8e6756,0xbe00c161,0x3e1ca4b3,
0x3d8da389,0x3cde75b0,0x3e1a0bab,0xbe87efba,0x3d319455,
0x3e0e5ec1,0x3e342d8f,0x3cdf0bf5,0xbebd54cf,0xbe211dbe,
0xbcd69b7a,0xbe924851,0x3e5453f6,0xbf02cb9e,0xbee68549,
0x3d82d2d9,0xbe4ca8fd,0xbdc3621c,0xbd4a69f6,0xbebfdff9,
0x3e0b47db,0x3f5d4919,0xbd1b0027,0x3ec453e2,0x3da7565f,
0xbe027876,0xbee3e05b,0x3dba88eb,0xbe358881,0xbdbf6f79,
0xbe348c91,0xbf750b93,0xbdaab271,0xbdd7a7a0,0xbec56503,
0xbe2c443f,0xbdc6483a,0x3ed9a410,0xbe14b971,0x3f6481fb,
0xbd4cce75,0xbc6f7a83,0x3ec3d903,0xbe6e98ff,0xbe36b77d,
0x3e8273df,0x3df0a270,0x3ef84180,0x3e8bdf7a,0x3f0dfc54,
0x3ce7c524,0xbe6e1ae7,0xbe06fa41,0xbe91017f,0xbe93e20d,
0xbf102117,0xbe875cc7,0x3e6c7ae9,0x3e91f5fc,0x3eb3db34,
0x3e04e041,0xbd1e8d2a,0xbebd466e,0x3e50c28d,0x3d2b7345,
0xbd555a08,0xbcf5d289,0xbe095d95,0x3d27a958,0x3bd35d3b,
0xbd9815fb,0xbe9d75ff,0x3eaf6cb9,0x3d2fe855,0x3e9b2e29,
0x3e196e09,0xbe93b5b5,0xbd913b73,0xb891319a,0x3e288329,
0xbc5db8cf,0x3cad1ed9,0xbbc5de30,0x3e0e5cee,0x3d37049b,
0x3e426f25,0xbe828474,0xbdc932bc,0xbe3b2b43,0xbf2a718f,
0x3f127173,0x3efada8b,0xbe40bc28,0x3d96bee2,0x3f36e496,
0x3f49e401,0xbe45bc95,0xbf01cfc7,0xbf504142,0xbf19d36b,
0xbd6e23c6,0xbe346d4f,0xbe442248,0x3f10abf9,0x3e8b6e15,
0x3db19996,0xbe6d0b6b,0xbe116ab1,0xbdd984a6,0xbe3d2728,
0x3dbc74f9,0x3f3f7880,0x3ef7dc83,0x3f34cba6,0x3e0e3936,
0x3ebc6cce,0xbea33dfc,0xbd285e7f,0xbe2e954b,0xbd192740,
0xbf0be4f6,0xbe584336,0x3e0443de,0x3dd5609b,0x3e14aeff,
0x3e62e738,0xbe4f5043,0x3e0c2880,0x3e429fdb,0x3d13de2f,
0xbddbdaa3,0x3ed057fd,0x3db9444e,0xbd149423,0xbe0a9921,
0x3dc61f94,0x3eb06a66,0x3e8a4d1e,0xbdd31b36,0xbd7b07e5,
0xbc536712,0xbdc63432,0xbe46202f,0xbe6bb2b5,0x3e8309cf,
0xbe84fcb4,0xbf2a99ae,0x3e9935e1,0x3e67c4bd,0x3e9a2672,
0x3cec098a,0xbe44b8b8,0x3db7b70b,0xbd119f3e,0x3f0d8332,
0xbe18a403,0xbc9e13fe,0x3e7a7154,0x3e19de35,0xbd6e528d,
0xbd79ba9f,0xbea2ec71,0x3ec9d3d5,0x3d1905d1,0xbdbb6c34,
0xbe87dd7b,0xbda3d305,0xbdc3eaa8,0x3e8a1545,0xbdc3dd13,
0x3d24259c,0xbf10fcaa,0x3e6528d7,0x3e7b77f5,0x3ec83055,
0xbdfcff3f,0x3ea035f2,0x3e878de1,0x3e26a84c,0x3e8348c9,
0x3e56285b,0x3e3b3da1,0xbd47ab3a,0x3ddd3537,0xbe23fb8e,
0xbe24507d,0x3ea863c1,0x3f1af22f,0x3f2b009d,0x3f7d63ba,
0x3f118d54,0x3f2e3c3e,0xbe80d0f9,0xbf395306,0x3e416ff9,
0xbf3fcc5e,0x3e24f63f,0xbe9b5991,0xbeb07a62,0xbe9ab303,
0x3f2242d4,0x3f838c78,0xbf40e22c,0x3c29c64c,0xbe76f87b,
0x3f02d760,0x3f11b8d1,0x3f44fee7,0x3ef303a8,0xbee82c50,
0xbe82cf58,0x3ecdd1ff,0xbd867783,0xbe138ccd,0x3f56fb10,
0xbf864a31,0xbf19a6c9,0x3d2de019,0xbe35941e,0xbe124c62,
0x3ec09a7a,0x3e3d77f6,0x3f336e57,0x3e989868,0x3d1dc1b1,
0xbe366b90,0xbee0ec02,0xbe8e0181,0xbddeaede,0x3d683b93,
0x3e632b03,0x3ed4c5ff,0x3e540fb9,0x3da1ed39,0x3d150da7,
0x3d90804c,0x3cf1b505,0xbe9fa4d9,0x3d2340e1,0xbd0c6db7,
0x3beb997e,0x3d0c6727,0x3e659345,0x3ea6f526,0xbd2bd84e,
0x3f008178,0xbebbfa79,0x3e44f937,0x3d8f8340,0xbe9fc6cd,
0x3e791e0a,0x3e36e382,0xbe057b01,0x3ee6261b,0xbed1437b,
0xbe587359,0x3e9ddc2b,0xbf11c909,0xbda4774d,0xbeb41b36,
0x3c85e37d,0xbe40081d,0xbf01c4eb,0x3d00d31c,0x3ce5778c,
0xbe628d0f,0xbf00dec3,0x3d8093f1,0xbe8e6d08,0xbee622e5,
0x3e09f5d2,0xbdcddda7,0xbe9c614b,0x3f2c9628,0xbe59d9b5,
0xbe060329,0xbea47fbd,0x3e98a39b,0x3e8742cf,0xbead9aa6,
0xbf351b51,0xbec37074,0xbe52d47a,0xbd045101,0xbe94c751,
0x3eafd6ee,0xbc6e8f58,0x3e00fb8f,0x3ed99c75,0xbe876683,
0xbe653bdc,0x3e7abe87,0xbcc1d4ba,0x3e0a899e,0xbca628d0,
0x3e2025f5,0xbda9b7d6,0x3ed244ea,0xba95e1a7,0xbe09789f,
0xbdaf1034,0x3d235a2d,0xbe2212cd,0xbd2f3403,0xbd028309,
0xbe396039,0xbe22af89,0x3c2c4ac6,0xbf00f0dd,0x3e651591,
0x3e43bcef,0x3eb5ae32,0xbea2418b,0xbf3f2c21,0xbe96800f,
0xbe7e99aa,0x3edc918f,0x3e0600a6,0x3e99cb11,0xbd8ce735,
0x3f0fa332,0xbf114dd2,0x3e321221,0x3de403ff,0x3ebb2e75,
0xbe105d6b,0x3e9e8ea7,0x3c7f7128,0x3f54ef2a,0x3d0fb896,
0x3f1079f3,0xbec26f45,0x3d879188,0xbe92db80,0xbe601e3c,
0xbdbc8916,0xbe5ce382,0x3df415cb,0x3f6487ec,0x3e074fd3,
0x3d42ec2a,0x3d0dba3d,0xbeb5ab69,0x3e7632fb,0x3d0879e6,
0x3eb2d035,0xbeab0d11,0xbd4e804d,0x3cb3db65,0x3c8d4516,
0xbd0ee30f,0x3e68b316,0x3c6ee83b,0x3eb3f60b,0xbebd0fdf,
0xbe2b0bd5,0x3d3a7491,0x3daa90b3,0x3d146e94,0xbe9bc902,
0xbd83ac09,0x3eb3eec7,0x3d81d65f,0x3e3ad90a,0x3ce3c613,
0xbde12c00,0x3e82d5df,0x3e971c7d,0xbed0aabd,0x3d56b024,
0x3d3d1c78,0x3e1e310b,0x3d9a96b9,0x3eb596d1,0xbe453489,
0xbe05cf81,0xbf04c502,0x3e2b1e23,0x3d9ba347,0x3f5643ee,
0xbe36b824,0xbd23c83e,0x3d8799ba,0xbefc5501,0x3e0c2925,
0xbd8b4b98,0xbe16a6d4,0x3cf7bdfc,0x3d94d560,0xbd351124,
0x3eab980b,0xbe2a5763,0xbe8dc613,0x3e8cdeea,0xbe1ea0ce,
0x3ea3f7c8,0xbf227076,0xbec7582c,0x3e55905f,0x3e15849c,
0xbe80461f,0xbcbe4518,0x3eaf43cb,0x3ec3a2d4,0xbd8d6500,
0xbe807739,0x3e6761f3,0xbed0f129,0x3e9a20b9,0x3eb0b7be,
0x3f4fd1eb,0x3e924e29,0x3f0fd9bd,0xbec25b33,0x3e6060c8,
0x3e9dc6a9,0xbead57f0,0xb9bfbc93,0x3e4e0d4b,0x3ee12d9e,
0x3e4ee716,0x3f02912a,0xbf17e9e1,0x3d2cf480,0x3e268d31,
0x3edb700c,0x3f1c27b8,0xbd273491,0xbeadd2b5,0xbda8a2ba,
0x3d125027,0xbcb5b2d0,0x3def46dd,0x3caf6aee,0x3e9609d2,
0x3d7498a4,0x3eae0606,0xbdcb6fcf,0x3d80840d,0x3ebc42fc,
0xbe18cd4d,0x3ecd58aa,0xbd22f0a8,0xbe2bbfc0,0xbe8ba326,
0xbe2d15db,0x3e10e14f,0xbd1731e8,0xbddbfe0b,0x3e1efc85,
0xbe455185,0x3f00a87e,0xbc079081,0x3cf97d06,0xbe70521e,
0x3dfbdbb9,0xbea9ddb3,0xbc49e93b,0x3e3ddfdf,0x3ad1a4ed,
0xbd056da3,0x3df718d3,0x3dd9dcaf,0xbed5115f,0xbbab3aa5,
0x3ebe8e86,0x3e106115,0x3ea368ab,0x3ba6b45b,0xbd570293,
0xbd800276,0x3c42dd25,0xbeb8413b,0xbb5ea9cb,0xbebb4a04,
0x3b77ba76,0x3d883b33,0x3d5a1318,0xbd1d3d8b,0xbeb0be7a,
0xbd714d1a,0x3ccb1300,0x3ef0ffac,0xbe81f15c,0xbdcbe2be,
0x3e8c041c,0x3bf93fdd,0xbe912420,0xbd4cb825,0xbecee6cd,
0xbf26d00c,0xbdcb78c8,0xbd9b9a6d,0xbf2ed4d5,0x3dca43a5,
0xbdf9fa61,0x3f074701,0x3ed34fc2,0xbc9d9f6a,0xbe67720f,
0x3e03e722,0xbc3c8583,0xbf29d3ae,0xbe4fdc60,0xbe8c5d40,
0x3f01f7cf,0x3f409afb,0xbd92daad,0xbeae124f,0xbeba1e47,
0x3d3a9310,0x3ee272a6,0x3eeb372b,0x3e0b47d8,0x3f415032,
0x3eee6c9f,0xbd6a2bea,0x3e07b7ac,0xbf5aaccc,0xbe2101e9,
0x3f102586,0x3f0733c2,0xbe7a5e88,0xbe530e0e,0x3d70761d,
0xbeb25b85,0x3e3aa47d,0x3e56cc1f,0xbeafd9b2,0x3dc8e40d,
0xbe419a41,0x3e3543d9,0x3f1295e8,0xbde404c0,0xbf47e994,
0xbf0f980b,0xbf00806b,0xbdb5428e,0x3e30abfb,0xbd88d476,
0xbe6b1606,0xbea528ab,0xbe7efe01,0xbe9dfd33,0x3f076c79,
0x3ed723bf,0xbd29d68f,0x3f101b1f,0x3f497d0d,0xbeff7a35,
0x3e1c27b3,0xbec421bf,0xbf264199,0x3dce8718,0x3e549fd3,
0xbe8cd88c,0x3ce13fc2,0xbdd59a10,0xbe749657,0xbcd89739,
0xbdaaf91b,0x3d81b843,0x3ea3f47c,0x3ee0d9c3,0xbd2fd56a,
0xbe3d85e4,0xbd89cfff,0xbe9d65d3,0x3ea69b45,0xbeac9cb9,
0xbe3326a5,0xbc5f7541,0x3e8135af,0x3dfb1586,0xbe0ba885,
0x3e9837c3,0x3e9d8e3d,0xbed72c7d,0xbed6d7bc,0xbe086ddc,
0xbf2dd3d6,0xbcd7a518,0x3d38dcce,0xbe179199,0xbf374935,
0x3d6f0682,0x3e6cd438,0xbe3da4d4,0xbeadbe0d,0xbf1f648a,
0x3f17d3c2,0x3edf26b3,0xbea40f6d,0xbe807890,0xbec5280b,
0x3de53683,0x3e637ede,0xbe84766e,0x3ee9d26a,0xbc94ec54,
0xbd26b714,0x3ebfd2c7,0x3e9640c6,0xbf1018f6,0x3f1bb84e,
0xbdc877af,0xbeb03f29,0x3e57eedb,0x3e6d418a,0x3e797590,
0x3f307579,0xbef505f2,0x3c12bec1,0xbe528fc9,0x3d843055,
0xbdbe33bd,0xbe1e609f,0xbb9172ba,0x3dc1d950,0x3e1549f4,
0x3f58400b,0xbddd0202,0x3eb01dde,0xbcf17b98,0xbcdbf9cb,
0x3e6a26b0,0x3eb9f605,0xbf117a01,0x3eceee1b,0x3f267b90,
0xbf329fbe,0xbe8040e8,0xbf19d885,0x3d57e4a1,0x3e74fcd7,
0x3f1b1b3e,0xbf019ec8,0xbec28b1e,0xbd1cc439,0xbd562424,
0xbea53a9b,0x3f2aaea5,0x3e7c4151,0x3e9439fd,0x3eff1640,
0xbf18230d,0x3f022f75,0xbe0b3322,0x3d801dfe,0x3ecd7615,
0x3eea44b2,0x3ecbc742,0x3d382309,0x3e8becf7,0x3d4c83b6,
0x3e2dafac,0x3e71aca0,0xbdf29490,0x3e05ba64,0x3dbc3b0f,
0x3e9a5bc9,0xbe8a47b3,0xbe1e2205,0x3c254ec3,0xbb98a972,
0x3d51d60e,0xbea9103e,0x3e50d537,0x3ea4febe,0x3e0c7a24,
0x3da3f20a,0xbe096eba,0xbddc1d8b,0xbda707c0,0x3e152811,
0x3f1849a0,0x3d1fb41a,0x3ead5cf2,0x3d36b05c,0x3f3bcde5,
0x3d2c5f6b,0x3d76a5c3,0x3e6d3549,0x3dba27b2,0x3e30e698,
0xbc60156a,0xbdd4c220,0xbe811a65,0x3ec72c7b,0x3d609db8,
0xbe8604f0,0xbed31463,0x3e4c84b7,0xbd824d91,0xbe4943df,
0xbe01d209,0x3e1c162b,0xbeeca2ee,0xbede69cf,0x3d87bbb2,
0x3f7faba0,0x3eab79c0,0x3c9b634f,0x3daf6c12,0xbdd3ab6f,
0x3eea3283,0x3e0fc555,0xbc988bd5,0x3d78e0a3,0x3f5ac7b7,
0xbe6d859b,0x3d4d5758,0x3f134cb4,0xbdf00182,0x3e4b9907,
0x3f051bd3,0xbe8afc87,0xbed3b42a,0x3e47639e,0xbec724b1,
0x3cc37a12,0x3ea16119,0xbe98a3b4,0xbedbd27a,0x3e2f6cf7,
0x3e0206f7,0x3c1f8587,0xbe9594d1,0xbe96485a,0xbf3cd1ea,
0x3e610fb4,0x3ea60dda,0xbedef650,0xbd82ae26,0xbe1eebfa,
0xbf5b3144,0xbef2bd4a,0xbe7e85aa,0xbe319d20,0xbddc5cbd,
0x3f024c23,0xbd9a4e25,0xbf003cd8,0x3f07d15d,0x3e8d580a,
0xbd04aad3,0xbf6f4f58,0xbea6b932,0x3ce08585,0x3e8b192b,
0x3e6e82e3,0xbeae074f,0xbd7bd99d,0xbc96bed3,0xbe151dbe,
0x3e9c1454,0x3f01078e,0x3e97f0a1,0x3e1c9761,0x3e377342,
0xbd1d7210,0xbe511ae7,0xbeded2f3,0xbeae5dd5,0x3ccd6436,
0x3e86b102,0xbd6cc301,0xbe615099,0x3ee11f7b,0xbeae16f8,
0x3df3fd44,0xbe5a1975,0x3de966aa,0xbe78b6d0,0x3eedd1d6,
0xbebed8fa,0x3e62b253,0x3ef543cf,0x3dd129fe,0x3e43d8fe,
0xbe2ef1ad,0x3ddf7fc2,0x3eaded0e,0x3d3c12ed,0xbe07daa5,
0xbe88b3df,0xbd5856d5,0xbe4be649,0xbe658ca7,0xbe641ceb,
0xbda28015,0x3e0b73e1,0x3dc9c702,0xbe8859c2,0xbd6f03b6,
0xbdce629b,0xbda48102,0xbcf93911,0xbdb00df8,0x3e28abeb,
0xbe8070bf,0x3e710e5e,0xbe1615a2,0xbdd02c93,0x3e8c795c,
0x3e3a134b,0xbe98c615,0xbe48ecbc,0x3e1798cb,0xbeebc983,
0xbd9557fc,0x3ef41984,0xbd3885fe,0xbe114f3d,0xbe974223,
0xbe809b41,0x3e8344a6,0xbed3b3b9,0xbf0eae18,0x3e22f055,
0x3ef8d24b,0x3ec0973d,0xbf2ade10,0x3bb797a1,0x3e881cc3,
0xbe1f9044,0xbe61e237,0xbd02a85f,0x3e702b6f,0x3e240277,
0xbe0e0c5b,0x3ddb8b15,0x3efa1d33,0xbe52b686,0x3ecd3df7,
0x3daf0ac3,0xbee01b3c,0x3d3f37a4,0xbe9f3620,0xbf1cad76,
0xbeceecb4,0xbd94dbe6,0x3e8afa15,0x3e9ad745,0xbd8287bd,
0xbea78da0,0xbe2875ff,0x3e9e3580,0xbeed929c,0x3e3d6471,
0x3edd126c,0xbd4037a1,0xbdcc8851,0x3f2e1f9f,0xbe33c947,
0x3e5b9a47,0x3d50862f,0x3e9fd60b,0x3e209d8e,0x3c76b3f4,
0x3ed66f1f,0x3f089ea5,0x3d63a57c,0xbe94240c,0xbd909587,
0xbbfdc67e,0x3e3ffe08,0xbdb4fa01,0x3e377a58,0xbe505e53,
0xbe6f98bf,0xbdd22a86,0xbce69a30,0x3eb0453f,0x3d823d94,
0xbe041f86,0x3d16796c,0x3e4bc5a0,0x3e96c7db,0xbf290f89,
0xbe8c3bb5,0xbe8d2e4a,0xbe3a4cbc,0xbe805dfc,0x3eec467b,
0x3cf79c70,0xbe771027,0xbf155864,0x3ed995ae,0x3e875f43,
0xbd1e2f32,0xbedfe8f9,0x3e83d017,0xbd40c12d,0xbca3923e,
0xbd9bd735,0x3eb47f3a,0xbe874272,0x3ecd0fef,0xbeebfdea,
0x3eceea71,0x3f17645b,0x3f4e0460,0x3d0519d6,0xbe728e90,
0x3ce766b1,0x3ea6726f,0x3e16a3e7,0xbe2caa55,0x3eacec13,
0x3e4d16e0,0x3bdbb689,0xbe356504,0x3ea5130c,0x3e502a3e,
0x3e9bd668,0x3eb7aff4,0xbea010b3,0x3d94ea09,0x3dd24cb5,
0xbd9d4e3e,0x3eaccbe2,0x3e844924,0xbd921196,0x3ed9eeed,
0x3eb50da4,0x3dc2ca32,0x3d0f0d1c,0x3e539781,0xbf0b9f79,
0xbe2949fa,0xbe48b51f,0xbe15a092,0xbe80390f,0xbee6c9ce,
0x3eb8436a,0x3da797d4,0xbf288baf,0x3f04902a,0x3eee0a95,
0x3e4f75fb,0xbef0a81c,0xbf1bd4fc,0xbe80da64,0xbeef45dc,
0xbe41d42d,0x3e51f0a7,0xbe187f33,0xbf0b96ff,0x3f0b8dd1,
0x3f0dabfe,0x3e9876eb,0x3c963e59,0xbf017f35,0x3d0b1fbf,
0x3f21e0bf,0x3c69dc49,0x3d1e9565,0x3bb87e4a,0xbea86bf3,
0x3d24f6b5,0x3e4b24e2,0xbec6f021,0xbd9d6a95,0x3eaee0d0,
0x3cf536bf,0xbdbc8159,0x3decb148,0xbec10031,0x3dcc8d28,
0xbe59b545,0xbeb45424,0xbe2ba5d7,0x3d973883,0xbea803c2,
0xbdf891b0,0x3eaff067,0x3dec728d,0xbed1922e,0x3e1674a7,
0xbe49d077,0xbd930fe2,0xbe86bbfb,0xbe3c520f,0x3b940928,
0xbd67627f,0xbe1d4b23,0xbe5fb856,0xbe979edd,0xbeec7dcb,
0xbe8ab927,0x3e4d1782,0x3e32c7af,0x3eb39a60,0xbdd9509f,
0x3dac0bc4,0xbde7aa32,0x3ea6f745,0xbda4d5a6,0x3e6f6853,
0xbe3f5cca,0x3e44742c,0x3cbedad1,0x3d8210c0,0xbeab259d,
0xbe0c5cbb,0x3dcfeb78,0xbd048b71,0xbba4f43b,0x3e8aecb6,
0xbec765c5,0xbe0c53db,0xbd7a6dd2,0x3f1729ba,0x3eea742f,
0xbeb9bdfe,0xbf163cad,0x3c4d6b05,0x3e0d2e90,0xbdcc8b0d,
0xbc6cbcb8,0x3e88a8d3,0x3e9db5c4,0xbcb53c39,0x3ef0ddee,
0x3f163389,0x3e4cb6cd,0xbe539a50,0xbde0065f,0xbec16e6c,
0x3dd63603,0xbe90537a,0xbf236136,0x3d3a7ac7,0x3e932893,
0x3cb68bdd,0x3ec825eb,0xbe4cdf92,0xbea1be18,0x3d580d27,
0x3eb905e2,0xbeb68e73,0x3ec2106a,0x3e847995,0xbf06958f,
0xbddd3566,0xbe54b08d,0x3e199b54,0xbf04638e,0x3dcecbe9,
0xbe8762e4,0x3ec84d40,0xbd2d5d57,0xbd35e9ea,0xbeab65ce,
0x3eafdad0,0x3f0a9da0,0x3d9ad952,0xbcc7a1a1,0xbcc6fe73,
0xbdf35a3f,0xbd967741,0xbdabe3ea,0xbe7b3cc3,0xbebba41f,
0x3dba7eef,0x3e1599a5,0x3ec2c69f,0xbe65b818,0x3d4b059c,
0xbd5d3cbc,0x3dbf4da0,0x3e4b16df,0xbe96340a,0xbdfd9443,
0x3f211ab8,0xbea9442f,0x3dff1b9b,0xbe828ef3,0x3ecb4e0a,
0xbe9259de,0xbdea7863,0xbdc4bc33,0x400f471a,0xbed9ec6e,
0x3d44588d,0x3e24e163,0xbde03ee1,0xbe50ff82,0x3f9897dd,
0xbe07f536,0x3edf684a,0xbf3b9be7,0x3c70d1ba,0xbe6c4ccb,
0xbf819df4,0xc00b3dee,0xbf3133ba,0xbfc146b4,0x3f4552aa,
0x3f1ac25f,0x3e7a0927,0xbe3304f0,0x3eae198c,0x3e707ce8,
0x3eaf37c9,0xbca38733,0x3eda253f,0x3ef4a4e8,0xbfefbfca,
0x3fbb66c3,0xbed5afab,0x3c3bbb20,0xbf263a1a,0xbf7b3157,
0xbf6da71b,0x3f1368cf,0xbe37a8e2,0xbe3cdeff,0x3fb588c9,
0xbf896efa,0x3fa7e5fe,0xbc41b112,0xbdff464a,0x3d6bf3f4,
0x3f7dfa06,0x3f480f01,0x3f582ceb,0x3fb94fd9,0xbe8ca03f,
0xbe3a9c33,0x3de9f5d2,0xbfbc717a,0x3f0932c5,0xbfec9b2f,
0xbe598366,0x3f2bbd11,0x3f5391b3,0xbdee7715,0x3e11a435,
0xbeea8aec,0xbe13b6d5,0x3f1513b9,0xbeb05c6f,0xbfa0b634,
0xbe874059,0x3e8e8355,0xbed77941,0xbed48e34,0x3e122a79,
0xbf1c0268,0xbfa7a8d7,0x3f9ee10e,0xbea60287,0x3eb3f028,
0xbf93583d,0xbfad028d,0xbf4ca0d3,0xbf19634f,0xbeb2f97d,
0x3ded797b,0xbe824b2d,0x401bb346,0xbf257efe,0x3e53813f,
0xbefed528,0xbed2a076,0xbfa3e8e6,0x3e34c376,0xbf6a8059,
0xbee6035d,0x3e207ab6,0xbd4eefcd,0xbeaf28cb,0xbfabb0b7,
0xbf52fd75,0x3ec68839,0x3dd8dcf5,0x3c0a55c9,0x40101110,
0xbebd630a,0xbf660b06,0x3ef74d8b,0x3e274d5c,0x3ec4b192,
0xbf8eedf3,0xbed97b6c,0xbfc67562,0x3f8e2576,0x3ed06673,
0x3e1b96fd,0xbeffaf01,0x3eb52489,0x3d9055f3,0xbf8e7ddf,
0x3e804422,0x3e2a1ce3,0x3fc73960,0x3f9b3a2b,0x3f2d832e,
0x3d43c0a6,0xbf5bbc61,0xbf212f6f,0xbef00e4b,0xbd6c7f66,
0x3ec54b66,0x3ee4c8e8,0xbe435c6a,0x3eaa276f,0x3ed8e499,
0x3f993d64,0xbf95f316,0xbf812d4e,0x3d91f1b0,0x3dafc138,
0xbe92108f,0x3e3e081c,0x3fe3752d,0x3fd2b4ba,0xbe67a170,
0x3ef66082,0xbef93ce0,0x3e97dcb9,0x3fc31522,0x3f3c2483};

uint32_t bias_array[110] = {0x3f4ad03d,0x3ee86e17,0x3cd169ba,0xbf0c09bc,0x3d49429d,
0xbe4492d8,0x3d8b91e2,0x3d0f2886,0xbce10a88,0x3f3edde2,
0x3e970573,0xbe493bbf,0x3e5909bf,0x3cef3c19,0x3cb3f79f,
0xbe3675d6,0xbe3785ff,0x3dc6fc2a,0x3dbc117b,0xbe675f84,
0x3f22f8ed,0x3eed5991,0x3eb625ff,0x3e95ee80,0x3ea85d1a,
0x3f10b5ce,0xbf1eb472,0xbef00a99,0x3e9bacb4,0xbe229006,
0x3e11d07e,0xbda7c5cd,0x3ea0aac0,0x3dffe6cd,0x3f112891,
0x3e26b66f,0xbcb4165e,0x3e67923c,0x3f07843e,0xbe33fe32,
0xbe3395b5,0xbea7b463,0xbdc9137a,0xbc1a8d39,0xbe8450a4,
0xbec49636,0xbded77fa,0xbe9f5dd7,0x3e865b3b,0xbe8eb5f4,
0xbec365f5,0xbded92e4,0xbec7eb2f,0xbe8052b3,0x3e63f244,
0x3c5b99b9,0x3e176e84,0x3e295bba,0x3e307f9e,0xbe06667e,
0x3d31fded,0x3f0098f7,0xbecb7363,0x3d764825,0xbe3a60f6,
0xbe261f29,0x3dcc369c,0xbe3058f6,0x3dff8905,0xbe9efac4,
0xbb4be451,0x3dd5010d,0xbe0aeb79,0x3dd7bcaa,0xbe4a5c81,
0x3e95c40c,0x3f2bef86,0x3d74b3ef,0x3dd4f593,0x3e35c645,
0xbd8bfc07,0xbecd6a12,0x3ef99072,0xbe39e32a,0xbe86a817,
0x3d62147d,0x3ea92e5c,0x3df0abbf,0x3eee7252,0xbd9201f0,
0xbdaeaccd,0xbe0e2408,0xbe30b114,0xbef82d4f,0x3e326f1b,
0xbe56ecd2,0xbe9851af,0x3e882173,0xbe8582bd,0xbe71425c,
0xbecb22da,0xbeabf2f4,0xb8530c5b,0x3edfc4f0,0x3e3f5375,
0x3e8e00dc,0xbf2dec0b,0xbf09589e,0x3ed1007c,0xbe04ed73};extern uint32_t bias_array[110];extern uint32_t weight_array[4080];