uint32_t weight_array[3328] = {0x3dfe7897, 0xbe8e1172, 0xbe10f5df, 0x3ac7eb14, 0x3c99442d,
                               0xbe8d8048, 0xbe9ce798, 0x3e230ba0, 0x3f17b3a4, 0x3d70d387,
                               0xbd81d656, 0xbd864af2, 0x3d5edfe9, 0x3de33446, 0x3f468195,
                               0x3cccb1bc, 0x3dbef443, 0xbe5fbec6, 0x3e0fc7c4, 0xbf082371,
                               0x3ed643ba, 0x3e5e333f, 0x3ed75a51, 0x3e05991e, 0xbea590ad,
                               0x3c4de28d, 0xbe338b8f, 0xbe923e0a, 0xbe8c0b16, 0x3e6ffd30,
                               0xbde9f929, 0x3d894c17, 0x3ea939e1, 0x3d32efa2, 0xbdd00041,
                               0x3e6757e5, 0xbc99a954, 0xbeb61f5c, 0x3e5e75cb, 0xbcc0504c,
                               0x3da7ab09, 0x3de00090, 0xbc9ee28b, 0x3ecb618f, 0xbcd14345,
                               0xbe4ce995, 0x3d014c52, 0xbdea3251, 0xbdacc77e, 0xbe16e1e7,
                               0x3d18d045, 0xbd6400df, 0xbe914c84, 0xbe9ceba7, 0xbde11964,
                               0xbee8e3bf, 0xbe16c592, 0x3e97b270, 0xbec2c610, 0xbdca3820,
                               0x3e4613b3, 0x3da247c2, 0xbea041c4, 0xbe6b11d2, 0x3eaf5344,
                               0x3e06beaf, 0x3e09a445, 0xbec104bd, 0xbc04cdb9, 0xbcafdf1d,
                               0xbe2730dc, 0xbe75c904, 0xbd741f6e, 0xbdd1c341, 0x3e3f1a05,
                               0xbe2c1c4a, 0xbcdfb982, 0xbe343470, 0xbdecc558, 0xbd7d6e2a,
                               0x3d20a8fc, 0x3f024e87, 0xbdce9aed, 0xbe47b2e9, 0xbe1b1b81,
                               0x3e11628d, 0xbe51a62f, 0x3eec55da, 0xbe0cfa57, 0xbc871338,
                               0x3c6d2b53, 0xbed14d90, 0xbc8612cd, 0x3e958dd1, 0x3e95a293,
                               0xbe7817fc, 0xbea5ca42, 0xbe30e33d, 0x3cf23a01, 0x3e4e3576,
                               0xbe15f96f, 0x3cb4d39b, 0x3dc2d3b4, 0xbd8086f3, 0xbe06ae25,
                               0x3d90be07, 0xbdeb0de3, 0x3df2d91e, 0xbe9c6030, 0xbe4806cd,
                               0x3e818343, 0xbe914cec, 0x3dff589f, 0xbbbc6b11, 0xbca059c7,
                               0xbdbc8c02, 0xbed0d329, 0xbdb442ec, 0x3d4c2b0f, 0xbe8652f7,
                               0x3ba8b36b, 0xbd677039, 0x3e86ca68, 0xbd56f75d, 0x3c011141,
                               0xbe0d2ea9, 0x3d9d6dd9, 0x3cf65993, 0xbefd6f69, 0x3eac1eba,
                               0x3dc176dd, 0x3de34538, 0x3eda1665, 0xbe9fe455, 0x3e14adac,
                               0x3cf89a67, 0x3e16e9de, 0x3d86f6c5, 0x3db98cb4, 0x3dbeef89,
                               0xbcc507f7, 0xbd690d5c, 0xbf0d7e4d, 0x3ec7822d, 0xbe3f7fbb,
                               0x3e339611, 0x3e841219, 0x3cb4f033, 0x3dfb05da, 0x3e220380,
                               0x3e61649f, 0xbebda8aa, 0x3c1b5860, 0x3e485c0a, 0x3d0d63fa,
                               0xbe26baed, 0xbcc3f00f, 0xbe4ee6b3, 0xbe0414d5, 0x3e60c7c9,
                               0xba03869d, 0xbdf4b4fc, 0x3ec9387d, 0xba098414, 0xbcef1070,
                               0xbacd526f, 0xbd76edca, 0xbe23ff21, 0x3d7b1db6, 0xbe50ebfa,
                               0xbd730ad9, 0x3e98e098, 0x3e952599, 0x3be06b12, 0x3e498388,
                               0xbdb353ab, 0x3da3fad6, 0xbea50a68, 0xbe6a824b, 0xbe8f4b57,
                               0x3d41a060, 0x3e13e8d0, 0x3d788542, 0xbe0bd4c9, 0x3ee2137a,
                               0x3c50704b, 0xbdfa12ce, 0x3e7b9008, 0x3ed2925a, 0xbcd2717f,
                               0xbd4f6e0e, 0x3e21a5b0, 0xbf036d75, 0xbe62cd13, 0x3e0df720,
                               0xbdb2ee9c, 0x3e1d4aa7, 0xbe0b551a, 0x3d2d6e47, 0x3dee7b6d,
                               0xbea1c197, 0xbea0fe1f, 0xbb9f210a, 0xbe810c88, 0x3e916602,
                               0x3b87c599, 0x3aac0ac9, 0x3d0f5e78, 0xbc1ece5f, 0xbe8d36c2,
                               0xbc5ca19d, 0x3f0af508, 0xbd643705, 0x3d9d49c0, 0x3b412b5c,
                               0xbdc86374, 0xbe58530b, 0xbe9a5b54, 0xbe32ae17, 0xbe223c3b,
                               0x3e9542cd, 0x3e8cba30, 0xbd1edeb8, 0xbe3548f0, 0xbe9639ee,
                               0xbe1bbc98, 0xbde40608, 0x3e9ddc7e, 0x3d58bed8, 0x3eca3c58,
                               0xbe97868d, 0x3e623aec, 0xbd4d8544, 0x3d0ce80e, 0x3dc5f01f,
                               0xbea31b19, 0xbe88d971, 0x3da4b095, 0xbdcd303f, 0x3e698358,
                               0x3da6d125, 0x3db6b2fd, 0x3d35c6bb, 0xbe402553, 0x3ee44bab,
                               0xbd2e4a9d, 0xbc2e2bb0, 0x3e51c0f0, 0x3e48041a, 0x3da2c328,
                               0x3c5bbcc4, 0x3e6ff93d, 0x3e04f9a8, 0xbe9c1198, 0x3e607b23,
                               0xbd92001f, 0x3e81fa68, 0x3e1b62f2, 0x3deb8032, 0x3cc99999,
                               0xbe5bd5fb, 0x3dabfa48, 0x3e7c9867, 0xbe1228f3, 0xbeb0f862,
                               0xbcc4cba2, 0x3eb5bb36, 0x3cb81f76, 0xbf04d62e, 0x3cf90c6f,
                               0xbd89e9c0, 0xbd2bfffe, 0xbe0aadfc, 0x3d7c92ea, 0xbded440c,
                               0x3dde1a9b, 0xbd1ce146, 0x3e0003d1, 0xbda6777a, 0x3db06e6a,
                               0xbdc1134e, 0x3e1ed14c, 0xbea463b4, 0x3de48853, 0xbe8c668c,
                               0x3e949096, 0xbea51996, 0xbdacbac2, 0x3e07bf56, 0xbdcd4bb9,
                               0xbe636f76, 0xbee9715c, 0xbf0e7eae, 0x3e514db1, 0xbcb3236c,
                               0x3ce35ded, 0xbcd6aac5, 0x3e05831b, 0xbda4545b, 0xbe875468,
                               0x3e56c837, 0x3d3be0d3, 0x3dbeca3f, 0x3e621e8f, 0x3e218aa7,
                               0xbeaf400e, 0xbc9e411a, 0x3c897697, 0xbefac174, 0x3d28f5fb,
                               0xbe31bb59, 0x3d515692, 0x3dfeb131, 0x3ead59bd, 0x3d0722cc,
                               0xbe000324, 0xbb298efa, 0xbdf7a948, 0xbd203303, 0x3c9a2ad7,
                               0x3f0f9eec, 0x3f074b12, 0x3ef39da7, 0xbf925884, 0x3e629e5b,
                               0x3d051f9e, 0x3eaa5ea5, 0x3f4dbd47, 0x3e18d4f5, 0x3defb281,
                               0xbe986730, 0x3ddd2e8c, 0xbf3a9c87, 0xbe5a6208, 0x3d0f2e29,
                               0x3cd9c38f, 0x3d6e1097, 0x3e12d3f7, 0xbc9d410c, 0x3e758a5c,
                               0x3e210387, 0xbf96c621, 0x3e7d2d7a, 0x3e692136, 0x3e201990,
                               0xbede55e9, 0x3f20f5cb, 0x3e9bc798, 0x3d6e0094, 0x3c40ae46,
                               0x3ed647da, 0x3e826d33, 0xbf9bd210, 0x402a60eb, 0xbf1ef0fd,
                               0xbe1b5b8a, 0x3f29b43a, 0x40020722, 0xc05e6a60, 0xbf97f5c7,
                               0xbf9f96f3, 0xc00ac814, 0xc03fb26b, 0xc012666a, 0xbef6fbec,
                               0xbfc7c0ca, 0x3f8e1497, 0xbce162d8, 0xc0846d2b, 0x3e957aad,
                               0xc01376ee, 0xbf99f6f5, 0xbf03751a, 0xbe233a0e, 0xc01beb13,
                               0xbff12de6, 0xbe18c971, 0x3f8a2c48, 0xbe1a797b, 0x3e834e80,
                               0xbde3fe4f, 0xbf7f94e3, 0xbf997b9c, 0xbf9b2e1c, 0x3e3af6ab,
                               0xbf1dc708, 0xbec024ba, 0x3dba89df, 0xbe5f3a9c, 0x3eb9016e,
                               0xbfa05e06, 0x3faba855, 0x3e70ba70, 0xbfe9d0c1, 0x3fffd13e,
                               0x3e708e70, 0x3fc20c5f, 0xbea0f58b, 0x3e86fe62, 0xbfc7c583,
                               0x3e8c0015, 0x3e0c6cfd, 0xbcffc36e, 0x3f9fbd00, 0x3fc208ec,
                               0xbf3171e0, 0xbf3f3805, 0x3fce7cd5, 0xbf21d9d1, 0x3eac8487,
                               0xbf73aba4, 0xbe746129, 0xc00a3046, 0xbe946ac3, 0xbec9ca3d,
                               0x3f1588b0, 0x3e76ffbb, 0xbe0a3bcb, 0xbf305388, 0xbe7a6708,
                               0xbeddd88f, 0xbdc253ac, 0xbe719d46, 0x3eb38a59, 0xbe37429c,
                               0xbdb336fc, 0x3e749a67, 0x3e6531b0, 0x3ce59ce1, 0xbdc9824b,
                               0xbe173158, 0xbdd8d2b7, 0xbe749d59, 0x3f159c95, 0x3da912fa,
                               0xbb8395d3, 0xbf111cd2, 0x3effd38b, 0x3e989b06, 0xbdc5db93,
                               0x3eb78839, 0xbec29399, 0xbec4bde1, 0x3d153562, 0x3e66738d,
                               0x3eb098b5, 0x3ec59407, 0xbd93a9b7, 0x3d826bf2, 0x3c800d57,
                               0xbe43bc26, 0xbe423614, 0xbf0302a4, 0xbf74fac2, 0xbd12bdbc,
                               0x3e63b1c1, 0x3e504e84, 0xbf0be563, 0x3edd2b0d, 0xbf28e501,
                               0xbd73fa46, 0xbf01ffbf, 0xbf13963c, 0xbf071102, 0x3e1f81c6,
                               0xbf7f52f1, 0x3f0f792a, 0xbebf87b2, 0x3ed784dc, 0xbed052a9,
                               0xbe9181fd, 0x3e7f0529, 0xbe08a151, 0xbe22c5d8, 0x3e440bd0,
                               0xbe8ef8c3, 0x3e35158e, 0xbf14ca3b, 0x3eb13ed2, 0x3f8328fd,
                               0xbd744d60, 0xbe49b508, 0xbdc2ddc9, 0xbd933a49, 0xbd7e9da5,
                               0x3e5397e5, 0xbf2199e3, 0xbf38bdeb, 0xbeb577d9, 0xbe4b0c31,
                               0xbeab5ebe, 0xbf116d77, 0xbee10ff9, 0xbf21ca0b, 0x3e378d9d,
                               0xbe45b4b7, 0xbf4fccd7, 0x3da5c337, 0x3ecbf393, 0x3e2384a0,
                               0xbe084991, 0xbeaa8b5f, 0xbf569b58, 0xbf225f66, 0xbe71644a,
                               0x3f6bd0ac, 0x3e42ba98, 0x3f113644, 0x3d984699, 0xbed49657,
                               0xbe4ba805, 0xbe5b2e7a, 0xbe72ef5b, 0x3ecadf45, 0x3e80a483,
                               0xbdc62d6f, 0xbeba8fb2, 0x3b97632e, 0x3dbd1afe, 0xbe7e3984,
                               0x3f32219a, 0xbe8e7181, 0x3dc8c81b, 0x3e8bac52, 0xbd9e12fb,
                               0x3e45bf60, 0x3e83292d, 0xbe842e38, 0x3d661871, 0x3e44b376,
                               0x3e69acd3, 0x3e8d2f00, 0x3f0df198, 0x3df4e434, 0xbdfd5850,
                               0xbede572e, 0x3f22c504, 0xbd1b92d7, 0xbe4aca03, 0x3e927235,
                               0xbe817769, 0xbca38a9b, 0x3d9de2fc, 0xbeb05d6d, 0x3f8ccf40,
                               0x3ee02b2f, 0x3fbfad45, 0x3ece3bed, 0xbc487b4f, 0xbebab3e6,
                               0xbefc1cf4, 0x3f14d3a8, 0xbe6360bb, 0x3f8b3174, 0x3fedfbfd,
                               0x3e56b110, 0xbfe0dd3a, 0x3d978aa2, 0x3d70f0e7, 0x3fbc5288,
                               0x3e975e9f, 0xbf533da7, 0xbf6c51d7, 0x3e7d6f77, 0xbf817969,
                               0xbe8d51d3, 0xbf20a05d, 0xbf73b124, 0xbf415111, 0xbf921f8b,
                               0x3f5e2f7c, 0xbe4fb0fc, 0x3e0f4cf8, 0x3f341d81, 0x3fcacb44,
                               0xbf1be4a3, 0x3eb9d90c, 0x3e95fe4a, 0x3f88abdb, 0xbeb60a32,
                               0xbfd9edb6, 0xbe8cb8cf, 0x3c69963e, 0xbf4eecd3, 0xbdb55994,
                               0x3f98d372, 0x3ee2dc78, 0xbf965282, 0x3f08db40, 0xbfd172b8,
                               0xbf9e1a72, 0xbea1114d, 0x3ef67055, 0x3de7d504, 0xbeeef4ba,
                               0x3fc21a81, 0xbd2b8437, 0xbf213e71, 0x3f86aa87, 0x3e91ca65,
                               0x3f651262, 0xbf87cc05, 0xbb974832, 0xbf4b38a2, 0x3fa7a0b3,
                               0xbf92bc29, 0xbfe6db4e, 0xbf785b00, 0x3d13813e, 0x3dae7a97,
                               0x3e57bbe1, 0xbe7be1fc, 0xbe2ae3d0, 0xbd5f95c7, 0xbd7f828b,
                               0xbe989808, 0x3cc381dd, 0x3d9ab97d, 0x3dfd5b55, 0xbdd13b94,
                               0xbe114452, 0x3ca1b3df, 0x3e28817b, 0x3e4543c3, 0xbdbf1054,
                               0xbd93a8ad, 0xbe7a7c6a, 0x3bda6bb6, 0xbd855f79, 0x3df797f5,
                               0xbd89df54, 0x3cbbf568, 0xbc615cd4, 0x3d8151ce, 0x3d9d1743,
                               0x3dc6c229, 0x3d475eb6, 0x3e5e6fab, 0x3e4a9ef7, 0xbd3c89bb,
                               0xbd80ffd9, 0x3b24e11f, 0xbccb2d2e, 0x3d15cd64, 0xbdfb647e,
                               0x3e7c5540, 0xbd11bfe3, 0xbd4e1ae8, 0x3c384e7c, 0xbd8df7e7,
                               0xbd187b09, 0xbe14216f, 0xbd06b571, 0xbe3a07d1, 0xbe0d6299,
                               0x3d95ff48, 0x3c428d6d, 0x3de7cd6f, 0xbd683f55, 0x3de1a73b,
                               0x3d61063f, 0x3d626f2d, 0xbd49e112, 0x3e2b290f, 0x3c9f1aa6,
                               0xbcc3e863, 0xbdee0149, 0xbe90a412, 0x3ec4c945, 0xbe1de7a1,
                               0xbd3c1385, 0xbd850771, 0xbe8c5acf, 0x3f187cee, 0xbf121a8e,
                               0x3f3a08db, 0x3e578e6c, 0xbe49e109, 0xbd23399a, 0xbe9ed616,
                               0x3eae6b46, 0xbdc4b03c, 0xbe9f0451, 0x3f58e345, 0x3bfc67ee,
                               0x3ee0cb0c, 0x3ec45b15, 0x3ecf2d5f, 0x3c9449e5, 0xbe3b3a11,
                               0x3e32f0aa, 0xbeaa503b, 0x3e364397, 0xbe26ef46, 0x3f47a120,
                               0x3dd66997, 0x3e85c4c7, 0x3edf0145, 0x3f25918a, 0x3ef7deab,
                               0x3f64c8d1, 0x3f0d6201, 0x3cad1b85, 0xbde9c153, 0xbf457520,
                               0x3df4bd43, 0xbe4eb9e1, 0x3ede5f32, 0xbef62231, 0xbd239052,
                               0xbb96208c, 0x3e48ef82, 0xbe7ff888, 0xbe3f035d, 0x3e5fee07,
                               0x3ea04256, 0x3eae1f78, 0x3c84c754, 0x3ee0a7ed, 0x3ec12b73,
                               0x3eb1bd9a, 0xbef3f5bd, 0x3ed60ed6, 0xbdcae45c, 0x3edb8704,
                               0xbdc958cf, 0xbe75d870, 0x3eca2cbe, 0x3e1c3768, 0xbbb4ae26,
                               0xbe7d7951, 0x3dc4d73e, 0xbf2219c7, 0x3ee056aa, 0xbe270dec,
                               0x3db78ca0, 0xbc4f3e8b, 0x3f0ae3b7, 0x3e53ba6e, 0x3b3cf1bd,
                               0x3ebc1707, 0x3ef73472, 0x3f2124e0, 0xbeefecd5, 0x3db73945,
                               0xbe5fdfb4, 0x3ddb4919, 0xbe4f4913, 0x3e31ba9c, 0xbca156a4,
                               0xbe51927a, 0x3e90d2e3, 0x3d19b908, 0xbde097b4, 0x3e62bf61,
                               0xbf2306d5, 0xbdcfa387, 0xbf5ba1a9, 0x3e8fe553, 0xbea144c2,
                               0xbdb16f57, 0x3e0eb73c, 0xbe813b76, 0x3f1d5058, 0x3efabb6d,
                               0x3eb23f0e, 0x3ebbb245, 0xbeb91ef3, 0xbe7f6e84, 0x3e0abbd4,
                               0x3d48c494, 0xbcc7dfe8, 0x3e3b6da9, 0x3f095eaf, 0x3c9d9483,
                               0xbbcf2e51, 0xbedd9721, 0xbddd1d1f, 0x3f1097ba, 0xbdc40f0a,
                               0xbdd3d090, 0xbeb01b3b, 0x3e3958e1, 0xbea5d297, 0xbe372e6c,
                               0xbe16d723, 0x3eb532e0, 0x3f04e1db, 0x3f31786e, 0xbee7ae17,
                               0xbcf0e1d6, 0x3eff39ee, 0x3eb5644b, 0x3d92c77a, 0xbf0a787e,
                               0x3e7de55c, 0xbb6df2d9, 0xbdf072b3, 0xbce207a8, 0x3ea430cf,
                               0xbd48fdb6, 0x3ce71b9b, 0xbe5f8cb3, 0xbf8693c8, 0x3e52face,
                               0xbcf42814, 0xbd9d86ec, 0x3dadc311, 0x3da82b51, 0x3d8de2c2,
                               0xbe074527, 0xbc862843, 0x3dee3a39, 0x3e49096c, 0x3e123e0f,
                               0x3df30e44, 0xbc5c02a5, 0xbd1952fe, 0x3dc7e0d3, 0x3f0eabdd,
                               0xbc491413, 0xbe998dba, 0xbe4d2602, 0x3e564bfc, 0x3d28b492,
                               0xbe2dc09d, 0xbe852f1f, 0x3edf60e7, 0xbea36e52, 0xbe086d1b,
                               0xbd936d93, 0x3e8fd172, 0x3e3cd47d, 0xbe4d87a8, 0x3b823fee,
                               0xbe2187d8, 0x3eaece8b, 0xbe33a027, 0xbda0f909, 0x3e8b95cc,
                               0xbf302257, 0x3e77c59e, 0xbd406d9a, 0x3e1dcf9a, 0x3e3fe1cc,
                               0xbe30560c, 0x3d810823, 0x3e8bbbf3, 0x3cad9069, 0xbd9482c6,
                               0xbe3f788e, 0xbe6ac023, 0xbee0f421, 0x3e09737d, 0x3d698c61,
                               0x3e3c4d9c, 0xbf525505, 0xbe9417fa, 0xbdb300cf, 0x3d8ddff9,
                               0x3efffab6, 0xbe31fea4, 0xbe12348a, 0x3e598282, 0xbea15ae9,
                               0x3f529bd1, 0x3e0db6d7, 0x3dac1070, 0x3dafc0fd, 0xbea7a0ca,
                               0xbe8c53ca, 0xbe58d668, 0x3dffa019, 0xbe7e4f3a, 0x3e94a990,
                               0xbed27a3d, 0x3e77bbed, 0xbee2b269, 0x3e18df60, 0xbdd4ee63,
                               0xbecf4329, 0xbe7953fe, 0x3ec9230b, 0xbc0781a4, 0xbf0a156b,
                               0xbf1ff04b, 0xbdc65383, 0x3e605d8a, 0x3f377044, 0x3e55373f,
                               0x3aa8e22c, 0x3f2465f3, 0x3df72754, 0xbc2933e9, 0xbccdae47,
                               0xbeb48917, 0x3d8ea167, 0x3d82a3f3, 0xbb370bab, 0xbcdd15e2,
                               0xbd054a66, 0xbd10a0c5, 0x3d4bd597, 0xbd1d2174, 0xbd91930b,
                               0xb8dcdccc, 0xbb3e6f93, 0xbd2b0e0b, 0xbdb63d8b, 0x3cfdf304,
                               0x3cb30ed1, 0x3d2bab6f, 0xbca61eb9, 0x3d9848ee, 0x3bc92b0c,
                               0x3d5efb81, 0xbc1ca374, 0x3d0ae34f, 0xbc9f2654, 0xbc2ee160,
                               0x3bb28ab8, 0x3ca59b3c, 0x3d2edec7, 0xbd1c3faf, 0x3c947a7e,
                               0xbd2864c1, 0xbc777d0c, 0xbcde7cf5, 0xbd4d3d64, 0x3dc55009,
                               0xbadab518, 0xbb07e9ec, 0xbcadd65d, 0x3d75fbcd, 0xbcacb804,
                               0xbcc748e5, 0xbc624ae5, 0xbbfa54e9, 0x3c7f9b84, 0x3d2c9115,
                               0xbd477bd6, 0x3c552cb3, 0xbd4bbae4, 0x3c399465, 0xbc1d36ce,
                               0x3d23ebe3, 0x3ca53a4a, 0x3d44bb3e, 0x3d3cc455, 0x3cf800b8,
                               0xbd219366, 0x3c519d36, 0xbc580a51, 0x3b38e40e, 0x3d86f845,
                               0xbd59e1fc, 0x3d987ff0, 0x3c53fd36, 0x3cfc3f85, 0x3a8514d1,
                               0xbe1697fa, 0xbd26d40d, 0x3dd96829, 0x3c6fe75f, 0xbd650309,
                               0xbda0112e, 0x3c96aeec, 0x3d365486, 0xbd5d17e4, 0xbc50fab4,
                               0xbc374b9e, 0x3d45059a, 0xbdef5834, 0x3ca984ee, 0xbca27fb4,
                               0xbdc420c6, 0xbb041dfd, 0xbdd3981c, 0xbd329cdb, 0xbd856bae,
                               0x3df9735b, 0x3d859b93, 0x3d4d914b, 0x3d4eaf18, 0xbd52744e,
                               0xbe50b891, 0xbb6e7bf8, 0xbe288b3d, 0xbc98ac57, 0x3de7ff77,
                               0x3d9ff349, 0xbd090226, 0xbdff3d9f, 0xbd908c19, 0xbc87815b,
                               0xbd94e6fd, 0xbdc67355, 0xbd8b8a7b, 0x3c21e32d, 0x3e063fc0,
                               0x3d9aafde, 0x3d9ac3e0, 0xbd22e2a0, 0x3e172f66, 0xbb792f97,
                               0x3ccc0885, 0x3c307820, 0xbdb7d956, 0xbd98051d, 0xbda34452,
                               0xbcc34176, 0xbe2c772c, 0x3e7b0e62, 0x3cf7ce6b, 0x3d914140,
                               0x3d73ca05, 0x3d299080, 0xb7d21f10, 0x3e018f0f, 0xbcd6e908,
                               0x3e190121, 0x3d8f3212, 0x3c3823ca, 0x3bc39bce, 0x3e81a5b8,
                               0xbe7705d7, 0x3e8e56c5, 0x3d0d9dab, 0x3dd6afd1, 0x3eb608ce,
                               0x3d8f9d8d, 0xbd6fb40b, 0xbccce1ff, 0xbed6f5d9, 0x3c1e50ec,
                               0xbe52877f, 0xbe3f9804, 0xbe443a20, 0x3e35eaaf, 0x3ca3caf3,
                               0x3c8b1d48, 0x3dbc3a08, 0x3d17f869, 0x3e3a5c4c, 0x3cffddf3,
                               0x3f25051c, 0xbe1f63a5, 0x3d2ec053, 0xbd076aaf, 0x3f0dcaa2,
                               0xbee31c20, 0xbe0be2b5, 0x3ec0ff32, 0x3e6f621b, 0xbe2e27a7,
                               0xbd463d30, 0x3dcd93c5, 0x3d70980a, 0x3c583f17, 0x3dd1a4af,
                               0xbe8206ab, 0x3f41ab75, 0x3e611c19, 0x3e20a4d9, 0xbdd08f46,
                               0xbe6c5ebb, 0x3dfbaea3, 0xbdb45980, 0x3e57a92c, 0x3df89a2d,
                               0x3f24df40, 0xbebb1efe, 0x3d380c43, 0x3db094c5, 0x3e8d8063,
                               0xbe044cd1, 0xbe54b306, 0x3e7518dc, 0xbea58d87, 0x3d19a6a3,
                               0xbe329daa, 0x3c518f8f, 0x3eb89251, 0xbf0bb33b, 0x3e453209,
                               0xbed3da8c, 0xbdb831e2, 0x3e306db6, 0x3e895faf, 0xbe38e637,
                               0x3d3cc064, 0x3e40900a, 0xbebbd4f9, 0x3d5416de, 0xbee33acc,
                               0x3be67e59, 0x3d351bd1, 0x3d8ea28b, 0xbcd5f032, 0x3dded506,
                               0xbee58c0a, 0x3d9a2a24, 0x3ea97c55, 0xbdad0b76, 0xbde63a6e,
                               0x3ef9c303, 0xbe8e6e7d, 0xbec7e26d, 0x3e4991b1, 0x3ecf9699,
                               0xbea0c8bc, 0x3cabf5cf, 0xbba08771, 0xbf1d2ed1, 0x3e9fa888,
                               0xbe8b3775, 0x3e64a10c, 0x3de67275, 0x3cca5141, 0xbbf67cf0,
                               0xbe91718a, 0x3d2f24ca, 0xbeb93e07, 0xbeb978db, 0xbea24a17,
                               0x3eb0424d, 0xbeaaa6c3, 0xbe28cb7b, 0x3ea31f98, 0xbebbe94c,
                               0x3e3cd382, 0x3e915618, 0xbe61f90c, 0xbee335c1, 0xbdd03479,
                               0x3e9c17b7, 0x3db4e386, 0x3de168b8, 0xbeb30bc0, 0xbd175b96,
                               0xbe93b8b2, 0xbc8b0d2b, 0xbe858b44, 0xbd7f4383, 0xbf114e2b,
                               0xbd31a49b, 0xbddfca7d, 0x3ebbf876, 0xbe5bc249, 0x3f04f176,
                               0x3e3542f2, 0x3d9b3341, 0xbed0b598, 0xbf26f157, 0xbe1f8983,
                               0xbe3aae66, 0xbf0c6b0c, 0xbeb44696, 0xbf4dab17, 0xbef0323c,
                               0xbe61dbcc, 0x3d9f85ab, 0xbd5f364d, 0xbcb0ac32, 0x3e2c3e6d,
                               0xbe41b2e5, 0xbea82c70, 0xbe7dc7d8, 0xbecac13c, 0xbee1e12e,
                               0xbe7bc76d, 0x3f0521c5, 0xbea72d38, 0x3e1a2961, 0xbe2ba02d,
                               0x3e926172, 0x3e0c2fcb, 0xbea05770, 0x3c3e3b15, 0xbbd6df85,
                               0xbf0528b8, 0x3e85dafa, 0x3e9cb35e, 0x3e787642, 0x3e13d8a9,
                               0x3db195f7, 0xbf0b532c, 0x3e1e18cf, 0x3e458aff, 0x3ea26162,
                               0xbd9b5085, 0x3c132abf, 0x3de784ea, 0xbde5c0ae, 0xbdad0c04,
                               0xbeb0a2af, 0x3bfbf302, 0x3d11bf0c, 0x3e00558d, 0xbec64c54,
                               0xbf031ac1, 0xbf0da2be, 0xbde82292, 0xbeec9697, 0xbe829982,
                               0xbe3f962b, 0xbcc254c2, 0x3c438d54, 0xbe1b69da, 0xbc952101,
                               0x3e459fe0, 0x3e6d0317, 0x3db67524, 0xbf322f35, 0x3e98d7fa,
                               0x3d673c83, 0xbe979f00, 0x3e8a5f56, 0x3e1d25dd, 0x3d8380a3,
                               0xbe1fdb5f, 0xbe1df900, 0xbdf4066f, 0x3d4d667c, 0xbf091a59,
                               0xbf09bd8d, 0xbe0f45b6, 0xbe84a55d, 0x3ddece6d, 0xbd23140a,
                               0x3f5569b1, 0x3e8f42f6, 0xbf40c605, 0x3eefec95, 0xb9f7c93d,
                               0xbe519574, 0xbebb5b67, 0xbea57508, 0xbe52b9cf, 0x3e0a023b,
                               0xbe76db51, 0x3ef6da9c, 0x3e4333f6, 0x3bbcfc11, 0x3e08078d,
                               0x3da3f212, 0x3dc18da1, 0xbe122d57, 0x3ce18af8, 0x3d5c145c,
                               0xbe296407, 0x3e3fb2ad, 0x3d772f18, 0x3dba57a3, 0xbe3efdd8,
                               0x3e0f2c03, 0xbe8b2103, 0x3eb7b213, 0x3f0daf4e, 0x3e811f2e,
                               0xbea6dc67, 0xbe43e11e, 0xbcd11861, 0x3dfc85bb, 0xbdae68d4,
                               0x3e215b21, 0x3d7f1fc8, 0x3e38304d, 0xbe12cc6d, 0xbe99852b,
                               0x3e9a861d, 0x3d17fecc, 0xbd84840d, 0x3d4d551f, 0x3d23e4ff,
                               0x3e205b1d, 0x3d50db4f, 0x3dacb0e5, 0xbe304d28, 0xbcc9f83d,
                               0x3e2cd65b, 0x3e7ba0ac, 0x3d39e772, 0xbf45921d, 0x3db57bd9,
                               0x3e9db8c3, 0x3ef9761f, 0x3d90a67a, 0xbea95a11, 0x3e381a7c,
                               0x3ef799fb, 0x3f109745, 0x3ef5ef42, 0xbeb437e2, 0x3ec9eaf9,
                               0x3dd8c533, 0x3dcc4df8, 0x3cf0a8f5, 0xbcd833eb, 0x3ea6305b,
                               0xbe859b97, 0xbe9a3e1c, 0x3e124ed7, 0x3f07f5a1, 0xbed0cfe4,
                               0xba2994ce, 0x3ee47f15, 0xbf1af0de, 0x3e481c81, 0x3e343c84,
                               0xbe2b9549, 0x3f538dd8, 0x3e4faca3, 0xbed0c661, 0x3de508ba,
                               0x3e00670e, 0xbeccee26, 0xbe061749, 0xbe3a34c4, 0xbe35e20b,
                               0x3eb6ea72, 0xbbb5c981, 0x3e5aba01, 0xbb2dd3bf, 0x3e4fb219,
                               0xbe98a866, 0xbd92796b, 0x3e4b5097, 0xbe77450b, 0x3eae5bea,
                               0xbef55a75, 0xbdbc7dde, 0x3f3bba47, 0xbe93ff60, 0x3ee20398,
                               0x3edfa502, 0xbdffb1c2, 0xbe15f171, 0x3ea72312, 0xbe403738,
                               0x3dac404d, 0x3f111c6f, 0xbd1c07ae, 0x3bb69741, 0xbe048b9a,
                               0x3f1e1028, 0x3d701a21, 0xbd32b0e8, 0xbdd2a3e3, 0x3e6ffcae,
                               0xbe8b535e, 0xbde61d33, 0xbf07795f, 0xbeb77536, 0x3dd84207,
                               0xbe586c77, 0x3b73eb3f, 0x3e848f1a, 0xbf4f420b, 0xbf05243a,
                               0x3e28c91b, 0xbe06e571, 0xbe4e7606, 0x3e0b584e, 0x3e3c42c3,
                               0xbddaae69, 0xbf14b3cd, 0x3dcba648, 0xbd972f50, 0xbe8a0020,
                               0x3e578221, 0xbef44ad2, 0x3df43cc7, 0x3e39601a, 0xbf25c2ae,
                               0x3ed44823, 0x3cd744b2, 0xbcb62f0a, 0x3e4f1549, 0xbeedfa5f,
                               0x3c2428a7, 0xbdb34c8c, 0x3c960463, 0xbe4466d2, 0x3e923e8b,
                               0x3f04528c, 0x3b944824, 0xbe9aa84d, 0x3edceae1, 0xbe8f5c2b,
                               0x3f1b46ac, 0x3dee5cd3, 0x3e988f25, 0xbe411ccb, 0xbebad006,
                               0x3e88ecd7, 0xbdd9d992, 0xbd295c6c, 0x3eb62d8b, 0x3ec48068,
                               0x3ec828e9, 0xbefb9360, 0xbe75950f, 0x3e5ba502, 0x3f01fec0,
                               0x3e5cbed4, 0xbe23611a, 0x3c33a0be, 0x3f730cdf, 0xbc868582,
                               0x3d1836c8, 0x3eaa92ba, 0xbf28fc33, 0x3e8655dd, 0xbcc974d6,
                               0x3e3e7384, 0x3f2cad4a, 0x3eed992c, 0x3e11e32a, 0xbf4af159,
                               0x3e131c3b, 0x3f54edc4, 0xbe9011be, 0xbcfb84f4, 0x3e6cd17e,
                               0xbef227c7, 0x3e95acfb, 0xbe67e1db, 0x3df41150, 0x3e1989c0,
                               0x3f019d3d, 0x3eb4af24, 0x3d8e8a12, 0xbebdaf34, 0x3e4ce8e0,
                               0x3ea51395, 0xbb522d92, 0xbc7ce339, 0x3ea1b41d, 0x3f11e3c8,
                               0x3d80cdb2, 0xbeac7cf8, 0xbc772c70, 0xbd1642cd, 0x3eb92813,
                               0xbdae3fa8, 0xbde19aa8, 0x3e3aff93, 0x3d2a5b7b, 0x3ea6bbce,
                               0xbf0b7335, 0xbe87de18, 0xbe2c8921, 0x3ea727d6, 0x3e3dea11,
                               0x3dbe426f, 0xbea60ea9, 0x3ebd8316, 0xbdfe73d9, 0x3e9d7106,
                               0x3e4badf8, 0xbe8b6abb, 0x3ea631da, 0xbe02d3d5, 0xbf1e84d8,
                               0xbd805623, 0x3ec97e71, 0xbd333b32, 0xbe12ebfc, 0x3e867fb1,
                               0x3d9a0a02, 0x3e00cc50, 0x3c2cf0dd, 0xbd8de79d, 0xbe0e4dff,
                               0xbf1dc557, 0xbe897c11, 0xbe9b02b5, 0xbe3e5884, 0x3dcbec9a,
                               0x3e394505, 0xbe541e49, 0x3d800bff, 0xbe16f8d6, 0x3d30a9aa,
                               0xbd981065, 0x3e4c0349, 0xbe5d20aa, 0x3ed16438, 0x3e8a3a5c,
                               0x3dabd6d1, 0x3d68b08d, 0xbdae4493, 0x3e67d54c, 0x3eaaac25,
                               0xbdc2587b, 0x3e16e9b7, 0x3e2e751b, 0x3e257b9f, 0x3e740074,
                               0x3ea87d64, 0xbec5c1e3, 0x3eee1e9d, 0x3d5c034a, 0x3f4f40cd,
                               0x3dbd2397, 0x3e16bc3c, 0x3e7a7573, 0xbe3ee5be, 0xbf1de603,
                               0xbd6bbe7e, 0x3f11b14e, 0x3d9b89b3, 0x3eb80f09, 0xbefe3a1e,
                               0xbe943a40, 0x3ef0bf18, 0xbf1003e5, 0xbf1ffd88, 0x3f1c8ac1,
                               0xbf500c17, 0xbe0ee806, 0xbdf24d64, 0x3f092811, 0xbe6a026e,
                               0x3e270cc1, 0x3e8577c1, 0x3e28c550, 0xbd187a17, 0xbd600c35,
                               0x3f238f6b, 0xbf0788f3, 0x3f1763b9, 0xbf07f389, 0x3eebcabd,
                               0x3e032623, 0xbe7a78a6, 0x3d7cd939, 0xbe0552eb, 0x3e0952fe,
                               0x3e85f5c1, 0x3eca39de, 0x3b380131, 0x3e207723, 0xbe1cf58f,
                               0x3ea1de76, 0x3ea3789c, 0xbf68d312, 0xbe03d93e, 0xbe0cf168,
                               0x3d74c73b, 0xbe0edb83, 0xbe42bfea, 0x3f0a8ea3, 0xbd2d9e0c,
                               0x3ef99546, 0x3c291743, 0x3e57a4c0, 0xbed4f2e9, 0xbe42eb35,
                               0x3d65ced1, 0x3e8f9038, 0xbd41e575, 0xbc21410c, 0xbde421b0,
                               0x3c0f9213, 0x3deb4819, 0x3dd78f0e, 0xbf228c4b, 0xbf16a7eb,
                               0xbc4e4b72, 0x3e8daa94, 0xbe46a40b, 0xbdc2b128, 0xbcffdbb7,
                               0x3e197d89, 0x3f081149, 0x3e4817f4, 0xbd271493, 0x3df678e6,
                               0x3d22eb5c, 0x3e883df7, 0x3e0e0a8f, 0x3f00b511, 0xbe83cfda,
                               0xbec91a9e, 0xbf09dd90, 0x3dbb92ce, 0xbe1cfbb6, 0xbe82902c,
                               0x3ed6778d, 0x3e18ccdc, 0x3d4913bd, 0x3df16d6e, 0xbe97982a,
                               0xbd3010aa, 0x3eab5b59, 0xbe8114c5, 0xbeddaab1, 0x3e80e8b3,
                               0x3eaf1f50, 0x3d85cdbe, 0x3faecbc4, 0xbf65f350, 0x3edf22c6,
                               0x3ec6ed79, 0xbd4bc170, 0xbe38be43, 0xbe98316b, 0x3f264281,
                               0xbf48d376, 0x3d9f7dd8, 0x3f57a3f4, 0x3e593550, 0x3dcc786c,
                               0xbeada2ba, 0x3e262b9f, 0xbee25a7e, 0x3efdae6b, 0x3ed926f0,
                               0x3ddfd9b3, 0xbf01c11b, 0x3e8cf990, 0x3f73a37e, 0xbf73cfb7,
                               0xbf58f2a0, 0x3de272e9, 0xbc7f2aca, 0x3f1dbbd9, 0x3e4525ae,
                               0x3efe38aa, 0x3ea90bbc, 0x3e9136d5, 0x3e3f24b5, 0xbdaecdec,
                               0x3d2bf0b1, 0x3ea4579c, 0xbe9ab03f, 0xbc5b0eb2, 0xbf4d8d9d,
                               0x3da96a61, 0xbd4e5718, 0xbe38660a, 0x3d887ff0, 0xbead0db8,
                               0xbdc62b0e, 0xbe01aa41, 0xbcec719c, 0x3f0eb7fd, 0x3ed31056,
                               0x3d7796a6, 0x3d34a6d1, 0xbd8487a9, 0x3e26737f, 0x3de11f78,
                               0xbc83ae4f, 0xbd203a81, 0xbdfa07e2, 0x3eead8e2, 0x3e3ac784,
                               0x3d0f0f3d, 0xbf119751, 0xbea3293b, 0xbe01dd60, 0x3eff7fcf,
                               0xbca17ca2, 0x3f056bbe, 0x3e2c4979, 0xbcf6899c, 0x3e809303,
                               0x3e5afbb9, 0x3e910f25, 0x3dd97331, 0x3d3d2cae, 0x3da4747d,
                               0xbd074c74, 0x3e2b5a23, 0x3e852f80, 0xbd0b5308, 0x3d977456,
                               0x3e4d8187, 0xbddf97eb, 0x3e74a623, 0x3e7040c4, 0x3e18997b,
                               0xbe9257a7, 0xbee5d8be, 0xbf016f8e, 0x3e297330, 0x3dcceaba,
                               0x3d96adc0, 0xbd831207, 0x3e6aa74d, 0xbc1169b1, 0x3cf60178,
                               0x3ed888d3, 0xbe516468, 0xbce74c70, 0x3cd06f1e, 0xbe99fc39,
                               0xbd6cd118, 0xbefb6097, 0x3e1ba3ea, 0xbee6507b, 0x3d8c469f,
                               0xbe0a7bc9, 0x3e96448d, 0xbd0d6df0, 0xbe368b46, 0xbdfc6edc,
                               0xbe42f9b4, 0xbdc8d5b8, 0xbcd4747c, 0x3e89ed76, 0x3f2e2a93,
                               0x3e37fe23, 0x3f37bca0, 0xbd6d671d, 0x3e7417d2, 0x3e0b6aee,
                               0x3ead56c5, 0xbec7fa21, 0x3e4d1632, 0xbd3959ae, 0x3d32024f,
                               0x3ed4f1f9, 0xbe09fb68, 0x3ecd8ecd, 0xbed6e85b, 0x3ee1319e,
                               0x3e3f364d, 0xbee3db33, 0xbe36ac3e, 0xbe426e75, 0xbea21d17,
                               0x3ee5d783, 0xbdb19637, 0x3bd706a8, 0x3e91800b, 0x3ee3a055,
                               0x3f096ebc, 0x3de39c27, 0xbeb38e74, 0xbd86fdf4, 0xbda87ab6,
                               0xbe004aaa, 0x3e2f93d1, 0x3eede8a3, 0x3eb0d153, 0xbcb18f1d,
                               0xbf1c658c, 0x3da2ff28, 0xbeeb969f, 0x3dfc4dc5, 0x3e96de26,
                               0x3f01b607, 0x3d5c9aa0, 0x3e288d44, 0xbe0b7732, 0xbde60254,
                               0x3f265785, 0x3e4cb1ab, 0xbd9fa954, 0xbe5b70b4, 0x3df9e9f4,
                               0x3e1bf2ed, 0xbeba4416, 0xbedc3248, 0xbed28278, 0x3e4bbb74,
                               0xbf0a8412, 0xbea43b4d, 0xbeb486de, 0x3e4d72a7, 0x3e0398f8,
                               0x3ec68995, 0x3e718c4a, 0xbdfcebc4, 0x3ed78c80, 0x3d3a7998,
                               0x3e7d51f4, 0xbd581ec9, 0xbe91d48c, 0x3de7ef82, 0x3d20fe91,
                               0x3e9c9aa3, 0x3e3bf9fb, 0xbc71b031, 0x3e94fc18, 0xbec6a118,
                               0xbd61333d, 0x3e965a8b, 0x3f0ac9e7, 0xbe4bd450, 0x3ee00507,
                               0x3e57950f, 0x3ee7e49f, 0x3f3c5845, 0xbe82be55, 0x3ec3ddb6,
                               0x3e84af10, 0x3e5b7b39, 0xbdea4d36, 0x3e754772, 0x3e3de61c,
                               0xbb061395, 0x3ec70431, 0x3d6940aa, 0x3e945e7b, 0x3e02fcc4,
                               0x3ca281e2, 0xbdbea47d, 0xbd88f677, 0xbe267572, 0x3f102160,
                               0x3e4bb2b9, 0x3ee36549, 0xbf4d4fc1, 0x3f3412ba, 0x3f580444,
                               0x3e8be120, 0x3e6c745f, 0xbe5a165d, 0x3f0c0076, 0xbf0ac529,
                               0xbf0a6950, 0xbc451adc, 0xbdd61aee, 0xbe16af14, 0xbea81acc,
                               0x3f14ef13, 0x3ebc4c52, 0xbe253356, 0xbe59ad9f, 0xbccee0f2,
                               0x3db4c4d6, 0x3eab8527, 0xbf046807, 0x3eb4da07, 0x3d8cc802,
                               0x3e7e4ca7, 0x3f0ed0eb, 0x3e982ccc, 0xbe4824be, 0xbe630f9f,
                               0xbe80b455, 0xbe96f298, 0x3ee62e0a, 0xbe0fca1b, 0x3dbed0d4,
                               0x3e366f29, 0x3e55f149, 0x3ec401cf, 0xbdc2fbdf, 0xbd023792,
                               0x3ed7567c, 0x3ed30803, 0x3ebd5c37, 0xbe4f9f3a, 0x3ef863c8,
                               0x3e948e42, 0x3dabf63c, 0xbe5dddf4, 0xbe8040e6, 0x3ee3514d,
                               0xbf04e3d3, 0x3dedbc39, 0xbd2c0c28, 0xbe98b433, 0x3d0039e4,
                               0xbf3efa00, 0xbeea8769, 0x3ecf81b4, 0x3eb45f8d, 0x3e53ece8,
                               0x3e205e37, 0xbd15e6d0, 0xbf4d8ebe, 0x3de2f8eb, 0x3e8ad06e,
                               0x3e9a8685, 0xbe139032, 0xbe5a344e, 0x3d281af4, 0x3deffecd,
                               0x3d95e1a7, 0xbd26aa06, 0x3f2afa31, 0xbddc9f0f, 0x3b1a6d79,
                               0xbe351e29, 0xbf0ea3a5, 0xbe1f3762, 0xbe8b9011, 0x3e5a1e16,
                               0x3e6999d7, 0xbebff242, 0x3ebea737, 0x3e7881a9, 0x3e12ca33,
                               0xbe133102, 0x3ee2d011, 0xbdb6ba60, 0x3ed2c6d4, 0xbe926165,
                               0xbc417ec1, 0xbdadb74b, 0x3e0b8daf, 0xbe7e3ef6, 0xbe9271c8,
                               0xbf180756, 0x3d3f4cb9, 0x3e9a1118, 0x3e6b5456, 0x3d23c825,
                               0x3e08a30f, 0x3e750364, 0xbec3ac30, 0x3f37384b, 0xbe8ae2cf,
                               0xbe81951e, 0x3cf9e465, 0xbe2d8ace, 0xbd8e005b, 0xbe199faa,
                               0xbc039c8b, 0xbe164ef1, 0x3e96256f, 0xbe0181dd, 0xbe456549,
                               0x3d89fa87, 0xbe82af78, 0x3ea0b437, 0xbe41bc2a, 0x3e1e20bb,
                               0x3dcf6ad2, 0xbc8fba16, 0xbdb38a72, 0xbdb32418, 0xbe3f4f71,
                               0x3e2c09df, 0xbec7a232, 0xbaef8788, 0x3caae9cd, 0x3df20347,
                               0xbed8ea91, 0x3d0faad6, 0xbdc53c77, 0xbeff71c1, 0xbef6db1e,
                               0xbce206a1, 0xbdd1a8a7, 0xbc992c9c, 0x3e87a872, 0x3de03afb,
                               0xbdb4dc0c, 0xbe1788be, 0xbf1b3b68, 0x3e8bdea4, 0xbe5e4a2b,
                               0xbdbcc21f, 0xbe816344, 0xbd79623d, 0xb9e36484, 0xbf038262,
                               0xbf0a7ea5, 0xbd415780, 0x3eb5cd9e, 0x3e198b06, 0xbde6a83b,
                               0xbe5dfd73, 0x3f18e5dc, 0x3eb8b3f4, 0x3e9f015e, 0x3e2cec57,
                               0xbe833df4, 0xbefeab2a, 0xbeae1df6, 0xbd363c0e, 0xbdb3d0d0,
                               0xbefadb7b, 0x3e0da7b6, 0x3eceb4cb, 0x3eb85a14, 0xbdeae293,
                               0xbead6bd3, 0xbcfb9471, 0x3cad859c, 0x3e25eadb, 0x3e146cad,
                               0xbd0b0da2, 0xbdb92524, 0x3e17846d, 0x3e385857, 0xbeb37b5e,
                               0x3ecf7b6c, 0xbcc614f6, 0x3e87e58b, 0x3f48733a, 0xbc51eb59,
                               0x3e498738, 0xbeaed0f8, 0xbe9a770d, 0xbce64354, 0x3eaaa992,
                               0x3f031ac6, 0x3d4c427f, 0x3dda709b, 0x3d5fa24a, 0xbe02b103,
                               0xbde9e377, 0xbdc938e2, 0xbb6595f9, 0xbd4e42f2, 0x3f3856c6,
                               0x3c32ea9f, 0x3f235bfe, 0x3e802fce, 0x3e857724, 0xbd74f5d5,
                               0x3e799fa4, 0xbe61fdcf, 0xbed4e1a4, 0x3e6e50f9, 0x3e8caeee,
                               0x3e866c76, 0x3eaec225, 0xbea7de46, 0xbc9c3189, 0x3e49bd9b,
                               0xbdce07f6, 0x3e7545f0, 0xbe000998, 0xbc90951f, 0xbc453c8e,
                               0xbe4c9d38, 0xbee57d11, 0xbeaf3491, 0x3da6c5ac, 0xbe8d8b34,
                               0x3e497924, 0xbe0e094c, 0x3e50c2a0, 0xbdd75549, 0x3e16bb92,
                               0xbdc679a0, 0xbea61657, 0x3e87ce1e, 0x3e3af3e9, 0x3bef1f7a,
                               0x3ea719e3, 0x3e18184e, 0x3dd32eef, 0x3e517830, 0xbe1ed3a0,
                               0xbe140db1, 0x3f1678ea, 0x3e25459b, 0x3e6c188e, 0xbf07f840,
                               0xbf1156a4, 0xbd6a0921, 0xbe0724f4, 0x3f146437, 0x3cde5ec4,
                               0xbf15d4fd, 0x3e046e03, 0x3d52d493, 0xbec08c0e, 0x3e00c47b,
                               0xbdb415c7, 0x3f0729a7, 0xbd583106, 0xbd3bd5be, 0x3f05788d,
                               0xbf22c907, 0xbe70e92b, 0x3eb51018, 0x3995d4aa, 0x3dd759b5,
                               0xbd98a8a8, 0x3e0c4101, 0xbe6edf77, 0x3c685ec6, 0xbf100235,
                               0xbe9064a8, 0x3eed6277, 0xbe86e239, 0xbd1e8316, 0x3f09e859,
                               0x3d459882, 0x3df2398f, 0x3e1e80b5, 0xbf00fa67, 0x3f28d758,
                               0x3ef814eb, 0x3dd754ec, 0xbe80e530, 0x3f18006c, 0xbe12dae3,
                               0x3e7aa5fa, 0xbeb40c04, 0x3eb8f951, 0x3e72b447, 0xbe31c4ad,
                               0x3caacaf9, 0xbd95fc8e, 0xbeb5ce34, 0x3e9e2015, 0x3ef2a93a,
                               0x3e58ba60, 0xbe0cb74d, 0x3ed8ef7e, 0xbe0d71bd, 0x3efde608,
                               0x3e606834, 0xbddedc3b, 0x3e38cee1, 0x3e053026, 0xbf3ea959,
                               0xbdd9918c, 0xbe2d7c01, 0x3d9d24bc, 0xbc8f502d, 0x3f0a8128,
                               0x3f568601, 0xbed67a65, 0xbed0f99c, 0x3e04bc66, 0x3ea56ef4,
                               0x3e1e8da2, 0x3db69337, 0x3e1a2c32, 0xbe802820, 0xbece9d85,
                               0xbdb4a8cf, 0xbe4da130, 0x3ecc0ca2, 0x3e054481, 0x3d99bdbd,
                               0x3f01b876, 0x3caa9ece, 0x3e665227, 0x3ec1c36b, 0x3d91111c,
                               0x3e33857b, 0x3d8631f4, 0xbe2525e1, 0xbe945634, 0x3e0a654f,
                               0x3e2830c5, 0x3da6e1ce, 0x3e497ba3, 0x3e1d157d, 0x3e514e67,
                               0x3e90164e, 0xbebae51f, 0xbddd53cc, 0xbe78fa23, 0x3edd1072,
                               0x3d93c124, 0xbd460d73, 0x3e9004e5, 0xbed7ecd3, 0xbe201d83,
                               0xbf3c12f6, 0xbdde8540, 0xbcb27203, 0x3dc00944, 0x3ddb38f2,
                               0x3e2d3697, 0xbed69711, 0xbeb5a1ba, 0xbead48ca, 0x3da0c130,
                               0x3cf074e9, 0x3f23a912, 0x3edff2a0, 0x3e96c834, 0x3f2c4254,
                               0xbdb19ee8, 0x3eacd81c, 0xbed7f1be, 0xbf261b41, 0xbe5f67aa,
                               0x3dc9cdf2, 0x3e946623, 0x3ecc6892, 0x3eadc5cc, 0xbdee5a5a,
                               0xbf3fe298, 0x3f48ee81, 0x3e70fd24, 0x3e2672ef, 0xbdf146b9,
                               0x3eefda6e, 0x3dd50e14, 0xbe53ded2, 0xbe2cd9a1, 0xbe979324,
                               0xbf187225, 0xbea07c8c, 0xbf370fea, 0x3d82f590, 0x3f1b6a91,
                               0xbce7df59, 0xbe119592, 0x3f0bb574, 0xbdf96d93, 0xbe3b4c9d,
                               0xbf21c146, 0xba324dff, 0xbe83b8fb, 0xbe7ec496, 0xbdeb525a,
                               0xbe937494, 0xbd43d56e, 0xbed07602, 0x3e4e95f8, 0xbe588f2f,
                               0xbdd6ca83, 0x3b43dbb6, 0xbe48b90e, 0xbefa20f1, 0x3d90e1b8,
                               0x3ee2d9e6, 0xbe39e4e5, 0xbf301d84, 0xbdd3710e, 0x3de76c56,
                               0xbe2b1fda, 0xbe43894f, 0x3de61fd1, 0x3e53518f, 0xbec91110,
                               0xbe1b4e48, 0x3e3ced1b, 0x3e04cb53, 0xbf039016, 0x3ec3aeb3,
                               0xbe121ec2, 0xbec62571, 0x3f07671c, 0xbe09103a, 0x3e598b32,
                               0x3e69f554, 0xbe1e72f8, 0xbd08ea5d, 0xbcdad23c, 0xbdd4d16c,
                               0x3e1c2b27, 0x3eb93c2d, 0x3df6c7c5, 0xbc40afa1, 0x3d9f1635,
                               0x3ef2b3fc, 0xbdcbc0dc, 0xbe97968a, 0xbe93b717, 0xbd31e93a,
                               0x3ec3243d, 0x3e38eacc, 0xbe0e6869, 0x3ebfdbb7, 0x3c2caddb,
                               0xbf23bce1, 0xbe998f6d, 0x3e6a4492, 0xbda3d740, 0xbea4f379,
                               0xbeab10b3, 0x3f10192e, 0x3e9467b8, 0xbf02326a, 0x3d30ff56,
                               0x3dfcb755, 0x3e3aac2a, 0xbd4826c3, 0x3e65fc0d, 0xbea2c708,
                               0xbe2c8524, 0x3e535e0a, 0xbeab613d, 0x3e4e9b12, 0xbe521a22,
                               0xbe356ab9, 0x3e92ef2e, 0x3e8bb545, 0x3db4f93e, 0xbeb2f397,
                               0x393732c8, 0x3e8a3df7, 0x3e74a627, 0xbd229168, 0xbe9020df,
                               0xbe6e2dc3, 0x3e8fc092, 0xbe943efd, 0xbf2acbca, 0xbe5bcb7a,
                               0xbee3f574, 0xbd5ab01b, 0x3cf35535, 0x3eb0140c, 0x3da77373,
                               0x3e207c90, 0xbd00cd9c, 0xbdee88e7, 0x3d339c46, 0x3d0a6bfe,
                               0xbd620eff, 0xbd44cce9, 0xbef6415b, 0x3d90b406, 0xbea5e2ef,
                               0xbe50bc05, 0x3ee64e94, 0x3e807092, 0x3d9c31ab, 0x3dfaf3bd,
                               0x3db46e40, 0xbe30e54e, 0xbe6fbbff, 0x3ea2b992, 0x3cfd1b47,
                               0xbe165b2f, 0x3f1e7d9a, 0x3c55eb1c, 0xbec46407, 0xbd670dea,
                               0xbe47b420, 0xbf221c66, 0xbdc1f580, 0x3e77ce3a, 0xbeaf87d5,
                               0xbc75e76c, 0xbdbbfd6f, 0x3eb7858e, 0x3cc21b85, 0xbeb88d77,
                               0xbb50ffb1, 0xbf2d9fe7, 0xbe87a27c, 0xbe73964e, 0x3d9c466e,
                               0x3e7a4d60, 0xbe3fe557, 0xbe6abf72, 0x3ebc839f, 0xbe3f35da,
                               0xbf0c7067, 0x3ee62930, 0x3e19f054, 0x3d676088, 0x3dc725a1,
                               0xbf12a165, 0xbcd84fbf, 0xbdd28df2, 0x3dff3114, 0x3d8d01a6,
                               0xbd9c9e7a, 0xbcaac5b3, 0xbdc8e204, 0xbe8127de, 0x3de3dd86,
                               0x3e999ed3, 0x3e4f99b5, 0xbe156a31, 0xbea13c9d, 0xbcee0431,
                               0xbea87907, 0x3e8e3184, 0xbe2255fe, 0xbe5cdd86, 0xbd9876c8,
                               0xbe2d6344, 0x3f490ebf, 0x3e653385, 0x3e691741, 0xbe4744bc,
                               0x3e7fe967, 0xbe7f46b3, 0x3ea3f368, 0xbeddc10f, 0xbedede63,
                               0xbcfe29cd, 0xbeb51a2b, 0x3d9fa333, 0x3eb2e0fb, 0xbeb152f4,
                               0xbea948fa, 0xbf0331cf, 0x3ef2cca2, 0x3f161f7c, 0xbebfd412,
                               0x3e740b4c, 0xbe07a4be, 0x3e02579f, 0xbd7d86e0, 0xbe805daa,
                               0x3ea0a7a5, 0xbcd78d36, 0xbe49ca23, 0x3ec9d91d, 0xbef043fe,
                               0xbdbf38e6, 0x3ecfcf5f, 0xbeefa0a5, 0xbdb86da1, 0x3e871041,
                               0x3f0aed73, 0xbf02c554, 0x3dc95cc9, 0xbdaaed7c, 0xbdde730b,
                               0x3ecb976d, 0xbcd53626, 0xbe6c5084, 0xbe98c383, 0x3da32e6a,
                               0xbd0e198c, 0x3f03dfb7, 0x3cefd1f9, 0x3cd5ea90, 0x3c994f01,
                               0xbe8ef64f, 0xbe7f5dfb, 0xbf26d618, 0xbce64521, 0x3e2c37e1,
                               0x3f18c1fb, 0xbf079146, 0x3e141af4, 0x3bec8548, 0xbf029ec3,
                               0xbf0a136d, 0xbe1aa47a, 0x3ea3cfc0, 0x3e777dcc, 0x3e42d26b,
                               0xbe2823e6, 0x3e9cee23, 0xbe1d7a7e, 0x3ea35fcc, 0xbf05ecc4,
                               0xbddf309c, 0xbeeaac4a, 0xbe029f00, 0xbee89003, 0xbdef946a,
                               0xbe925927, 0xbee20134, 0x3e767424, 0xbd732763, 0x3f08a172,
                               0xbe2c9aa1, 0x3e4bce38, 0x3e9f5564, 0xbdd91a5b, 0x3ea820bd,
                               0xbeed0300, 0x3ed00ac0, 0x3e025059, 0xbf32483e, 0x3e018a07,
                               0xbda19486, 0x3debc681, 0xbc9bc3cb, 0x3eed8c3e, 0x3ec9c6fc,
                               0xbed26772, 0xbdd0e294, 0xbea8deb4, 0x3e943c6e, 0xbe5da8ea,
                               0x3f32b1e5, 0x3e1c2747, 0xbe0bb76f, 0x3ebce093, 0xbe1e6ae8,
                               0xba412464, 0xbeaaf0e6, 0x3e34b7d8, 0xbe1d7c16, 0xbe4b0cc9,
                               0x3dac11a8, 0x3f08f142, 0xbe79d249, 0xbf349797, 0xbeaf132a,
                               0x3e042406, 0x3ea5722c, 0x3e92254f, 0x3f4377d8, 0xbc8698db,
                               0xbeb94b9c, 0xbf03d3f1, 0xbf11aa7c, 0x3e9c339e, 0xbec0695b,
                               0xbea186c0, 0x3d4e1639, 0xbe348c40, 0x3f03ef3c, 0xbe100b9e,
                               0x3f77b764, 0xbdb90961, 0x3de7e392, 0xbe311533, 0xbddd519a,
                               0x3da95a13, 0x3ec06b86, 0x3ed681f5, 0x3e4a16fa, 0x3f20b700,
                               0x3e7c04cc, 0xbcd67db4, 0xbc77320b, 0x388e6de8, 0xbdab1924,
                               0xbf28763c, 0xbe3268c0, 0xbe833d2e, 0x3eb203d2, 0x3ee3e9ac,
                               0xbecb9cc5, 0x3f0cc776, 0xbe15be8c, 0x3e8b897d, 0xbf0d81cd,
                               0xbe581b70, 0x3e6684aa, 0xbf205225, 0xbec8a37f, 0x3d110183,
                               0x3ef49405, 0x3ec138bc, 0x3e1dbedf, 0xbeed4644, 0xbdb23916,
                               0x3e175bf0, 0xbf225c91, 0x3d7e0208, 0xbec56de2, 0x3e08ded0,
                               0xbe910ace, 0xbef2be49, 0x3e0f6b9c, 0x3e85a93f, 0xbe1e9f6d,
                               0xbe7e2acd, 0xbe01a4de, 0x3ef5f347, 0x3e4fca2f, 0x3e72324f,
                               0xbf460ae2, 0xbe8bbaa1, 0xbe92b614, 0xbd4c9dfa, 0x3d0a12f2,
                               0x3ea8a973, 0x3e499f77, 0xbccc33b3, 0xbd4acac0, 0x3f1d519f,
                               0xbf30c984, 0xbd8985a4, 0xbdfaa469, 0xbddb7e2a, 0xbded5cc3,
                               0x3e0a970f, 0xbf312143, 0xbdd5cfb3, 0xbdf47ce2, 0xbe431756,
                               0x3ef092c5, 0xbef34166, 0xbec6180a, 0xbeaf9f9f, 0x3bd2ad10,
                               0xbd88f4d5, 0x3efa4c21, 0xbe35c661, 0xbd648869, 0xbf651069,
                               0xbed1b054, 0xbd93bb31, 0xbd9b9f90, 0xbceb81cf, 0xbe9f4386,
                               0xbcde2354, 0x3e111a28, 0xbea23b0c, 0x3f0fa0de, 0x3e0b5380,
                               0x3e8510ab, 0xbd653495, 0x3e6c60ae, 0xbe1d256d, 0xbe980102,
                               0x3f13d52b, 0xbdcde7d6, 0x3be318d8, 0xbecb38ac, 0xbdd38741,
                               0x3eae1cfc, 0xbe06e59d, 0xbf211df0, 0x3cbbdd4f, 0x3cd04fae,
                               0xbe15d380, 0xbf316de3, 0xbd606ee3, 0xbd5b37d8, 0xbe201f2a,
                               0xbeede623, 0xbf0d35ac, 0xbb28b344, 0x3e4e9baa, 0xbf1617ac,
                               0xbd8a2ac7, 0xbe10d9db, 0x3eb07b9a, 0x3e2595ba, 0x3e2c656e,
                               0xbea13fb5, 0xbda35119, 0x3dfc95dc, 0xbdfd5e4e, 0x3ea9bf21,
                               0xbe081963, 0xbe1075cd, 0xbf109a7c, 0xbe9a1c05, 0xbe8710dd,
                               0x3e6ba306, 0x3d04fbab, 0xbed119fd, 0x3e5a2243, 0xbf01e842,
                               0x3eee7435, 0xbeb4b3e5, 0x3e7df597, 0x3ea8f984, 0x3f7939e1,
                               0x3e992767, 0xbeabc398, 0xbe3adf59, 0xbf0f660f, 0x3d9cb58c,
                               0x3e4ce993, 0x3ed7f372, 0xbf203a52, 0x3ed54cde, 0xbe521d3a,
                               0x3c8e0c9e, 0xbd60a1d7, 0x3d42d62d, 0x3f28e29d, 0xbda44a0d,
                               0xbeb1c81f, 0x3d3e4360, 0xbe8c3776, 0xbc52d1df, 0xbea3b353,
                               0x3e276546, 0xbdb0962e, 0xbe8b7b68, 0xbee7c609, 0x3c3e62a6,
                               0x3ddfacac, 0xbf04eefe, 0x3e080005, 0xbd3dfd9e, 0xbeebe9fa,
                               0xbe8157ff, 0x3d6fb8e2, 0xbe18887a, 0x3e9a0dd9, 0x3e11af38,
                               0x3e027ba0, 0x3b387c72, 0x3eac0431, 0x3edea00c, 0x3ea67ec9,
                               0x3e7d7f3a, 0xbe5a1e61, 0x3e5d89dc, 0x3ef772a1, 0x3f1b530f,
                               0x3d8ba4f3, 0x3db262a1, 0xbec454ab, 0x3e786191, 0xbea9c0bd,
                               0x3dbbfce1, 0xbc38c116, 0x3dfbe706, 0xbeeff2a3, 0x3e23af36,
                               0xbd54ab4e, 0x3f01d6ad, 0x3ea698c8, 0xbb51dd90, 0x3e9b4c6c,
                               0xbedcca8d, 0xbe34c6bd, 0x3c7ac87d, 0xbe9604c7, 0x3da7864c,
                               0x3e79d7a5, 0x3f2789f0, 0x3e5c6805, 0x3edf154b, 0xbe5d1efb,
                               0xbcc96910, 0x3e464915, 0xbe952d77, 0xbe002119, 0xbe43f057,
                               0x3de83216, 0x3eee1282, 0xbcecb037, 0xbdd78bbc, 0xbe9c7daa,
                               0x3e87fcc4, 0xbda97cfe, 0x3e05c643, 0x3e8aa048, 0x3e741ecb,
                               0x3ea6aa6c, 0x3d5d3136, 0xbd8d6e27, 0x3e2934b7, 0x3e296261,
                               0xbe7354ff, 0x3eff7b47, 0xbdb25553, 0xbe62bb94, 0xbf052436,
                               0x3e86239c, 0xbe374f42, 0x3dcad1fa, 0x3ecee752, 0xbe01141a,
                               0xbecf6031, 0x3c545d14, 0xbdf66564, 0xbebfaf36, 0x3e0edbb6,
                               0xbd85ca7b, 0xbe3559de, 0xbd2cfb6f, 0xbf0e1fa2, 0x3da25c52,
                               0x3ee7042f, 0xbba7624b, 0x3e022976, 0x3f016cfc, 0x3da61fde,
                               0x3eb75792, 0xbe4d13b5, 0xbeb1d25e, 0x3d5540d9, 0x3e6b9b31,
                               0x3d504626, 0x3ec0b9ea, 0xbeec89b1, 0x3eb18085, 0xbdae0cdf,
                               0x3e8565b7, 0xbe2f38f9, 0xbda49402, 0xbe639193, 0x3edfba5d,
                               0x3dfd49b7, 0xbdfa1da8, 0x3ea6ec86, 0xbddb037f, 0x3e939f44,
                               0x3e7329aa, 0x3daf6ae1, 0x3cc1d3d5, 0x3e6a149c, 0x3eb6e4ec,
                               0x3de24ce7, 0xbece9354, 0x3f05679b, 0x3c8bf1b3, 0xbf081bc3,
                               0x3e0dcc3e, 0x3d083a47, 0x3eb723d8, 0xbd94b22f, 0xbed6ce46,
                               0xbd07ee22, 0xbd8f8335, 0x3ebf8261, 0x3ec5717d, 0x3e923231,
                               0xbe7577f5, 0x3e4d6137, 0xbdb0f150, 0x3e492636, 0xbdc941cb,
                               0x3ebd57a1, 0xbf0dd152, 0xbd84629a, 0xbc4bbc39, 0xbd979a5d,
                               0x3d63dd9a, 0x3c943765, 0xbe5b54a7, 0x3e4089bf, 0x3e099da9,
                               0x3e30b859, 0x3e1162b7, 0x3da97393, 0xbf1efedb, 0xbe9968fa,
                               0xbe76321e, 0x3d122317, 0xbe6be724, 0xbf7689c5, 0x3ee0273a,
                               0xbe9ad918, 0xbe9e095a, 0xbe4e9bf3, 0x3e61888d, 0xbda83efb,
                               0x3dbd4cfa, 0xbf01a2e0, 0xbc777734, 0xbe8d09a7, 0xbe9250db,
                               0x3d3cb59a, 0x3d1dcd4d, 0xbe771438, 0x3e834a72, 0xbd0463be,
                               0x3c5db2cd, 0xbe619830, 0xbca2c1ff, 0x3e801b1d, 0xbe425a79,
                               0xbe4a2207, 0x3ee4a549, 0x3f191314, 0xbdf1c896, 0xbdb0d28d,
                               0xbe74607b, 0xbe34a13d, 0xbe00f01c, 0x3f1b2c4c, 0xbd58f889,
                               0x3eba43f0, 0xbe8972f8, 0x3f515f7c, 0xbdd3b547, 0xbee80224,
                               0x3ef8632d, 0xbd701d8b, 0xbe88475b, 0x3eb1f424, 0x3d95efe3,
                               0xbf08a646, 0x3e994ead, 0xbe1035c4, 0x3ebf2e13, 0x3e832d1f,
                               0x3da63b9c, 0xbf1dbe76, 0x3e205b13, 0xbf0542f8, 0x3e272823,
                               0x3f11c26b, 0x3e00ccb2, 0xbe89ea54, 0x3cbae569, 0xbebe1d25,
                               0x3d89c086, 0x3e95fe19, 0xbbe50b4e, 0xbf2553a3, 0x3e3b6d95,
                               0xbed67938, 0x3f15c4b8, 0xbe05eef6, 0xbe7e9822, 0x3c6ceb9f,
                               0x3d90a909, 0xbd5197e7, 0xbce52d64, 0xbf296add, 0x3e8c4009,
                               0x38d8007f, 0x3e93ad65, 0x3e1f85fe, 0xbf093d9d, 0x3eb52147,
                               0x3d9d53ed, 0x3f395d16, 0xbd80eb04, 0xbc5b994e, 0x3b9ecae0,
                               0xbcd26406, 0xbc8ac166, 0xbd6718bd, 0xbc83745f, 0xbf095fc9,
                               0xbe8d796c, 0x3ea17e49, 0xbf09ce28, 0xbcc1e840, 0xbe7bb6fe,
                               0x3dda7248, 0x3eb13455, 0xbdf8f27a, 0x3e9053b5, 0x3d1deee6,
                               0xbed4db0e, 0xbdc1c5fc, 0x3cad1a28, 0x3da2e79c, 0x3d257f91,
                               0x3e388029, 0x3e19eeca, 0xbd5a6f7f, 0xbf15e732, 0x3eba56dc,
                               0xbef1be56, 0xbc117f13, 0xbf37063b, 0x3cf22b76, 0x3e3bfcf2,
                               0x3eb6ce6d, 0xbddaadfd, 0x3f07d476, 0x3ec12594, 0xbf1154f4,
                               0xbed2b952, 0xbeb6d2ff, 0xbe9e6b16, 0xbb88ca42, 0x3eda1fe5,
                               0x3c8dc991, 0x3d2c7fe6, 0xbc805587, 0xbe937c5a, 0xbdf10f7e,
                               0xbf03deae, 0xbebae5b2, 0xbe522ee1, 0xbef72a8d, 0x3dcb4c09,
                               0x3e85cf8c, 0x3e9ef390, 0x3e115b7e, 0xbe8d5b4a, 0x3ec5a255,
                               0x3d97a1e0, 0x3ea9797c, 0xbe6588a7, 0xbea4cfc8, 0x3f0278e9,
                               0xbd8fdac7, 0x3f014b7d, 0x3c3eb0ed, 0xbdb325d3, 0x3ea93576,
                               0x3d36f2b9, 0xbd8b8096, 0x3e878ab8, 0xbe81fb69, 0x3ec80b6a,
                               0xbc7f5e95, 0xbea198b0, 0xbde6ba42, 0x3c2b3985, 0x3ebb450d,
                               0x3f2d18cb, 0xbf190b1e, 0xbe6b5112, 0xbe66d5c1, 0x3ec708d0,
                               0x3db8b835, 0x3e3e7f33, 0xbe7f0083, 0xbeceaf0a, 0xbebadcaa,
                               0x3c474e71, 0x3e8a80b0, 0x3f538cdf, 0xbeae44a3, 0x3d9ee981,
                               0x3f10c8d4, 0x3f0d014f, 0x3f0ffd42, 0xbe2106fb, 0x3e13d993,
                               0xbe32b6df, 0xbe1ba912, 0x3ef0514f, 0x3d4ed67d, 0xbd7384ba,
                               0x3de9b97e, 0xbea675a1, 0xbb0eb558, 0x3ea20fde, 0xbe91641c,
                               0xbe81d4d4, 0xbe29f450, 0x3e971696, 0x3eaf056b, 0x3dd44cc3,
                               0xbd4ab45c, 0xbe9ee5aa, 0xbe17c88b, 0xbe3001ab, 0xbe543f8d,
                               0x3ded0bc3, 0xbe846155, 0x3ecea321, 0x3ec1e95c, 0x3f0be1bf,
                               0x3e98a346, 0xbe6ea4dd, 0x3ea6ba1e, 0x3db0ef85, 0x3dc47df0,
                               0xbe94943c, 0x3edae621, 0xbd51a68d, 0x3dcddf8d, 0x3da01654,
                               0xbe4719bc, 0x3e9b1a6c, 0xbce19fe2, 0x3ee08bba, 0x3cd06d74,
                               0x3e4d035e, 0x3e28f53c, 0x3f085ff4, 0x3f0ec2e2, 0x3ea17f9b,
                               0x3e9ce518, 0xbee9a987, 0xbec34fdd, 0x3caca1ef, 0xbe82bc04,
                               0x3e1cbc00, 0xbe2eb504, 0x3d17b1b4, 0x3dab66f9, 0xbe397960,
                               0xbd69b60b, 0xbd9e0c9c, 0x3addb73c, 0xbe563d0b, 0xbe1130e3,
                               0x3e25ec43, 0xbf11ec09, 0x3e2e3570, 0xbe97e74f, 0xbebb2151,
                               0xbcc0c570, 0xbef76ae6, 0x3f144f24, 0xbdfcee1a, 0x3d9ae233,
                               0x3e3a7f8d, 0xbef18ed0, 0x3f3ed0df, 0xbeec07dd, 0x3e0050c7,
                               0xbe789fb3, 0x3e9fcc77, 0x3e913864, 0xbdebd53e, 0xbe296a87,
                               0x3da40c97, 0x3d990ef2, 0xbdac56e5, 0xbeb54d4e, 0xbd997844,
                               0x3e881681, 0xbefec49e, 0xbde98437, 0x3e1ec0d8, 0xbe1c6021,
                               0x3e2c3e15, 0x3e68c3ce, 0xbe3cce90, 0x3df7eeb2, 0x3e00e0d3,
                               0xbe637d07, 0x3cca1803, 0x3ec0178e, 0xbdbdcc37, 0xbee70e0b,
                               0xbe438d3c, 0x3edb79bc, 0xbe1600ed, 0x3e9eb1cd, 0xbd2a344a,
                               0x3e930aac, 0xbe32aa5a, 0xbec94a37, 0xbe089af5, 0x3e635c4d,
                               0x3cbe1e18, 0x3ea5073a, 0x3d341898, 0xbedd1327, 0x3e8fc5b3,
                               0x3eb21d61, 0x3e8bd1b0, 0x3e843e6d, 0x3e870827, 0x3e81eb56,
                               0x3e965888, 0xbf2acb85, 0xbeb3e709, 0xbe7c95b6, 0x3ee03464,
                               0xbe299499, 0xbe403642, 0xbd2edc5b, 0x3dd332a4, 0x3e1c7b6f,
                               0xbe1d3da9, 0x3e2507da, 0x3d22f556, 0x3dcd394d, 0x3ecf882d,
                               0x3ed7ad62, 0xbf4150b1, 0xbe1306f0, 0x3e536aee, 0x3d599334,
                               0xbd5cac36, 0x3dcf24a7, 0x3e4d9310, 0xbf353b00, 0x3af02bd8,
                               0xbeb31278, 0x3c72e13e, 0xbd89782b, 0xbf71566c, 0xbf0979b3,
                               0xbe23e995, 0xbd337a16, 0x3c7a035c, 0xbd5e7c32, 0x3ee97ac6,
                               0x3e85be52, 0xbe3ed137, 0xbd5d0d0c, 0xbdac9107, 0x3e3fd89c,
                               0xbeca758a, 0x3ec4ad64, 0xbce9b149, 0xbf04d67f, 0xbce2193d,
                               0xbc8829f2, 0xbf07b28e, 0xbe8de2be, 0xbe4fd378, 0x3eceef0d,
                               0xbca47944, 0x3d2d93ae, 0x3f13df8d, 0x3e97ff88, 0xbe1f028f,
                               0x3d82cbbe, 0x3d33e59a, 0x3d1128be, 0x3f0ed512, 0x3eb668a5,
                               0x3e27ac71, 0x3e89dc0f, 0x3e127950, 0x3e1240f7, 0x3f08d04e,
                               0xbe0254bf, 0x3e3e3176, 0xbdbcc85c, 0x3d00863d, 0xbca1e386,
                               0x3e1c53e2, 0xbd412887, 0x3e80e959, 0x3e89c8a2, 0x3e26d841,
                               0x3e38b00e, 0x3db90ad4, 0xbeb751ee, 0x3e841cb6, 0x3dd6a4d5,
                               0x3c1f07ff, 0xbda04c5c, 0xbe6b2cb1, 0x3d2c4460, 0xbf2ae718,
                               0x3f089ca1, 0x3b7314a7, 0x3bd8792f, 0xbd627b64, 0xbe69bee3,
                               0x3ef4d59a, 0x3eb345ff, 0xbd8652d8, 0xbc8e7fec, 0xbeb1fda7,
                               0xbeed68c6, 0x3d7e55fd, 0xbe512ec3, 0x3a10881e, 0x3cc30c2d,
                               0x3ea9d550, 0x3f71ced9, 0xbdf44b29, 0xbb4100d6, 0x3da7985f,
                               0xbd23997e, 0xbf162bab, 0xbef08dae, 0xbdb91077, 0x3e0d4fdb,
                               0xbd5512e6, 0xbdcac68a, 0xbead0f09, 0x3e82fc56, 0x3cbae1e6,
                               0x3eea3da5, 0x3da128d1, 0xbd90b6eb, 0x3c8263b6, 0xbf0659c4,
                               0xbe8ed050, 0xbebea7a6, 0x3cd2d3d6, 0x3cf2dd9f, 0x3e2ef860,
                               0x3e1f49fc, 0xbdf88b5c, 0xbde38981, 0xbd00e9bb, 0x3e329c8e,
                               0xbddabe1e, 0x3ee8c53e, 0x3ea3e4ed, 0x3d41c8bd, 0xbd0ed42d,
                               0x3bc80211, 0xbd97282f, 0x3e2c90ac, 0x3e6f79c3, 0xbd418dcb,
                               0xbdcddb88, 0xbe3c3e3a, 0x3e647d7a, 0x3ef5f2d0, 0x3ea7bfe9,
                               0xbdf56991, 0x3abac22a, 0x3d328c69, 0xbed3dbdc, 0xbd6e09c4,
                               0xbefd7ee4, 0xbe9479c0, 0x3d4bb802, 0xbb4d187f, 0xbed6c535,
                               0x3e53daf7, 0xbea5e82b, 0xbe932ca5, 0x3dc84bd4, 0xba0653fb,
                               0x3f54a010, 0x3d5b22a3, 0xbf041e27, 0x3ee1659d, 0x3d9794f6,
                               0xbd63c4ba, 0x3ee83c74, 0xbe9db1a7, 0xbeb6d2d9, 0xbe13a88b,
                               0xbdd65bd3, 0xbab5f6e2, 0x3e58f69d, 0x3f14f7b8, 0xbdbf2973,
                               0xbe438c0d, 0x3d37f291, 0x3cc9faf7, 0x3ba5eaa8, 0x3c9c3eca,
                               0x3ee95399, 0x3f27f7ea, 0xbd2bcad7, 0xbd9a7d3f, 0xbf485d1e,
                               0xbf1062e6, 0x3e4bdbcb, 0x3e474eee, 0x3d8aff03, 0x3d863048,
                               0xbebb6688, 0x3f2caa7c, 0xbe315925, 0xbe590161, 0xbd9e6030,
                               0xbd23668d, 0x3d52f006, 0xbeb63d60, 0x3f06bfc9, 0x3e6e078f,
                               0xbc8b56a8, 0x3d850b78, 0xbee4660c, 0xbef6a311, 0xbd5e21d3,
                               0x3d24b1b4, 0x3e0eb07b, 0xbd8af65a};

uint32_t bias_array[102] = {0xbe6ca8eb, 0x3e98c069, 0xbd75b60f, 0x3c086123, 0x3e3746d0,
                            0x3d5ba272, 0x3d984755, 0x3dd63389, 0xbe3ac4cc, 0xbe45e287,
                            0x3d688705, 0xbc4d23fb, 0xbd71e586, 0xbdf746c3, 0x3e77857a,
                            0x3d7b7604, 0xbd1e8625, 0xbf0903d3, 0xbeb2570f, 0xbe18400c,
                            0xbd32297a, 0xbe56024b, 0xbe7934bf, 0xbe4de5bb, 0x3d0f101f,
                            0x3efb8817, 0xbc811a98, 0xbd846fb8, 0xbd9c9342, 0xbd36754c,
                            0xbea32047, 0xbdae82f0, 0xbe05cba2, 0x3ca65ee3, 0xbe420e76,
                            0xbd80266e, 0xbe8a1fcd, 0xbe6e16b4, 0xbe224ada, 0x3e510c9c,
                            0x3c786557, 0xbd458b4a, 0xba6a4523, 0xbdd794b8, 0x3e74afb2,
                            0x3ea30cee, 0xbe30b6bf, 0xbe8e969a, 0xbe5780cc, 0xbdd0bfc5,
                            0xbd83b021, 0x3e5b19d5, 0xbe91708c, 0x3c3ccb3f, 0xbe4f89c5,
                            0x3c52c4e6, 0xbd1ba10e, 0x3d84f7c0, 0xbe5c2f03, 0xbd6e7832,
                            0xbe09fcd3, 0xbe021a11, 0xbdb72d19, 0xbddff34b, 0x3d1d7349,
                            0xbdaba56e, 0xbe1a65c2, 0xbeb19a07, 0xbe9d2eac, 0xbe5da404,
                            0x3e9268ee, 0xbde6aa3a, 0x3dae0afd, 0x3e9bdf31, 0x3e0c5efb,
                            0xbdbf6045, 0x3dfd6b7a, 0x3e1cc63d, 0x3dcd91bb, 0x3d46cf6b,
                            0x3d925784, 0x3e0537ee, 0xbe449162, 0x3e02cac7, 0xbe64917c,
                            0x3e195228, 0xbe971728, 0x3e04027f, 0x3d94aca6, 0x3d1b4987,
                            0x3e12d580, 0x3e369a6a, 0x3e0d17f1, 0x3cc2eb45, 0x3d07b517,
                            0x3e0569fe, 0xbd87815a, 0xbd7c7a85, 0x3de2094a, 0x3e275287,
                            0xbdbc1b09, 0xbe257a6e};