#include "policy_param.h"

uint32_t hidden_layers_size[3] = {64,32,16};

uint32_t weight_array[4256] = {0x3cb4fec4,0xbe44e69b,0x3f968040,0x3eac9103,0x3dae8aa1,
0xbe154dae,0x3de1097f,0x3d9406ef,0x3eeca4de,0xbe66ff41,
0x3f1b0d50,0xbf3035e5,0x3ec0bf4d,0xbd273d0f,0x3e13be37,
0xbf240e23,0x3f82a983,0x3e9f59da,0xbe80468f,0xbeb69362,
0xbe0cfeed,0x3f5d42a9,0x3edd40e1,0xbf0370da,0x3e3739ff,
0x3dbcda79,0x3f045df7,0xbe1b4869,0x3e8d804b,0x3ee66446,
0x3d1533e9,0xbf18585f,0x3ed813d0,0xbe449be8,0x3e438d5e,
0xbe9e4908,0xbf22866e,0xbd5c4b1d,0xbf34a986,0x3f2cc99e,
0x3e8ef175,0x3ec01db4,0x3eaf3c0b,0xbeded942,0x3fce2a03,
0xbe21403b,0x3f6642eb,0xbf28c550,0x3dca20f0,0x3d027336,
0x3f4918a4,0xbe837ec5,0x3f853e3b,0x3d2dbf09,0xbe98f9bf,
0x3e5b18f0,0x3e47d688,0xbdd2429a,0x3eb5f9e3,0xbed2189d,
0x3f2481ad,0xbe5f355a,0x3ec1ee84,0xbe2133fd,0x3d9867e7,
0xbc12dadf,0x3ec81be7,0xbe422bad,0xbe989e9b,0x3c429820,
0xbc3cf29b,0x3c60a10e,0xbefe16ff,0xbe5c8c61,0x3ef72181,
0xbde214ba,0xbd32b680,0x3ccd8bcc,0xbe8e74e9,0xbecdf2e1,
0xbfe0ab8c,0x3e88c2b0,0x3de6d5d4,0x3e2d3219,0x3e83fe7a,
0xbf12803b,0x3eed9fa3,0x3e70b1c5,0x3cd3a066,0xbde0d28f,
0xbe81d60b,0x3e6d9e6b,0xbd7ce96b,0x3ece160e,0x3d60cbb1,
0x3e945c68,0x3e62bf6c,0x3e142c64,0x3da39b78,0xbee968aa,
0xbec4338c,0x3d610931,0x3e85ed24,0xbf2d165f,0x3e56d0ae,
0xbfd2d82f,0xbfa7532c,0x3d8c29d9,0xbe778966,0xbd80eb33,
0xbeb12844,0x3eff4981,0xbd5a15ed,0x3d9a01a8,0xbea9f8fe,
0xbd896cea,0x3f07d894,0xbd0e1cbf,0x3f2b3b39,0xbe59033e,
0xbc898385,0xbdd0a52b,0x3e09b673,0x3d7d53f3,0x3e091791,
0xbd5c3279,0xbef83227,0x3cd0fd9a,0x3dbdfac8,0xc05e486a,
0xbfac4738,0x3fae1f8d,0xbf2d56cb,0x3fb4b779,0x3e36dce5,
0xbfa25904,0xbe3ad84b,0x3f8b6df7,0xc007d41e,0xbf34452f,
0x3e8b0fd9,0x3faf10ab,0x3ecd5e7e,0xbf0a8f8e,0x3f5ac2e1,
0x403ec6b9,0x3e862881,0x3ed009e1,0xbf2e9494,0xbf28b4af,
0x3f319132,0x3e9a2b13,0x3e7b5e27,0x3dea1708,0xc00905eb,
0x3f77913f,0xbcc97984,0xbf199d5c,0x3fe323fa,0x3f196de1,
0xbeae88d8,0xbf3dc9df,0xbe01c961,0xbe1772d9,0x4003628a,
0x3f4d2e32,0x3f4936c0,0x3f6a10ac,0x3dbd36d2,0xbf7dab57,
0x3df7375f,0x3d3d5dd0,0x401cdc1b,0xbf4c8991,0x3f26371e,
0x3f0475d6,0xbf4d9b78,0x3ead5504,0x3dbb4087,0xbf87d74f,
0xbe437580,0x407353ce,0xbed748fe,0xbfb61d8e,0xbf8fefb6,
0x40068527,0x3f14233f,0x3ff30076,0x3f8bc337,0x3f5a150b,
0x3fc117e7,0xc0bd2125,0x3ec5045e,0xc068f755,0xc02fc544,
0xbf5752f9,0x3e74c64c,0x3f5e7130,0xbfb9752e,0x400d03d4,
0xbff35111,0x3e4ed66b,0xbea3376a,0xbfdedbca,0x3de74794,
0xbfd9da72,0x3f45969b,0x3ffee8e7,0xbf2bfaa2,0xbde22524,
0xbe0bc60f,0xbe9f68b2,0xbf68f0f0,0xbfccc597,0x3f9119e8,
0x4003ac87,0xbf9c3137,0xc0355d86,0x3fc06262,0xbfd9258e,
0x3f1a0531,0xbf540e98,0x3f18c86f,0xbf15bcd8,0x3f168436,
0xbf38494e,0x40047857,0x3e85f922,0x3ff26036,0xc09ffa05,
0xbf82f8d5,0xbefd8483,0xc0117071,0x3de85d67,0xbf287768,
0x3daa27a2,0xbe3a7994,0xbeb2f7fb,0x3f149c19,0xbf8bb09e,
0xc033c2ec,0xbf037f99,0xbf9bd5ae,0xbf723630,0xbfbde9a4,
0xbec4b4a5,0x3c6a95eb,0xbd81e472,0xc01ba769,0xbf88890b,
0x3fb654ca,0x3e9f4681,0xbf7a7b56,0xbf57b60e,0x3ffa552c,
0x3f91cb36,0x3e16ca8f,0x3f0719a2,0x3b9327e7,0xbd7bc1c6,
0x3c072800,0xbeec61fd,0xbd758057,0xbe8efbb8,0x3ed7bc91,
0xbe534480,0xbea4a8cf,0x3eafc440,0x3f4e3a18,0xbf2f6807,
0xbee0b394,0x3f011383,0x3e3c8bc4,0x3ed1935f,0x3d81311d,
0x3e9cd511,0x3ef3020f,0x3f2fbb50,0x3e4f78d8,0x3dc8929e,
0x3e8a4c80,0xbee20918,0xbe7a370e,0x3d99a0c7,0x3ef1eb00,
0xbe3ce77f,0xbe94bcc6,0xbde00067,0xbf846478,0xbcc6f01b,
0x3e986778,0x3d79685c,0xbe795ed8,0xbe896415,0xbe8c77c6,
0xbc99f54a,0xbf468bd1,0x3eef7118,0x3e8ce25b,0xbe800f7d,
0xbe9b1827,0x3ed8aac5,0xbd5a497b,0x3e5694db,0xbeb2cc55,
0xbf6a74fa,0xbf1d44a1,0x3ebd90e5,0xbe17b62e,0x3eb8b0de,
0x3f6080a6,0x3d104abd,0xbef72906,0xbfe37c84,0xbf07d3f4,
0xbefca19d,0xbe5f2076,0x3dedeaae,0xbeb8186c,0xbeadca95,
0xbe61fa8b,0x3e7b4f57,0xbc4abfa8,0xbf924478,0xbe23334a,
0x3db07624,0x3e82fcf3,0xbef89642,0xbeea5610,0xbe8ff530,
0xbf1aebc3,0xbf2bee85,0xbe3b7d64,0xbf0e8cbe,0xbf2fbce7,
0xbf8f4d80,0x3e30da3d,0xbd6f7bbb,0x3e1a16f8,0xbe28ded2,
0xbeb90c36,0x3fc14188,0xbdf2eb5f,0xbea220af,0x3ecc45e0,
0x3e585648,0xbe2f199f,0x3eca7517,0x3ddc4a53,0x3ebed5e9,
0x3e057be6,0x3f5a89e9,0x3f4b5e06,0xbe5100f5,0xbedfe597,
0xbf2d8670,0xbe0f1efe,0x3e82318d,0x3e0510c7,0x3e611ae6,
0x3e9bfe73,0x3ec1ed58,0xbfd00a64,0xbf5f4261,0xbe16b0a2,
0x3d95fdfc,0xbf1ca686,0xbce6cfd0,0x3ee2fcf1,0x3e7f32a3,
0x3f6f058c,0xbe743a0b,0x3ef4d30b,0x3e3f21cf,0xbf151972,
0x3e8903ca,0x3f4f6626,0x3f5e48fe,0xbea1be35,0xbf05290d,
0xbe5f2fa2,0x3f4b1489,0xbf3db76c,0x3dfc9077,0x3ee0f674,
0xbebbcff7,0x3e5ab7c8,0xbfbbc38f,0x3be6e921,0x3ed7c14f,
0x3dcc2b93,0xbe985f77,0xbe957db2,0x3e54a43b,0x3f0b4c27,
0x3d42ae97,0xbeb28406,0x3ecc0514,0xbefa4624,0xbea69e50,
0x3f153fb2,0x3f33f8eb,0xbc8503e9,0xbde8c464,0x3e0f82ac,
0x3e968835,0xbedca209,0xbf288801,0x3d372b9c,0xbe73c153,
0xbe8e7ba2,0xbef1cb56,0xbedee0a4,0xbde78be9,0x3d5c82d8,
0x3d35cb1c,0x3e98c481,0xbe7a5e81,0x3e25cc2b,0x3eee8ead,
0x3f3dddc8,0x3e0f2af0,0x3e30c98b,0xbf10475c,0x3c8c67ba,
0xbf5f1475,0x3ddf7ca4,0xbe737f41,0x3d17e940,0x3def9ed1,
0x3f38577e,0x3db5b87b,0x3ee0fe8c,0xbeba288d,0xbea5b803,
0xbf29e124,0x3ebb6c73,0x3f46937b,0x3e00e8ba,0x3e9e329b,
0xbf3cb72e,0x3f339b99,0x3ef65022,0xbe8e5fb3,0x3f62d1ab,
0x3dca45a9,0x3e8f4d8d,0xbf4baf1d,0xbf2bbc53,0x3d9f0112,
0xbf0d4569,0xbe0801f7,0x3e0477c2,0x3e1f797d,0xbf9fd2bd,
0xbe8b5a1c,0x3c627958,0x3c8793f4,0xbdbece67,0xbef84ffa,
0x3ea3363a,0x3da824da,0xbd4db9ed,0xbe7a2087,0xbe1ae60f,
0xbcbe0fbc,0x3fb1e87c,0x3e9c8ca5,0xbea89d81,0x3f2a12db,
0x3db8acc8,0x3f3edcf7,0x3f27473c,0x3e18be46,0x3f2ce865,
0x3ee90661,0x3e94ed60,0x3d31059a,0xbe743424,0xbedb6095,
0xbe1b1da3,0x3ef61f31,0xbe62c9d1,0xbf6e276e,0xbe08dc8b,
0xbd023cfe,0xbed9bd2d,0xbf4c008e,0xbf72b119,0x3e4bc142,
0xbf33599a,0xbe5ed2a6,0xbd9713d4,0xbe6878c7,0x3f790f4f,
0xbe93aaed,0xbe746ae1,0x3f74f141,0xbf5af291,0xbea68d59,
0x3de32b4e,0x3db7c7c1,0x3f0d9db7,0x3e1b2a5b,0xbeb54ba4,
0xbd5bd162,0x3f1e7d4c,0xbb008c0d,0x3e5cfcb3,0xbf7a5d8d,
0xbdf696e2,0xbc1828b5,0xbc45bb38,0xbfaed6a1,0xbf888a72,
0x3f332b50,0x3e424879,0xbeb47351,0xbf9ab504,0x3fc6e08e,
0x3f0a1163,0xc0310efb,0x3d229d8f,0x3f95b728,0x3f030c9a,
0x3f92511c,0x3f45e7d2,0x3ea72ff0,0x3e4ae8c3,0x3edcaf47,
0xbf3a52dd,0x3ff00e5a,0xbf82e694,0x3f8c9e41,0xbdfda6bd,
0xbf26246a,0xbf3cf45a,0x4009903c,0x3eaa5130,0xbec4afc7,
0xbed7ca49,0xbf35a0c8,0xbf8100a6,0x3f09b120,0xbe54594d,
0x3fa55724,0xbeab6a38,0x3fd8ed18,0xbd4ac2d6,0x3ee66e65,
0x3f035ac1,0xbe208ea9,0xbfbc05dd,0xbf3bf662,0xbf131197,
0xbdd9da56,0x3e2e5a63,0xbdaa984f,0x3e7136a8,0x3fa1d064,
0x3fb6f4d1,0xbfd69672,0xbf02977a,0x3e71d447,0x3f32a979,
0xbf67ec74,0x3fafd440,0x3fca1668,0xbf41ade6,0xbf3b5d62,
0x3f8afe23,0x3f6a3cc5,0x3e83333f,0xbf3720d7,0xbfc21bb9,
0x3f19730a,0xbd96f89d,0x3f03395c,0xbfa6a66f,0xbd684044,
0x3f0f5bcc,0x3ea87726,0x3f59ce37,0xbfae1d87,0x3e86b591,
0x3efc2f52,0xbfc0c931,0xbec76bcf,0x3ef6bf4f,0xbf9566dc,
0xbf8f75a3,0x3fe422ae,0x3f2cea63,0xbe161b7e,0xbcf21a38,
0xbea716c7,0xbea12d41,0x3f4b8a22,0x3f69bc69,0xbf926b0c,
0x3f883ce9,0x3e3970fa,0x3f931663,0x3f49e581,0x3ffdb0cc,
0x3fca7224,0x40244cf3,0x3f8db0d8,0x3ea56d05,0x3fe60d16,
0xbf71a7db,0x3e9ebae0,0xbd72764d,0xbfb3060d,0x3f68f65e,
0xbdb9ad5e,0xbf5b0d9e,0xbf87619b,0xbed46fdc,0x3eac4c98,
0x3fb6d1a4,0xbebbf319,0xbdc32f19,0xbf30aeda,0x40240202,
0xbfcd968e,0xbfd320ae,0xbe520dd1,0xbec927df,0xbd98d226,
0x3f048e23,0xbf1967f3,0xbfe75cff,0xbf8afda5,0xbf472dbe,
0x3f45601a,0x3f45e113,0xbd5d9a51,0xbf030416,0x3f96f7e5,
0xbd8161ba,0xbe3a18a5,0xbec05c5c,0x3f35e58a,0x3e39396e,
0xbd7d85cb,0xbaaced0a,0xbd62b713,0x3dd0042a,0xbe01b959,
0x3d0227ab,0xbe044e10,0xbcd532c6,0x3efe06ae,0xbea73957,
0x3ec4bb8b,0xbcf40599,0x3e270f4b,0xbcb70bdf,0x3ed100cd,
0xbd11716f,0x3e427e57,0xbe419498,0xbdda9410,0xbbdb858b,
0x3c8b2426,0x3e13a19f,0x3d1ba7c4,0x3da40733,0xbe4722ce,
0xbe3273ec,0xbd56f676,0x3f05375d,0x3e836a72,0xbb971f52,
0x3de6c6f1,0xbcb655b1,0x3dee4e67,0x3edabd21,0xbe3bce45,
0xbee47ec1,0x3de202e6,0xbdd0917b,0x3d8065da,0xbd9d25e8,
0x3d0f66a1,0x3db0e720,0x3cdef416,0x3e4ad1d4,0x3d59d147,
0x3f0d6ce4,0xbee893bd,0xbd9b5fb2,0xbe0f3f61,0x3ebfd494,
0xbe30fbe1,0xbefff246,0x3e564ab0,0x3df7ea93,0xbd7c92b7,
0x3df9865e,0xbe228337,0x3e12f28a,0xbd990955,0x3d818d9c,
0x3d5f3d10,0x3df3b897,0x3e10737a,0xbd18c640,0x3cbcc7b2,
0x3e03fbd1,0xbca030e6,0xbca04919,0x3e79465d,0xbc835b1d,
0x3e372bb9,0x3ea54401,0xbe5b1f05,0xba46cd91,0x3e6513d4,
0x3d958b73,0xbcb55c4f,0x3cc6b2c7,0xbdcdd2dc,0xbd3e5ecb,
0x3ed87130,0x3e92877a,0xbe746e50,0x3e1d2317,0x3e0547b0,
0x3e088a0e,0xbda70ac0,0xbcd76c0b,0x3e321a9c,0x3e468d11,
0x3ec0f84b,0x3e809f34,0xbe6994c9,0x3c2fe0f7,0xbe5e130c,
0xbe946ec6,0xbdad3948,0x3dd1765c,0xbddd5273,0x3eb90950,
0xbe9415c9,0xbda67a48,0xbde25fdf,0x3dace33e,0x3bd80aa2,
0xbf28ccef,0x3ed58ab4,0x3dbe712e,0xbe5f2e0a,0xbe924184,
0x3e08f744,0x3da74d3c,0x3e83dddb,0xbe89965b,0xbe2f3638,
0xbeec64fe,0xbec86465,0xbcf68c8f,0x3e612f2e,0x3e275f4d,
0x3d988d28,0x3f07b380,0x3ddbcebe,0x3f3fb2c6,0x3ecc727d,
0x3f0c54e1,0xbded3c2a,0x3fbbbc3b,0xc00de30e,0x3dbfab7d,
0x3eabc1f0,0x3f2ca9a2,0xbe108ba1,0xbea4e6f4,0x3fa43820,
0xbdb949cb,0x3f02ab08,0x3f022482,0xbf1740d3,0x3ed24189,
0x3f2ad27f,0xbe329c95,0x3f69985a,0x3ff07b7a,0x3fca32c3,
0xbf598a41,0xbe26a0e7,0x3f73902e,0xbf875178,0x3ec95e36,
0x3fee8cca,0x3f54c91c,0x3f176b0a,0xbf5978dc,0x3f703048,
0x3c752bbc,0x3e7cfdf7,0xbf955068,0xbf26ac9a,0xbf17468f,
0xbf5bda6d,0x3ea71e02,0xbf86a0f1,0x3e60008f,0x3f33ef32,
0x3e0df06d,0xbe41eab8,0xbf3162e1,0xbe85afaa,0xbf4e93db,
0xbecaed56,0x3c93220c,0xbf61063d,0x3f0749a5,0x3fc672c9,
0x3ef344b5,0x3fa9c591,0xbc4d107f,0x3f8eaa59,0x3f7074fe,
0x3f7fd95a,0x3ea33fde,0xbfbb1c50,0x3f3b7d01,0xbf13d47e,
0xbccd765e,0xbee5bcfe,0x3f6a6642,0xbd039d59,0x3e9c1198,
0xbde08d38,0x3f2fa08d,0xbfe555ac,0xbecfe491,0x3f782d0d,
0x3ead7de0,0xbebdb5d9,0xbf1b6244,0x3f39548c,0x3ed935fe,
0x3ed71087,0x3f3fc0ef,0xbe36303e,0x3ef48133,0x3f259a9d,
0xbe9e04ef,0x3f8549cb,0x3f9dc01b,0x3fbdc204,0xbdf8ee00,
0x3f428c03,0x3e9aaae7,0xbf9dc39a,0x3f6709b7,0x3fa3571a,
0x3f90e5d1,0x3e044143,0xbee7dbc7,0x3f44ac9f,0x3ce5ac24,
0x3dc7d622,0xbf5143b5,0xbe5e6e7d,0xbc4ff038,0xbf798168,
0x3e19e227,0xbf7e753b,0x3eeea4c4,0x3eae06c6,0x3e1283cf,
0xbef579a9,0xbf5763c5,0x3e542e7a,0xbf03e13d,0xbeda69ed,
0xbf6aac74,0xbf1de3aa,0x3f1410b9,0x3f8c9903,0x3dd6131c,
0x3faaa051,0xbea313e1,0x3f1c4b72,0x3e8cbaa5,0x3f336029,
0x3f1685c7,0xbf479954,0x3ea2137c,0xbf1b6348,0x3ef576b8,
0xbf505808,0x3eab3e5f,0xbdaffe4a,0x3f71fa8b,0xbe923bc9,
0x3e721288,0xbdc29515,0xbe934141,0x3f0f9537,0xbe1390ea,
0x3e9f0a78,0x3fa6e73a,0x3dc306bf,0xbecf1e2e,0xbdb132c3,
0x3f88a213,0xbe1cfc6f,0xbdd20b2d,0x3e734acd,0xbe0a5e06,
0x3d9d9bae,0x3fa3fed1,0xbea58719,0x3f73cbd3,0x3e24fd2b,
0x3d8510a2,0xbda36a3f,0x3d11bf26,0x3f88f142,0x3d0047b6,
0xbea2fccb,0xbcc04686,0xbf692bbb,0xbf068133,0xbf15f8d3,
0xbe9efcea,0xbf0ec981,0xbf07aa27,0x3dda9e8b,0xbe8cdfc1,
0x3e8e5ff3,0xbc81a186,0x3d3916ef,0xbfb1ee1a,0xbe5c31eb,
0x3f2259b1,0xbf0628cc,0x3f342416,0x3d18ab65,0xbe11545b,
0x3e7a33f8,0x3e8bb640,0x3f096b14,0xbe4edceb,0xbed10fda,
0xbdf3137a,0xbf4bacd5,0x3df871aa,0x3f524e75,0xbe662b02,
0x3d60b460,0x3dab6aeb,0xbd9704df,0xbfad6e10,0xbe10f411,
0xbdaeeb48,0xbeb0815b,0x3f86d46a,0x3ec77ccc,0x3dbd0a42,
0x3ead571c,0x3ebc4361,0xbf0f3f18,0x3f8d7170,0xbe30c643,
0xbe9326f5,0xbe4711a5,0x3f294da3,0xbe54f8cb,0xbe692f6f,
0x3f7df12b,0xbfa92f68,0x3eea4902,0x3f374f4f,0x3ecc8288,
0x3d82aa46,0x3ef3eb03,0x3f8a9360,0x3ecdb399,0xbdba4fe8,
0x3e509b84,0xbe7adf85,0xbe263e3e,0xbeb733ee,0x3e84f73f,
0xbd1e89db,0xbf5bd24e,0xbfc6c706,0xbeb5ee7a,0xbeacd61a,
0xbf5bd39c,0x3d65fdbd,0xbe8df79e,0xbd938b8d,0xbf53607f,
0xbef1d546,0x3f312bb7,0x3f52d7d8,0xbea352a2,0xbee76164,
0x3db46fb8,0x3e256e3d,0xbcf88499,0xbe420af9,0xbed4b1a9,
0xbf3218e4,0xbe3a15ab,0xbf9989ea,0x3f2895f1,0xbf0ec053,
0xbf097a21,0x3e168c98,0xbf84a230,0xbe6a691d,0x3f2ed3b5,
0x3f41596b,0x3d5feaf2,0x3eb98426,0x3dfbea65,0x3d6c242b,
0x3e19d686,0x3e9257fa,0xbf9626e4,0x3ed411b2,0x3dc9d1f9,
0xbd61ebe5,0xbe66d614,0xbed9c8b7,0xbdf96a4f,0xbe7b9dba,
0x3eb99e63,0xbf30d785,0x3df8978c,0x3c239f93,0x3efc12e2,
0xbe0a94e7,0xbe58b803,0x3da736ed,0xbd1b71a3,0xbbc0cf86,
0x3bdbde04,0x3f202117,0x3ed5bd5a,0xbd323b21,0xbd5f6123,
0xbe303c49,0xbda26586,0xbe96df2a,0xbf493c52,0xbd63e9f3,
0x3f2e0a7f,0x3e62eadf,0x3eaecfcc,0xbe29cf44,0x3de029f2,
0xbe7642f7,0x3b1460d2,0x3f218915,0xbf2fd8d1,0xbeac5a50,
0xbe678cae,0xbfc8a413,0x3f03aa39,0xbfbca684,0xbe6f2e02,
0x3edf9df3,0x3f28e74b,0xbe15a39e,0xbe514854,0xbd7c9d91,
0xbdd5f78c,0xbefb149c,0x3d670608,0x3f8bd7d9,0xbe9b5b48,
0x3ef43570,0x3ea030e3,0x3e4b6772,0x3ea24914,0xbe829121,
0x3ebbb180,0xbd3a650f,0x3db91f5a,0x3f8e8f10,0xbdeae6a8,
0x3efbdc30,0x3e932420,0xbd770081,0xbe1943a0,0x3f9f2256,
0x3df6846d,0x3f016e08,0xbea4f543,0x3b87772e,0x3e2a19bf,
0xbe472d9e,0xbe7ac57e,0x3e8c57ce,0x3dc4fa99,0x3d85a534,
0xbca23e66,0xbf9e3074,0x3e0d6626,0x3e409a0e,0xbd567428,
0xbe7ff08a,0xbe767566,0xbf461979,0xbe3051db,0xbeca0f8a,
0xbed963d5,0xbef320e1,0xbe367ac0,0x3e68fb8c,0x3e7c13ff,
0x3d866f70,0x3caedfac,0x3e63226f,0x3e576039,0xbe278fa4,
0x3d55a3c3,0x3f02416f,0x3f09c354,0x3e95f17e,0xbd6e64b3,
0x3e8ae1e0,0xbf3811ef,0x3c8ffa26,0x3f3a6eaa,0xbf282f9f,
0x3ecd0a5d,0x3eb96326,0xbf80f6ed,0x3f17b62a,0x3e1a609f,
0x3e5d9631,0xbbbdf2b4,0xbf72e338,0xbe2c7e6f,0xbd8f05ce,
0x3e122342,0xbe64f3c7,0x3d780a9f,0xbf14ee8c,0x3f76fb58,
0x3e6f58f3,0x3bb96c89,0xbd13ead5,0x3e3bf42a,0x3e1a8f3c,
0xbe85b1a1,0xbf8099ae,0x3fe4cf92,0xbf17ceaa,0xbf2ca2dd,
0xbf0db1d7,0x3eb94751,0x3f4e5995,0x3dbd42ae,0xbf1b973b,
0xbe6ce926,0xbe3638d3,0xbe39bf45,0xbe01d3ab,0xbf5deffa,
0xbf025d56,0xbe6eddda,0xbfda653a,0xbe276e6e,0x3e11b005,
0xbd1ff2d2,0x3dde442e,0x3fa70d5e,0xbf714c44,0xbef11b63,
0x3e87ac9c,0xbe93f0e1,0x3f53995f,0xbc9ef576,0xbdc09563,
0xbe49f321,0x3ff00bb0,0xbeba2fe8,0x3f81ac0d,0x3fa1704c,
0x3f8a7bb0,0x3f3b6174,0x3f0e9714,0xbf93fc83,0x3efafaf7,
0x3e48c144,0x3e82485b,0xbf8513b3,0x3e592edc,0xbe3f1a41,
0xbf07ae9b,0xbd3b4b15,0x3f2792d6,0xbf81e16d,0x3e889b7c,
0xbfb4069c,0xbf13738d,0xbffbcc35,0x3f16e829,0x3f1f6480,
0x3e5ecefa,0xbd073dcc,0xbe379425,0x3edcafad,0x3ee04b7e,
0x3e139ccd,0xbcc22c73,0x3c061c55,0xbe84bf7b,0xbe0f8364,
0xbd93112a,0xbd326aaf,0x3d80df9e,0xbd813a3b,0x3ce3f4ad,
0x394c31c7,0x3cab8de0,0xbd9e716e,0xbdb875f9,0x3dd4d53a,
0xbe1a4a8a,0xbcb366c1,0x3d31365e,0x3d4ef9aa,0xbd44c25e,
0xbc7694fa,0x3d5744b6,0x3e3b6067,0xbf0fb0a1,0xbdbca1d3,
0x3d9aead5,0xbcf35767,0xbd2db6fe,0xbe2a9332,0x3d9b1acb,
0xbe179e5b,0x3c02aef5,0x3e8c9542,0x3e0c58f0,0xbe0ce132,
0x3cfe9c20,0xbe28efda,0xbcb43216,0x3caad90f,0xbd5a93c7,
0x3e48034b,0xbdd46fd0,0xbd2aaa52,0xbe0743e7,0xbf805b9d,
0xbc917541,0x3d745e54,0x3e5ef1a6,0x3e47350c,0x3d417f8d,
0xbcaf1ab5,0xbf06a8c2,0x3eb18ac9,0x3f30fdc9,0xbc8c85b4,
0x3debb242,0xbdbfb49f,0xbe972e7c,0x3f021286,0x3c575d88,
0x3e240f67,0x3e166c13,0xbd6cd2bb,0xbe8f32e5,0xbbfe4026,
0x3cb2cfc8,0xbc3c38d3,0xbd4ed293,0xbe055dd6,0x3e080bb4,
0x3ce8762f,0xbc6d2b37,0x3b6f3fcd,0x3e2ebf2a,0x3db99017,
0x3d3503b4,0xbc23bfec,0xbdcea19d,0xbe8c0509,0x3dbbcec3,
0x3e25d21b,0x3bec2fef,0xbd1ffdb1,0x3d034c08,0x3dbf8779,
0xbc044941,0x3e350cd1,0x3e851fbf,0x3e3175e8,0x3c1e8442,
0x3ba2541c,0x3d9fa3ce,0xbdd8214f,0xbd79e39e,0xbcaea3bc,
0xbd67463f,0x3eae9949,0x3e8511ab,0xbd8d0522,0xbc841da2,
0xbefce5e6,0x3d4d6354,0x3c4ffb66,0x3d72261e,0xbe945ce5,
0x3dc5e45e,0xbd78c614,0xbe84160a,0x3e572251,0xbb662bd4,
0x3e23615c,0xbf05c4a5,0x3d859690,0x3ccb7b97,0xbd8d04ca,
0x3ec8f9c9,0xbe99f97e,0x3edeb88d,0x3cc16bfe,0xbe87e9f7,
0xbb413e8e,0xbed74fb8,0xbea8b77c,0x3d1207fb,0xbddec7b7,
0x3e2d96f7,0x3d8f8048,0x3ed39c38,0xbc594bdd,0xbacbb59f,
0xbc61d344,0x3d457995,0xbe8c896c,0x3c5c37f8,0x3bae3f35,
0xbcaae7d2,0x3bfcccd9,0x3eb1e605,0x3cf0bcba,0xbcfbb9bf,
0x3d73f375,0x3e4e8395,0xbd04a512,0xbdb37368,0xbf0e9f3b,
0x3babb0e3,0xbb77d445,0xbbec6c48,0x3c85e04e,0xbc8f9ecf,
0xbdc1e61b,0x3de8dd19,0xbdaf36ff,0x3a4fc456,0xbb4587fb,
0xbc68d914,0xbd0992bc,0xb86bffbe,0x3bd16e68,0x3ca45871,
0xbe404bd4,0xbe1fe063,0xbe81b0a6,0xbbe558f3,0x3e8d55b4,
0x3e21b42a,0xbb1f8dbd,0xbd5a70a7,0x3d8f846e,0xbe347558,
0x3c9757da,0xbd648a85,0x3e8eb00c,0x3ba4e3dc,0xbbd599d4,
0xbe595368,0x3c663aee,0x3d233574,0x3d4d0d01,0x3f2a27c2,
0xbda35732,0xbf29548b,0x3cbebefa,0xbd1a8989,0x3d167652,
0xbe2605af,0xbc11d454,0xbd1086e4,0x3cc2917e,0x3c07b4ea,
0x3d07339c,0x3f355e0f,0x3be7bc99,0x3ca80db6,0x3b265fe9,
0xbdb51198,0x3e2c97d5,0x3e8136f1,0x3ca948a6,0xbc19c3cd,
0xbc29d6b5,0x3ed1e7f6,0xbc412db5,0xbd141e9c,0xbd1c18bb,
0xbd704383,0xbced2f69,0x3e46aa64,0xbe3a6c55,0x3c000259,
0x3bfee421,0xbd2b400b,0x3c58311d,0x3c38dcb2,0xbc769129,
0xbee7fa70,0x3e024403,0xbd22d1fe,0xbc9cbfed,0x3c85e968,
0x3c46e998,0x3ba4bc19,0xbddea350,0x3c402d2f,0x3e0cd582,
0xbe1e0e76,0x3e8929c3,0xbcf4313d,0xbed90a25,0xbe2ff443,
0x3b833cd0,0x3dd32dda,0xbdac01f5,0xbf09584d,0x3cbc1393,
0x3e4b9ee3,0x3d3aefb7,0x3c1ced52,0x3d291220,0x3dd11041,
0xbe10bb66,0xbb9dcd25,0x3ca41c89,0xbf0972b7,0xbebbc12d,
0xbf004345,0xbcfd886c,0x3dfb061e,0xbbd73aaf,0xbd1360d9,
0xbdeb62f0,0x3c1ebbca,0x3bc479c5,0x3c07ecc9,0xbcbb95d0,
0x3ec853e0,0xbc0a77c2,0xbbe8eade,0x3c829687,0xbe7c158e,
0x3e45ac51,0xbe8816d5,0x3c05d903,0x3c0ee614,0xbbffdf23,
0xbe76ad09,0xbc65ddd6,0xba2d3daa,0xbbf03744,0x3d92b6d9,
0x3e74c16a,0x3d393905,0x3e7bc46f,0x3c00d30d,0xbc7f6914,
0xbc6b23f9,0xbc5b2047,0x3c23eaf0,0x3bcdc9cf,0xbf0a86c5,
0xbb92b6a9,0x3cd7aa85,0xbb8a206d,0xbd4fd191,0xbd8e4c86,
0xbd4bb0d5,0x3db1dcf7,0x3cc59150,0x3e5e7123,0xbdb98857,
0x3e06dc84,0x3c96832e,0x3cc04c26,0xbe55cc5b,0xbc45ab06,
0x3e04042e,0xbe948811,0x3e66a380,0xbcb50b6c,0x3d8a9441,
0xbd0eb4b5,0x3a3c1ab0,0xbc6fa7c7,0xbe0c5ebe,0xbe40a381,
0x3b885993,0x3b662dc0,0x3e67d3d9,0x3ec4e69d,0xbbe2c6ee,
0xbc5d9a62,0x3dfdd31a,0x3ce08c56,0xbe72b7cb,0x3e0248ce,
0x3ce0bf68,0x3d2a4472,0xbda8d72b,0x3cdbe818,0xbeb9b3c4,
0x3b502134,0xbbdce2ea,0x3c27cc84,0xbe1d2cce,0xbe993841,
0x3de85b35,0x3c0f9d94,0x3c294a10,0x3c259d14,0xbe420a96,
0xbc843c4e,0x3bba9f41,0x3cbb7258,0x3c86adc3,0xbda6701a,
0x3e125669,0xbed47898,0x3cf76511,0xbc33afb5,0xbb35b386,
0xbd32d6e5,0xbc8e90d2,0xbd66491b,0xbeaba819,0x3c21be2d,
0x3bb08c7d,0x3ba11bf0,0xbcea15d5,0x3ca7c4b0,0x3df1eb0a,
0x3d415348,0x3bf258ea,0xbe10cfd0,0x3c78b447,0x3e267248,
0xbb3fc1b3,0xbeb8b043,0x3e89818b,0x3cbe8339,0x3e3d6a03,
0x3f18b06a,0x3e2964d8,0xbd23c437,0xbd303470,0xbea0a79d,
0x3aa47129,0x3cdb6e20,0x3d43231e,0xbe35a633,0x3cd5c711,
0x3ca31fac,0xbc9da05c,0xbe39766c,0xbe1b7345,0xbc9e2da9,
0x3aaa48ff,0x3cc53907,0x3e10a610,0x3dc573da,0x3ac955ee,
0xbd0ea88a,0x3cfb34c6,0x3c07c6d0,0x3e9d7b78,0xbc4bbf2e,
0xbd30ff65,0x3e4631dc,0xbd664a4d,0x3e2f0907,0x3e268719,
0x3ed1b7e8,0x3f970b24,0xbe27cbcc,0xbe09284e,0x3d70b88f,
0xbddf804b,0x3e0650df,0xbec0d5a8,0x3f06ca9b,0x3f162624,
0x3e5b0dc2,0xbe3f4374,0xbe7d6e04,0x3f57d8d5,0xbecfbc3f,
0xbf1c43ba,0x3e6f8397,0xbe898a15,0xbde0b7de,0x3d3f591d,
0x3f29548c,0x3f175c7e,0x3ed7c861,0xbf12211c,0xbf0cfa90,
0xbe9deb08,0xbe9c143b,0xbf72ccb2,0xbd03b474,0xbf0e82ab,
0x3f809c59,0x3f090735,0xbd87532d,0xbf09406b,0xbead4c5e,
0xbf4ae657,0xbd81645e,0xbf9d96fd,0x3f4e0854,0xbdbd04bf,
0xbd730403,0x3d12e6e4,0xbe085821,0x3f3a7150,0x3eaa7ce0,
0xbf90f97f,0x3f7f6028,0x3e200834,0xbfa16917,0xbccd1dd4,
0x3f91681f,0xbfa93e6a,0x3f618ef4,0x3f10d581,0xbe7fcec0,
0x3effcd0a,0xbf9acf4c,0xbeff13e4,0xbfa37262,0x3f12c6f7,
0x3e0b37e8,0xbcfd58e7,0xbdeb0cbb,0x3e74c545,0xbcb3575e,
0x3c44c4e0,0xbeed179b,0xbbdc6e1f,0xbef35212,0x3d7360c5,
0xbe5e79ec,0xbeb8d814,0xbe3148bc,0x3f0981f0,0x3d8e92c9,
0xbc4f0960,0xbe3a198e,0xbe946bf2,0xbe4877a9,0x3dc9e5e3,
0xbda7e3ec,0xbeacab1a,0x3d95eb8d,0x3f089a0e,0x3d83d636,
0xbe34158b,0xbe4560a8,0x3d83a8f8,0xbec52db5,0xbe40494e,
0x3df49660,0x3d62535d,0x3df59099,0xbeafab50,0xbda088d8,
0xbda249ff,0xbe417c89,0x3ca65cb7,0xbe7fb5e8,0x3c34c531,
0xbe924260,0xbbedd881,0xbe366961,0x3d7dd750,0x3c46279b,
0x3e557aa7,0xbca0c3d5,0x3d803f83,0xbc5fdbc8,0xbe1766f4,
0xbe3ea2a8,0x3c2f862d,0xbc660e78,0xbe10f60d,0x3ae38963,
0x3d05031d,0x3ec03275,0x3f3d4326,0x3dda4156,0xbd669b7a,
0x3f2946ff,0x3c2b0ad7,0x3e97c51b,0xbeba7b44,0x3bc37a24,
0x3d8482ee,0xbbee6032,0x3dfcf53c,0x3f07e8d1,0x3dc89c61,
0xbdb5ad6f,0x3e0a469b,0xbd022f0e,0xbee29183,0xbe18be2c,
0x3e0010b3,0x3eb86329,0x3ed80fc1,0x3d0fd860,0x3e0e7b73,
0x3d9466b2,0x3e2679f2,0xbdc3c12d,0xbf1c9b36,0xbdbcfd05,
0xbeb1605c,0x3e017705,0xbde41904,0xbcb5ff9a,0x3d8e02ac,
0xbe1f9c3f,0xbe42cdd4,0xbe1281e2,0xbeef781a,0xbce39b08,
0xbee44777,0x3e9ee37f,0xbe2baaf0,0x3e9541ec,0xbf5cde2f,
0x3e76c9c6,0xbe9ba81b,0x3d879ff7,0x3ea5abd8,0xbf1470c4,
0xbf1d9a48,0xbf24d56e,0x3e2f7630,0xbf7fe78f,0xbfa49885,
0xbe69b8da,0xbf74b7de,0xbfa5c5f3,0xbd1fceac,0x3f0e563d,
0x3f96dba4,0xbf9a6165,0x3ea5b044,0xbf2b2530,0xbccad456,
0xbf3e39d1,0xbeab7634,0xbdda5eba,0xbebd6239,0x3da10ce3,
0xbef6fe5c,0x3f8534bf,0x3ea40e6e,0x3d8643bd,0xbed9e1c0,
0xbd632d20,0x3bdf2a14,0xbf2bf5c5,0x400ba52b,0xbe8aabe1,
0xbeb9c93f,0x3f850651,0x3ecd3604,0x3f5c4f29,0xbee69848,
0xbe46a051,0x3f22eeb8,0xbe87b1a5,0x3d5846bb,0x3f097284,
0xbb3ccb33,0x3f204493,0x3ea237bc,0x3e49cb50,0xbdd9e4ec,
0xbe8a3a06,0xbd14c907,0xbed8cd57,0x3fb2929e,0xbf093455,
0x3d9c750d,0xbe4af455,0x3cfa6132,0xbf9a506a,0x3f4e09f2,
0xbf359285,0xbaaec4be,0xbf3b6897,0xbdea436b,0xbf11c833,
0x3f80e6ee,0xbea7d905,0xbf59dc98,0xbf48a899,0x3ed372ea,
0x3ebfde08,0xbe9ac271,0x3edb81aa,0xbf350fac,0x3f047afd,
0xbf4338df,0x3d39e9e3,0x3d50d085,0xbf2bdd53,0xbec7947d,
0xbd156d17,0x3c834624,0x3f2b2a82,0xbd8e24a9,0x3ef81c07,
0x3dd58038,0xbe1549fc,0x3e3100a6,0x3f14399f,0x3eedd89d,
0x3f27a8f5,0x3ce8c022,0x3e7985e2,0xbdfb646e,0xbe114f80,
0x3dc5a706,0xbd8b3dd5,0xbb6c2caf,0xbd9261e4,0x3e6b4955,
0xbea32baa,0x3e0e39db,0x3f338efb,0xbd9ed3e6,0xbd76e14b,
0xbe05ddaa,0x3d6721a0,0x3db96317,0x3de2eecd,0xbefa4341,
0x3de4ef31,0x3e2e20d1,0xbeb663c8,0x3e747cd4,0x3d7c55c7,
0x3ed1957c,0xbea720ba,0x3d9dc1e5,0x3d2e3122,0xbda28da0,
0xbd110f94,0x3e1c3577,0xbea5c291,0x3e48a9dc,0xbf009c27,
0xbf0188f7,0x3dfc2d7a,0xbe7e5452,0x3f341925,0xbe3d605c,
0x3e9e5d78,0xbdd0828b,0xbf3e2238,0xbe2ee24b,0x3eb428c5,
0x3e5c33cc,0xbdfb1bb0,0x3b168e61,0xbd8f603a,0xbedba11d,
0x3db7236b,0x3f0b5320,0x3e246428,0xbc86fa37,0x3f090062,
0xbe5c0c9a,0xbdffc8f4,0xbe15e9f5,0x3ceceaec,0xbf06a81e,
0xbec15eae,0x3e313d63,0x3d73a750,0x3a5e2395,0xbf0a930f,
0xbf0c3de1,0xbf1bee7e,0x3dfe8b09,0x3ee07fe1,0xbc9a7b4f,
0xbdc1e563,0x3c6cd8d6,0xbf439873,0xbed54ca8,0x3ded826d,
0x3f1409be,0xbd72650c,0xbdb74756,0xbf05f8ac,0x3e86a5ff,
0x3ea1a421,0xbf2b5dd4,0x3e8ae063,0xbdfd3fa8,0x3d6bdff5,
0x3dd1f01b,0xbd2495f2,0xbac830c6,0x3e6fe56a,0xbe9d4894,
0x3f7caba5,0x3ecc1f46,0x3e35ac28,0x3def9192,0xbe288af4,
0xbdc55ad7,0x3de0cd2c,0x3e05084f,0x3f1c32a3,0x3edb3533,
0x3db94aaa,0x3e26482f,0xbe361291,0x3de07147,0xbe4ec95a,
0x3eb4481f,0x3df770d9,0xbea1c875,0xbecc15ae,0xbdd9b4c4,
0x3e4ce60a,0xbe17d628,0xbe3fe60b,0x3e224ff3,0xbe3d2de6,
0xbdaec682,0x3c05c70e,0xbdb4fab3,0x3e861495,0xbef69bfb,
0xbd9b7a72,0x3ebe56ac,0xbe191c13,0x3eac358b,0x3e51562c,
0xbde59984,0x3e1892e8,0xbd2db7f0,0xbd9170ea,0xbd0ac283,
0xbec257a3,0x3df9a8c9,0xbda56262,0xbd73aa24,0xbe046d19,
0xbccebc95,0x3e3d2a6b,0xbdb6cde8,0x3deaccac,0x3e82bbec,
0xbd2fcede,0xbeaadaea,0xbe2e43db,0xbe22ed8a,0x3d725807,
0x3e487482,0x3c659af3,0xbe1b4828,0xbd91ab25,0x3de5e6f8,
0xbe51a008,0xbf43cbe6,0x3e97ad27,0xbeb22aeb,0x3e9061ea,
0xbec96b15,0x3e964842,0xbda14629,0x3eab8e14,0xbe0aafee,
0x3e993b9c,0xbea5b113,0x3e670fc8,0x3bfee569,0xbe072f36,
0x3e2fea91,0xbe5f0579,0xbdb84d50,0xbecbf0a6,0x3dabd9a6,
0x3f2c6f8b,0xbe055b58,0xbe4fa185,0x3e69db3f,0xbc8266d6,
0xbbd5a4cf,0xbd2b73c6,0xbebe9e0d,0xbdbbed49,0xbe05a30d,
0xbc3c7c37,0xbeb15054,0xbe8a998f,0x3d8bfc1e,0xbe3821ba,
0x3e069c7d,0x3d81281a,0xbf1037f8,0x3db20c09,0xbd9819ec,
0xbcbaab4f,0xbb1a2e6b,0x3f25b790,0xbeb2528e,0xbe2d9d39,
0xbd25d816,0x3dac0454,0x3ddab5c7,0x3eece53a,0x3e31ad34,
0xbede532b,0xbceae08d,0xbe478096,0x3e1e7520,0xbe045741,
0xbeb4eccb,0x3c5b3add,0x3d6b663f,0x3e547dda,0x3d9b2ff4,
0x3e8237de,0x3dd02843,0x3ec65d4e,0xbe046de2,0xbe90de53,
0xbe62b11f,0xbcf689be,0x3e80b445,0xbc985d52,0xbe2070aa,
0x3eb8137b,0xbe53bcd2,0x3ea8f194,0x3eb8cdb7,0x3e35b978,
0x3df5f4e5,0x3f284ebd,0x3e2b9c91,0x3cfe7378,0x3e4447ed,
0x3b2f5b4f,0xbc3f7fe1,0x3f1965c1,0x3cfd8b24,0x3edadc78,
0xbe1f1272,0xbeb7b642,0x3d74ca02,0xbe12f8ba,0xbe1fd30b,
0xbd755666,0x3dcbf9de,0xbddafa49,0x3e2f9b65,0xbccc0753,
0xbe4040d8,0x3d969c30,0xba2d2f85,0x3b42618d,0x3ec9edca,
0x3f17c620,0x3e4e71e9,0xbdc8122a,0x3d56a923,0xbe18417b,
0xbeb31529,0xbd4f6c4e,0xbeab26cb,0xbf2b53d3,0xbf36c4c8,
0xbe68d7f3,0xbeb0f588,0x3e12cfc2,0xbd3faa50,0x3e8ec993,
0x3eadae19,0xbcd2e11b,0x3f5b192b,0xbf089e49,0xbef7a7ef,
0x3f0429cb,0xbf1ecdda,0xbf140eb8,0x3e73f796,0xbedfe781,
0x3d9c3f4c,0xbec64905,0xbdc6fea5,0x3eadd77c,0x3d0eea71,
0xbef03f6f,0x3d0c873f,0xbe1d9c05,0xbf577dd6,0x3f3bf7f1,
0xbbe69aa3,0x3ea724a2,0x3e642240,0x3e99a504,0x3ec7ab4b,
0x3f73f94e,0xbee1b800,0xbf1016c1,0xbd05d5c7,0x3f4738ec,
0x3e3cf926,0x3cffe7e0,0x3eea795f,0xbeca1e47,0x3ed0d3aa,
0xbe0739cc,0xbe46919a,0x3f77718d,0xbf5fc436,0xbee7b364,
0xbf0fcd14,0x3e6e75b2,0x3dccc21f,0xbf0ac3f1,0xbd683345,
0x3f5d679c,0xbeb245fe,0xbe53b8cb,0x3eedbd87,0x3d9b8b00,
0xbe6cd0cd,0xbde14662,0xbe8fdafa,0xbe8f5d22,0x3f3d277d,
0x3e5c5a92,0xbd6ac601,0x3e6d49ea,0xbdcd6ead,0x3d82c298,
0xbba1e464,0xbe05eb2b,0xbf9540d9,0xbecc514d,0xbe667323,
0x3c1fd332,0x3d0b7970,0xbd2d8c1d,0xbcde10d5,0x3e579bea,
0x3f565538,0x3bec4d5c,0xbf31376e,0x3e751220,0xbf1119ef,
0x3f1bc106,0xbe9bad1f,0xbe3307fc,0x3ebcd32d,0x3d171cee,
0xbec5ff8d,0xbed53684,0xbf3118f6,0xbd0b4dfb,0xbdb2a45f,
0xbefeaa8c,0xbd893da6,0xbe761199,0x3c14dfde,0x3edce259,
0x3dbc90da,0xbe502828,0x3e0fb413,0xbe97fbea,0x3c172294,
0xbeb747b2,0x3db4b41f,0xbe7f655c,0x3c7d38ed,0x3de2dc13,
0x3d4be9bc,0xbd4e1bb4,0xbe2e3c7c,0xbd87aedb,0x3ed97a10,
0xbe4586ac,0xbe436e58,0x3e911174,0x3e9ba16e,0xbeb00e05,
0xbe124a48,0xbe096f5f,0x3cbc0c03,0xbf1116ed,0x3f5d7617,
0x3d97e732,0x3e867cb4,0x3ec4db4d,0x3ea1a2e0,0x3df585b2,
0x3f27d90b,0xbedff258,0x3e1b0199,0xbe97d2a5,0x3f083f4a,
0xbf357d32,0x3ea7d314,0x3eb44754,0xbed1a959,0xbf06f80d,
0x3e57d12e,0x3edb9639,0xbeb939f9,0xbd4530d6,0xbe9c9180,
0x3c559e90,0x3e8cbece,0x3ea400e5,0x3ee6ef53,0xbf6b42dc,
0xbfa5ad08,0xbd4cbcae,0xbeeaf517,0x3e13c4f3,0xbe9c5ad0,
0xbeb4ef62,0x3e247cd1,0x3e8b5573,0x3e0fba0b,0x3dfd3726,
0x3e90bf61,0x3e4d2551,0xbf1c499b,0x3dba2f2e,0x3e7c7bfa,
0xbdfc7009,0x3e924acd,0xbe1906f0,0x3c48d8cb,0x3cd2f1a6,
0x3e0c717a,0xbef2c3a6,0x3d357525,0xbac8a5e2,0x3c865d2a,
0xbc7f7807,0xbd7d318e,0x388e0d17,0x3f004947,0xbe28baf1,
0xbe26326f,0xbdc7f74e,0x3e1d6e86,0xbd9c3198,0xbeafc2f1,
0x3e034592,0x3e524abd,0xbf096dda,0xbb4afae3,0x3ce9cfc0,
0x3ef4ba64,0xbe699fd3,0xbe8293bb,0x3dfdf223,0x3e168ae7,
0xbd8f466a,0xbe2cd6f9,0xbe4fc2f2,0x3d2f7b00,0xbeb1a4f9,
0xbd2c0619,0x3f0e30db,0x3e23c0e8,0x3e6afcca,0x3bdfca66,
0x3ea4836b,0x3e1bca2c,0xbde51165,0x3c37a21f,0xbe180dc3,
0x3ebba2a8,0xbcea8bdd,0xbe889144,0xbd68b42a,0x3dedb746,
0xbedae1fc,0x3dd01d31,0xbdeac7ba,0xbcdf398d,0xbe88609a,
0x3ec0f1d9,0xbe82187e,0xbe7a7c39,0xbec958b5,0xbda29fae,
0x3af233ac,0x3ec6856a,0xbefe3386,0x3df332e0,0xbdac69d0,
0x3d5057ca,0xbeaae1c0,0xbe89e292,0xbdc97a31,0x3e55eb01,
0xbd247ccb,0x3bb42486,0xbd484d7c,0x3e02e070,0xbcd71c16,
0xbe3f8eb8,0xbe1edf3b,0xbd23991f,0xbe5a3e6e,0x3e964a68,
0xbd3457ad,0xbe2dfbbb,0xbd2b9d29,0xbb87dbe3,0x3e8e9277,
0xbde3accb,0xbdbdcd1b,0x3e6a3e79,0xbe0cbb85,0x3e8b65a7,
0x3e7465bc,0xbe757e8a,0xbe61f8f4,0xbe6d4b49,0x3ee8f086,
0x3ed3ae3f,0xbe06c7a7,0x3d42b32d,0xbca157e7,0xbf9e6e32,
0xbe936f7e,0x3df4884d,0xbe097bba,0x3ea21250,0xbe69aef2,
0xbeebbf4f,0x3e2a24b7,0xbdc8a9a2,0xbdca3f61,0x3f5f0508,
0xbeddb19b,0xbd1e573d,0x3f61cc3e,0xbe580e6e,0x3ce7f12f,
0xbe6ecccc,0x3ed49c9d,0xbec494ad,0xbf467038,0xbf2cd2fb,
0x3da8dbb0,0xbe898cca,0xbe3e713c,0xbee080c2,0x3e2c5c50,
0xbf7634ca,0x3ee982a6,0x3efcf74b,0x3ee1d2d3,0x3e63f821,
0x3f35319d,0x3e8907ba,0xbf341bfb,0x3e7073ef,0x3f8069b5,
0xbe050b55,0xbee7aefe,0x3f32066d,0x3f30bcde,0xbeb5f8ba,
0x3e1f4eb8,0x3f599795,0xbf696e43,0xbf62cbf8,0xbe12d8ca,
0x3f329876,0x3f44f670,0xbf1bb89b,0xbe1cd405,0x3e8ca653,
0x3dc68f5a,0x3e5903f9,0xbeb843dc,0xbf22a3b9,0xbf5128bc,
0x3f2063de,0xbf181e31,0x3f4919ed,0xbf7b2290,0x3e3ea406,
0xbc83b764,0xbe1c9125,0x3e8fc625,0xbe8e07a0,0x3d0b220f,
0xbecc40c9,0xbe546998,0x3e4ce7a8,0x3e3a09f0,0xbe125c22,
0xbe2ebdb1,0x3eee260d,0xbca3e9cc,0xbdcad18d,0x3ed0a448,
0xbe945804,0xbed7e126,0x3d8632d3,0x3abebe98,0xbdf36299,
0x3c97b678,0xbe7e6193,0x3ea3b6cb,0xbea7855c,0xbe3a035c,
0x3e412f0e,0x3cd22cbc,0xbc673902,0x3da8d6dd,0x3d93f458,
0xbb056513,0xbe08dd59,0xbbd3064a,0x3e71dd11,0xbd9e7b39,
0x3cbe7ffe,0xbd9c9e22,0xbd1e4cec,0x3e2d9ed5,0xbbccaaeb,
0x3ea4999a,0xbe474531,0xbd69472c,0xbe2b7162,0xbdc5d369,
0x3d5f6bde,0xbe6b5d43,0xbeea7a33,0xbea38a9b,0xbdb89da1,
0xbcd2144e,0xbdf5aa79,0x3ded9beb,0xbed39d76,0x3e0273ee,
0x3e2a5bc9,0x3dba3f9a,0x3e72b6a3,0x3f0d2c18,0x3d045b65,
0xbef8acd1,0xbc848422,0xbd894445,0x3e3048ac,0x3da7ca18,
0x3da1c843,0xbc64c297,0xbdc3d184,0x3eb58711,0x3e63cc15,
0x3db221e9,0xbd43b662,0xbec2af2e,0xbe21e54e,0xbd1bc0ed,
0x3d876a08,0xbddc72ea,0x3eb32e72,0xbe31ec05,0xbdf24c3b,
0x3f4d6952,0xbe6464cb,0x3e3edceb,0xbe37b8a8,0x3e699e90,
0xbf0c8897,0x3ec1e54b,0xbd8fd4b6,0xbe1ccb8a,0x3e476944,
0x3ef5f612,0xbe0ca555,0x3ed8bcc9,0x3c0e5eed,0x3eb592f1,
0xbdf74784,0xbe3f22f0,0x3e12eb05,0xbd80ea7d,0xbd847cdc,
0xbea62ce4,0xbe291f7c,0xbeda7aaf,0x3df847a4,0x3ed6c19b,
0xbe2cea31,0xbeec247b,0xbde640d4,0x3e0e8f2a,0x3decba57,
0xbdd097f0,0x3e88dcf2,0xbe9b6755,0x3dea08ae,0xbe9d256d,
0xbd95102e,0xbd3effee,0x3b85d9b2,0xbe9746a8,0x3f605348,
0x3e421d3e,0x3dc712b8,0xbda2cf10,0xbe312ac3,0xbe629359,
0x3ecb3d50,0x3ec51130,0xbf66a815,0x3e66ea73,0xbec9a891,
0x3e78b931,0x3dc8498b,0x3eb8a688,0x3ccc4458,0xbf5d735c,
0xbf018ac5,0xbbfa8216,0xbf195c2e,0xbf3a532b,0x3f26aaf4,
0xbf78b495,0x3e505025,0xbd303841,0x3e6bfbe7,0x3f306318,
0x3e90ef0a,0xbecbfccb,0x3e5c8adb,0xbf8a5cf5,0xbe7a2c7e,
0xbe83916f,0xbec625ef,0xbdf930d0,0x3e83f2d9,0xbc7c079c,
0xbf2d1144,0xbe215584,0xbdd4d298,0x3f320848,0xbc6b4548,
0xbe87755b,0x3dfa9742,0x3d6164de,0xbc941021,0xbdf220f4,
0xbe5a9163,0x3ee82c6d,0xbe4f8dc2,0x3d8f36a2,0xbe593d73,
0xbe5aa517,0x3efda93d,0xbc4a452b,0x3cb00f3b,0xbd4daf32,
0x3e37f613,0x3ebb84e9,0x3ed68ba8,0xbdb608db,0x3d5d4d1d,
0xbda670d0,0x3e6c29cb,0x3c13cfb7,0xbd2ea56b,0x3e8a788d,
0x3eaea2b7,0x3f338932,0x3e8672a1,0xbe3ddac0,0xbea8046d,
0xbe47d5b8,0xbe21262f,0xbe43ead5,0xbe382910,0xbe984dd1,
0x3dd6ada4,0xbdd09786,0xbe279e1e,0xbd40fb90,0xbdaca398,
0x3f09b0fc,0x3e5c5f76,0xbdc6842d,0xbd97b16d,0xbdf1c16c,
0x3ed407b0,0x3e84111f,0xbcae7074,0xbe48eecc,0x3e1372ab,
0xbeab5a1f,0xbed9c5af,0xbe9dcc8e,0x3e68cb90,0xbe1fb11d,
0xbea729f6,0x3f1dc2ae,0xbe1a6131,0x3ed03877,0xbea8da80,
0xbec9a471,0xbd9e5e96,0xbd987f83,0xbd298be3,0xbe7ace08,
0x3d066472,0x3d488159,0xbd264dfd,0x3e8bc028,0xbd903d75,
0xbe42cf0b,0x3d93b4f5,0x3e28509b,0x3b38d0e0,0x3e05f227,
0xbec69311,0xbdb198d2,0x3e95a263,0xbcebd1df,0xbe60c173,
0x3ebcfc84,0x3e25efde,0xbea644b0,0x3bb53f1f,0xbd60cb6f,
0xbebf7e6f,0xbe44256e,0xbded01d6,0xbc416a31,0x3df82b37,
0xbe28c5a0,0xbe93a1f7,0xbeafdb6a,0xbee10f61,0xbeaca33a,
0x3ef19fdf,0x3e649521,0xbf9664ba,0x3e9ee28f,0x3d700d94,
0xbf2b8785,0x3e9857b3,0xbea718f7,0x3f42616f,0xbf6642d1,
0x3f109dbc,0xbf4fbe8c,0xbf55fcdb,0x3ebe711d,0xbf154f36,
0xbfc834a7,0x3f00df0a,0x3f02eb65,0x3f6673f0,0xbf81f29d,
0x3e8ba602,0x3f53cd87,0x3e94ea36,0x3ee995be,0xbea40924,
0xbf706045,0xbf50971c,0xbe23b538,0xbf4fd83a,0x3e2e42b8,
0xbd83b6b4,0xbeb446de,0xbdf16e64,0xbe153798,0xbde42e00,
0x3de746b2,0x3c8335a1,0x3e16be72,0xbe0579f3,0xbf009aeb,
0xbdda0b2a,0xbe08fc50,0x3daab6dc,0x3e0aebca,0xbecfc694,
0xbd801543,0x3e3678ed,0x3d89a9d4,0x3e46b14e,0x3e809815,
0xbc1988ee,0x3c8d0cb6,0xbdfe9c3f,0x3c2ebbe2,0xbed3a733,
0xbd4dba4c,0x3ec70da9,0x3e3c4161,0xbe1a0f87,0xbcd93f90,
0xbe44354f,0xbec216b5,0xbef42ff3,0xbe06c4be,0x3c1cd34e,
0xbe60c789,0x3d580f63,0x3a076f7e,0x3e32626e,0x3db8c798,
0xbda2abad,0x3e42d67e,0xbd2839fc,0x3f072f41,0xbde14668,
0xbe23bdd5,0x3ec51c63,0x3dc078b6,0xbd64a520,0x3e2d114a,
0x3dacdcdb,0x3e0e0f5a,0x3eab7534,0xbc9bce54,0x3cf0d14e,
0xbdd38082,0xbd33fe14,0xbe46b521,0xbee0a519,0x3e3ded06,
0xbec514ab,0x3dd22f44,0xbeb2ed44,0x3ea8d9b5,0xbeb3171c,
0x3ef8fbab,0xbf86f868,0x3e9911e9,0x3f2af96a,0x3d99baae,
0x3e82a902,0xbef5c91c,0xbee22b8b,0x3fa6b6c1,0xbe83ac36,
0xbe4746c1,0x3f28bf1d,0xbe6e367a,0x3ddaa0f7,0x3eb58ba4,
0xbdbe4c5a,0xbf6a72b5,0xbf57a661,0xbf05f9dd,0x3f809064,
0x3db881a2,0x3f01131b,0x3c8fcc51,0xbf69bb9d,0x3f12ae95,
0x3ddabb94,0x3fbcb6f8,0xbf863a25,0xbf16903e,0x3f3a007f,
0xbf384a93,0x3d326ee9,0x3ef59b63,0x3dda57d9,0xbe2970f7,
0xbd368e37,0xbe27e44c,0xbd86ce00,0x3e0db246,0x3dc4eb60,
0x3f1d8d3f,0xbe984d05,0x3d500c73,0x3e512aad,0xbe1dda50,
0x3e6712a5,0xbd5ab34a,0xbda3be57,0x3e0b9102,0x3e6f3dea,
0x3de109e5,0x3e227044,0xbe8ee1cd,0xbe82769c,0xbe5eee89,
0x3d570f44,0xbe50e72d,0xbe032700,0x3e90b448,0x3da79412,
0x3b10af89,0x3e4d3625,0xbedae274,0xbcdb41dc,0x3e9b7231,
0xbdc66cc2,0xbde57f4b,0xbd33669b,0xbf1dcf25,0xbdf93146,
0xbbf8b29a,0xbc8d1886,0x3d3eb351,0x3d05c1ef,0x3ea32011,
0xbe10db7e,0xbd97ffe3,0x3ed0e239,0xbd5fd58f,0x3e228667,
0xbe29acf4,0x3f07a23f,0x3e90a65e,0x3e2665f0,0xbdb65cc8,
0xbdc11198,0xbb2664ca,0x3b9bebf1,0x3d555495,0xbe1b375d,
0x3daa6ad9,0xbd79284a,0xbdfac907,0x3c57ef22,0x3dba8f0d,
0xbe9c2759,0xbeedbc2f,0xbd6efdee,0xbd9ef829,0x3cdf36de,
0xbcb5892a,0xbc9ac230,0xbe9f0dfb,0x3e42dac4,0x3d6357ef,
0x3e10cabf,0x3ed6be6c,0xbce15564,0x3da822f4,0x3d27413f,
0xbd0c2fce,0xbe4f6baf,0x3db69f9c,0xbeec5bbf,0x3eb64cf2,
0x3be92214,0xbe6c3088,0x3e8b3660,0x3e0a53ea,0x3ddb5177,
0x3e5c6c11,0x3c859472,0xbce5a804,0xbe8bfa39,0x3e7aac28,
0xbe11a523,0x3c06cf41,0xbc9e0216,0xbdeea535,0xbda3e43a,
0xbe2358eb,0xbce57c26,0xbda5d290,0x3a9fd571,0x3e34921d,
0x3e855ada,0xbecef902,0x3ecfa5f3,0xbecbe08a,0x3e570d46,
0x3daabfa0,0x3e81f30d,0x3cc9e62e,0x3c8c0b72,0xbde18418,
0x3ed3c2e4,0x3e9fff76,0x3ed9b17d,0x3edb2d96,0xbec5c973,
0x3e34466e,0x3e9d8f06,0xbe45b0ef,0x3df7c162,0xbecfcb79,
0xbc063a88,0x3e80d819,0xb83081c7,0xbf05d81c,0xbe7a430e,
0xbd5743d8,0x3e850763,0x3dcf99ed,0x3e426bc9,0x3d8ef685,
0xbdab3903,0x3e48bce2,0xbd052027,0xbd2493a5,0x3e7fe74d,
0x3e8f6cab,0xbd8d3aab,0x3cb9dd16,0xbdd829e9,0xbdf93d29,
0x3e6a1662,0xbdbf7f59,0xbe8bad94,0xbf1aa6e4,0xbeab7e84,
0xbda8c59b,0x3ee32ec7,0xbd869c73,0x3e6c9335,0xbe98b555,
0xbd9472ad,0xbc913585,0xbd521ab5,0x3dc2544b,0xbe803472,
0x3e2eb26d,0xbe1bffa1,0xbe1813ee,0x3df3bd67,0x3c6b92c4,
0x3cb52e6c,0x3e1fa7e6,0x3c798efa,0xbd2da89e,0xbe09ac27,
0x3dc79387,0xbc9adb92,0x3dd57b7d,0x3d1a19df,0x3d2cf09d,
0x3e7b350c,0x3cd9631c,0x3c9f328e,0x3d7cd93f,0x3e439673,
0x3e9532fb,0x3eaa8f3e,0x3e0eb4a1,0x3e4f6770,0xbbdb37b9,
0x3dc97290,0xbe61bb89,0xbe2e2fa9,0xbcbda391,0x3ede3eae,
0x3dc905ea,0x3eb0763c,0x3ec180e2,0xbec12449,0x3ef60554,
0xbf579cc3,0xbbb93df6,0xbc75e7d7,0x3e116c5e,0x3da5937d,
0xbf549b3e,0x3f92039d,0x3f01c5d1,0x404147f3,0xbf2410fb,
0x3f3f32fd,0x3ecacad5,0x3ef1959c,0xbf32565a,0xbe66bc0c,
0xbe1e746e,0x3e32ec27,0x3f4e5f1e,0x3ea078fa,0x3eea5580,
0xbe12d8e8,0xbeeb45ac,0x3e9f091b,0xbd883e24,0x3ea2f50f,
0x3f049c0b,0x3b39b064,0x3ca1da58,0x3d277d99,0x3ec96e84,
0x3ec6e665,0xbe96ab29,0x3e372750,0x3ce3145a,0xbe46b0c6,
0x3e3628ab,0x3cca59b8,0x3e71333a,0xbe645855,0xbe11cfed,
0x3e97770c,0xbf20202b,0x3d96f3d9,0xbc13187f,0xbf1895c3,
0xbe1b569c,0xbe976360,0x3d7f7442,0x3e511c1c,0xbbae1590,
0xbea1a91b,0x3e017e0e,0x3e9cc5c3,0x3edf718c,0xbcef2fec,
0x3e078a40,0xbe96e64f,0xbf15b913,0x3f028c64,0x3e8c84d6,
0x3dac1229,0x3f54847a,0xbe3fab62,0xbe796f26,0xbd854b60,
0x3e12711c,0xbd1f85ff,0xbe3a0a47,0xbdb12fc5,0x3ed1eec2,
0xbe0b65f1,0xbdb9cd60,0xbbfaa7af,0x3d342183,0xbd824191,
0x3c2b153b,0xbe7dbc6f,0x3db1460a,0xbe6e453b,0xbc2534cb,
0x3e474a19,0xbe6101d6,0x3e1f555f,0x3e9a97c6,0x3eda9f05,
0xbe155a20,0x3df3f351,0xbd350f35,0xbef779ce,0xbe9a861d,
0x3e8b340a,0x3e2596ff,0x3ee9622e,0xbe914cec,0x3ee646e1,
0x3ea89e59,0x3e1aa220,0xbd745d38,0xbd1e3934,0xbd119f68,
0x3dea7e0d,0xbf1ad1bc,0xbd84cdd2,0xbeb025f2,0xbdecaa7f,
0xbe968ea7,0xbde3955a,0xbe9b58d5,0xbe61b0e8,0x3dcc258e,
0xbd96fcb5,0x3e0ae6f1,0xbee950fe,0x3ed804c0,0x3e9d55df,
0x3e18f089,0xbe4fa9bd,0xbe8ae0bd,0xbbf5f23c,0x3f13a6c7,
0x3dac13c2,0x3f590c37,0xbdf88e70,0x3ec05235,0x3e4d5e8b,
0x3dfc1d21,0xbea0ea54,0xbda28a1e,0x3e9ab86d,0x3ec63322,
0x3e1baad1,0x3d8c1e54,0x3db0b86c,0xbed56f68,0xbd0c378f,
0x3d6608d8,0x3e663b60,0x3dc5714e,0x3f3f5a95,0x3e6fbddc,
0x3d766809,0xbeb25f30,0x3f28ff4e,0x3e7e431c,0xbe8d2701,
0x3f243123,0x3e6362d1,0x3f0758e6,0xbe1c5fbd,0x3e8a1ec0,
0xbf1916a9,0x3f62e138,0xbe9da563,0x3eaa8f3a,0x3d7f94a2,
0xbd2aa26a,0xbe265c3d,0xbeb34172,0xbeaa5e4b,0xbe4447d1,
0xbf094342,0xbe9b9096,0xbdc4fcb3,0x3d840dfe,0xbeaffc1e,
0x3e5972b3,0x3f2dbba1,0x3c5bfa0f,0x3e345f3a,0xbc064d1d,
0x3cbcf528,0xbe228f6d,0x3eb92a89,0x3f2227b8,0xbf970b20,
0x3efb803d,0xbba7b054,0xbdd6a62b,0xbcd6eca6,0xbe746703,
0x3d8d8688,0xbf075c22,0xbe22023b,0x3f132695,0x3e30ebb6,
0x3ee85690,0x3eaac209,0xbe687c76,0x3d4af86f,0xbdbe6d01,
0x3ea97225,0xbe08c317,0xbd7737f2,0x3c5ddbf2,0x3e0720e9,
0x3e07ffc6,0x3d9ad9c5,0x3e91063d,0xbe2a3b16,0x3ea86ec9,
0x3d881e0c,0x3e551da6,0x3bc0ae68,0xbe003df8,0xbd3e3ecb,
0xbce357df,0x3e147255,0xbe50b471,0xbe1595d8,0xbe5f4c2f,
0xbe9140e3,0x3e9f6bd1,0x3d2ae77f,0x3ceca4cf,0x3d7722e3,
0x3e67e8e4,0xbe420204,0xbe845efb,0xbe8fdbaf,0x3d3c5f03,
0xbda61790,0x3e05dbf6,0xbe271834,0x3eddb6f0,0xbd0481f9,
0xbd7e5ebc,0x3e970f8c,0x3f22c1a4,0x3e5e9a8d,0xbd8034b8,
0x3e758559,0xbe9dd933,0xbe4b8bb5,0x3f05cb6d,0xbdc1d6a0,
0x3e1ef8d8,0xbe8fb2f9,0x3d63eab6,0x3e0b1797,0x3d7a5d75,
0x3e4315c7,0x3f017f5f,0xbe5829ab,0x3d18f033,0xbe79d85e,
0x3e42b6ed,0x3d34e582,0x3e77cae4,0xbdadf44d,0xbf11e9a1,
0xbe3ca8db,0xbe1ce0e2,0x3dc476c2,0xbe57250f,0xbc5681c9,
0x3dbb1889,0xbe16ac79,0x3c932de9,0xbe8543bb,0x3d3626e9,
0xbc947f9d,0xbe58afdb,0xbd79e3e5,0xbdcbe24d,0x3e0aef2d,
0xbd8fbfa7,0xbe61b323,0x3e4e9482,0x3e74b162,0x3e09af1b,
0x3c9b7de9,0xbcec1d7b,0xbe322e38,0x3e7486cd,0xbd378971,
0x3d934436,0xbe9e4a29,0x3de485b9,0xbe2906ce,0x3f245290,
0x3d0d76c0,0x3f0cf04f,0x3d048acb,0x3e9db819,0xbe081ae5,
0x3e9dd6d2,0x3f101626,0x3e641492,0xbf385fd5,0xbe675041,
0x3f12eef7,0x3f457d81,0xbca66feb,0x3f18a0ea,0x3edff69b,
0x3dba07fa,0xbe7f77de,0x3eb1d06c,0xbf2a47f0,0x3d46f5cb,
0x3ec19775,0xbf15ec5f,0xbe69b54a,0x3f9313a3,0x3efe3c6e,
0x3dffa8e6,0xbf22e7a4,0x3f20784c,0xbe489ef4,0xbf2f99d6,
0xbe6ce039,0xbf6715b9,0xbf06c3f2,0x3f21f03d,0x3f232afa,
0x3f2f6d8a,0x3d72c0a8,0x3e55a65b,0xbe8ba643,0xbe4f699a,
0x3d84133d,0xbdb0a7ee,0xbe1116c9,0x3e51d427,0x3c808cb8,
0x3e1eb3c9,0xbe000c28,0xbeb00b5b,0xbe7adb9d,0x3de2865b,
0x3dbbe579,0x3e7bf0bb,0xbecd4c9d,0xbdfd3ef0,0x3c122850,
0x3d956c68,0x3e5265ba,0x3ddf8bc4,0x3e83d96f,0x3cbdc88f,
0xbdb9595b,0xbd66b6aa,0xbd8a9c44,0xbea0d157,0xbef829e0,
0x3df16430,0xbd3b0104,0x3d879c1a,0x3d97e0c6,0x3ed004d1,
0x3b8a08ad,0xbe104b89,0x3ddce551,0xbe99b59d,0x3ecd3f83,
0xbebcbaaf,0x3c2c8307,0x3c8f7208,0xbf35637e,0x3e9f58df,
0x3ebe183f,0xbdff59e7,0xbe9e0556,0xbc9e59dd,0x3e62bb8e,
0x3c32469a,0x3e62bc6e,0x3ecf0084,0xbf2555df,0x3ec210e2,
0x3e44ccb9,0x3ead9d77,0xbe74a111,0xbc6f7c49,0x3d9a39fc,
0xbdff5c25,0xbe3f1866,0x3e3645bc,0x3e6805b4,0x3eb83c88,
0x3e197752,0x3ee6778c,0x3ccd36cf,0xbe9f33a3,0x3d2eb10f,
0xbdfc3dd6,0x3d14985d,0x3ec9652e,0xbc48f256,0x3e77eeab,
0xbe86b868,0xbd488f17,0x3d6dfa3f,0xbe9554b7,0x3c5aaf6e,
0x3dd15239,0x3c29d7f2,0xbd772d10,0x3e27f213,0x3d2febb5,
0xbe52a074,0x3dcb0dab,0x3e2b0f38,0xbe0d40a8,0xbc8ba04d,
0x3dbbae31,0xbe2774ae,0x3e9f7044,0x3e84a671,0x3e3a7273,
0x3e6f231f,0xbea2cc48,0x3d049558,0xbcd7a988,0xbefbdc90,
0xbee34f90,0xbde56953,0x3e8d4607,0x3e1d2989,0x3dea3ae5,
0x3e22cf6c,0xbe41ec82,0x3ead07c1,0x3e88a43c,0x3e87b585,
0x3e417d77,0xbd9bdfe0,0x3f81a0dc,0x3de31127,0xbc9b1a0c,
0xbc1655a7,0x3f3f204f,0x3ce77196,0xbea8fe21,0x3e2bc6b0,
0x3f56790d,0xbf225e72,0x3e81a9f7,0x3f058838,0xbf15e66f,
0xbf9ec450,0xbf0aa37e,0x3e899254,0x3e7dd28a,0x3da1c659,
0xbeacafc6,0x3da81249,0x3e04961c,0xbbaf89bd,0xbec73eaa,
0xbe00fd81,0xbe96d155,0xbeab1c24,0xbd24ff85,0xbdb5c68e,
0xbedb6881,0x3e8ac7a9,0xbf74d368,0x3dd9a006,0xbd06cdf4,
0xbf20b74c,0x3e19c915,0xbefb732a,0xbecbde66,0x3ee6d8ab,
0x3d78e428,0xbebe18d2,0xbcdecb56,0x3e481d10,0xbe3532c0,
0x3f0a72d3,0x3c98f291,0xbe1b285e,0xbde94c6d,0xbeb7d27c,
0x3f451c5a,0xbeac6440,0x3f0f721e,0x3e6cda94,0x3ed1162e,
0xbd317e01,0xbe6f574f,0xbdedfc49,0x3dbaf367,0xbe13ab64,
0xbf0042d6,0xbf1b3954,0xbee1f306,0xbe836142,0x3e7f5ce9,
0x3deebc42,0xb9c7a793,0xbeb1f064,0xbdedb9ec,0xbedc6acf,
0xbe5c479a,0xbe88cd73,0xbe1ec249,0xbe6d66d0,0xbd0b6b9f,
0x3e8b7b99,0xbf062ca7,0x3c590c57,0x3e8ead2a,0xbe0e76da,
0x3f0277e0,0x3e325988,0xbe147179,0xbdd97128,0x3c01bdcf,
0x3e6bcda7,0x3df40108,0xbe9613a7,0x3d7a08f0,0x3ee989ae,
0xbeb048e9,0xbe3c4d73,0x3dac0adf,0x3d4864e3,0x3e520a48,
0x3c9cf5fc,0xbf4ea9c6,0x3da269f9,0xbe145ba7,0x3efa868b,
0xbdca22dc,0xbdfe552c,0xbe9bc622,0xbe262a14,0xbe245b4c,
0xbd944a46,0x3dac516d,0xbe577864,0xbe4edb78,0x3dacd2f7,
0x3b7a3f5e,0xbf6c10d7,0xbda1222b,0x3f166f13,0x3e70af52,
0xbbcfcf44,0x3d2b1054,0xbeb45cef,0xbe6e916b,0xbe1b44fb,
0xbccc9b85,0xbe7580ec,0xbec58c8d,0x3f2d01db,0x3e98dd65,
0x3f15551e,0x3d1aa061,0xbf07f33a,0xbd861fbd,0xbd99e24d,
0xbdd498b9,0x3da36890,0xbe0897f5,0xbe8c37c1,0xbe8434f0,
0x3dbd0666,0x3ef1d221,0xbe923b25,0x3d786482,0xbda8a1d7,
0xbdda554a,0x3de6cc5b,0x3de5db87,0x3e798bf1,0x3e80705e,
0xbd3d3088,0xbeef87d7,0x3e8cb698,0x3e8d23ab,0xbe88cc61,
0x3dad3d0d,0x3e0a80bd,0x3cc47c1e,0xbcf37b25,0xbec7bbd2,
0xbd921c14,0xbda907af,0xbd928d62,0x3ed23674,0x3d32d603,
0x3d5a7aa3,0xbe4743f9,0x3b3933cf,0xbd61e0c6,0xbc206128,
0xbe305f7c,0xbcfc0300,0x3dc3a9ef,0xbd9c3c8d,0x3d961256,
0xbdea5c84,0xbccd7da3,0x3d588dbb,0x3e0882ab,0xbf076dbc,
0xbe99f181,0x3d52ea8a,0xbe3cf438,0x3ddd62f4,0xbe644bc5,
0x3db0688c,0xbfaf9122,0xbf3364f3,0x3f236b91,0x3f333a47,
0xbf45e851,0xbf9beaae,0xbd07d669,0xbf2f4894,0xbf60580c,
0xbeb5129e,0xbe952821,0x3edf0eda,0x3f6b49d8,0xbe4ef1b8,
0x3e7639c6,0x3f5047c1,0x3f72db2f,0x3ee60752,0xbe62a4f6,
0x3f1a2293,0xbe57f7de,0xbf259945,0xbf1d9c73,0x3ea84bd4,
0x3f23f253,0xbf6ee7e3,0xbf84d8aa,0xbfbb4d7c,0x3f44d91b,
0x3f6b23a5,0xbf3a673e,0xbf81e9ed,0xbeb1f5ad,0x3e013d1e,
0x3e63aa08,0x3db0ed0c,0xbd9b8c46,0x3dd136de,0xbe314b4f,
0x3cce1ecf,0x3ee682e8,0x3d838913,0x3e29465a,0x3c497b5b,
0x3df011c1,0x3e5e22f5,0x39b5f6b6,0x3df87fe2,0xbd8054a7,
0xbd50bfb8,0xbe1bfd59,0xbe26e6ef,0x3e661451,0x3d6697e6,
0xbdd62511,0xbc2c1250,0x3dec701c,0xbd489435,0x3e139a35,
0x3df35d12,0xbdf43ae8,0xbddbf1a2,0xbed9513c,0xbdaf8c23,
0xbda35eb5,0xbe4c4a91,0xbea9fe2f,0xbe3bb4d8,0x3ea731bc,
0xbe733008,0x3df82872,0x3e9634fb,0xbe4579eb,0x3e06c604,
0x3cdbe8e5,0x3ec9f0fa,0x3e5c8c25,0xbedaa88c,0xbf4c6cdf,
0xbc365557,0xbd16cf1e,0xbee8325d,0xbe90c8bc,0xbf17b56d,
0x3edf6b2e,0x3edb7876,0x3e6d7b87,0x3ea37934,0xbd3981ea,
0x3db8d640,0xbe466ff0,0xbf150227,0xbebdebde,0x3ec70386,
0x3ede2442,0xbec2aa65,0xbc1f4b0d,0xbc5a98dd,0xbee6dd18,
0x3d8e0cc4,0xbec68ad9,0xbcc3bdbf,0xbec46756,0xbd27be0a,
0xbe2a1bff,0xbe9f4722,0xbf35ba6d,0xbe0bf5f5,0xbf059dab,
0xbf098377,0x3d87baf1,0x3cb13f02,0x3e978ee1,0xbda34bf3,
0xbc8bed1f,0xbecb8d04,0x3ea257f9,0xbe238dc1,0xbeab0357,
0x3d31d657,0x3e3306eb,0xbe2d55f5,0x3eea0943,0x3cc69a50,
0xbe0756df,0x3ee0bfa5,0x3c9c2fe4,0x3d9341a5,0xbec4fc72,
0x3ed6cb9b,0xbe4662ce,0xbe90db4f,0xbd81aeb9,0x3e78c58f,
0x3ed3cc62,0x3e1f9d95,0x3f07da1c,0x3dc06c7d,0xbf1666dd,
0xbe9b9f5c,0x3f7ed713,0xbf17db8c,0xbda03ecc,0x3d75e0c4,
0xbd7cc90d,0x3e8d6714,0x3e8890e9,0x3e40ea37,0xbee76651,
0xbdbdc3a4,0xbdc23c60,0xbdf4b423,0xbe27b3ad,0xbe16d3fe,
0xbe95080f,0xbec3b7f4,0x3cca6111,0xbd9904b0,0xbe137659,
0xbd529f76,0x3ef48b41,0x3de9a42a,0x3ec44443,0x3c5b945a,
0xbd544e80,0x3bd18696,0x3e5a5d97,0x3e680724,0xbe4a91b0,
0xbf141e83,0xbe3749bc,0xbca40cef,0x3d639719,0x3dad3af6,
0xbe4a08de,0x3e84c58a,0xbe59c451,0x3cdab43f,0x3c5d90ff,
0xbe5e71c8,0x3cbb3df6,0x3e2feacf,0xbe5c8693,0x3e299933,
0x3e9ecacf,0xbe3e7d00,0x3cc487a8,0x3dccf1b0,0x3c82c5ae,
0x3e21ad45,0x3ea7b9e6,0x3dc5c9ad,0x3c2d6f84,0x3e2a271e,
0xbe0c22cd,0x3e88cd07,0x3e0b1f0a,0x3ca79352,0xbc3fba15,
0x3e3ddb19,0x3eb7d8f0,0x3e2d91ea,0x3e836b1f,0x3ed253e1,
0xbdeeff7e,0xbeb69b3e,0xbed094fe,0xbeefaae0,0xbe5f3a5c,
0x3d1cabc0,0xbe79ef2d,0xbd7be250,0xbe0df123,0xbc0d1618,
0xbcc2d5d2,0xbdac01d9,0x3c6c6184,0xbd208edd,0xbe0a5aef,
0xbd946ad3,0xbc7382af,0x3e0f61a1,0x3eee963c,0xbe859c48,
0xbe377a63,0x3e28f326,0xbf05c62f,0x3de3b1ce,0x3dd1ba03,
0x3d668a74,0x3eeb65f1,0x3e804548,0xbe587758,0x3eede250,
0x3ea85c52,0x3e9e74bb,0xbbc237f7,0xbe1b5565,0xbe6bf56a,
0xbe26390c,0xbf082d09,0xbcd2fff8,0x3b905d96,0xbebbc9ab,
0x3e08f8cb,0xbd5ac6a1,0xbf25994d,0x3eb43b6a,0x3de23f1d,
0xbefab3df,0xbeed5246,0xbcbbedc5,0xbe3d585e,0xbe034c0b,
0xbeaced0b,0xbe631c82,0x3daf7b16,0xbe6d3708,0xbe3808b5,
0xbda35c1d,0xbeeedabd,0xbd99407a,0x3e12135a,0x3e59c327,
0x3de620b0,0xbe349052,0x3eaef1b1,0xbe01d811,0xbd4bee1c,
0xbe8800ca,0x3db0041d,0xbd860592,0xbf07a88e,0xbebb29fa,
0xbe95aad4,0xbe5ef7a3,0x3e0a4362,0xbec47de1,0x3e3c2528,
0x3e7bb036,0xbf0454d4,0x3d0bb7c2,0x3ef3a90b,0x3e4bca49,
0x3d6c3ed0,0x3df9ecf3,0x3d968558,0x3f40c504,0xbdb8a2b1,
0xbe70fb6d,0xbf3c3142,0x3f046896,0x3ead2a29,0x3e7bddea,
0xbd3c8cda,0x3ee32696,0x3e05782c,0x3da8f899,0xbec658e8,
0x3ea78da1,0xbe669e11,0xbd580c24,0xbe99f525,0xbce29dcc,
0xbea2456e,0xbf03fee4,0xbd277b24,0x3f09dce5,0xbe9f9423,
0xbec072c5,0xbebfc44e,0xbe17b833,0x3cde4959,0xbf25c56c,
0xbe30907f,0x3d9a6d90,0x3dbb72b2,0xbef96418,0x3d8ddc10,
0xbecdc267,0xbe1bf3db,0xbdbf4607,0x3e63dd1b,0xbef71ba4,
0x3eb1f2da,0x3e8a419e,0xbca3919b,0xbeb5605f,0xbdca0ff9,
0xbd1714da,0x3d2e34cf,0x3eac05b1,0xbc3d56b8,0x3d95a053,
0x3d8e91ed,0xbe47ce7c,0x3db2817f,0xbe522f07,0xbe57318e,
0x3c78b84c,0x3df25816,0x3d8a058c,0x3bcded1c,0xbd654984,
0x3db55987,0x3cba07d2,0x3f18598f,0x3e2dba2f,0x3d8d4f3b,
0x3e37d971,0xbe93146d,0x3e176f65,0x3db45468,0x3dbb826c,
0xbd61f87b,0xbe3b7dd2,0x3e9d560e,0x3ea6b228,0x3ecc369a,
0x3e758dea,0xbe2a3a06,0x3e7b345b,0x3d937684,0xbe0141d6,
0xbe859899,0x3e83ae4e,0x3d8d473c,0xbdaf2fde,0xbe162bd8,
0xbd331cd3,0x3d3e8427,0x3e93c34a,0x3e474bfb,0x3dfdca1c,
0xbe94e147,0xbc661553,0x3cd35f51,0xbede0d78,0x3dd6ea14,
0x3eb21ab7,0xbcc4b8cf,0xbe65acef,0xbcea19e8,0x3d86b2bc,
0x3e1a97fc,0xbde0079e,0x3e03f904,0xbe0f0b62,0xbbfe4e9e,
0x3d9a01a7,0xbd6c68b2,0xbb591999,0x3db7cb5b,0xbe20c597,
0x3ea66a2f,0xbda62e62,0x3e77c50b,0xbdabb215,0x3d6f83a4,
0x3ecb6c0a,0xbf163753,0xbeae22e5,0xbe4b86c3,0xbf087202,
0x3e202ae6,0xbe28df26,0x3ee48d1e,0xbe7f5c96,0xbf048791,
0x3eefdd5e,0xbe5ba126,0xbea382a9,0x3d926623,0x3e33a8fb,
0x3d36c3ed,0x3ef9a0c9,0x3cc2176f,0x3b8f55ef,0x3e0d7200,
0xbce5cd4d,0x3e3da72f,0xbf1d8c3b,0x3b52b449,0x3e037cf0,
0xbe110dd0,0xbdf2caa3,0x3db3650f,0xbe5f3213,0x3ca84926,
0xbe9b1c10,0xbe55d2c4,0xbefb575a,0x3d1792f3,0xbc8eafcf,
0xbd89669e,0xbd9b591c,0x3f039721,0xbe40c319,0xbea71014,
0xbdeb9d6c,0x3bad8ee6,0x3ebd2dab,0xbdd918e4,0xbe9ba214,
0xbe2fd396,0xbcce7305,0x3e584045,0xbdb59806,0x3e75c1e8,
0xbe112c0d,0x3ab461ee,0x3e528200,0x3dbde62a,0x3df7ee5e,
0x3d070f76,0xbe02f140,0x3d867d8e,0xbcd2a787,0xbece69e1,
0xbe892d34,0xbe01899d,0x3db18203,0xbf6bbc90,0x3ed9c916,
0xbb5cde75,0x3e51fea3,0x3db33806,0x3d90bce8,0xbf10107e,
0x3eb1474f,0xbeb5b793,0xbbab94d8,0xbe93aba0,0x3c6efd04,
0x3d9091a9,0xbe8236e5,0xbd415e76,0xbe97d7d2,0x3e16ca9d,
0xbd0aa61c,0x3c01b9f0,0xbc0886b8,0xbe9201af,0x3e948390,
0xbe701fd7,0x3cc7cfc5,0x3d94e67c,0xbe79dc7b,0x3d54fcc9,
0x3dd00825,0xbe96540e,0x3da55dd9,0x3eabf26d,0xbe9c6b20,
0x3ec7717b,0xbe36441d,0x3de832ba,0xbd5a0563,0xbe6809a0,
0xbe33847e,0x3e4cff50,0xbe8b9903,0xbd914bf3,0xbd22f2f9,
0xbc642833,0xbdefd76e,0x3d840bed,0xbdf76438,0x3d065b7f,
0xbe711a60,0xbf73af7b,0xbe781c52,0x3dfe83d7,0xbdd72412,
0x3ddbdd79,0xbe3f92f0,0xbf050875,0xbe349e90,0xbe82d15f,
0x3d852ded,0xbe356e03,0x3e2b5f9c,0xbe70c5cf,0x3d18eb54,
0xbd4b6379,0xbea44f03,0xbd61fddc,0x3e110fb2,0xbdb94483,
0x3e801297,0xbe5bc123,0x3e060378,0xbed08cb0,0x3cdaa5e7,
0xbdcc41c4,0xbda2e42e,0xbecbc983,0x388c16ab,0x3db0992b,
0x3c01ad67,0x3e4eeb27,0x3ea8697d,0xbe48d739,0xbe799c31,
0x3eaf2931,0x3fb34bfe,0x3fe952fe,0x3f8403ab,0x400a7051,
0x3f6649ba,0x3f987221,0x3ea89ff8,0x3f037f9e,0x401d1b77,
0x3fd5280b,0x3fdd7e78,0x3e0b66d0,0x3e1432a4,0x4005854c,
0x4031081b,0x3f5ef7ee,0x3e0b5a76,0xbe50f9c8,0x3e88ec62,
0x3dfc89e1,0xc00d0c6d,0xbfd0eccd,0xc01e55b2,0x3d1980fe,
0x3e23ae57,0xbfbba105,0xbf9d051e,0x3f941d79,0xbe767806,
0x3df17241,0x3f280452,0xbf18f886,0x3f1a0daf,0xbf816347,
0x406a4740,0xbf149b4a,0x3b7374d1,0xbfbfe4ac,0xbf07cd5c,
0x3f7732d4,0x3f28ae0d,0x3f6cba64,0x3e547191,0xc001f267,
0xbfa576db,0xbf9be451,0x3fd52843,0xbe802df0,0x3f624641,
0xbfb3567a,0x3f02087e,0xbf5935cd,0xbe6f796c,0xbe9d22cc,
0xbeffd9d2,0xbfdcde23,0xbf7151fe,0x3f905bee,0xbce84751,
0xbd994770,0xbd2ecb81,0x3f71af54,0xbfc8eafd,0x401f8c62,
0xbee4887b,0x3f82da00,0x3e9eb82a,0x3f4b1610,0xbfe399b0,
0x3ed4eb01,0xc0220bf7,0xbe9cc841,0x3e1a7610,0xbf5ecba9,
0x40145d98,0x400717fa,0xbfd69b51,0xbdf85e8d,0xbe1400ac,
0x40042d5d,0xbf9fefe2,0x3fff0e15,0x3f8159a8,0xbf12130e,
0xbe58626e,0x3fac2ef8,0xbe885421,0xbf2687e1,0x3fb5c21f,
0xbdc8b3bd,0xbfb5159a,0x3f7d7a93,0x3f411bb8,0xbe55bf04,
0x3f7a6bfa};

uint32_t bias_array[118] = {0xbe139d7c,0x3bf4a074,0x3e7c068e,0x3e1ffe52,0xbd4965f7,
0x3d8986b6,0xbe4b15bc,0x3e689749,0xbedf0a13,0x3e671acf,
0x3e894733,0xbd510149,0xbf2f01e6,0x3f0fa06c,0x3ebe5caa,
0xbf12c440,0x3e6634a4,0xbd7c4939,0x3da20b42,0xbe83b29c,
0xbe964a7f,0xbeeb0c49,0xbe18c1fe,0xbd9ecf65,0xbe764e7d,
0x3ecce33f,0x3e200d54,0x3e929ef7,0x3bcd8deb,0x3e95b224,
0x3dff42a4,0x3ea55ac0,0x3f377cd2,0xbe957a1e,0x3df630e8,
0xbe4658ab,0x3e95f810,0x3ddd2142,0x3f197dae,0xbe12be94,
0x3f563aef,0xbe87fb4c,0x3e396caa,0x3e16347c,0x3ddfe143,
0xbf114ea2,0x3dfbea14,0x3c9c4cd8,0xbef9849d,0x3f0becc0,
0x3f3ea19f,0xbe997ef4,0x3f2f5754,0xbdc1cffe,0xbf227b1e,
0x3cab9d37,0x3e94beec,0x3fbe8e94,0x3cc256f1,0xbd7e7826,
0x3e6661e1,0x3e55c155,0x3eab9d11,0x3ea956ef,0xbe009581,
0x3e184d14,0xbe310930,0x3d2a5b68,0x3d455875,0xbd8bda7e,
0xbbd15bb2,0xbebab524,0xbd400f8e,0x3ea4c597,0xbe0c8d3f,
0x3d50af33,0x3e136a9b,0xbd8de6e1,0xbced16dc,0x3d10cd91,
0xbde233df,0xbe143274,0xbeaf05b4,0xbe67e0a9,0xbe89d0f6,
0x3e33e0ed,0x3dc99b94,0xbec3c9b2,0xbdbf6d80,0x3c8bc59e,
0xbf1ac0bb,0x3e8b2cfe,0xbe0f2b25,0x3e5d9983,0x3a7cf12e,
0x3d18a837,0xbe770349,0xbe481cb3,0xbe0ac25d,0x3e6e3434,
0x3e70500b,0x3e9d4aa7,0x3e2d0ee0,0xbdabee3d,0x3e2553dd,
0x3e097ec6,0x3dc4a87f,0xbe8d5928,0x3de59c58,0x3e7883b5,
0xbe361cce,0x3e3b6201,0x3e2996eb,0x3cdfe8a5,0xbf443ad5,
0xbf09a518,0xbe50ae4d,0xbe9d2836};extern uint32_t bias_array[118];extern uint32_t weight_array[4256];