#include "policy_param.h"

uint32_t hidden_layers_size[3] = {64,32,16};

uint32_t weight_array[4256] = {0x3e27d012,0xbe2a3db7,0x3f18057a,0x3e4444c2,0x3f40cbfc,
0xbe14215d,0x3d46c88e,0x3d698681,0x3f9838b1,0x3f7ab2ae,
0x3e8c5319,0xbf872e5e,0x3f29676e,0x3db4358e,0x3e1f2b0f,
0x3d0ef783,0x3f477921,0x3e182459,0x3ef1ebc0,0xbd0dbc30,
0x3f2dbe71,0x3dd44726,0xbe1152e9,0xbf5fbff7,0xbec48c92,
0x3e48ff14,0x3d6f4d4e,0xbf86ccd3,0xbe1c0668,0xbe05476c,
0x3e58fb1d,0x3e871c33,0xbe8c418d,0xbeadda83,0x3dd2655d,
0x3e05dc10,0xbeee64be,0x3e510b27,0xbf1c35c5,0x3ebf9cf3,
0xbe2cf293,0x3dd52733,0x3f11f257,0x3e92fa23,0xbd3a9461,
0x3f42c116,0xbf058b21,0xbd327d4e,0xbec3705b,0x3ecad1d6,
0xbf31faa5,0x3e4eaf60,0x3ef7b0a7,0xbd8c10a8,0xbed7ca0e,
0x3ea6c650,0xbf53dd08,0x3d454d0b,0x3f963266,0xbee8521d,
0x3ecd05c4,0x3d72988a,0xbef9b4bd,0x3ee310a6,0xbdee22d7,
0x3d0513b7,0xbec53dab,0x3e87f578,0xbe95cb49,0x3e3972ed,
0xbe1a6178,0x3ed5098b,0xbf2db935,0xbe448218,0xbd130b2e,
0xbdb7c70a,0xbe3931eb,0x3bc2fd50,0xbc9c245f,0xbe818abd,
0xbf069e3f,0xbe62de15,0x3f96db9f,0xbcacbe35,0xbdc4fd78,
0xbe4b31c4,0x3dd340d3,0x3f41257f,0x3f225aa7,0xbf287b9a,
0x3e8f2997,0x3fd7fcc2,0xbe7307fb,0x3dd09e31,0xbe9b41a2,
0x3e770f4b,0xbe275898,0xbf36e38e,0x3e07f020,0xbe55e4aa,
0x3e8148d7,0x3ddb1102,0x3ecc8834,0xbe3f1fe6,0xbe354281,
0xbe8a64b7,0xbe9fe5b0,0x3d0c3de1,0xbe50b08e,0xbebebaa0,
0xbe3cbe22,0x3e5d5b96,0xbea83a65,0xbf340cf5,0x3f662036,
0xbe9dfe13,0x3e935093,0x3c01931d,0x3ed06d48,0xbf12ba38,
0x3e75ad20,0xbd7ac770,0xbe3e65cb,0x3f73245f,0xbe235493,
0xbd18d540,0x3f1d1efc,0xbdb7c7d2,0x3f708fe5,0xbff322e9,
0x3f222a47,0x3ec4eeeb,0xbf9b2c23,0x3e9e9d54,0x3f8ea739,
0xc00c554d,0x3de1bb70,0xbeaf5efb,0xbf739c34,0x3fdf1ad7,
0x40012972,0x3fb43339,0x3e87b3fd,0x3f784de6,0xbefefebd,
0x409322af,0xbf09f444,0x3d2282bf,0xbf7817db,0xc099c6c9,
0xbff10e45,0xbf39a150,0x3f153d87,0xbf56775b,0xbf03720d,
0xbfa4b46c,0x3cbbff6c,0x3de2662d,0x3e0670dc,0x3ebab2f7,
0x3f9e8af9,0xbf934a51,0x3e155f8c,0x3eb55f16,0x3e9eaa3a,
0xbeb51b7d,0x3f7294ea,0x3ed01842,0xbe1167b0,0xbf924932,
0xbf8c4d1f,0xc006aad3,0x3ebf12ff,0xbf4f69e4,0x3f52bdce,
0xbf95f924,0x3fa13d26,0x3f9b9d01,0xbf025959,0xbf267697,
0x3f0daa38,0x4092b8c5,0xbf119039,0x3df32b51,0x4091e579,
0xbff395aa,0x3f5b6e3a,0x3f74de9e,0x3f8426c7,0xbf510dcc,
0x3fc3cf20,0xbe9209ba,0x403edffa,0xbfb297e2,0xbfbf95b5,
0x3e53326e,0xbf2716e3,0x3f7f9987,0xc01ba290,0xbf2e6dd3,
0xbefba509,0xc01e9d4d,0xbe1a48a6,0x3df52b39,0x3fe3eb13,
0x4021ba06,0x4085055e,0x3f5e5cde,0x3e6fbf17,0x3f3ce3b6,
0xbfd056cb,0xc025dcfd,0x3f3be6b4,0xbf64b46e,0x3f773341,
0x3f8982ce,0xbfc0df2f,0xbf0bcc60,0x404e3143,0x3f14cbac,
0x3f4e81f2,0x40021ffd,0x3f94dca9,0xbfc71ecb,0x402c5bea,
0x3f214495,0xbfc3ebd6,0x3ea23418,0xbfb837fe,0xc028dec8,
0x3ee8f5c7,0x3fb1758b,0xbe5c7a7f,0x3f7deb9e,0x3f2b985a,
0xc0486305,0xbfc486ad,0xbfe0b518,0xbfb506a4,0xbfbeea71,
0xbf5c7a29,0xc043f3ff,0xc035cee7,0xbf3e7250,0xbf8650e9,
0xc02eae7c,0x3fa839fb,0x3f68d3a4,0x3e65ddf3,0xbfe13dc4,
0x3e8720fa,0xbef8d615,0xc05a8967,0xc026d9a1,0x400f1beb,
0x3faa8ff1,0x3de2b82f,0x3ca5c391,0xbf2b7cd3,0xbda05e62,
0xbf66f1e3,0xbf046dc6,0x3e0d2944,0xbdf61253,0xbe209ee0,
0xbea9bf10,0x3e984e6e,0xbe94ef32,0x3e29588e,0xbe8eeea2,
0x3d4ae196,0x3dba9aaa,0x3d8b7aff,0x3e5151aa,0x3b02000d,
0x3d0d633a,0x3ebf7e97,0xbe863501,0xbee16717,0x3dcc007c,
0x3d4c9c96,0xbd4142cb,0x3e0eca3d,0x3efaaa37,0x3f08935b,
0x3e00c8a3,0xbf326085,0x3c821fd0,0xbf3417d8,0x3e122ed9,
0xbda1400b,0xbe71f104,0xbd007d0d,0x3d34eeee,0x3e9b03eb,
0xbe113fc8,0x3f17dab9,0x3f1d4a3f,0x3e8bb6ac,0x3e493491,
0x3e40c33c,0x3cf3a830,0xbdde4cc0,0x3ec7b5c5,0xbeca4e48,
0xbf891768,0xbf35f0ac,0xbe66f4e1,0xbe94aad1,0x3e938d1c,
0x3e297d28,0x3f3262f0,0xbeb6557e,0x3da6d18c,0xbf295e48,
0xbe18a1fa,0xbf048ae3,0x3cac71b0,0x3f05002a,0xbee333b3,
0xbe0cc93a,0x3e80f53a,0xbecf4323,0xbde0e629,0x3f05a478,
0xbe376b33,0x3f0bf077,0x3e1e473e,0xbedea1a5,0xbd2ee86a,
0xbe968e1a,0xbd80d932,0x3f07d6fa,0xbf1bd789,0xbea3ff49,
0xbf4289c4,0x3ecceeb0,0xbe722339,0x3ecec87e,0x3f17ab55,
0x3e645e97,0x3d7b68cd,0xbf1a636b,0xbf23f478,0x3f43ec4a,
0xbee5b6df,0xbe0d9f26,0xbedf7e2b,0x3dd3c3cf,0xbe105046,
0xbe9d8f9a,0x3e9e3048,0xbd7d8ed6,0x3f2dd98c,0x3de853b7,
0x3d3c767f,0x3ef53802,0x3fb7c76b,0x3accb5b1,0x3dc31039,
0x3e1672eb,0x3f61fdf9,0xbe63f8c1,0x3e089c9b,0xbd38ed34,
0xbeae2371,0x3bf0a641,0x3ee02059,0xbf7c37c7,0x3f8a9b62,
0x3f0375d9,0xbed26198,0x3ea89add,0x3e3f5e23,0xbfa5d1bf,
0xbdada31c,0x3e987506,0xbc3504c0,0xbdc28fe8,0x3e4ea0c0,
0x3d85516f,0xbe8499a7,0x3ceae216,0x3d1f1d22,0xbcf81251,
0xbe9d7a44,0x3f024e96,0x3f38ddc7,0xbee00066,0x3edf53ab,
0xbe941145,0xbe437d41,0xbf287244,0xbf5a34a9,0xbe363170,
0x3e6329b5,0x3f031854,0x3e5203e5,0xbdd13cb1,0x3eb227f3,
0x3eefbd3d,0x3f6741a0,0xbf068a52,0x3ebc86c4,0xbee1a2e0,
0xbf17d2de,0xbe98455f,0xbeb2be39,0xbede28d9,0xbed7450d,
0xbea7de82,0x3e7c61e1,0x3e1e8fce,0x3d88b2f8,0xbee30512,
0x3e27043c,0xbd27d345,0x3efbbe1e,0xbdcaebea,0x3d0e5353,
0xbc17cb59,0x3da490b0,0x3e602931,0x3f0da09d,0x3e22be0c,
0x3d62454c,0xbe0fac98,0x3f483415,0x3fa49a5e,0xbcf87c8a,
0x3ebac65f,0x3c7e79eb,0x3f833d47,0xbe36caa8,0xbed86324,
0x3e18a581,0x3e2cbe97,0x3e6c0f2a,0x3bb15b24,0x3e78509d,
0x3f1f700a,0xbe0a3380,0xbe75b748,0x3ee6761c,0x3e2fe1a7,
0x3d844667,0xbe77209c,0xbedcf24e,0x3e009518,0x3d76ac99,
0x3e862a4a,0xbf69929f,0x3dccdfd1,0x3e3f0431,0xbefa6c23,
0xbda8f543,0x3dbf0594,0xbb398d0a,0xbd00043b,0xbd8bfafc,
0xbefd11f8,0xbe0dcac4,0xbe072808,0x3e87b8da,0x3f61e0ac,
0x3de7ef97,0xbd98a50e,0x3e0911d6,0x3ed40841,0xbd8a546b,
0x3e21fa06,0xbf41756f,0x3e63f7b9,0x3f4949e6,0x3da2cae3,
0x3ea5ba87,0xbdb4b26b,0x3edaf797,0xbe51504f,0xbdf68f5e,
0xbec3cd53,0x3ed8fcfa,0x3e9a90af,0xbd0b7110,0x3e77baed,
0x3ecf4376,0xbddf4b76,0xbf570118,0xbfc15aae,0x3ee15525,
0xbd35e1ef,0x3e2e5100,0xbe2ad571,0x3f58e7c2,0x3cdf4bb2,
0xbe559d8d,0x3f4245d1,0xbea57564,0xbdd828ae,0xbeca5985,
0x3f129731,0x3e166d52,0x3ef1b741,0x3f4ce04c,0x3ee146be,
0xbdfd9a7d,0x3db02768,0x3f6a4937,0x3d4fcfb0,0xbe8d7e27,
0xbe4454cd,0x3eb52c71,0x3f3d2345,0xbf8ce621,0xbf668033,
0x3af3e903,0x3eb4f611,0xbf152b43,0xbf0fa0ff,0x3f986254,
0xbf1c94ab,0xbfa30b8f,0x400811e0,0x3fcfd610,0x3f2a59f2,
0x3f30bbfd,0x3facbc59,0xbf4e634a,0xbea8deff,0x3f237ef3,
0xbe0ede03,0x3f83909d,0xbf80cae5,0x3f9219ac,0xbefdcddc,
0x3ec282ec,0x3fd804f2,0xbf8bfbf0,0xbf623142,0xbe172618,
0xbe801e8c,0xc013338f,0xbf9b4c70,0x3f12d1ba,0xbeb30f5b,
0xbf93dc38,0x3f8961d1,0x40215d52,0x3b0682ce,0x3f265f59,
0xbd4e4f5d,0xbeb7d340,0xbed592c0,0xbe98e172,0x3ec3096b,
0xbea4f7ba,0xb9cf97b9,0xbb1a5440,0x3d8a227c,0x3f6824c4,
0x3e977ad3,0xbd28c96a,0xbf98445b,0x3f408cc6,0x3f3397ae,
0xbfaab283,0xbeab27cd,0x3e8ebf1b,0xbfbf87cf,0xbea9cc6e,
0x3fcb0dff,0x3edc7c67,0x3ecf4ddd,0x3e57bc76,0x3f5429df,
0xbf420312,0xbfc64431,0x3eb73575,0xc0064fcc,0x3dcd36ac,
0x3f0ed47f,0xbe7597d7,0xbf019de7,0xbf234095,0xbd7a3b2d,
0xbdf4f4eb,0xbf990f8d,0xbf8f81e9,0x3f940394,0xbfbcb569,
0xbf735135,0x3f8d219f,0x3f0ba0fc,0x3f2b41c2,0x3d86bfa4,
0xbc63e9b3,0xbf2a6cdf,0xbd6b6b0f,0xbf2c1774,0xbed99948,
0xbe3d7cd3,0x3f278489,0x3d417e96,0x3e64351e,0x3ea194b9,
0x3f842037,0x3f33df47,0x3f113066,0x3f9794f4,0x3ca82b39,
0x3e2e37bf,0xbe81f48b,0xbf477ddb,0x3fc9013a,0x3e6faee7,
0x3f9ac624,0xbe94d6ca,0x3f8359ca,0x3c55c9b9,0x3f2d1fde,
0x3f03df78,0x3dc83560,0xbf969b13,0xc0153f1b,0x3e8a8b05,
0xbe92d262,0xc003457e,0x3eb2563f,0xbf384abf,0xbfbe8574,
0xbf8d9a76,0x3c472b33,0xc0060bbb,0x3f21c71c,0x3dd3ac7d,
0x3f8098ce,0x3fd37bee,0x3e92783f,0x3f2d59d3,0x3efef817,
0x3e28d271,0xbe030c89,0xbd7dcaf1,0x3bb71277,0x3e918410,
0xbdcaccdc,0xbe158d32,0xbe4431a1,0x3e802d39,0xbe46ae0b,
0x3e2fb3dd,0xbe49c0b7,0xbde33b00,0x3e3623f5,0x3b4daf3d,
0x3dd5bdee,0xbe66e733,0x3e104977,0xbe3cfa2f,0x3eb2115a,
0xbe9f9a7a,0xbb408ecc,0xbe00819c,0xbe033ff3,0x3f445e00,
0xbe409fb3,0xbedf0215,0x3db06e56,0xbe8b22f2,0xbe20d680,
0xbc3d4d75,0xbdb45077,0xbe3b7a5c,0xbe9b96a1,0x3e42857f,
0x3e1583a1,0x3e8b898f,0x3e1fc685,0x3e8314d4,0x3b920db5,
0x3e8cad47,0xbef6a799,0xbe936a41,0x3e372b6e,0x3d152ce1,
0x3e936169,0x3d788afc,0x3d5e6fad,0x3e724c73,0x3cdd1887,
0xbeddd94a,0xbeae063c,0x3e8e9623,0xbe03e47c,0xbe3371f8,
0xbe0624f1,0x3dce7623,0xbd975e80,0xbddd096c,0x3e33b4f7,
0x3d920df0,0xbe143108,0xbe5e9d56,0xbec255d9,0xbdc95283,
0xbd80d087,0xbe873a12,0xbe0c92cd,0xbe88e881,0xbe00ecb0,
0xbd785d13,0xbe379a5f,0xbe2a5283,0xbd5ce5a2,0xbe0cde14,
0xbd245e3d,0x3df8334e,0xbe5c4ae2,0xbb8016d4,0x3d47901f,
0xbe86a034,0x3dca0ab6,0x3f13d97b,0xba103a1d,0xbe392fac,
0xbd12afb1,0x3d236026,0x3e49eb54,0x3f04d23d,0x3ecba795,
0x3df896b4,0x3d7bc1c2,0x3e96887b,0x3e0e28a2,0x3ea386bd,
0x3e63ad5c,0x3e66e516,0x3e06caf0,0xbdfee4ed,0xbcb0f995,
0x3d2bd8a6,0xbe077137,0x3e97c8f4,0x3dc8e330,0xbdfcbe32,
0x3e89809c,0x3d6d5af5,0xbd800308,0xbe97eedc,0x3c1e4574,
0xbd4e87c5,0xbdeaf2ec,0xbe4995ed,0xbdb36c47,0xbd9c1fe2,
0xbd5cd891,0x3e3e07bd,0xbdbb6591,0xbe20f7c4,0x3d304c8c,
0x3d36ca73,0x3d85b623,0xbd0f33a5,0x3e5b26b9,0x3e2ef0a1,
0x3e109d7f,0xbd96eb49,0x3e8d58fa,0x3f0282c3,0xbf26ea9a,
0xbef06087,0xbf434c77,0x3eb04d64,0xbfbb9657,0x3f426113,
0x3f495538,0x3e7ada65,0xbe0a368c,0x3ebf4c57,0xbe38d86a,
0xbfa33f7d,0xbef58d0e,0xbdb4d27e,0x3e52d7cd,0xbdd0115c,
0x3f126cd0,0xbf296e68,0xbc795ea7,0x3e27489d,0xbf6931ca,
0x3ed4ff97,0xbeb9287a,0x3e044ab7,0xbf39ec3f,0xbdb10fe0,
0x3f4e733a,0x3ee5709b,0xbf018d42,0xbf97e9b4,0x3faecf0f,
0xbf705e10,0x3ee40b58,0xbf4d3324,0xbee03d0f,0x3fa4a14f,
0xbf169f85,0xbe9c9f0c,0xbef7f198,0xbf10eea9,0x3dc510fe,
0x3f27a635,0x3ec4ee8b,0x3ee08412,0x3e7bca90,0xbf633e79,
0xbe1611c6,0x3f1c4f3c,0x3ddf1391,0xbefef33e,0x3f95bb2e,
0x3e0f7e0b,0x3f61a9a0,0x3d76a716,0xbf040217,0x3ec4b16a,
0x3ff382cd,0xbfa27296,0xbfbe7181,0xbf0bc033,0x3e7c5b23,
0xbf3f3f42,0x3f9f4653,0x3f927fd2,0xbf5ef282,0xbe15fecb,
0xbe7bdb97,0xbe66f86e,0xbf9e388b,0xbe31dbc3,0x3f835fd3,
0x3f605504,0xbf81afdb,0x3f1dedf5,0xbef697ff,0xbf803a8b,
0x3da22b26,0x3f7e151d,0x3e8fab86,0xbe5a8b38,0x3f124fd7,
0xbf8326b2,0x3e1166bf,0x3ea967e4,0xbf5ca10e,0x3f87f727,
0x3e19e6e4,0xbe384e96,0xbf112dc2,0x3f5902bf,0x3f816e4f,
0x3f566b13,0xbebf8426,0xbf2e9f66,0x3f8ef2c1,0xbf36bbee,
0x3efba78e,0xbf98417c,0x3dc37bf4,0x3fa15b24,0xbf35715a,
0xbf128b45,0xbf2f5657,0x3c936ad7,0x3f2bb1a6,0x3f438273,
0xbe935af1,0xbe442d82,0x3e351a5f,0xbf521946,0xbdae8744,
0x3e94bdd3,0xbd96ada9,0xbf5f1bb0,0x3f2439e4,0x3d2dfeba,
0x3f3edea0,0xbc59a1c2,0xbf357246,0x3dd61ad9,0x40039cbe,
0xbf96b351,0xbf93576b,0xbfa559cc,0xbf1aa879,0xbde82666,
0x3f8f9472,0x3eb32378,0xbfd4110b,0x3e8a04d7,0x3e7eec12,
0x3e04eaff,0xbe1f2d49,0xbce1755c,0xbecfac8f,0xbefb4463,
0x3ea20a7f,0xbe85fb59,0x3eea8399,0xbe962cda,0xbeb00218,
0xbdbc3325,0x3ef3e937,0x3e2f4f95,0x3e9cc661,0xbeeff200,
0xbda53a82,0x3ed54816,0xbe91f7fd,0xbd502717,0x3f6d81b5,
0x3bdbf76e,0x3f13ee0b,0xbf671a7c,0x3f022e43,0x3f5bcea1,
0xbee278fb,0xbe594cff,0xbe855101,0xbe71ef18,0xbf04af99,
0x3d701399,0xbe2ddf62,0xbe7ad6ae,0xbe17fbfe,0x3deefc98,
0x3e072523,0xbf6542d6,0xbfb5ac88,0xbec449bc,0xbebc4be2,
0xbf09698f,0xbeda26d8,0xbe837c0a,0xbe6d21ef,0xbf42df7c,
0x3df5859f,0x3e0d00e3,0x3d8c0ba4,0x3ed8b43d,0xbefe2913,
0x3f45c69f,0xbdb50754,0x3f4c874f,0x3dd954c4,0xbf22443d,
0xbe012e46,0x3ec55f4e,0xbc16eac3,0x3f8514cb,0x3f1b850a,
0xbf0d22b8,0xbf8b401f,0x3f1049e0,0x3e377ab5,0xbe34c589,
0xbd135eb6,0xbf35ef32,0xbea0678f,0x3e6b32f4,0xbed59206,
0xbf3dde35,0x3ea7a502,0x3e5b7bac,0x3f226fc6,0xbe57ca1a,
0x3e1f4d40,0xbf61955c,0xbd7f78dc,0x3e5ad42a,0xbe91d730,
0xbd142649,0x3d22933c,0x3f9229cc,0xbefbd8a3,0x3e6d56b4,
0x3eb02ffe,0xbf2cbd8b,0xbed92307,0xbf33ba1d,0xbc2a6ebe,
0x3e429b32,0xbf09c5f0,0xbe525498,0xbf6fe465,0x3ec1b8f4,
0xbe8c01b5,0x3f339ff0,0xbe694b7b,0x3ef5ff8d,0xbe3c5ff7,
0x3edf74d1,0xbf99b4fd,0xbdae937f,0x3f5ba58c,0xbf4f40c5,
0xbf0c53be,0xbe1fe267,0x3e40d1d2,0xbe3a29ff,0x3e553460,
0xbea3420c,0xbf1be375,0x3c98e687,0x3e78bc40,0xbde60b01,
0xbcec5cdd,0xbf14615e,0x3e0a1d65,0x3dace0f3,0x3ebaec97,
0x3eb5604a,0xbf6fc514,0x3f182474,0xbdd118f6,0xbe8c9741,
0xbd3800bd,0xbe73fb64,0x3e675894,0xbeb574c6,0xbcb51f47,
0x3cde6f03,0xbe5bce2a,0xbead7a8f,0xbf5c7b53,0xbc6e7460,
0x3e9a51fd,0xbe2cb962,0xbd2e1a2e,0xbe402f8e,0x3e6e8c91,
0xbdaa38cb,0xbdb01310,0x3f128e8b,0x3d055fa0,0xbda94547,
0xbc661f11,0x3cd78861,0x3ece71e6,0x3e38e30e,0xbf02cec4,
0xbdf94693,0x3d49757e,0x3dda4fae,0x3de51cf8,0xbead78bb,
0xbed122e5,0x3b295b56,0x3f111911,0x3d82d916,0xbdbc23a5,
0x3e847e5a,0x3d1b7a82,0x3ed22a17,0xbe7302ee,0xbe0a3a75,
0x3ea43e43,0xbf107e89,0xbec7e112,0x3e7c9a7c,0xbef9a898,
0x3ed750b1,0xbd71bded,0xbeb0f580,0xbe87eaad,0x3e6974a8,
0x3ebb6444,0x3eb43153,0x3ca2d7f9,0x3ea2c2fd,0xbdf9c4f1,
0x3f10a371,0xbcbef2b6,0xbf8058c6,0x3e7c65a6,0xbea1b94b,
0x3d5445a1,0x3e0b7e64,0x3cb17d03,0xbe220391,0xbdfff65f,
0xbe08cf48,0x3f2389a2,0xbe4bc14d,0xbe3c2230,0x3eeb2626,
0x3da89514,0x3f8c1e92,0xbc08a666,0x3e922397,0x3c68e6e0,
0x3e5c9f54,0x3ddd768a,0x3e420b39,0xbea1736a,0xbf0b5146,
0xbdbbbdb8,0x3d263bb8,0x3de091ec,0xbdade232,0x3da94e12,
0xbe55ae70,0x3f6e6bed,0xbdc66cdb,0x3eb8a4b1,0xbdc2ce2e,
0xbeaba3bb,0x3f0a39c5,0xbdac9e19,0xbc353525,0xbdcc61c6,
0x3dd7a447,0xbed989d7,0xbe9d974d,0x3bbda163,0xbece9e45,
0xbe5411d8,0x3deec397,0x3f6a29c3,0x3f5ef47b,0x3e0e5837,
0xbe00604e,0xbe0694f2,0x3ec2d88c,0xbf0be4d4,0xbd0e342e,
0x3e14763f,0x3e806335,0x3f55b7d8,0x3e0e0815,0x3e106f95,
0xbe6a10a4,0xbd9d6712,0xbe34affd,0xbe9f44a1,0x3d698464,
0x3de24f2b,0xbda2bea2,0xbb8138ce,0xbce21ed3,0x3e1acdd3,
0x3de96ff9,0x3c46edf0,0xbed17392,0x3f5474a6,0x3f7b0429,
0x3e806ae9,0xbe38569d,0x3fb30485,0xbf9d9763,0xbf9cb663,
0x3eb48b02,0xbea1eded,0x3aa536e3,0x3ecdce2f,0xbe85f334,
0xbfe59ee0,0xbd16bb56,0xbea2a97b,0xbf8ed989,0xbeb33e6e,
0xbf45287f,0x3edd0051,0x3f98da5a,0x3f8ed07f,0x3d9b3dba,
0x3f86174e,0xbe960bd8,0x3ddd8d5b,0x3fe94fa5,0xbde90341,
0xbf449d53,0x3f0e3ae9,0x3fb686aa,0xbf8555d1,0x3f22bb32,
0xbf8eb51f,0x3f144b62,0xbf8348e4,0xbef402e4,0xbfa6167f,
0x3fbe0e9d,0x3fa062fd,0xbf013f5c,0x3f0991a1,0x3eeeb346,
0x3eab2e89,0x3f63e949,0xbe62d565,0x3f944432,0x3f31244b,
0xbe3cded3,0x3e3bc754,0x3f8e9b9d,0xbe5df161,0x3c4a9b2d,
0xbf36edbe,0x3f8c656f,0xc020d42b,0xbed7b1d1,0xbfb26415,
0x3ec20765,0x3d96f02c,0x3df51a3c,0x3f528f2a,0xbea09939,
0xbe97fdd5,0x3d070b96,0x3c1fcb85,0xbaa4823a,0x3cfb7ed0,
0x3d3355ac,0xbcefe72c,0x3ade9987,0xbd6ee221,0xbe2ee9f7,
0xbdf601f5,0x3c22f2a4,0x3e4d20a6,0xbc86ce03,0x3c5027b5,
0x3d927da5,0x3e1dfb61,0xbe2e12d9,0xbc97d03d,0x3eddc08e,
0xbd952152,0xbcb6ac83,0xbd537950,0x3d455bb9,0xbe2990d5,
0x3f0e2dbd,0xbeeb75f1,0xbd43e017,0xbd106e6b,0xbe312a91,
0xbda02d8b,0x3d4da4af,0x3e15b273,0xbda30726,0xbdae39b9,
0x3da2d375,0xbb4152d2,0x3cde89f0,0xbcd8c333,0xbea81c9a,
0x3d2dc053,0xbe5d0ec3,0xbcafa0c6,0x3ee0203b,0x3d625564,
0x3e0de529,0x3c8db3f0,0xbd587439,0xbcc11e40,0xbe0f83d3,
0x3c6c6ec8,0xbe943c20,0x3e4ba857,0x3e4f6a19,0x3b0af496,
0xbe008268,0xbd6a9aee,0x3d334d35,0xbcb941ae,0x3d12a649,
0xbe48e0b2,0x3d70fae7,0xb8671fe5,0x3b9512ed,0xbe0f3325,
0x3c83386e,0xbc1d2e1e,0xbd596e1f,0x3e7efea5,0x3c44b64e,
0xbd7aa57a,0x3cd11bd7,0xbd69bd72,0xbef2c8ea,0xbdabe76a,
0xbcbb1cec,0x3e4ed4d1,0xbcdd25fc,0x3cf45b0b,0x3d318394,
0x3d2b1727,0xbc15880b,0xbc1a05ae,0xbd7b7f35,0x3d1e084b,
0xbd186a9f,0xbcbe8e61,0xbe0a5bc7,0xbdfde3d6,0x3e70557c,
0x3e5979ac,0x3db03aa2,0x3cb5a30a,0xbd74c2b8,0xbd7ae93b,
0x3e75c65b,0x3df368b0,0x3d8172a3,0xbc4b887f,0xbd83f7a1,
0xbd262f5e,0x3d8e70f8,0x3d982ed9,0xbdc9f66b,0x3d4f22e8,
0xbeede6cc,0x3dc17b52,0x3d3d7c6d,0x3d8963b8,0xbe9dc3ea,
0xbddb12c7,0xbd84b198,0xbd0cf254,0x3f15eada,0xbcb2477d,
0xbd3487b2,0x3e2733c8,0x3b7d13e9,0xbceb0139,0x3c5ba15c,
0x3d495bbb,0x3d5df366,0xbcd3007a,0x3cdc299b,0x3dce84c7,
0x3d18d581,0x3dc1979e,0x3e859ee2,0x3dcabe4b,0xbb93b913,
0x3b58a01c,0xbb813eec,0x3d305041,0xbcb02481,0x3d03d257,
0x3c1bf0e3,0xbc55179c,0xbb4a6028,0xbd0b6e56,0xbd2f1539,
0x3d9cc9fa,0xbc96532e,0x3c06ce9a,0x3ce5ff9f,0xbdc56d74,
0x3db2dee0,0x3cd74080,0xbe333555,0x3d6c2cfc,0xbc19bf0f,
0x3c936178,0x3c8ad3ad,0x3d08e918,0xbf3173a1,0x3ef243be,
0xb9e8df96,0xb911cb10,0x3e177dca,0x3d0d3010,0x3c02a6bf,
0xbdb5ecd5,0xbd5d1434,0x3ba62aa0,0xbd2e2017,0xbc163448,
0xbcb4534a,0xbba8fb53,0x3f1129c2,0xbc2895f2,0xbe581b9c,
0x3d4d84ec,0xbf34a90b,0x3d6bb595,0x3bcb1467,0x3d652d9e,
0xbd1e80c7,0x3c0b434d,0x3e9ac5cc,0xb8cc498e,0x3e2fdabe,
0x3da03fab,0xbde254a5,0xbc4a394b,0xbeaa8879,0xbbefabcd,
0x3c925eb0,0x3b50aba8,0xbc59d6a3,0x3d28acab,0x3b43f556,
0xbad27bf4,0xbdb95e85,0x3d8fa2da,0x3c7f12b3,0x3d01c062,
0x3d52e78b,0xbe906db3,0x3c8fea94,0xbbc35033,0x3b9e17bb,
0xbd0aa673,0x3e16efe3,0xbd2681aa,0xbc7433bf,0x3c2a54dd,
0xbc0bfecf,0x3c35df0b,0xbd214c3d,0x3d8adb27,0x3e3ef8ef,
0xb8ac2c7d,0xbde84054,0xbc78463d,0x3e1e46a9,0xbcb4b907,
0xbdf1a9ff,0x3c8bc618,0xbec5a9f1,0xbf130d94,0xbd391551,
0xbc8cda47,0xbe69f4e2,0xbd0df759,0x3cd7dc5c,0x3d3e82bb,
0xbc7419ed,0xbd52fc07,0x3c6a3f0c,0x3c639b5f,0x3de9a556,
0x3cb18ebf,0xbda7fcb8,0x3be20b8e,0x3e317d13,0xbe417854,
0x3e0653fc,0x3d8d1e9f,0x3ed0e4ec,0xbd624431,0xbca10db7,
0xb9405cee,0xbe549d78,0xbbfc9f63,0xbd891349,0xbea5ce08,
0x3b37b036,0x3c981dac,0x3e68d6f6,0xbc58a500,0xbc491460,
0xbc817cde,0x3c8e9a8e,0xbdf94976,0x3bcf82f6,0xbd516dff,
0x3d47d300,0xbbe41d6f,0x3b8d6426,0xbca3826f,0xbc219b5c,
0x3ebf95a1,0xbcbe77c8,0x3d0c2ef1,0x3bfed03b,0xbbb0c656,
0xbe21a94e,0x3b43647a,0x3c87cc8e,0x3cd81350,0x3c0e8cdd,
0xbcae7eb3,0x3d4d9b4c,0xbca7433b,0x3ea6e1ee,0xbb650ac3,
0xbd41d6c7,0xbd8352d3,0x3e7b8e03,0x3cd52c7f,0x3c148a6e,
0x3c317483,0x3e4e936d,0xbfa9c874,0x3d079f5c,0xbc03807c,
0xbeb756d0,0xba1a1a72,0x3ddb681c,0xbdd8995b,0x3bc6ac15,
0x3c25b03c,0x3d462452,0xbb921b56,0x3e39e841,0xbd159c2e,
0x3e31a25c,0xbbe43fea,0x3e011f85,0xbe88f2c4,0xbeb9b00c,
0x3d291372,0xbca26ff4,0x3a9b934f,0x3bdf2742,0xbce51de6,
0x3dae0c28,0xbd351f5d,0xbdc52e79,0x3ee183fd,0x3d71a888,
0x3bb36703,0xbcdc4479,0x3cb30dc3,0x3cd9aaff,0xbc437b21,
0x3caa032a,0xbeb18d30,0xbccc4ac8,0xbc020436,0xbe0f20ac,
0xbd269075,0xbca3ba5a,0xbb9d413a,0xbc0b3976,0xbe8e2f48,
0x3cb92fc2,0x3c9a7d98,0x3d04c457,0x3cdae973,0xbf13c33c,
0x3ca0806f,0xbc176bb7,0x3de28d83,0x3bee6b49,0xbc9b49ac,
0xbc03d47d,0x3c7fa5ed,0x3e9d01ae,0x3c0ccc9d,0xbd2ef656,
0x3d318d1e,0x3e9d7a2e,0x3ccbdf33,0xbdf34f2c,0x3c141e25,
0xbe24a60c,0x3d82b0c1,0x3c38585d,0xbc77064d,0x3e1b0af3,
0xbccf0719,0xbd81bbd6,0x3db27fa1,0x3cc651af,0x3bd87da6,
0x3d689798,0xbcbea5c7,0xbd7126c1,0x3c202d1d,0x3f11c7ef,
0x38644b30,0x3e4ba238,0x3ddb74c5,0xbf42cfd7,0xbd88a332,
0xbea2e9b6,0xbe62187c,0x3ca2e8b0,0x3d220404,0x3e4c6812,
0x3d8c36d5,0x3d7c1621,0xbe986aea,0x3cf51908,0xbbcb8994,
0xbf0bd5b3,0x3bc097e2,0x3cac3099,0x3c109d74,0xbca1f866,
0x3baade6b,0xbcc21928,0x3d0f885c,0xbda84fb8,0xbd2d4af1,
0x3e7d2144,0x3e39c7db,0x3ea20116,0x3ef311c5,0x3e3c4b53,
0xbe63c64c,0xbc8ab354,0xbf9f4661,0xbf3cd077,0xbe8f5e2c,
0x3f0fe9f5,0xbfa3894e,0xbf0470e7,0x3e4b8952,0xbe98fc12,
0xbf665c68,0x3d7e920b,0xbb8336ea,0x3f308ef7,0xbf2b892c,
0xbf5ed2a2,0xbf0c482e,0xbdefdb02,0x3f931d03,0x3ed01c2a,
0x3d06109e,0x3ec29432,0x3d8ceea1,0xbeb15cde,0x3e9d66b9,
0x3edfb5cc,0x3dd86e14,0xbe3db22d,0x3e64871b,0x3d80d383,
0x3e88a155,0x3d418d72,0xbdce086b,0xbe821047,0x3e57e3cf,
0x3e5a0166,0xbe49ed25,0xbeca30e1,0x3e4382e3,0x3e4c1842,
0x3c95bc02,0x3d9bfaed,0xbe3ebae3,0x3e694b6e,0xbdb63e51,
0xbf0c3745,0xbe0ee6c7,0x3f34637d,0xbe8081f3,0x3e6dbcd8,
0x3e14a756,0xbe4c53ed,0x3e76d9b1,0x3e2f13ed,0x3de17605,
0x3e8d6735,0xbe7141c2,0xbedf47ca,0xbec24330,0xbdb7ca7f,
0xbd1d2ac6,0x3e88de08,0x3ef60a77,0x3e57d9d9,0x3d193d62,
0xbe34db48,0xbee901de,0x3e0dc217,0x3e739e1e,0x3e477188,
0x3f019b9f,0xbe2a006e,0xbee48f7c,0x3e06f6af,0xbed97346,
0xbe991ea6,0xbda2dfc3,0xbe10d2f2,0x3ec276ef,0x3e4fb1af,
0x3f01ea8b,0xbd5bacdd,0x3e336a39,0xbc1de296,0x3ec8ee67,
0xbe619d87,0xbf3a37d2,0x3d4dca32,0x3e9698d5,0x3dc8d12c,
0xbdbf4051,0xbe1015d1,0x3dfdc7b9,0xbe1d4251,0xbdc30a22,
0x3e50a7f2,0x3c01f837,0xbed69c38,0xbd383e10,0xbd187f69,
0xbe23e1b0,0x3e08b93c,0xbf04c5fd,0xbe20e6f3,0xbdaeb86b,
0x3d086ab8,0x3e803025,0xbd013769,0xbd3177cf,0xbdc6e0df,
0x3e8df2b6,0xbeb1f8bd,0x3ebd88b1,0xbdf3e444,0x3eb0f094,
0xbe038810,0x3e8b6540,0x3e28395d,0x3a9e83a8,0xbe1220e9,
0x3dee4eca,0x3e10725d,0x3e08ce52,0xbe9012ca,0xbe8fcec9,
0xbc4e0120,0xbdf67ba8,0xbe127616,0x3be1af88,0x3d81aef2,
0xbeda8679,0xbe3484dc,0x3e1d4586,0xbe938d39,0x3dab0150,
0x3f03ec00,0xbe080ced,0xbe96a2d0,0xbf31d3f5,0xbe09c09c,
0xbe83f3c5,0x3d0b9b9f,0xbf64a0f8,0x3e9090a1,0x3d51fb1a,
0x3d1383fa,0x3dc294ad,0xbe2dc196,0xbef79e6e,0x3e825aa2,
0xbf1822be,0xbecf9973,0x3f5db09f,0xbe744aff,0x3e2372ca,
0xbe6f6120,0x3dbb1346,0xbbe63309,0x3eb9efc5,0xbd8cdebc,
0xbeacc342,0xbee2a917,0x3d5592f1,0xbe87e4e2,0xbf02bbef,
0xbe38f0b1,0x3e4a6092,0xbeef81e9,0xbef943d9,0xbdec717b,
0xbe5d2459,0x3e9abb24,0xbea1dba3,0xbf62d060,0xbe7957c0,
0x3ed8c808,0x3e109572,0x3e31e8c3,0xbe84472f,0x3efb58cd,
0xbe25896c,0xbf87b828,0x3e15dc4b,0x3dc06ff7,0xbece2d79,
0x3eca15f5,0x3f747bef,0xbdf058b9,0x3e147c01,0xbe364619,
0x3e9c89f6,0x3d58e0f7,0x3e6392d4,0x3e1fa67f,0x3e81ed3d,
0x3dd8aad0,0x3e6c9f6d,0x3d782fbd,0x3f86fb5c,0x3e5857b4,
0x3ee57182,0x3f2e3d3f,0xbeaede27,0xbdb4fd64,0x3ea2bb68,
0x3ea544e2,0x3faf10c1,0x3f0fd01d,0xbd239219,0xbe345347,
0x3f406078,0x3d39773f,0xbc6943cd,0xbe2f16fb,0xbed3d7bc,
0xbd2e1eb1,0xbd958bce,0x3de9d314,0x3d11ce9d,0xbec37706,
0xbec3fc96,0x3eb3c97e,0xbda7970f,0xbed02715,0x3dfddcec,
0x3f5dfd77,0xbf8f3fb8,0xbf2d2a3c,0x3f0fc1ad,0x3e3d7cd1,
0xbc65e204,0x3e069ce8,0x3d4cce99,0xbf0ca41c,0xbdcc678f,
0xbed40c84,0xbbe97ef6,0x3e2a8582,0x3c1bf6f2,0x3d9f485f,
0x3e17d918,0x3eea3b9e,0x3f11fb0e,0xbef0d6b2,0xbe51d627,
0x3e927914,0xbe8f68e9,0xbe308367,0x3f0ddf96,0xbe05ff3b,
0x3deb0667,0x3b35b8ac,0x3edb0f40,0x3c91c6b6,0xbd0c59f5,
0x3ec3a8c8,0x3dea7a9a,0xbd7bc707,0xbd93ea4e,0xbe8e4983,
0xbd3913e2,0x3e6b948c,0xbe17f5a0,0x3da3b7ac,0x3d9a9f27,
0x3e350734,0xbe540e6e,0x3e9d4a95,0xbcc07467,0xbe89c5e7,
0x3e3fa7cc,0x3e90a366,0xbe8e3d60,0x3ca8843c,0x3e3dbb88,
0x3cbb81a1,0xbcc5b496,0x3dbcfb21,0xbe393c62,0xbc423c16,
0x3e2eaf90,0xbd68c532,0xbe93701d,0xbe58d2df,0xbe87e99c,
0xbde2147e,0x3cea0df3,0xbf082092,0x3ea9ad31,0xbe0acc2e,
0xbf98af70,0x3ed405a0,0xbdcfcafe,0xbe778128,0xbed5dabf,
0xbd45b02f,0x3e86df73,0xbe521ef4,0xbe49a5c8,0xbb7a49e0,
0x3e8e43db,0xbd05a387,0xbe64ca76,0x3f2b95d2,0xbf7b16d2,
0xbef7f1a7,0x3f0c477d,0x3ed20817,0x3d617701,0xbdd1dbb8,
0xbf004c44,0x3ead28a8,0x3e07e295,0x3e9363f6,0xbdff05a2,
0xbe875161,0xbef46125,0xbccb38b1,0xbd314c74,0x3e865638,
0x3e118bdf,0x3e6ac33c,0xbf0375a3,0xbef8dbae,0x3ed8eb32,
0xbf0f39fe,0x3ddc2c2f,0xbefe819a,0x3d1c7d3a,0x3cb88eec,
0xbe89687a,0x3c8656f8,0xbec89cf1,0x3ee90607,0x3f1f4c33,
0xbd702a98,0xbea7c3ec,0x3e094f41,0x3cc0ef36,0x3d6d15df,
0x3efd98c5,0x3dc7c82d,0xbf0de5f2,0x3b6582f8,0x3e401232,
0x3dd712c5,0x3e56a540,0x3ec448fb,0xbdc5ffb1,0x3cc885ee,
0x3eec7622,0x3e362e81,0xbded689b,0xbe280e63,0xbe7ba053,
0xbd9f3ee3,0x3e5d15fa,0xbe52cc3b,0xbe479309,0x3e8cb2a5,
0x3cdf242e,0xbe8d9fee,0xbe5b5ede,0x3e96416c,0x3d351a29,
0xbdcdcbda,0x3d34e391,0x3e3b27df,0xbd693b81,0xbddae742,
0xbf172ffb,0xbd554962,0xbe10c43b,0x3e1d2f7a,0x3d85bed0,
0xbe48f4dd,0xbea3823c,0xbdebbe33,0x3ea7b15b,0x3cd68fc1,
0xbd878b16,0x3dbc18c7,0xbea54e3b,0x3ea2082c,0xbed6fe14,
0x3cb5df58,0xbd833893,0x3f5d6c7f,0xbe33ed20,0x3d7161e9,
0xbe027710,0xbeecc9d4,0x3e8a50c1,0x3d7a5ad9,0x3e8ec525,
0x3ec2b416,0x3dbb8d11,0xbec4522c,0xbe842cf9,0xbd583a14,
0x3e609538,0xbedae598,0xbef7465b,0x3ec3510f,0x3dbc93cb,
0xbecf66f5,0x3cf55594,0x3e657127,0x3de295a6,0x3e2d12b3,
0xbdcc15ca,0xbf69c880,0x3cd6b025,0x3ea6a07e,0xbe509c41,
0x3e6d6bc4,0x3eab26a0,0x3ebdb43d,0xbea070ee,0x3f3ca5ff,
0x3e77cb20,0x3f86a596,0xbeaca377,0xbd5c677c,0x3f028ea8,
0xbf4ca612,0xbf9790d1,0xbf1e388e,0x3d36ae1a,0xbf0e7947,
0x3ef80b1a,0xbf4d2711,0x3e8231ca,0xbed225e7,0xbefb16b5,
0x3ea83e7d,0xbea05bae,0x3ee151de,0xbedc287c,0xbd911f25,
0x3f10f5a6,0x3e91f65d,0x3f5bf1f9,0xbec74b37,0x3f1194c8,
0x3cae18fa,0xbd81b6b5,0x3d823128,0xbd883203,0x3e47d701,
0xbf5acf87,0xbf2a0e32,0x3ce44afd,0x3e394b7a,0x3e2ad483,
0xbf8c48d3,0xbe297f1b,0xbf4f494c,0xbf15dee0,0x3f54175b,
0x3e18cb04,0x3e5ea2ca,0x3f0c19a5,0xbf4a6bd6,0xbe8d6296,
0xbec0c26c,0xbf09e5d9,0x3e84db0e,0xbe14a0d5,0xbf07b75d,
0x3f19cae2,0xbf1bace3,0xbdb50ed1,0x3e097b3e,0x3f0587d5,
0x3dc72bba,0xbeb72f13,0x3d2419ed,0xbd8ddfc1,0xbf2dc67a,
0x3d494bc9,0x3e70738a,0x3ec08735,0x3d2b9119,0xbea9232d,
0x3e67f2da,0xbdefd18e,0x3ea67e42,0x3e23078c,0x3d9df369,
0xbe9a8600,0x3ee70660,0xbc941a83,0x3d476ec2,0xbeaae16e,
0xbe08328f,0xbd7f6b97,0x3b357b29,0xbdc1522a,0xbde82ea3,
0x3ed0b611,0x3f0940e7,0x3e4bcb32,0x3e7e02bd,0xbe6dcab1,
0xbe9e4e3a,0xbd863267,0x3e3e9048,0x3ba7c079,0x3baf403b,
0xbe4d5903,0xbd55ab34,0xbd8a28d5,0x3d7c1099,0xbe948271,
0x3f09e6ea,0x3ead38f1,0x3e0bedb5,0xbe959ba4,0xbd62edbc,
0x3ded5c7e,0xbed48378,0x3ed0878e,0x3d3d33b2,0x3cd77257,
0xbd97fc4b,0xbd56ef37,0xbd20011a,0xbe1d1735,0x3ee7c86b,
0x3d64a9e9,0xbd40d310,0xbce83f46,0x3d5fed92,0x3dc4f4dd,
0x3ec919c1,0xbe17bc60,0xbb03f081,0xbed36dcf,0x3f6bbb9c,
0xbf421c83,0xbf464323,0xbfd80400,0x3eac62bc,0x3f55fdb6,
0x3f736d2d,0x3ee79ee0,0xbebcd69d,0xbf434687,0xbf5aa8aa,
0xbe03b0c1,0xbf7407af,0x4008dc73,0x3d4542e1,0x3e86568b,
0xbd63da0b,0x3f8f3277,0x3f9de282,0xbf8f769c,0x3de237bd,
0xbf86b215,0xbfc4f604,0xbf63d2fc,0x3fc55394,0x3ede5c25,
0xbf5f4230,0x3ea95569,0xbf4b7b3c,0x3dc9f984,0x3f8ce8fa,
0xbe208d59,0x3e7b3c85,0x3bd8ecf4,0x3d070a11,0xbe0c559b,
0xbe328258,0xbe33e632,0xbed22e95,0xbbd93bec,0x3e465b6c,
0x3e4b3e5d,0xbe0305c6,0xbe4c44bb,0x3e117682,0xbc9457f3,
0xbd11e64c,0xbe98f35d,0x3dbf2723,0x3d87d7e4,0xbe176531,
0x3d9f76ee,0xbd18126d,0xbde33952,0x3d4f2ee2,0xbeb8932f,
0xbd40629b,0xbecbc7df,0xbe37032d,0xbeb990af,0xbd6dcd88,
0x3d3d7554,0x3df6a993,0x3dfbdb62,0x3ebc9a05,0xbd723ce0,
0xbec3ebf4,0x3e44fbb6,0xbedbccaa,0xbe241fa9,0x3e98267b,
0x3e3dfb64,0x3f18b441,0xbe890ef6,0x3e010b07,0x3f25ec87,
0xbe26de30,0xbe805b52,0xbd90f8e5,0x3ee7411b,0xbe95579e,
0xbdecdc6a,0xbc1417b2,0xbd5b711b,0x3e90412d,0xbe734ce5,
0xbbde6055,0xbd4fe208,0xbe3a2159,0x3dd2f171,0x3d08751b,
0x3db83dad,0xbe6175f0,0x3e542139,0x3e1d16d9,0x3d6bb444,
0xbe001471,0xbd88c2fe,0xbbf71a3f,0xbc9f8b89,0xbedef1ae,
0xbe1416c9,0x3d0262c1,0x3dc3af73,0xbd430aad,0xbe75bca1,
0xbd633d6f,0x3e37b0d4,0x3cd6bd26,0xbd8f4768,0x3ef389cb,
0x3dd7ef21,0x3ba4f3f4,0xbda9e4e3,0x3dfb83c3,0xbdaabb77,
0x3bd7bb1c,0x3db44b6d,0xbe147cea,0xbc4e131f,0xbda16bf2,
0xbe07e5e4,0xbd7d7078,0x3d83cfae,0xbedb8f70,0x3e75b3bf,
0x3d805940,0xbdd1f48e,0xbee9e372,0x3d592f55,0x3ec98c8f,
0x3f16232b,0xbed925ee,0xbeafc391,0xbe39f8a6,0xbed0da9f,
0xbf349fd7,0x3e0f4ce1,0xbe433df6,0x3de112ba,0x3ed5b090,
0xbf3a55cc,0x3e82a114,0x3c06f8ff,0x3df4dd02,0xbfa8eb5b,
0xbeffc648,0xbe16d80b,0xbbef9188,0xbefa6994,0x3d37d91b,
0x3f1776aa,0xbef81cef,0x3f88ec75,0xbec21117,0x3e940b5e,
0x3e912ee4,0xbf21c4cf,0xbf225b5a,0xbf514e55,0xbe860b3c,
0xbdd439ac,0x3cc87d53,0xbd4d62f6,0xbe33e42d,0xbda2e78c,
0x3d061d1f,0x3d018476,0xbe1bf7c7,0x3df9c36f,0x3d9830ad,
0x3ef0fcc2,0x3ddec69e,0xbe0d47c8,0xbe8d82fd,0x3cdfc0de,
0xbe5260d5,0x3e8dcf25,0xbdf5811c,0xbdd6a64a,0xbeb6e1f0,
0x3d29c730,0xbb979fc8,0xbeeaa801,0xbe4674e7,0x3af9d8c3,
0x3e671726,0xbd156a6c,0xbebbcfb8,0x3ee188ab,0x3d2475a3,
0x3e3728cd,0x3e6481fa,0xbf2bf5e6,0x3dbe9692,0x3ea9c550,
0xbde17ac8,0xbe154401,0xbd81cca8,0x3eff511e,0xbe875c17,
0xbe729036,0xbe6e671d,0x3f35299b,0x3dd0beb6,0xbdca0ed8,
0xbdc9668b,0xbee4fbf7,0xbeac11d1,0x3d511287,0x3e33c9b7,
0x3ee4d839,0xbe11d94e,0xbe68037e,0x3e2c9e33,0x3e6ab275,
0x3d04c005,0x3c390235,0x3dcebfb7,0xbf7eb564,0x3e3a9f7a,
0x3e645238,0x3dc35a95,0x3e801be5,0x3d7eef2a,0x3f18f59c,
0xbb219909,0xbda6f7b0,0xbf0a1448,0x3da3e509,0x3b3cd302,
0x3e6cb14e,0x3c43cb0d,0x3b5366f5,0x3b58f59d,0x3d111534,
0xbeba7a0d,0x3c3e9fc9,0x3e3851f7,0xbef2d2e5,0x3e2840bf,
0xbe1c466a,0xbd1efe34,0x3d8576a1,0xbdca46cc,0xbd0b7ca5,
0xbd9e2897,0x3e76b1db,0x3dc2ff9e,0xbe1d319b,0xbb86e6de,
0x3e0ca8b2,0x3de3d1a1,0xbc32edec,0x3d812e8c,0xbdce381f,
0xbe63b2fa,0xbecb3ec4,0x3d8fdf1c,0xbcaf726a,0xbcd57cbf,
0xbbbf2f11,0xbbb8d349,0xbe39496c,0xbe591e08,0x3d130107,
0xbe062429,0xbddde0cb,0x3e150792,0x3bc2ad58,0x3db4dc40,
0x3e5ee3d5,0xbd6958c9,0xbe504dd0,0x3d9d9e18,0xbe65a960,
0xbdbb7ef1,0xbd6f3964,0xbe063cb7,0x3e4292fa,0x3d703726,
0xbeaba31b,0x3f7b944b,0x3e9622de,0x3d69dfe1,0x3ef34b8a,
0x3dbab8f8,0x3e570eef,0x3ead1f70,0xbec813b2,0x3dfc2b7a,
0xbea15014,0xbd34928f,0xbe265c0b,0x3f1908ce,0x3e11b727,
0xbf41ca4a,0xbf2fdf2b,0x3ce3000d,0xbe943a40,0xbeec70b4,
0xbded0e82,0x3e7369ae,0xbdb09787,0xbb7d3c2e,0xbe515bb8,
0xbe240fc5,0xbed95d09,0x3d8bb3f5,0x3e592958,0xbe8de0f1,
0xbee98bfa,0xbe51ba34,0xbd161b4f,0x3c955dbe,0x3edb930e,
0x3e9f680b,0x3e72a127,0x3e83b90e,0xbf012eef,0xbf2da563,
0x3ec01bc7,0x3ea3b37f,0x3ea65dd8,0x3e067b76,0xbd0350c5,
0x3c8c1b03,0xbeb4d39d,0xbf56de02,0x3eca4092,0x3e61cdc7,
0x3dd968ff,0xbe731a85,0xbf3de3e3,0x3eb05988,0x3e3dd803,
0xbe2d62f4,0xbe83dcd9,0x3e6de6fa,0x3c80024b,0xbe2e3b28,
0x3e88ae07,0x3e73f230,0x3f3419c2,0xbf196cce,0x3e22a6fa,
0xbe83a092,0x3ed7c2d8,0xbca19c5e,0x3f2dce01,0xbf07d380,
0xbdf825c5,0x3e0ac5a7,0xbe18df12,0xbd83fdc4,0x3c5f0600,
0xbe33c5ba,0x3c4c6605,0x3cb693b6,0x3e654f7e,0x3f09928f,
0x3cc6a0be,0x3e178abe,0xbaf26262,0xbee07f96,0x3d771220,
0x3c434c0a,0x3ec36d59,0x3eba8bd1,0xbd88c0b4,0xbe283af3,
0x3e99c544,0xbe707b51,0x3e7304f5,0xbdf8dc3a,0x3ec6eb8a,
0xbd50ca1f,0x3ea8dd7a,0xbf239ab1,0x3e9a388d,0xbeb1cc72,
0xbe074249,0xbd831ba7,0xbcf90ce4,0xbf1d4341,0x3edb858e,
0xbdae7c1c,0xbe8bd586,0x3f00f104,0xbe66f909,0x3df410ad,
0x3e32167a,0x3f15a970,0xbf4ec6c3,0xbdc33ace,0x3a469785,
0xbe8d2128,0xbe22fbcc,0x3eb62218,0x3e8e37bc,0x3f343fdb,
0x3d8537aa,0x3e6a80c2,0xbea5a912,0x3d0937bc,0x3f0b0550,
0xbe84c44d,0x3dfd9210,0x3e4a0b77,0xbe340215,0x3dc77b6b,
0x3e105a4c,0x3f2df793,0x3e28a974,0xbe3a6fe7,0x3d65d8d7,
0xbeed0b15,0x3de2c296,0xbe4e2a3e,0x3e713179,0x3e4061b3,
0xbe073468,0x3e08c4a4,0x3d09f655,0x3c97db31,0xbe8f8fdd,
0x3c6ae098,0x3f0320c8,0xbe90c18f,0xbe0fd8bb,0x3dd0c963,
0x3c8f2a1c,0x3e3840e0,0x3e669ccc,0xbe522654,0x3e8dcd6c,
0xbd824438,0xbc38270b,0x3d170ac4,0xbf8891ff,0xbe5479ee,
0x3e540b6f,0xbd666929,0xbe474121,0x3ec6104d,0x3edcdf70,
0x3e767043,0xbde504bb,0xbe9a5e44,0x3ee139cd,0xbe01f257,
0xbd3ca712,0x3e09a679,0x3eac94c7,0xbf1d734f,0x3e2bdce9,
0xbe7ebc37,0x3d1852aa,0x3d84a555,0xbdd7883a,0xbf2f27a9,
0xbe1179d7,0x3e56334c,0x3e1febc7,0x3c2c2e12,0x3d82fec4,
0x3e6543f3,0x3c96982a,0x3e8788de,0xbe3d3c48,0x3e2a7fb3,
0x3d909a26,0x3e86b324,0x3e94e8dc,0xbea3540f,0xbeec2c26,
0xbdaad39c,0x3f4bcc57,0x3e154b22,0xbcc3d0c7,0xbea5d68c,
0x3e77a3ca,0xbd17b76a,0x3d6998be,0xbe4e0035,0x3db94480,
0x3e26e72a,0x3ebd4e56,0xbd04ccb0,0xbf16512c,0x3e8f89b7,
0x3ee525bf,0xbdd2fd8e,0x3e1154fa,0xbe8a326f,0xbed469ca,
0x3ed75ead,0xbaa336be,0xbd4b9297,0x3c5c0127,0x3d4c92af,
0x3d7e9559,0xbe25fbab,0xbd29fe81,0x3e1757c6,0xbe044911,
0x3ea46347,0xbe532e63,0xbe5bb336,0x3d43be00,0xbeb327d9,
0x3ede4193,0x3e637db8,0xbcdb1d7e,0x3ddac61f,0x3d915595,
0xbebbfd61,0xbddde011,0xbecd3f49,0xbe1ef709,0x3f1260de,
0x3e69a06c,0xbd968cfb,0xbf9b5386,0x3e841c65,0x3ef90693,
0xbbc1013e,0xbeb3fce5,0x3de306c6,0x3dbb8951,0xbdb2f29e,
0xbe432661,0xbdc3dec6,0x3c96e0f1,0x3bec5f75,0x3dff1169,
0xbe821da4,0xbe40123b,0xbd7f906b,0xbbd7e661,0xbec6a85c,
0xbdbd7ed0,0xbd82517d,0xbf2aa2f0,0x3df177ed,0xbd8e7429,
0xbe468f2e,0xbeb123f7,0x3e5aae85,0xbdfa4b6a,0x3e343db4,
0xbdcebfdb,0xbdc6a9e0,0x3dedf701,0xbe53ad32,0x3e8eb4c5,
0xbd1482ff,0xbe58b1b8,0xbd3c1ae3,0x3e7ddcec,0xbee9abcb,
0xbe5bfc0c,0xbe3e959a,0xbea103cf,0x3e7b9237,0xbeb0c047,
0x3ddc4026,0x3d2e38b0,0xbe1f28b3,0xbd59fa01,0x3edde2ce,
0xbca878ec,0x3d0159e6,0xbece0caa,0x3e1444c4,0x3e17184c,
0xbf2c8df6,0xbf46657c,0xbe08d66c,0xbdf47cb2,0xbf31ccde,
0x3e8b30e0,0x3f451923,0xbeb73f4a,0x3f10a170,0x3eb772c2,
0x3f739692,0xbe48328a,0x3e947269,0x3b0f8536,0xbfc569a5,
0x3e4d2f98,0xbf58fdd4,0xbe8be583,0x3e1701c8,0x3eded539,
0xbf2be8e3,0xbf187dfa,0xbea4e208,0xbec6c8c2,0xbe46caab,
0xbea7249d,0xbecb76ed,0xbdef2c04,0x3eb3a67a,0xbea4d101,
0x3e86a555,0x3f1ac202,0xbea571b1,0xbefc2cdc,0xbe1602db,
0xbd365c54,0xbf17b528,0x3cf4550e,0x3f5a2fb3,0x3ed8c9e1,
0xbb84f51f,0x3e475767,0x3dde94a3,0x3e73f79f,0xbee11cb8,
0x3e23f695,0xbecdbf2e,0x3c5dcd10,0xbde4ab56,0xbd3ff3e3,
0x3c136e16,0x3d99105a,0x3e5b5435,0x3ecdded6,0xbd44f286,
0xbf336935,0xbd89dcc9,0x3eb7d0d2,0xbdbbf42c,0x3e12b33d,
0xbeea4702,0x3e4b34f3,0xbe5aa4dd,0x3e6f4e53,0xbead3ca1,
0x3e50de8b,0xbc9b3f93,0xbe69b698,0x3e1db55a,0x3f02344f,
0xbec5440c,0x3da09496,0x3e3a937f,0x3f0d414e,0x3c8d62d1,
0xbde48783,0x3f07a203,0x3da8c14b,0xbd79b246,0xbb8ebefd,
0x3d1b3fd7,0x3dfa8690,0xbd948abb,0xbef5407c,0x3ebfce74,
0xbe2ead74,0xbb9ce3aa,0x3e9ae25a,0xbe8be2d0,0x3e6b7fe3,
0xbb3a7797,0x3d027a98,0xbf4155e3,0xbe75e660,0x3e7bb01c,
0xbece2f4e,0x3cd07dc3,0x3e0c775e,0xbe1331b0,0xbe3b7e03,
0x3be627c9,0x3dc470d2,0xbda5f8dd,0x3eae3ac7,0x3cff32d4,
0x3d9b74db,0x3ce79c58,0x3e853469,0xbe56a32b,0xbdb7c757,
0x3e9f0b84,0xbca0ac97,0x3da0bf2a,0xbdda0cbd,0x3e91ff4e,
0xbd3dd800,0xbeb34575,0x3d50af0c,0x3d8a08ec,0xbd4de2a1,
0xbd10d217,0x3e9a4770,0x3e214f43,0x3f035952,0x3e11c3ae,
0xbe458ac3,0x3e0f91b3,0xbe59a139,0xbd54fddd,0xbf5614e8,
0xbc1c09bc,0xbdc16583,0x3e2f808f,0xbf244c8b,0xbc0e29b9,
0xbe8c6a25,0x3e70740e,0xbf41f060,0x3ce4d117,0x3e71e7d8,
0x3e95f8ce,0xbd27429a,0x3e9e9164,0x3f1ae236,0xbf4971a5,
0xbd8a43c8,0x3e7781ca,0x3fbd5be0,0x3f313822,0xbcc367ba,
0x3e637d2b,0x3db9d93f,0x3ef11ec4,0xbdc215f1,0x3f32a786,
0xbf727566,0x3f1a1b1c,0x3e0e0c8c,0xbe9e020d,0x3c7809c6,
0xbc87060a,0xbd260f9d,0x3cfff05b,0x37e7352d,0x3ebfed94,
0xbe108e77,0x3e3b3159,0xbe6f2c6f,0xbe05e6ee,0x3e07ea0e,
0xbb81d8c0,0x3f09573b,0x3e8d283f,0x3e420fab,0x3c845102,
0x3c24aa6f,0x3d336d90,0xbd3fd851,0xbdedadbc,0x3de004d3,
0xbe74acfa,0x3e9f2622,0x3d887141,0xbcaaa8b2,0xbe2699fb,
0x3e065566,0x3e447bd6,0xbe3e3b8b,0x3e9a0642,0xbecef557,
0xbdc73bc7,0xbeb12755,0xbec459c3,0x3d7b944e,0xbc9d918d,
0xbce4459d,0x3dcddbfb,0xbe02e997,0xbf217046,0x3e0c501f,
0x3c0100bb,0x3d100f60,0x3e3fecd3,0xbf25a3f9,0xbcc7a6e3,
0xbcffd20f,0x3dec8927,0xbe8aea3f,0x3e8c0705,0x3d945500,
0x3e31b0cc,0x3d7ea73d,0x3e93e52f,0x3da853ac,0x3d1b1913,
0xbebbd824,0xbe27cd11,0x3e94e17d,0x3d8eaabf,0xbe6b775c,
0x3c23e836,0xbe8930d0,0x3e9300f5,0xbee86f75,0x3d201805,
0xbefc47a0,0xbd86ec91,0xba8be1a2,0x3e7636ab,0x3cbb3938,
0xbb535569,0xbafb6910,0x3d1af103,0xbd6e7fb8,0xbd8ea6cf,
0xbd5f1356,0x3d08fe79,0x3b91804e,0x3e30d8f4,0xbeb4a642,
0x3e61859e,0xbd660a1e,0x3e5a29c9,0xbdf5bd30,0xbee53d8e,
0xbe5bae31,0x3e2aa8bd,0x3ee40791,0xbdbd9bd2,0x3e1aa14e,
0x3e55e7be,0x3e371fc7,0x3e2ca879,0x3db268eb,0x3e64a4af,
0xbe0e0efb,0xbe376732,0xbd686c93,0x3e7a95d6,0xbec7bed4,
0x3cfaaa4c,0xbd232697,0x3f0348f5,0xbf11d13e,0x3e194d24,
0x3ea6bd9d,0xbe1ddd78,0x3e2cb160,0x3d6d109c,0x3dc626a6,
0x3ecc4d43,0xbeb0cc6e,0x3e77e664,0xbe293d43,0xbd180960,
0xbd638c25,0x3eefd8ab,0xbec410ff,0x3f143678,0x3dd5619a,
0xbefc61e8,0x3c768d0b,0xbf168f69,0x3e37a426,0x3ed27400,
0x3cd33b48,0x3e527b81,0xbf19b8a4,0x3e8928e7,0xbd2c63ae,
0xbd5b8980,0x3d7d8aed,0x3ee5dd4f,0x3b6f8160,0x3ecc6af4,
0xbe49cee0,0x3eac7cc6,0xbe077dd1,0xbd4aaef9,0xbcb7a586,
0x3da8b2d2,0xbe765c1f,0x3d971ef6,0xbda3096a,0xbcac67fe,
0x3d619ea1,0x3e1f6834,0xbd69d2c6,0xbc48d75d,0x3e010dce,
0xbd9902cd,0xbe80c2c7,0xbdc79f79,0x3e0128e6,0x3e4e0c41,
0x3ebcb8ed,0xbdca318c,0xbe963ccd,0x3da99723,0xbe263585,
0x3e335f86,0x3d7eaa96,0x3d8893e7,0x3e3e853a,0x3c84ec0f,
0xbd5b8ed3,0xbce352e4,0x3e5f010f,0xbdb0c167,0x3e187b05,
0xbe1d751d,0xbee822f4,0x3d3a2280,0x3d3885b2,0x3d13e094,
0xbee91f54,0xbe3f1f39,0x3d244363,0x3e310790,0xbe723fad,
0x3a3e8bf7,0xbe3057e8,0xbde4013b,0x3eb04689,0xbcd6bc0e,
0xbb8b88ba,0xbb92281a,0xbf21c4c0,0x3eea4017,0x3e13cf57,
0x3e187fe4,0x3eae536c,0xbf00bbeb,0xbdb73652,0xbe6829d5,
0x3f06b9c5,0xbef9fa71,0xbf2a26c0,0xbe8f8cb6,0x3f055658,
0x3eb0dc5c,0x3e98982a,0xbdc395bd,0x3e8167cb,0xbe75dbe3,
0xbdc6ff51,0xbeb0e9ee,0x3cae388f,0xbee32f34,0xbf1dc5fb,
0xbebad868,0x3df0b392,0x3ee06a88,0xbe5cf1c6,0x3e48aff4,
0xbeabda3d,0x3c50572c,0x3ed59778,0xbe00812c,0x3df40983,
0x3e9ead00,0xbee5f54d,0x3d936955,0x3e2f85ce,0x3f2be964,
0x3bec9242,0x3dbfcd2f,0xbcdf1172,0xbed0c01a,0xbe68d355,
0x3f10fd6a,0xbf0b3476,0xbf1dc759,0x3e545de7,0xbe208d88,
0xbe6de5fe,0x3f005536,0xbf067e10,0xbf288a77,0x3f5cc1f0,
0xbf3acc3b,0xbed8eb39,0xbba4f3fb,0x3eac0c78,0x3d87ad0d,
0x3dcb1837,0x3e04808b,0xbe3ed3b0,0xbe2094fb,0x3ece5e38,
0xbc891407,0x3e24660c,0xbd963eb5,0xbdf42045,0x3ec86062,
0x3ebece4f,0x3cdeed2c,0xbeda232c,0x3e0cc582,0xbdb96af7,
0xbcaf9db6,0xbdeec491,0x3e394d58,0xbdd9dc6b,0x3ea61330,
0x3dcf487a,0xbe0135c9,0xbed4a2b8,0x3ea2d979,0x3d6451e1,
0x3ad1b24a,0x3d5f1c10,0xbe056488,0x3e0633db,0xbb9ed107,
0xbe04e8a7,0xbdcd1770,0xbd1281f4,0x3d9c7eb5,0xbde73eec,
0xbda245e8,0x3d892356,0x3d5ec672,0x3f70d31d,0x3e0a6c47,
0x3e65f0bc,0xbd379101,0xbed6b57a,0x3ea0529f,0x3eb47c5a,
0xbce77d4b,0x3d306adf,0xbe411504,0x3e855796,0xbeac063e,
0xbe8b539b,0x3e93454a,0x3e695103,0x3c1843af,0x3fa6e33b,
0x3d3cb1d8,0x3cc5e390,0x3eb786ae,0xbe942032,0xbe836904,
0x3d60c9bb,0xbee8506f,0xbe07d10c,0x3e984890,0x3e7535a3,
0xbe8c48d6,0xbf21b5b9,0x3e02e0b2,0xbe06f06a,0xbe88464e,
0xbee462dd,0xbdccc00e,0x3eaf633c,0x3ea34d14,0x3e3ffdf9,
0xbe719f5d,0xbea24335,0xbe39fd3c,0x3e695551,0x3eee99fc,
0x3de86937,0x3da5ed0b,0x3f15f3d9,0xbebc3b38,0x3e92a8c8,
0x3e1cf537,0x3f2c566d,0x3e2a479a,0xbcad5203,0xbd61596a,
0xbdb53186,0xbdbeff05,0xbe079779,0xbd9d3929,0xbdf91f8b,
0x3df2f6cc,0x3d9772d7,0x3d86f6a6,0xbdc07a12,0x3e555f44,
0x3e726f05,0xbe8ea840,0xbdd80ce3,0x3cab9973,0xbd78beb3,
0xbe485aed,0x3f509891,0x3e52e0a0,0x3f002cb3,0x3e17fe0a,
0xbb1e1b27,0x3dcde4f4,0x3e77af5c,0x3e9d0540,0x3e5d7419,
0x3e60a1bf,0x3c429d89,0xbdff8c43,0x3f4d64a4,0x3e0023a4,
0x3dc97603,0xbd5d3bb8,0x3d4a5a8d,0x3e97acee,0x3e17ea50,
0x3dafe3d2,0xbd839bad,0x3edb8684,0xbe88734e,0x3da89d62,
0xbe02829d,0x3dc6a02a,0x3e13b3a7,0xbebd5e7c,0x3dffcef1,
0x3e297ec1,0xbdcf1950,0xbe3fa3d2,0xbee5b3bc,0xbee4aa35,
0x3ea3c932,0x3c761a34,0x3de76918,0xbea2f057,0x3e1c564c,
0xbcffa79a,0xbad2031b,0xbe2dfcf2,0xbe0096fe,0x3e31ec00,
0xbe0ddfdd,0xbe94cb32,0xbd8cf320,0x3d0fcce6,0xbf219364,
0x3e6471aa,0x3e78a61b,0x3db2b8a1,0x3e12e495,0x3eeb0a6b,
0xbe5933cf,0x3c941ddc,0xbce046ac,0x3c9fcb50,0x3e76bca0,
0xbf8918b0,0xbd9427e4,0xbe8cb845,0x3e38fb5f,0x3e16df4a,
0xbde9c403,0x3f94dba8,0xbe3819aa,0xbec50090,0xbe6aa0aa,
0x3cc21f5c,0x3f5a91ac,0x3da587cc,0x3f23d1ca,0x3e91cda2,
0x3e13ec5f,0x3ef0d62b,0x3ec74eb4,0x3d67a9b4,0x3f046109,
0x3d88b1a2,0x3f0468db,0xbefc0a03,0x3e3404fb,0x3cdf6a1a,
0x3f03ac92,0x3dff17fe,0x3f563d57,0x3df6916c,0xbf084580,
0x3f0a6f93,0xbe211023,0x3ecb07df,0x3e01f125,0xbf7bb273,
0x3f461404,0x3f78e24b,0x3fa9d35e,0x3e3df41f,0xbe98efb1,
0xbdb718fe,0x3d2b6db2,0xbe720079,0xbc8dfc5b,0x3e09be71,
0x3dc2592c,0xbd618573,0x3e2160d5,0xbe5e504a,0xbf4bdfee,
0xbe8f94f7,0xbd184d9c,0x3c548864,0xbf85469b,0xbdc99b5a,
0xbcbc46e3,0x3c8b5e12,0xbd87f924,0xbe7327c5,0x3dc14191,
0xbdf9ee4d,0x3e027ade,0x3de0512a,0x3da01227,0x3e038467,
0xbe94d67d,0xbcf81404,0xbe78b1d1,0xbd0e44a3,0x3e978ec7,
0xbea1a5a0,0x3f504797,0x3d90287d,0xbcb63fb4,0x3f076f9a,
0x3e2f05ba,0xbe5b2863,0x3d753c25,0xbe0f28c0,0x3ee155ce,
0x3dcddab4,0xbef3352e,0xbf7d43ce,0x3e43eeee,0xbf024cc9,
0xbf57a914,0x3e908733,0xbd67cd50,0xbf1f253c,0xbecce6cc,
0x3d90d58d,0x3c9655dd,0xbe940d3f,0x3eac22dc,0x3c345b55,
0xbf49705d,0xbead8203,0x3f42115e,0x3e8b5aaa,0x3f635fa5,
0x3ebffb4c,0x3c8673ab,0xbc47c7d5,0x3cb183a9,0xbdb1df21,
0xbd785dd9,0x3caa35a1,0x3e3b5e43,0x3e143ec1,0x3f3ee5e4,
0x3ebb3e95,0x3e8428a9,0x3eaaa77a,0x3efac120,0xbd27cfc5,
0x3f044be0,0xbe691f05,0x3e77f736,0xbdbc14fc,0x3d9d31ae,
0xbeae2839,0x3d15eb76,0x3db1decd,0xbc204f6d,0xbdfd7100,
0xbd8c9554,0x3e0cf1f4,0xbe436be1,0xbe33e82c,0x3ed39efe,
0xbb98d574,0xbe477173,0x3f3266d2,0x3f2c0005,0xbf21cf64,
0x3d50b83e,0xbe3547fd,0x3d8ff5bf,0xbe334c44,0x3f95c08d,
0xbed25bcb,0xbf6f91b4,0x3e8edb88,0x3fa20504,0x3f479f32,
0x3f2e646b,0xbf205c14,0xbd633c85,0xbf050bc5,0xbe1ebe3a,
0x3f3f4e83,0x3fa94b2a,0x3fd401ce,0x3f1ca255,0x3e2322d5,
0x3d9603fa,0x3ece3af3,0x3eb13b6d,0xbfb3a14b,0xbf8b0c9f,
0xbd9ad254,0xbd906693,0xbee6f15f,0x3f9469b5,0xbef647e9,
0xbfa2910a,0x3da9defa,0x3eeea651,0xbe4b515b,0xbdf28afc,
0xbe417966,0xbf2076d3,0x3d00a772,0xbf646240,0xbe468d07,
0xbe73da35,0xbea3348b,0xbece4f4f,0x3e1d5660,0x3daf9a66,
0xbeb45ccc,0x3dec2050,0xbeb019e6,0xbdf66fca,0x3e937c10,
0xbeed26c7,0xbf0d3dea,0xbf19eec0,0xbf079822,0xbd813126,
0x3e730f21,0x3eac915a,0xbf3c7b6b,0xbefe86fd,0xbd724590,
0xbdf7d804,0xbe79267d,0xbebd1f98,0x3e186c22,0x3dbf8724,
0xbdeb7f8a,0xbcd690e0,0xbf49bb10,0x3c9c9ec0,0x3dc236cd,
0xbe0e75e7,0xbea06ca1,0xbe02e438,0x3d794e56,0xbec2e9db,
0x3f14d572,0xbc4488df,0xbeea7edc,0xbec2c5ed,0xbb9aa24b,
0xbdfcb0ec,0xbe3490e2,0x3b27305b,0xbdefe2c3,0x3e050bdb,
0x3c106d96,0xbefec257,0x3c9efc19,0xbe09d9e1,0x3e8e428c,
0x3f3f5df5,0x3e34f769,0xbef6d312,0xbe034a4f,0x3e94b28f,
0xbf30a3a1,0xbdfbf590,0xbf0c4769,0x3e30d0e5,0xbea505b6,
0x3e5c52a1,0xbed1b93f,0xbee3aa52,0x3f027b4f,0x3f4d01a5,
0xbe9699ab,0xbe9888f4,0x3f0c5309,0xbb45a8c5,0x3e33109b,
0x3edb097c,0xbf11c0f6,0xbd9c9636,0xbf91bf36,0x3eb15520,
0x3f8e16f3,0xbe4d4a52,0xbe2fa774,0xbe05e37f,0xbef1f498,
0x3eb5ffec,0xbf3bb8b1,0xbf454380,0xbd692e80,0xbf2ae938,
0xbee55b0b,0x3eab2617,0x3ed1cf1c,0x3d26b684,0xbe78ac8a,
0xbcea43b8,0x3d28aa5a,0x3e8aeb46,0x3f4d7112,0xbdda6b27,
0xbd958abe,0x3d7c3b41,0xbf58b362,0x3f125bf7,0x3f17a94a,
0xbda74066,0x3e13e336,0x3e4d6f9d,0xbcd04e8a,0xbd80d4c0,
0x3d9a42d2,0x3e842c2e,0x3f58c00a,0xbeb6ae6a,0x3c27f8e8,
0x3e16add3,0xbe81a5e2,0x3e72cec2,0xbf1fecbe,0xbea8f91e,
0xbe678bb1,0xbe953dc6,0x3ea7a5e7,0x3e5d8b64,0x3d29d9b7,
0xbeb32974,0x3dd089e7,0xbe04154c,0x3e02da33,0xbc6ddff1,
0xbe077925,0x3ee2d187,0xbe4f71fc,0x3e7c70bf,0xbdf1134a,
0xbe6d3336,0xbee0c14b,0xbdff17ff,0x3e7309ce,0x3bdd9e39,
0x3e4f6332,0xbd7b80e6,0xbc279d53,0x3e11eaee,0xbd8436ac,
0x3d936a86,0xbeaa6100,0x3e244905,0x3e1b0e7b,0xbe03545e,
0xbe9b6f0f,0xbc3269c4,0xbb95207c,0xbebb5984,0xbd0b03bc,
0xbe93acbc,0xbe5cb76d,0x3d604e12,0x3e00abad,0x3e8bc4cf,
0x3baf6dd8,0x3b8be3b4,0x3e981fbe,0xbe422bbe,0xbf0b2084,
0xbe4563bb,0x3cda1940,0x3eeb4833,0x3df8b7e8,0x3ec27830,
0xbe34efcc,0x3ea62206,0x3ddacd43,0x3e0f258b,0x3d447797,
0xbe2caf5f,0xbdffbba2,0x3cac8dab,0x3d037f3b,0x3d7f4473,
0x3dbdcd4c,0xbf0cb89a,0xbe155e79,0xbef5e1b2,0xbdd3b6d8,
0x3f022c33,0xbe0504f7,0xbd418a77,0xbe86f130,0xbe1c8bf6,
0x3ed68174,0xbd0e1382,0xbf15e698,0x3e066925,0xbe19d31c,
0x3e0b5f1f,0x3e69fe0c,0x3e1bb3eb,0x3e0965a7,0xbc517484,
0x3eab88c4,0x3e195274,0x3ec99025,0x3ecc90a3,0xbe149199,
0x3ddb254e,0x3d06982d,0x3d89b2fe,0xbe3c3e3e,0x3e847584,
0x3d65ad5e,0xbe0335c9,0xbe21a1e5,0x3dc84d67,0xbe235d32,
0x3da804cb,0xbe461a59,0xbe18ded1,0xbcc2d8ae,0xbeb281a7,
0x3cf4f792,0xbe927338,0x3f0ddc05,0xbf05e741,0xbe2c4994,
0x3c39d4e1,0xbf22477f,0xbe2d3ee8,0xbf914370,0x3f049bc8,
0x3ec89d18,0xbf02e0ce,0x3e903183,0xbb961861,0xbecf1dcc,
0xbe3ace10,0x3dd9f834,0xbec34e99,0x3dc5966e,0xbede6fee,
0x3e5f45fa,0x3f085d1b,0xbc8aa9e3,0x3e9ed8ec,0xbe89cbf1,
0x3e44f9a3,0x3e6a8f60,0xbcce4470,0x3eb73949,0xbeba2cf6,
0x3d5812d2,0x3e67531c,0xbe7ffbdb,0xbd7461de,0x3d6246b0,
0x3d6d99d8,0xbeb30398,0x3d781572,0xbc4b317e,0xbcd68601,
0xbe2709dd,0xbd14866d,0xbe44416e,0x3ccda85f,0x3d3df484,
0xbee42c93,0xbdeb2471,0xbe7d0083,0x3dbdc025,0xbe3e3ae9,
0x3e833ba0,0xbf106bd2,0xbd452543,0x3e26b135,0x3e054fa2,
0x3efdd32f,0x3e32c98b,0xbe85164d,0xbe16fb38,0x3e8059c3,
0xbef61d27,0x3f0647ca,0x3e4d8914,0x3ead707f,0xbe33f10b,
0x3c5423c3,0xbe1941ce,0xbd2d8407,0xbd5fc20d,0x3e261369,
0xbe4cf774,0x3e59bb6f,0x3d1eff32,0x3e35e37d,0x3d3cddc0,
0x3da11945,0x3e9f355e,0xbe2c5549,0xbe900609,0xbe51b53f,
0xbc6bdfe9,0x3d57ca4f,0x3e8f30fc,0x3d8ee491,0xbe863b07,
0x3df6a177,0x3e6d2b5d,0x3e326e99,0xbe5467ef,0x3d957c1f,
0x3e49522f,0x3d0dc087,0x3c0c3dcb,0x3e2b911f,0x3e5d1c98,
0xbdf95632,0x3d107247,0x3e811528,0xbbcb75c0,0x3e451619,
0xbd8528b7,0xbdacdef6,0x3e569c09,0x3ebce922,0xbdbc965d,
0xbeac29c7,0xbe657354,0x3e39873e,0xbe7327d7,0xbcdd4cb5,
0xbed8bc24,0xbf0941d4,0xbeab190b,0x3dfbb755,0x3ec40222,
0xbebcf830,0x3e998dbe,0x3e53afd8,0x3d056567,0x3e5f7b15,
0x3e090641,0xbcbe58ac,0xbeb9e57f,0x3e582ca3,0xbf1ec3ec,
0x3f502ab7,0x3dca4256,0x3e1613fa,0x3e3acc38,0x3d96b0b5,
0x3de103f6,0xbe9fe473,0xbb0297a8,0xbf082f0d,0xbe71381e,
0x3eecda6e,0xbedee077,0xbd97f69b,0x3d24e66d,0x3f1fd697,
0xbe1a40ca,0x3ea7017f,0xbe8a0de4,0xbdcf36e7,0xbe35da66,
0x3dcdff88,0xbcfb16f6,0xbe73dbc8,0xbdbaf798,0x3dd8f44d,
0x3d220db7,0xbeb6b121,0x3d8fe8d0,0x3e1fd7cc,0xbee18ef2,
0x3d9d916e,0xbeaccd62,0xbe532172,0x3f5f9a69,0x3e2f3dfa,
0xbe92f5fc,0x3e8954a6,0xbe3440c0,0x3dbf8875,0xbe83817b,
0x3dd9578d,0x3dac4da8,0x3f8d7700,0xbd9c723d,0xbe8ae92a,
0x3e7dc9e7,0xbc3f8375,0x3cd133b1,0x3d0157d6,0xbc113088,
0xbded0ecd,0xbedc5519,0xbecf7753,0xbdad3d8b,0x3a57364d,
0x3df99ee9,0xbe77dc96,0xbf3a4683,0x3da0a656,0x3ec6a269,
0xbeb77012,0xbee4b22d,0x3da0a896,0xbe7b5a05,0x3dd102cc,
0x3d9c0c40,0xbe896636,0x3dbd8b76,0xbcdc631a,0xbd4a278e,
0x3da5d9d4,0xbee45fdd,0x3e0a4f97,0xbd89d540,0xbd444970,
0x3e9cbce9,0xbe8f8f05,0x3e433ed5,0xbe1f1807,0x3e1136dc,
0xbf03b96a,0x3d026127,0x3e1c7081,0xbe251bf3,0xbccdaeb3,
0x3cb1e995,0x3e8fe79a,0xbd16fa0d,0x3d450715,0xbc91b83e,
0x3e102dba,0x3dd2965b,0x3e5b7fa8,0xbe25b3fb,0xbe0c0654,
0x3d6ac9a3,0xbe003823,0xbcbf560a,0x3de3c10f,0x3e77215d,
0xbeb421d9,0xbe0ab340,0x3e1f5a33,0x3edddf0e,0xbd2833c7,
0xbda59d9e,0x3e21ae91,0x3dad8423,0x3e625695,0xbd9dbd0f,
0x3e35acdc,0xbdb21e87,0xbe1b0e17,0x3eb4ce5e,0xbe831e58,
0x3e25e404,0xbefc1eb1,0xbde0fc6c,0x3e4118d9,0xbe97e192,
0xbef37a77,0xbdf85309,0x3ee137d9,0xbe5054ad,0xbec4f2e1,
0xbf39b5b2,0x3e45e812,0xbcf60cce,0xbf0ab5ee,0x3dfdf895,
0xbdda7085,0xbd58a079,0xbdfa0088,0x3eaea3a0,0xbcdb949a,
0x3f7bf2f0,0x3e84a0b5,0xbcc562d7,0xbe450468,0x3e689f3d,
0xbe3f7fd7,0xbe7d2f92,0x3e80fb16,0x3f06e68b,0x3e8ed84c,
0xbf4b4aa1,0xbf487d8d,0xbe7ac096,0xbac997de,0x3eb03abf,
0x3da7ea6f,0x3e195154,0xbe501edc,0x3e23c8f1,0x3eb534ef,
0x3cb9511b,0xbea9e377,0x3efd7cc1,0xbe2dea82,0x3f113c42,
0x3e98ce28,0xbf4d830f,0x3bba2f5c,0xbc06a882,0xbddfc95e,
0xbd4d944a,0x3e487ce5,0xbec8b19c,0x3ee644c3,0xbd19c1e9,
0x3e2889c3,0x3e2fb08b,0x3cefae25,0x3df810b9,0xbe9f8975,
0xbe92a9e3,0x3e865443,0xbe3ff1da,0x3d88bd2c,0x3dc14df7,
0xbe803f2c,0x3dbbcabc,0xbdaffa94,0xbf1bf092,0x3ea3cd6b,
0xbe6895af,0xbc8bdc07,0xbe35268a,0xbe0d1dec,0x3d39be34,
0x3e11ab4e,0xbc662d5d,0xbf10069a,0x3d51d2c1,0x3d173a09,
0xbdaad2fb,0xbe454844,0x3f154582,0x3eea4871,0xbd6781cb,
0x3e8f2a3b,0x3e6ff729,0x3ce409b7,0xbe3c1e3f,0xbc99d0dd,
0x3e2b2867,0xbe8c771f,0xbe9c865a,0xbea02e58,0x3d5ef1aa,
0xbdd39b2b,0xbd8413f3,0xbeac7e9f,0x3d894e85,0xbecdd11c,
0x3e3ad1d1,0x3d941a39,0x3dd43bfc,0xbe304765,0x3dd783dc,
0x3d193555,0xbe36e482,0x3c6cc7cd,0x3d73ae5e,0xbd064b39,
0x3e5f4fb9,0x3f16c8eb,0xbf2d5c5f,0x3d375c77,0x3e428e64,
0x3f373855,0xbe9fd351,0xbf2814d1,0xbe8ae00b,0x3e15bce8,
0x3de933bb,0x3b60bd5c,0x3f17202c,0xbd8a56fb,0x3f124ef7,
0xbde04c38,0x3ee161b1,0xbf0f8e7a,0xbe888a57,0x3e1617be,
0x3c23bc24,0x3dcbe6d7,0x3dca9cf1,0xbe9ea940,0xbd84db82,
0xbd94e98d,0x3dfbb594,0x3e89b9e5,0xbc9abe1d,0xbf28a47d,
0x3c5ede60,0xbdeb9195,0x3d0e9c18,0xbc2a4e12,0x3ddca94b,
0x3c3a2e66,0x3e0d146c,0x3e24c55c,0x3e123f05,0x3c3388c7,
0xbe012ffc,0xbdd215e4,0x3dab749a,0x3ce4d9f1,0xbe649512,
0xbdfa4591,0x3e5abbcf,0xbdd1ccbb,0xbe909343,0x3eedd2aa,
0x3c9415d1,0x3e8572cf,0x3e20f630,0x3dc25ce4,0x3e9d3543,
0x3e8d3ccd,0xbe4cc534,0xbdf212ba,0x3e24b690,0x3b3b309f,
0xbc28d41a,0x3e2659d8,0xbda3eda3,0xbe0706d5,0x3da4399f,
0xbf1049c7,0x3efcd63d,0xbdfd50da,0xbe46df75,0xba787cf2,
0xbe676545,0xbde95f2f,0x3ea56424,0xbed17d18,0xbd03437b,
0x3d8feb65,0x3dcaa29e,0x3d25cf71,0x3e3e075d,0xbdcafd45,
0xbe9001c7,0xbe663347,0x3e853004,0xbd371496,0x3ea3b83e,
0xbd7569fe,0xbf19a2b8,0x3b901fe5,0x3e86efa6,0x3ebea1d2,
0xbe85e014,0x3de117e9,0x3e10b6b8,0x3eb26845,0xbe3c4c36,
0x3c63c756,0xbe2616c1,0xbe13a77f,0xbdc85173,0x3eeeccea,
0x3ec95fec,0x3ccff799,0xbee94622,0xbb428178,0xbec27fef,
0x3e811f94,0x3d0acded,0x3e8b5ac1,0x3dce2e50,0x3df3b2c3,
0x3ef6f522,0xbe1eca76,0x3f0ddd7e,0x3f0765c4,0xbdb9020e,
0xbacf23ed,0x3db86578,0xbde61b8d,0xbee8a52d,0xbe1511b5,
0xbec9623e,0x3da2afb1,0xbe239b0e,0xbe9513c7,0xbe2746a8,
0x3e81f65d,0xbe1e4b08,0x3fb6465a,0xbecffd5a,0xbeb171e4,
0xbf30851a,0x3e1ef7c8,0xbf8215a1,0xbff2ca73,0xbe40ab85,
0xbfdae392,0x3f89848b,0xbe6d1ece,0xbc8b689e,0xbe966e8f,
0x3e882707,0x3fb0c57e,0xbea4343f,0xbf842f3a,0x3f17f4b4,
0x401545d4,0xbff574c9,0x3ee0c5c9,0xbcb5d363,0x3f4958ee,
0x3f297113,0x3fe822c3,0x3f9c7379,0x3f991e10,0x3f1a69d1,
0xbe41ead9,0xc01e3b0d,0xbfde265e,0xbf3df648,0xbf359127,
0xbf5239d1,0xbeff6c34,0x3f50ba51,0xbfb4a2a0,0xbf5a4289,
0x3fe1b1a7,0xbf279209,0x3bd992ff,0xc03fa365,0xbff6f40e,
0xbfa47a95,0x3f3dd995,0xbc630240,0x3aa16df6,0x3f45a514,
0x3f671726,0xbffe8ad1,0x3f5f51ea,0x3f32f00b,0x3f9d20eb,
0xbd62e456,0x3e8e60d5,0xbfa29000,0x40022357,0x3d86ae98,
0xbf6d3fb0,0x3e8a7d80,0xbfe483c1,0x40317a7e,0xbe14a160,
0xbee452f8,0xbf004208,0xbfa465ac,0x400794de,0x3f98a947,
0x3fee5b97,0x3e14fc9b,0x3c97aa73,0x3f8451a4,0x3e051baa,
0xbf8837d1,0xc019ae8a,0xbd64787f,0x3e3c7e64,0xbf0ac907,
0x4032a79d,0x3f80d273,0xbf04331d,0x3eaf3304,0x3c475155,
0xbff470a1,0x3ea691f1,0xbfa05911,0xbcdca286,0x3e545adf,
0x3d8aefce,0x40663724,0xbe9fe400,0x3f935df2,0x3f65df8c,
0xbeaab61a,0xbec90c75,0xbddf2060,0xbea48801,0xbfb1a974,
0x3f9aef30};

uint32_t bias_array[118] = {0xbe076cda,0x3ebea3dc,0x3f86d2e1,0x3ecacdaf,0x3f080822,
0x3e1b2ae0,0xbb155346,0x3c536e39,0x3ee79f06,0x3dbcc54c,
0xbeaeb927,0x3e451ac0,0x3d92520a,0x3d7b43e6,0x3e350431,
0xbe116e92,0xbd8026fb,0x3e3f5e9e,0x3dd0365a,0x3e543356,
0xbe444edf,0x3c639590,0x3ebef9c2,0x3d01802e,0xbe7b26a0,
0xbdc19a17,0x3dceb17a,0xbe5661e7,0xbe2afe3c,0x3e4f4e3f,
0x3efa76e4,0x3db0c209,0x3f225449,0xbddd2760,0x3d3d632b,
0x3e10cbfc,0xbd62e928,0xbe3808d3,0x3d3cde81,0x3d517bca,
0xbe921e6e,0xbdc67086,0x3c589ef9,0xbdd33750,0xbe5ec28d,
0x3dc04563,0x3eb0142d,0xbe2233be,0xbe076305,0x3f798613,
0x3f4fb48f,0xbc3bb312,0x3f2fccfe,0x3d18fe9d,0xbe118e91,
0xbf16ad1d,0x3ec7660c,0xbe2c0fba,0x3ce08b9c,0xbf02ed4d,
0x3ecb5e47,0x3e91bf4a,0xbe20b727,0x3f1e4eca,0xbea9fa46,
0xbe984ba2,0xbd94eab8,0x3e7cc99c,0x3d9fd681,0xbe1c72a2,
0x3d539897,0x3d987bde,0xbebd4bd7,0xbd49b639,0xbe6ef419,
0x3eea0b19,0xbe99a54a,0xbe5c1dfa,0xbe448652,0x3ed51f60,
0xbe1aa579,0xbd19d59e,0xbdce2c76,0x3d2bd11f,0xbda00d8e,
0xbeb5ee25,0xbd99428b,0xbf001b9d,0xbcd7fbab,0x3e1eadb4,
0xbe4b9791,0xbd95fea9,0xbe731b2a,0xbe4fed71,0x3dcb35ee,
0x3d4c9d15,0xbda133b6,0x3e5ae153,0xbdc94507,0x3dcb2593,
0x3b807333,0xbd6e7e0f,0x3d7bc1d3,0xbcc89337,0xbdfbdabc,
0x3ddede84,0x3e2f6b61,0xbeceebc3,0x3d5abf06,0x3d972653,
0xbf3ab121,0x3cf3da7f,0xbca86fd5,0xbb741274,0xbf7ceb0b,
0xbf034ed6,0xbcd0219a,0xbf171565};extern uint32_t bias_array[118];extern uint32_t weight_array[4256];